#ifndef MODELDATA_H
#define MODELDATA_H
inline const unsigned char gesture_model_0_tflite[] = {
  0x20, 0x00, 0x00, 0x00, 0x54, 0x46, 0x4c, 0x33, 0x00, 0x00, 0x00, 0x00,
  0x14, 0x00, 0x20, 0x00, 0x1c, 0x00, 0x18, 0x00, 0x14, 0x00, 0x10, 0x00,
  0x0c, 0x00, 0x00, 0x00, 0x08, 0x00, 0x04, 0x00, 0x14, 0x00, 0x00, 0x00,
  0x1c, 0x00, 0x00, 0x00, 0x9c, 0x00, 0x00, 0x00, 0x1c, 0x01, 0x00, 0x00,
  0x70, 0x0c, 0x00, 0x00, 0x80, 0x0c, 0x00, 0x00, 0xc4, 0x21, 0x00, 0x00,
  0x03, 0x00, 0x00, 0x00, 0x01, 0x00, 0x00, 0x00, 0x10, 0x00, 0x00, 0x00,
  0x00, 0x00, 0x0a, 0x00, 0x10, 0x00, 0x0c, 0x00, 0x08, 0x00, 0x04, 0x00,
  0x0a, 0x00, 0x00, 0x00, 0x0c, 0x00, 0x00, 0x00, 0x1c, 0x00, 0x00, 0x00,
  0x3c, 0x00, 0x00, 0x00, 0x0f, 0x00, 0x00, 0x00, 0x73, 0x65, 0x72, 0x76,
  0x69, 0x6e, 0x67, 0x5f, 0x64, 0x65, 0x66, 0x61, 0x75, 0x6c, 0x74, 0x00,
  0x01, 0x00, 0x00, 0x00, 0x04, 0x00, 0x00, 0x00, 0x64, 0xff, 0xff, 0xff,
  0x16, 0x00, 0x00, 0x00, 0x04, 0x00, 0x00, 0x00, 0x08, 0x00, 0x00, 0x00,
  0x6f, 0x75, 0x74, 0x70, 0x75, 0x74, 0x5f, 0x30, 0x00, 0x00, 0x00, 0x00,
  0x01, 0x00, 0x00, 0x00, 0x04, 0x00, 0x00, 0x00, 0x72, 0xf3, 0xff, 0xff,
  0x04, 0x00, 0x00, 0x00, 0x10, 0x00, 0x00, 0x00, 0x6b, 0x65, 0x72, 0x61,
  0x73, 0x5f, 0x74, 0x65, 0x6e, 0x73, 0x6f, 0x72, 0x5f, 0x31, 0x34, 0x30,
  0x00, 0x00, 0x00, 0x00, 0x03, 0x00, 0x00, 0x00, 0x5c, 0x00, 0x00, 0x00,
  0x2c, 0x00, 0x00, 0x00, 0x04, 0x00, 0x00, 0x00, 0xb8, 0xff, 0xff, 0xff,
  0x1a, 0x00, 0x00, 0x00, 0x04, 0x00, 0x00, 0x00, 0x13, 0x00, 0x00, 0x00,
  0x43, 0x4f, 0x4e, 0x56, 0x45, 0x52, 0x53, 0x49, 0x4f, 0x4e, 0x5f, 0x4d,
  0x45, 0x54, 0x41, 0x44, 0x41, 0x54, 0x41, 0x00, 0xdc, 0xff, 0xff, 0xff,
  0x19, 0x00, 0x00, 0x00, 0x04, 0x00, 0x00, 0x00, 0x13, 0x00, 0x00, 0x00,
  0x6d, 0x69, 0x6e, 0x5f, 0x72, 0x75, 0x6e, 0x74, 0x69, 0x6d, 0x65, 0x5f,
  0x76, 0x65, 0x72, 0x73, 0x69, 0x6f, 0x6e, 0x00, 0x08, 0x00, 0x0c, 0x00,
  0x08, 0x00, 0x04, 0x00, 0x08, 0x00, 0x00, 0x00, 0x18, 0x00, 0x00, 0x00,
  0x04, 0x00, 0x00, 0x00, 0x13, 0x00, 0x00, 0x00, 0x6d, 0x69, 0x6e, 0x5f,
  0x72, 0x75, 0x6e, 0x74, 0x69, 0x6d, 0x65, 0x5f, 0x76, 0x65, 0x72, 0x73,
  0x69, 0x6f, 0x6e, 0x00, 0x1b, 0x00, 0x00, 0x00, 0x50, 0x0b, 0x00, 0x00,
  0x48, 0x0b, 0x00, 0x00, 0x28, 0x0b, 0x00, 0x00, 0x0c, 0x0b, 0x00, 0x00,
  0xf8, 0x0a, 0x00, 0x00, 0xcc, 0x0a, 0x00, 0x00, 0x4c, 0x0a, 0x00, 0x00,
  0xfc, 0x09, 0x00, 0x00, 0x6c, 0x09, 0x00, 0x00, 0x3c, 0x09, 0x00, 0x00,
  0x0c, 0x08, 0x00, 0x00, 0xcc, 0x07, 0x00, 0x00, 0xfc, 0x03, 0x00, 0x00,
  0xac, 0x03, 0x00, 0x00, 0xfc, 0x00, 0x00, 0x00, 0xf4, 0x00, 0x00, 0x00,
  0xec, 0x00, 0x00, 0x00, 0xe4, 0x00, 0x00, 0x00, 0xdc, 0x00, 0x00, 0x00,
  0xd4, 0x00, 0x00, 0x00, 0xcc, 0x00, 0x00, 0x00, 0xc4, 0x00, 0x00, 0x00,
  0xbc, 0x00, 0x00, 0x00, 0xb4, 0x00, 0x00, 0x00, 0x94, 0x00, 0x00, 0x00,
  0x74, 0x00, 0x00, 0x00, 0x04, 0x00, 0x00, 0x00, 0x86, 0xf4, 0xff, 0xff,
  0x04, 0x00, 0x00, 0x00, 0x60, 0x00, 0x00, 0x00, 0x0c, 0x00, 0x00, 0x00,
  0x08, 0x00, 0x0e, 0x00, 0x08, 0x00, 0x04, 0x00, 0x08, 0x00, 0x00, 0x00,
  0x10, 0x00, 0x00, 0x00, 0x28, 0x00, 0x00, 0x00, 0x00, 0x00, 0x06, 0x00,
  0x08, 0x00, 0x04, 0x00, 0x06, 0x00, 0x00, 0x00, 0x04, 0x00, 0x00, 0x00,
  0x01, 0x00, 0x00, 0x00, 0xeb, 0x03, 0x00, 0x00, 0x0c, 0x00, 0x18, 0x00,
  0x14, 0x00, 0x10, 0x00, 0x0c, 0x00, 0x04, 0x00, 0x0c, 0x00, 0x00, 0x00,
  0x90, 0x23, 0x1c, 0x91, 0xe1, 0x42, 0xe3, 0x7e, 0x02, 0x00, 0x00, 0x00,
  0x02, 0x00, 0x00, 0x00, 0x04, 0x00, 0x00, 0x00, 0x06, 0x00, 0x00, 0x00,
  0x32, 0x2e, 0x31, 0x39, 0x2e, 0x30, 0x00, 0x00, 0xf2, 0xf4, 0xff, 0xff,
  0x04, 0x00, 0x00, 0x00, 0x10, 0x00, 0x00, 0x00, 0x00, 0x00, 0x00, 0x00,
  0x00, 0x00, 0x00, 0x00, 0x00, 0x00, 0x00, 0x00, 0x00, 0x00, 0x00, 0x00,
  0x0e, 0xf5, 0xff, 0xff, 0x04, 0x00, 0x00, 0x00, 0x10, 0x00, 0x00, 0x00,
  0x31, 0x2e, 0x31, 0x34, 0x2e, 0x30, 0x00, 0x00, 0x00, 0x00, 0x00, 0x00,
  0x00, 0x00, 0x00, 0x00, 0x20, 0xe1, 0xff, 0xff, 0x24, 0xe1, 0xff, 0xff,
  0x28, 0xe1, 0xff, 0xff, 0x2c, 0xe1, 0xff, 0xff, 0x30, 0xe1, 0xff, 0xff,
  0x34, 0xe1, 0xff, 0xff, 0x38, 0xe1, 0xff, 0xff, 0x3c, 0xe1, 0xff, 0xff,
  0x40, 0xe1, 0xff, 0xff, 0x4e, 0xf5, 0xff, 0xff, 0x04, 0x00, 0x00, 0x00,
  0xa0, 0x02, 0x00, 0x00, 0xdb, 0xc2, 0xc4, 0xb2, 0xd2, 0xdf, 0xdf, 0xc1,
  0xf0, 0xba, 0xd4, 0xcf, 0xfd, 0x98, 0x09, 0xf2, 0xf1, 0xc3, 0xf8, 0x95,
  0x21, 0xeb, 0xd0, 0xd6, 0x07, 0xb6, 0x0c, 0xf4, 0xc5, 0xc9, 0x09, 0x94,
  0x29, 0xf0, 0xeb, 0x81, 0x0d, 0x8f, 0x65, 0x01, 0xca, 0x83, 0x04, 0x26,
  0xfb, 0xf7, 0x3c, 0x81, 0x01, 0x16, 0xfb, 0xe3, 0x29, 0x95, 0x01, 0x18,
  0xf3, 0xe3, 0x38, 0x90, 0xf1, 0x21, 0xf7, 0xe9, 0x2a, 0xa4, 0xdc, 0x11,
  0xf3, 0xf4, 0x20, 0xb0, 0xdb, 0x0d, 0x02, 0xea, 0x1c, 0xb9, 0xed, 0x10,
  0xeb, 0xd5, 0x15, 0xcb, 0x0f, 0x81, 0xc5, 0xd1, 0x13, 0x39, 0x19, 0xcc,
  0xf5, 0xf2, 0x00, 0x2e, 0x13, 0xf6, 0xe8, 0x08, 0xfc, 0x24, 0xf7, 0x2d,
  0x19, 0x1d, 0x06, 0x2c, 0x0c, 0x4e, 0x04, 0xfe, 0x00, 0x37, 0xde, 0x6b,
  0x16, 0x0e, 0xed, 0x40, 0xce, 0x66, 0x01, 0x09, 0xdc, 0x50, 0x81, 0xef,
  0xe6, 0x4c, 0x24, 0xea, 0xb5, 0x0d, 0xdd, 0x37, 0x25, 0xe2, 0xbc, 0x02,
  0xe9, 0x36, 0x20, 0xd4, 0x00, 0xe4, 0xda, 0x10, 0xfe, 0xe8, 0x10, 0xf8,
  0xee, 0xf9, 0x09, 0xd6, 0x20, 0xe0, 0xf3, 0xcd, 0xf1, 0xb8, 0x64, 0xda,
  0xf9, 0x9d, 0xef, 0xa0, 0xf6, 0xe7, 0x30, 0xe4, 0x20, 0x7f, 0x08, 0xdf,
  0x16, 0xef, 0x24, 0x67, 0xfd, 0xf9, 0x0b, 0xe5, 0x29, 0x51, 0xf4, 0xee,
  0xfc, 0xe5, 0x08, 0x40, 0x16, 0xfd, 0xee, 0x0a, 0x05, 0x37, 0x03, 0xf5,
  0xe3, 0x0f, 0xf7, 0x24, 0x16, 0xff, 0xea, 0x13, 0xc5, 0x24, 0x84, 0x66,
  0x18, 0x7f, 0x02, 0x33, 0xaf, 0x28, 0x03, 0x4d, 0xfd, 0x1a, 0xe2, 0x2c,
  0x1c, 0x3e, 0xeb, 0x02, 0x00, 0x04, 0x2b, 0x41, 0xee, 0xf1, 0x14, 0xf7,
  0x5f, 0x46, 0x03, 0xab, 0x20, 0x02, 0x70, 0x4c, 0x07, 0x9b, 0x4c, 0xf7,
  0x47, 0x5b, 0x16, 0x8b, 0xdc, 0xc8, 0xf2, 0x83, 0xfd, 0x81, 0xb2, 0xc4,
  0xfb, 0xb4, 0xfa, 0xb2, 0xbc, 0xef, 0x20, 0xc8, 0xf2, 0xa1, 0x9e, 0xf3,
  0x10, 0xf0, 0x04, 0xd8, 0xaa, 0xef, 0x4a, 0xe8, 0xf5, 0xb3, 0xaa, 0xfb,
  0x3e, 0xd7, 0xaa, 0xc7, 0xde, 0xf8, 0x35, 0x92, 0x9e, 0xf7, 0xed, 0x2e,
  0x25, 0x04, 0xee, 0x81, 0xfa, 0x26, 0x13, 0x02, 0xe0, 0xa8, 0xf0, 0x18,
  0x1f, 0x03, 0xf4, 0xb9, 0x1a, 0x11, 0x11, 0x03, 0x02, 0xc7, 0x19, 0x1c,
  0x14, 0x01, 0x0a, 0xe7, 0x18, 0x02, 0x21, 0xf2, 0x26, 0xec, 0x44, 0x0f,
  0x2c, 0xf3, 0x3f, 0x04, 0x2a, 0x5b, 0x36, 0x91, 0xa1, 0x1e, 0x46, 0x2f,
  0x2f, 0xc0, 0x9b, 0xf4, 0x24, 0x1b, 0x40, 0xa4, 0xb8, 0x1a, 0x3a, 0x3f,
  0x75, 0xe4, 0xf6, 0x0b, 0x40, 0x43, 0x7f, 0xf1, 0x09, 0x0c, 0x1d, 0x2b,
  0x6e, 0x10, 0x05, 0x09, 0x19, 0x49, 0x7c, 0x28, 0x05, 0xdd, 0x12, 0x7f,
  0x04, 0xff, 0xff, 0xf9, 0x18, 0x71, 0x01, 0x04, 0xfd, 0xdf, 0x2e, 0x68,
  0xfa, 0x04, 0x07, 0xd6, 0x29, 0x68, 0xea, 0x0d, 0x06, 0xc3, 0x10, 0x5b,
  0xfe, 0x25, 0x26, 0xc3, 0x21, 0x5c, 0xf4, 0x2f, 0x46, 0xc0, 0x1a, 0x54,
  0xf7, 0x1e, 0x49, 0xba, 0x52, 0x3f, 0x59, 0x1d, 0xee, 0xc1, 0x36, 0x48,
  0x34, 0xf5, 0xff, 0xff, 0x07, 0x38, 0x39, 0xda, 0xff, 0xf3, 0x22, 0x12,
  0x1b, 0xe8, 0xfd, 0x2e, 0xf9, 0x1c, 0x25, 0x14, 0xfc, 0x3d, 0xf5, 0x29,
  0x13, 0x1e, 0x19, 0x5b, 0xdd, 0x21, 0x13, 0x7f, 0x11, 0x58, 0xf4, 0x07,
  0x00, 0x67, 0x2f, 0x74, 0xdd, 0xf6, 0x00, 0x16, 0x25, 0x7f, 0xcc, 0xf1,
  0xfe, 0x1c, 0x13, 0x71, 0xe7, 0xf4, 0xd6, 0x0d, 0x28, 0x64, 0xd0, 0xd9,
  0xdf, 0xe8, 0xff, 0x48, 0xf0, 0xab, 0xd5, 0xfc, 0x02, 0x48, 0xf1, 0x94,
  0xa8, 0xcb, 0x10, 0x33, 0x28, 0xbe, 0x27, 0xfe, 0xde, 0x7d, 0x17, 0xd3,
  0x0c, 0xf2, 0xed, 0x51, 0x28, 0xc5, 0x2a, 0x24, 0xec, 0x14, 0x26, 0xd4,
  0x24, 0xfe, 0xe5, 0xfc, 0x0c, 0xef, 0x29, 0x01, 0xfe, 0xda, 0x11, 0xf8,
  0x32, 0x0c, 0x07, 0xa0, 0xe7, 0xeb, 0x53, 0x15, 0x27, 0x81, 0xfe, 0xf8,
  0xda, 0x02, 0xe8, 0xdf, 0x00, 0xf3, 0xde, 0xf3, 0xfd, 0xe1, 0x05, 0xe9,
  0xf0, 0xe9, 0xe3, 0xd1, 0x10, 0xfa, 0xf6, 0xfd, 0xf5, 0xc1, 0xfa, 0xfa,
  0x11, 0x02, 0xe7, 0xaf, 0x0a, 0xfa, 0x21, 0x00, 0xfa, 0x9d, 0x04, 0xfe,
  0x3a, 0xed, 0xe2, 0x81, 0xa2, 0x6b, 0x2b, 0x45, 0xc4, 0x2f, 0xb7, 0x3e,
  0x14, 0x11, 0xe0, 0x28, 0x9c, 0x62, 0x18, 0xf9, 0xf1, 0x34, 0x89, 0x5b,
  0x55, 0xf7, 0x00, 0x10, 0x95, 0x51, 0x36, 0xfe, 0xff, 0x1f, 0x82, 0x35,
  0x48, 0x0d, 0x05, 0x13, 0x81, 0x5d, 0x3a, 0x09, 0x0d, 0x18, 0xb3, 0x8a,
  0xf7, 0xf8, 0x62, 0x56, 0xcf, 0xb5, 0xc5, 0xd6, 0x51, 0x52, 0xbf, 0xfa,
  0xdc, 0xea, 0x5a, 0x3a, 0xff, 0x00, 0xf2, 0xec, 0x34, 0x11, 0x09, 0x17,
  0xf7, 0xff, 0x1a, 0x02, 0x2d, 0x52, 0xd3, 0x04, 0xea, 0x13, 0x7f, 0x7f,
  0xd3, 0xf5, 0x8c, 0xfd, 0xfa, 0xf7, 0xff, 0xff, 0x04, 0x00, 0x00, 0x00,
  0x40, 0x00, 0x00, 0x00, 0x0a, 0x00, 0x00, 0x00, 0x0a, 0x01, 0x00, 0x00,
  0xdc, 0xff, 0xff, 0xff, 0x52, 0xff, 0xff, 0xff, 0x7f, 0xff, 0xff, 0xff,
  0xbc, 0xff, 0xff, 0xff, 0x58, 0x00, 0x00, 0x00, 0x68, 0xff, 0xff, 0xff,
  0x1f, 0xff, 0xff, 0xff, 0x9a, 0x01, 0x00, 0x00, 0xce, 0xff, 0xff, 0xff,
  0x02, 0xff, 0xff, 0xff, 0x5a, 0x00, 0x00, 0x00, 0x88, 0xff, 0xff, 0xff,
  0xc0, 0xfc, 0xff, 0xff, 0xad, 0x00, 0x00, 0x00, 0x46, 0xf8, 0xff, 0xff,
  0x04, 0x00, 0x00, 0x00, 0xc0, 0x03, 0x00, 0x00, 0xcf, 0xf5, 0x2d, 0x0e,
  0xe4, 0x00, 0x02, 0xfb, 0x05, 0x2b, 0x81, 0xf4, 0x26, 0xee, 0x37, 0x00,
  0xd6, 0xd9, 0xf9, 0x1e, 0xca, 0xf8, 0xf2, 0x17, 0x18, 0x46, 0x83, 0x0a,
  0x25, 0xd7, 0x1d, 0xe8, 0xc6, 0xd1, 0xd1, 0x1a, 0x9f, 0xfc, 0xd9, 0x0e,
  0x28, 0x5b, 0x9a, 0x13, 0x38, 0xef, 0x04, 0xd3, 0xdc, 0xca, 0xa6, 0x08,
  0xbf, 0xe1, 0xe1, 0x2e, 0x42, 0x58, 0x9d, 0x23, 0x20, 0x10, 0xe3, 0xc2,
  0xe8, 0xe5, 0x95, 0x12, 0xbf, 0xe0, 0xff, 0x51, 0x50, 0x67, 0xb6, 0x1e,
  0x2a, 0x12, 0xe4, 0xbe, 0xf4, 0xda, 0xd2, 0xcd, 0x81, 0x08, 0x18, 0x15,
  0x17, 0x07, 0x32, 0xda, 0x15, 0xdd, 0xdf, 0xdb, 0xe8, 0x0a, 0xf3, 0x03,
  0x97, 0xef, 0x12, 0xf3, 0xfa, 0xfc, 0x10, 0xd3, 0x00, 0xde, 0xed, 0xfe,
  0xeb, 0x00, 0x0f, 0x20, 0xaa, 0xb1, 0x17, 0xfa, 0xd9, 0xe3, 0xf9, 0xe7,
  0xe2, 0x0b, 0xdf, 0xeb, 0xe3, 0x16, 0x25, 0x28, 0xc9, 0x88, 0x1a, 0xee,
  0xe0, 0xd9, 0xe7, 0xf8, 0xd6, 0x2e, 0xee, 0xf4, 0xe6, 0x11, 0x4e, 0x30,
  0xfa, 0x91, 0x0a, 0xe5, 0xe0, 0xd7, 0xbd, 0x24, 0xe3, 0x1e, 0xfc, 0xef,
  0xef, 0xb2, 0x37, 0x00, 0x0f, 0x09, 0x11, 0xde, 0xbc, 0xcc, 0xf5, 0x18,
  0xfe, 0x26, 0xfb, 0x46, 0x04, 0xda, 0x17, 0x10, 0x03, 0x10, 0x0a, 0xe6,
  0xd2, 0xe5, 0xf2, 0x26, 0xf4, 0x1a, 0xfa, 0x1b, 0xfa, 0xdd, 0xe1, 0xfd,
  0xed, 0xf3, 0xfe, 0xf4, 0xcd, 0xfd, 0xed, 0x00, 0x0e, 0xfc, 0xe9, 0x20,
  0xf6, 0xd9, 0x9e, 0x0f, 0x02, 0xf2, 0x12, 0xf3, 0xdc, 0x19, 0xe2, 0xf9,
  0x20, 0xfc, 0xe2, 0x02, 0x09, 0xe2, 0x81, 0x0a, 0xea, 0xce, 0x0c, 0x00,
  0xcf, 0x34, 0xd9, 0xd6, 0x0e, 0x09, 0xc0, 0x11, 0x41, 0xef, 0xd3, 0xf1,
  0xe5, 0xb3, 0x3b, 0xe2, 0x25, 0xff, 0xf3, 0xef, 0x58, 0x95, 0xe8, 0xe9,
  0x1f, 0xe8, 0xe5, 0x01, 0xcd, 0xdd, 0x26, 0xe2, 0x07, 0x0f, 0x1e, 0xea,
  0x35, 0xb8, 0xf8, 0xf2, 0xe3, 0xff, 0x03, 0x02, 0xca, 0xe0, 0x12, 0xf2,
  0x0e, 0x09, 0x0a, 0x00, 0x0f, 0xbe, 0x0c, 0x08, 0xb0, 0x19, 0x0c, 0x01,
  0xec, 0xe4, 0x12, 0xfe, 0xea, 0x18, 0x23, 0x13, 0xea, 0xa2, 0x1b, 0x17,
  0xa3, 0x07, 0xf0, 0xe5, 0xfe, 0xe9, 0xef, 0xf5, 0xe8, 0x0a, 0x09, 0x2c,
  0xb8, 0x81, 0x17, 0x0f, 0x0e, 0x11, 0xc1, 0xfd, 0x0d, 0xcb, 0x1e, 0xf5,
  0x05, 0x45, 0xc7, 0x81, 0xb8, 0xcc, 0xf9, 0x5c, 0x09, 0x08, 0xd3, 0x06,
  0xf0, 0xfd, 0x15, 0xed, 0xf7, 0x0f, 0xc0, 0xa3, 0xd4, 0xf2, 0x01, 0x25,
  0xf9, 0x0a, 0xd7, 0x17, 0xeb, 0x18, 0xed, 0xf4, 0x01, 0xef, 0xbc, 0xbf,
  0x0f, 0xfd, 0x08, 0x2c, 0x37, 0x06, 0xcc, 0x18, 0xfe, 0x1d, 0x04, 0xcf,
  0x01, 0xeb, 0x98, 0xd6, 0x28, 0x10, 0x0c, 0x07, 0x27, 0xfc, 0x8d, 0x2d,
  0x00, 0x4c, 0xe6, 0xfb, 0x1f, 0xe8, 0x8b, 0xfd, 0x75, 0x1c, 0xfb, 0xf2,
  0xa0, 0x2b, 0xa2, 0x08, 0xff, 0x04, 0x95, 0xcc, 0xea, 0x0e, 0x19, 0xdd,
  0xa4, 0xbd, 0x0e, 0x81, 0xb0, 0xf5, 0xf8, 0x4c, 0x0c, 0x00, 0x99, 0xd8,
  0xe8, 0x1d, 0xfa, 0xe3, 0xbf, 0xe9, 0xe2, 0xa7, 0xde, 0xd8, 0xfd, 0x51,
  0x10, 0xeb, 0xa8, 0xd9, 0xef, 0x1e, 0xf5, 0xea, 0xec, 0xfa, 0xcb, 0xf6,
  0xf7, 0xd2, 0x51, 0x2a, 0x10, 0x01, 0xc1, 0x26, 0x22, 0x2e, 0x14, 0xde,
  0xf6, 0x3d, 0xa9, 0xe9, 0x01, 0xfe, 0x62, 0x6a, 0xe0, 0xf9, 0xa3, 0x77,
  0x24, 0x53, 0x59, 0xde, 0xff, 0x6e, 0xa1, 0x00, 0x12, 0x81, 0xe8, 0xf6,
  0x00, 0xfa, 0xf0, 0x98, 0x02, 0xe4, 0xff, 0x2d, 0x20, 0xa7, 0x00, 0x06,
  0x11, 0xd3, 0xd8, 0xeb, 0xfa, 0xe6, 0xf6, 0xd2, 0xf7, 0x00, 0xf3, 0x0d,
  0x20, 0xf0, 0xf5, 0x0b, 0x11, 0x0b, 0xe3, 0xfe, 0xe8, 0xfe, 0xfd, 0xd5,
  0xf6, 0xfb, 0x04, 0x04, 0x1c, 0x04, 0x06, 0x08, 0xd8, 0x36, 0xcc, 0x06,
  0xd3, 0x01, 0xfc, 0xf5, 0x19, 0x14, 0x00, 0xdb, 0x09, 0x27, 0x0e, 0x0a,
  0xd5, 0x5f, 0xf5, 0x0d, 0xbf, 0x1a, 0x10, 0x2e, 0x20, 0x3d, 0x09, 0xc3,
  0xe2, 0x3e, 0x13, 0x0b, 0xd4, 0xf9, 0x78, 0xac, 0xc1, 0x04, 0xad, 0xb7,
  0x35, 0xf5, 0x0a, 0xda, 0x1e, 0xf6, 0xe0, 0xc8, 0xcf, 0x15, 0x20, 0xc1,
  0xb2, 0xe5, 0xd2, 0xe8, 0x32, 0x06, 0x44, 0xfc, 0x34, 0xfd, 0xf8, 0x98,
  0xc5, 0x2d, 0xdf, 0xc2, 0xf1, 0xf9, 0xde, 0xf4, 0x3e, 0x09, 0x21, 0x2f,
  0x22, 0x39, 0x05, 0xbd, 0xf0, 0x33, 0x9c, 0xa7, 0x22, 0xde, 0xff, 0xdc,
  0x0d, 0x30, 0xfb, 0x4d, 0xf1, 0x0e, 0x03, 0xfa, 0xe6, 0x38, 0xaa, 0xa2,
  0x53, 0xf9, 0xf8, 0xdb, 0xae, 0x1f, 0xdc, 0x7f, 0xc8, 0x38, 0x15, 0x65,
  0x06, 0x0b, 0x03, 0x0b, 0xee, 0xde, 0xfe, 0x22, 0x81, 0xaa, 0xc3, 0x14,
  0xd1, 0x09, 0xd6, 0x20, 0xf8, 0x0f, 0xf8, 0xf6, 0xea, 0xf3, 0xf0, 0x2d,
  0xc1, 0xcc, 0xd7, 0x0f, 0xf1, 0xf7, 0xea, 0x19, 0xeb, 0x15, 0xfa, 0xf6,
  0xfb, 0xff, 0xf0, 0x1e, 0xe7, 0xe6, 0xea, 0x15, 0xee, 0xe9, 0x00, 0xfc,
  0xe5, 0xf9, 0x04, 0xdd, 0x02, 0x13, 0xdd, 0x1b, 0x0a, 0xe1, 0x15, 0x04,
  0xed, 0xbf, 0x18, 0x10, 0xea, 0x01, 0x16, 0xc5, 0x12, 0x0b, 0xc4, 0x11,
  0x32, 0xf1, 0x23, 0x0b, 0xd3, 0xb7, 0x14, 0x04, 0xad, 0x0e, 0xec, 0x28,
  0x9c, 0x0d, 0xba, 0x4d, 0x01, 0xf6, 0x11, 0xd5, 0x0a, 0x19, 0xf3, 0xab,
  0xad, 0x01, 0x0d, 0x28, 0xb3, 0xfc, 0xc4, 0x2b, 0xf0, 0x16, 0xeb, 0x0e,
  0x0b, 0xf4, 0xec, 0xd9, 0xb2, 0xfb, 0xed, 0x3d, 0xe9, 0xd6, 0xce, 0x34,
  0xec, 0x26, 0xdc, 0x1e, 0x04, 0xc2, 0xe7, 0xde, 0xa1, 0xe9, 0xed, 0x42,
  0xff, 0xc9, 0xc5, 0x10, 0xf4, 0x2f, 0xbd, 0x62, 0x19, 0x8f, 0x03, 0xfe,
  0xc7, 0x08, 0xa3, 0x18, 0xfe, 0xe0, 0xc9, 0x05, 0xcf, 0x12, 0xdd, 0x54,
  0x2b, 0x81, 0x02, 0x1f, 0xf6, 0x2e, 0xea, 0x49, 0xe5, 0xd0, 0x19, 0x13,
  0xe7, 0xeb, 0xe9, 0xce, 0x81, 0x4d, 0x01, 0xe8, 0xee, 0x41, 0xe3, 0x05,
  0xf3, 0xc8, 0x1d, 0xec, 0xe8, 0xe0, 0xec, 0xd9, 0xb5, 0x37, 0xf6, 0xf8,
  0xdb, 0x0f, 0xed, 0xf1, 0x0a, 0xdd, 0x00, 0xfa, 0xf6, 0xf5, 0xfb, 0xe0,
  0xd7, 0x00, 0xf6, 0xff, 0xc9, 0x25, 0xeb, 0xe3, 0x19, 0x10, 0xfa, 0x0e,
  0x16, 0xdc, 0x10, 0xf0, 0x01, 0xd8, 0x0a, 0x06, 0xc7, 0xf1, 0xfe, 0xa7,
  0x3b, 0x2e, 0xcf, 0x0f, 0x2f, 0x05, 0x17, 0xf1, 0x26, 0x9a, 0xfe, 0x08,
  0x21, 0x04, 0x00, 0x15, 0x52, 0x20, 0x32, 0x07, 0xc5, 0xeb, 0xfc, 0x0e,
  0x2a, 0x0d, 0x81, 0x2e, 0x06, 0x0d, 0x13, 0x28, 0x27, 0x23, 0x30, 0x08,
  0xbb, 0xe3, 0xff, 0x09, 0x24, 0xf4, 0xa1, 0x34, 0xf6, 0xf4, 0x02, 0x09,
  0x04, 0x21, 0x0e, 0x01, 0xb1, 0xf9, 0x01, 0x02, 0x0b, 0xed, 0xad, 0x24,
  0x03, 0xed, 0x2f, 0x16, 0xf3, 0x28, 0x17, 0xfe, 0xb4, 0xfe, 0x03, 0x02,
  0xf1, 0xfe, 0xbd, 0x08, 0xff, 0xe0, 0x10, 0x0c, 0xf9, 0x01, 0x01, 0xec,
  0xa1, 0xed, 0xfc, 0x0b, 0xeb, 0xf8, 0xc6, 0xf4, 0x12, 0xfc, 0xff, 0xff,
  0x04, 0x00, 0x00, 0x00, 0x30, 0x00, 0x00, 0x00, 0x2e, 0x19, 0x00, 0x00,
  0x06, 0x0d, 0x00, 0x00, 0x42, 0x08, 0x00, 0x00, 0x47, 0x10, 0x00, 0x00,
  0xc7, 0x0a, 0x00, 0x00, 0x5e, 0x03, 0x00, 0x00, 0x83, 0x05, 0x00, 0x00,
  0x20, 0x01, 0x00, 0x00, 0x39, 0x0b, 0x00, 0x00, 0x30, 0x14, 0x00, 0x00,
  0xa9, 0x03, 0x00, 0x00, 0x17, 0xf7, 0xff, 0xff, 0x4e, 0xfc, 0xff, 0xff,
  0x04, 0x00, 0x00, 0x00, 0x20, 0x01, 0x00, 0x00, 0x0a, 0xb4, 0x26, 0x40,
  0x3d, 0xf7, 0x81, 0x4e, 0xe3, 0xd4, 0xe3, 0x2e, 0x3d, 0x83, 0xed, 0x18,
  0xf6, 0xfe, 0x89, 0x46, 0x14, 0xf5, 0xfa, 0x3c, 0x66, 0x86, 0x37, 0x25,
  0xec, 0xde, 0xd9, 0x3d, 0x50, 0x02, 0x15, 0x51, 0x1c, 0x26, 0x3d, 0x37,
  0xfc, 0x3f, 0xb4, 0x33, 0x8d, 0xf3, 0x68, 0x59, 0xe3, 0x24, 0x31, 0x14,
  0x29, 0x32, 0xce, 0x08, 0xb4, 0x8d, 0x34, 0x23, 0xbe, 0x0f, 0x1e, 0x7f,
  0x4c, 0x18, 0x07, 0x05, 0xf5, 0x90, 0xc9, 0x00, 0xb7, 0x54, 0x4a, 0xca,
  0xd5, 0x15, 0x79, 0x2b, 0xbf, 0xd1, 0xf6, 0xcf, 0xc0, 0x36, 0xec, 0x96,
  0xc9, 0xdf, 0x17, 0x3c, 0x01, 0xf6, 0x3a, 0x03, 0xae, 0x1f, 0x2f, 0xb3,
  0x81, 0xdc, 0x38, 0x4a, 0x22, 0x1a, 0x25, 0xe6, 0x28, 0xb3, 0x6a, 0xf2,
  0x11, 0x34, 0x8d, 0xf0, 0x29, 0x02, 0x6e, 0x7f, 0x0e, 0x0a, 0x0e, 0x16,
  0x27, 0x0f, 0xf8, 0xea, 0xe0, 0x18, 0x15, 0xef, 0x6d, 0x90, 0x22, 0xf4,
  0xfd, 0x6f, 0xc1, 0xbf, 0xf2, 0x2b, 0x69, 0xdb, 0x1a, 0x13, 0xdc, 0x19,
  0xe7, 0xfa, 0xd8, 0x02, 0xef, 0x1f, 0x0b, 0x48, 0x10, 0x14, 0xd3, 0xca,
  0x27, 0x24, 0xf9, 0x11, 0xca, 0x18, 0x0d, 0x1d, 0xf5, 0x1a, 0xd0, 0xb4,
  0x7f, 0x07, 0x44, 0x1f, 0x0a, 0xd7, 0x15, 0x10, 0xe2, 0x7f, 0xf5, 0x08,
  0xea, 0xf6, 0x37, 0x07, 0xae, 0x23, 0xde, 0xe6, 0xd9, 0x2f, 0xc9, 0xd7,
  0xf0, 0xb2, 0xdc, 0x24, 0xc6, 0xf7, 0xe3, 0xf8, 0x2f, 0x25, 0x3c, 0xfa,
  0xeb, 0x92, 0xe7, 0x1c, 0x28, 0x6c, 0x3b, 0x07, 0x20, 0x06, 0x31, 0x14,
  0xc9, 0x00, 0x7a, 0xee, 0x07, 0xbd, 0xf3, 0x1d, 0x19, 0x08, 0x07, 0xf1,
  0x00, 0x0b, 0x3a, 0x0c, 0xe7, 0xa7, 0x07, 0x43, 0xfc, 0xf9, 0xeb, 0xd2,
  0x2b, 0x10, 0x67, 0x01, 0xea, 0x81, 0xf9, 0x0a, 0xd9, 0xf9, 0x7f, 0xb0,
  0x14, 0xbe, 0x0d, 0x35, 0x46, 0x01, 0xa5, 0x2a, 0x0d, 0xdc, 0x05, 0xaa,
  0x07, 0x0a, 0xf0, 0x45, 0x2a, 0x24, 0xdb, 0xda, 0x40, 0xc0, 0x14, 0xf1,
  0xec, 0x0e, 0xd8, 0x5d, 0x08, 0x22, 0xd6, 0x0f, 0x7a, 0xfd, 0xff, 0xff,
  0x04, 0x00, 0x00, 0x00, 0x20, 0x00, 0x00, 0x00, 0x2b, 0xf9, 0xff, 0xff,
  0x4c, 0x00, 0x00, 0x00, 0xe9, 0x08, 0x00, 0x00, 0x0c, 0xf6, 0xff, 0xff,
  0xc9, 0xfe, 0xff, 0xff, 0xe4, 0x01, 0x00, 0x00, 0x0c, 0xfa, 0xff, 0xff,
  0x22, 0x00, 0x00, 0x00, 0xa6, 0xfd, 0xff, 0xff, 0x04, 0x00, 0x00, 0x00,
  0x80, 0x00, 0x00, 0x00, 0xff, 0x0e, 0x50, 0x7f, 0xa3, 0x12, 0xcc, 0xcb,
  0xf6, 0xb2, 0xca, 0xce, 0x7f, 0x2f, 0xeb, 0xe1, 0x7f, 0xa0, 0x08, 0x96,
  0x00, 0xe3, 0x14, 0x49, 0x7f, 0x13, 0xf0, 0xee, 0x91, 0xe2, 0xed, 0x4f,
  0x25, 0x81, 0xf0, 0x12, 0x5b, 0xe3, 0x01, 0xfa, 0x9f, 0x15, 0x14, 0xff,
  0x7f, 0xa7, 0x2e, 0xa5, 0x6a, 0x44, 0xe8, 0xb5, 0xfc, 0xdc, 0x81, 0x0a,
  0xd4, 0x72, 0x08, 0x39, 0x22, 0x81, 0xf5, 0xae, 0x63, 0xc9, 0xab, 0x4e,
  0xe1, 0x81, 0x3e, 0x79, 0x53, 0xbb, 0xc5, 0x7f, 0x1f, 0x99, 0xcd, 0x12,
  0x05, 0x81, 0x38, 0x15, 0x54, 0xbc, 0x5b, 0x0e, 0xae, 0x0c, 0xf4, 0x79,
  0xd9, 0xaa, 0x7f, 0x20, 0x0e, 0x3d, 0x45, 0x99, 0x3e, 0xcf, 0xf5, 0x81,
  0xee, 0x5b, 0x81, 0x1c, 0x30, 0xa3, 0xfd, 0xf9, 0x6a, 0x46, 0xed, 0xb9,
  0xfc, 0xdb, 0x81, 0x09, 0x02, 0xbe, 0xcc, 0xbe, 0x7f, 0x23, 0xdd, 0xdc,
  0x32, 0xfe, 0xff, 0xff, 0x04, 0x00, 0x00, 0x00, 0x40, 0x00, 0x00, 0x00,
  0xd1, 0x0b, 0x00, 0x00, 0x0a, 0x00, 0x00, 0x00, 0x53, 0x00, 0x00, 0x00,
  0x85, 0x07, 0x00, 0x00, 0x29, 0xff, 0xff, 0xff, 0x65, 0xfa, 0xff, 0xff,
  0x53, 0x02, 0x00, 0x00, 0x02, 0x06, 0x00, 0x00, 0x35, 0x05, 0x00, 0x00,
  0xda, 0x06, 0x00, 0x00, 0xe9, 0xfe, 0xff, 0xff, 0x76, 0x03, 0x00, 0x00,
  0x9f, 0xfd, 0xff, 0xff, 0x23, 0x00, 0x00, 0x00, 0x5c, 0x03, 0x00, 0x00,
  0x23, 0x00, 0x00, 0x00, 0x7e, 0xfe, 0xff, 0xff, 0x04, 0x00, 0x00, 0x00,
  0x70, 0x00, 0x00, 0x00, 0xad, 0x0d, 0x91, 0x96, 0xc4, 0x1f, 0x1b, 0x18,
  0x91, 0xb9, 0x81, 0x88, 0x26, 0x1a, 0x20, 0x13, 0x81, 0x14, 0x34, 0x1d,
  0x2c, 0x9f, 0x1d, 0x93, 0x15, 0x16, 0x0a, 0x9c, 0x8b, 0xeb, 0x1f, 0x10,
  0x27, 0x85, 0xc5, 0xa7, 0x8c, 0x25, 0x94, 0x1b, 0x9f, 0x90, 0x13, 0x16,
  0x29, 0xc3, 0x9f, 0x81, 0xca, 0x96, 0x2c, 0x22, 0xca, 0xc6, 0x9d, 0xa6,
  0x16, 0xb4, 0x16, 0x19, 0xc7, 0x88, 0x99, 0x81, 0x1e, 0x91, 0x9f, 0x1a,
  0x97, 0xb9, 0x1b, 0x13, 0x0d, 0x14, 0x81, 0x09, 0xaf, 0x1b, 0x21, 0x99,
  0xdc, 0x1b, 0x96, 0x81, 0x39, 0x2e, 0xab, 0x15, 0x0e, 0x24, 0x1a, 0x1e,
  0x93, 0x26, 0xa2, 0x10, 0x1f, 0x15, 0xaa, 0xca, 0xea, 0xc2, 0xb9, 0xad,
  0x81, 0xaf, 0x82, 0xa6, 0x9d, 0x8b, 0xc6, 0x0f, 0xfa, 0xfe, 0xff, 0xff,
  0x04, 0x00, 0x00, 0x00, 0x1c, 0x00, 0x00, 0x00, 0xd3, 0xfb, 0xff, 0xff,
  0xda, 0xed, 0xff, 0xff, 0xc4, 0x01, 0x00, 0x00, 0x13, 0x06, 0x00, 0x00,
  0x08, 0xfe, 0xff, 0xff, 0x4b, 0xea, 0xff, 0xff, 0x9a, 0x1e, 0x00, 0x00,
  0x22, 0xff, 0xff, 0xff, 0x04, 0x00, 0x00, 0x00, 0x04, 0x00, 0x00, 0x00,
  0x01, 0x00, 0x00, 0x00, 0x32, 0xff, 0xff, 0xff, 0x04, 0x00, 0x00, 0x00,
  0x0c, 0x00, 0x00, 0x00, 0x01, 0x00, 0x00, 0x00, 0x7d, 0x00, 0x00, 0x00,
  0x08, 0x00, 0x00, 0x00, 0x4a, 0xff, 0xff, 0xff, 0x04, 0x00, 0x00, 0x00,
  0x10, 0x00, 0x00, 0x00, 0x01, 0x00, 0x00, 0x00, 0x01, 0x00, 0x00, 0x00,
  0xf4, 0x01, 0x00, 0x00, 0x06, 0x00, 0x00, 0x00, 0x5c, 0xeb, 0xff, 0xff,
  0x60, 0xeb, 0xff, 0xff, 0x0f, 0x00, 0x00, 0x00, 0x4d, 0x4c, 0x49, 0x52,
  0x20, 0x43, 0x6f, 0x6e, 0x76, 0x65, 0x72, 0x74, 0x65, 0x64, 0x2e, 0x00,
  0x01, 0x00, 0x00, 0x00, 0x14, 0x00, 0x00, 0x00, 0x00, 0x00, 0x0e, 0x00,
  0x18, 0x00, 0x14, 0x00, 0x10, 0x00, 0x0c, 0x00, 0x08, 0x00, 0x04, 0x00,
  0x0e, 0x00, 0x00, 0x00, 0x14, 0x00, 0x00, 0x00, 0x1c, 0x00, 0x00, 0x00,
  0x44, 0x02, 0x00, 0x00, 0x48, 0x02, 0x00, 0x00, 0x4c, 0x02, 0x00, 0x00,
  0x04, 0x00, 0x00, 0x00, 0x6d, 0x61, 0x69, 0x6e, 0x00, 0x00, 0x00, 0x00,
  0x09, 0x00, 0x00, 0x00, 0x08, 0x02, 0x00, 0x00, 0xac, 0x01, 0x00, 0x00,
  0x58, 0x01, 0x00, 0x00, 0x14, 0x01, 0x00, 0x00, 0xf0, 0x00, 0x00, 0x00,
  0xbc, 0x00, 0x00, 0x00, 0x78, 0x00, 0x00, 0x00, 0x40, 0x00, 0x00, 0x00,
  0x04, 0x00, 0x00, 0x00, 0x82, 0xfe, 0xff, 0xff, 0x1c, 0x00, 0x00, 0x00,
  0x00, 0x00, 0x00, 0x09, 0x1c, 0x00, 0x00, 0x00, 0x20, 0x00, 0x00, 0x00,
  0x04, 0x00, 0x00, 0x00, 0x00, 0x00, 0x06, 0x00, 0x08, 0x00, 0x04, 0x00,
  0x06, 0x00, 0x00, 0x00, 0x00, 0x00, 0x80, 0x3f, 0x01, 0x00, 0x00, 0x00,
  0x16, 0x00, 0x00, 0x00, 0x01, 0x00, 0x00, 0x00, 0x15, 0x00, 0x00, 0x00,
  0xba, 0xfe, 0xff, 0xff, 0x14, 0x00, 0x00, 0x00, 0x00, 0x00, 0x00, 0x08,
  0x10, 0x00, 0x00, 0x00, 0x14, 0x00, 0x00, 0x00, 0x03, 0x00, 0x00, 0x00,
  0x2c, 0xec, 0xff, 0xff, 0x01, 0x00, 0x00, 0x00, 0x15, 0x00, 0x00, 0x00,
  0x03, 0x00, 0x00, 0x00, 0x14, 0x00, 0x00, 0x00, 0x05, 0x00, 0x00, 0x00,
  0x04, 0x00, 0x00, 0x00, 0xee, 0xfe, 0xff, 0xff, 0x1c, 0x00, 0x00, 0x00,
  0x00, 0x00, 0x00, 0x08, 0x1c, 0x00, 0x00, 0x00, 0x20, 0x00, 0x00, 0x00,
  0x03, 0x00, 0x00, 0x00, 0x00, 0x00, 0x06, 0x00, 0x08, 0x00, 0x07, 0x00,
  0x06, 0x00, 0x00, 0x00, 0x00, 0x00, 0x00, 0x01, 0x01, 0x00, 0x00, 0x00,
  0x14, 0x00, 0x00, 0x00, 0x03, 0x00, 0x00, 0x00, 0x13, 0x00, 0x00, 0x00,
  0x07, 0x00, 0x00, 0x00, 0x06, 0x00, 0x00, 0x00, 0x2e, 0xff, 0xff, 0xff,
  0x14, 0x00, 0x00, 0x00, 0x00, 0x00, 0x00, 0x1b, 0x10, 0x00, 0x00, 0x00,
  0x14, 0x00, 0x00, 0x00, 0x02, 0x00, 0x00, 0x00, 0xa0, 0xec, 0xff, 0xff,
  0x01, 0x00, 0x00, 0x00, 0x13, 0x00, 0x00, 0x00, 0x02, 0x00, 0x00, 0x00,
  0x12, 0x00, 0x00, 0x00, 0x03, 0x00, 0x00, 0x00, 0x02, 0xff, 0xff, 0xff,
  0x08, 0x00, 0x00, 0x00, 0x0c, 0x00, 0x00, 0x00, 0x01, 0x00, 0x00, 0x00,
  0x12, 0x00, 0x00, 0x00, 0x02, 0x00, 0x00, 0x00, 0x11, 0x00, 0x00, 0x00,
  0x02, 0x00, 0x00, 0x00, 0x7e, 0xff, 0xff, 0xff, 0x14, 0x00, 0x00, 0x00,
  0x00, 0x00, 0x00, 0x01, 0x1c, 0x00, 0x00, 0x00, 0x20, 0x00, 0x00, 0x00,
  0x01, 0x00, 0x00, 0x00, 0x70, 0xff, 0xff, 0xff, 0x00, 0x00, 0x00, 0x01,
  0x01, 0x00, 0x00, 0x00, 0x01, 0x00, 0x00, 0x00, 0x01, 0x00, 0x00, 0x00,
  0x11, 0x00, 0x00, 0x00, 0x03, 0x00, 0x00, 0x00, 0x10, 0x00, 0x00, 0x00,
  0x09, 0x00, 0x00, 0x00, 0x08, 0x00, 0x00, 0x00, 0xbe, 0xff, 0xff, 0xff,
  0x14, 0x00, 0x00, 0x00, 0x00, 0x00, 0x00, 0x01, 0x1c, 0x00, 0x00, 0x00,
  0x20, 0x00, 0x00, 0x00, 0x01, 0x00, 0x00, 0x00, 0xb0, 0xff, 0xff, 0xff,
  0x00, 0x00, 0x00, 0x01, 0x01, 0x00, 0x00, 0x00, 0x02, 0x00, 0x00, 0x00,
  0x01, 0x00, 0x00, 0x00, 0x10, 0x00, 0x00, 0x00, 0x03, 0x00, 0x00, 0x00,
  0x0f, 0x00, 0x00, 0x00, 0x0b, 0x00, 0x00, 0x00, 0x0a, 0x00, 0x00, 0x00,
  0x00, 0x00, 0x0e, 0x00, 0x18, 0x00, 0x14, 0x00, 0x10, 0x00, 0x0c, 0x00,
  0x0b, 0x00, 0x04, 0x00, 0x0e, 0x00, 0x00, 0x00, 0x20, 0x00, 0x00, 0x00,
  0x00, 0x00, 0x00, 0x01, 0x28, 0x00, 0x00, 0x00, 0x2c, 0x00, 0x00, 0x00,
  0x01, 0x00, 0x00, 0x00, 0x0c, 0x00, 0x10, 0x00, 0x00, 0x00, 0x0c, 0x00,
  0x08, 0x00, 0x07, 0x00, 0x0c, 0x00, 0x00, 0x00, 0x00, 0x00, 0x00, 0x01,
  0x01, 0x00, 0x00, 0x00, 0x02, 0x00, 0x00, 0x00, 0x01, 0x00, 0x00, 0x00,
  0x0f, 0x00, 0x00, 0x00, 0x03, 0x00, 0x00, 0x00, 0x0e, 0x00, 0x00, 0x00,
  0x0d, 0x00, 0x00, 0x00, 0x0c, 0x00, 0x00, 0x00, 0x00, 0x00, 0x0a, 0x00,
  0x0c, 0x00, 0x00, 0x00, 0x08, 0x00, 0x04, 0x00, 0x0a, 0x00, 0x00, 0x00,
  0x08, 0x00, 0x00, 0x00, 0x0c, 0x00, 0x00, 0x00, 0x01, 0x00, 0x00, 0x00,
  0x0e, 0x00, 0x00, 0x00, 0x02, 0x00, 0x00, 0x00, 0x00, 0x00, 0x00, 0x00,
  0x01, 0x00, 0x00, 0x00, 0x01, 0x00, 0x00, 0x00, 0x16, 0x00, 0x00, 0x00,
  0x01, 0x00, 0x00, 0x00, 0x00, 0x00, 0x00, 0x00, 0x17, 0x00, 0x00, 0x00,
  0x48, 0x12, 0x00, 0x00, 0xec, 0x11, 0x00, 0x00, 0xac, 0x11, 0x00, 0x00,
  0x70, 0x11, 0x00, 0x00, 0xc4, 0x10, 0x00, 0x00, 0x18, 0x10, 0x00, 0x00,
  0x04, 0x0f, 0x00, 0x00, 0xe8, 0x0d, 0x00, 0x00, 0x34, 0x0d, 0x00, 0x00,
  0x70, 0x0c, 0x00, 0x00, 0x8c, 0x0b, 0x00, 0x00, 0x98, 0x0a, 0x00, 0x00,
  0x84, 0x09, 0x00, 0x00, 0x60, 0x08, 0x00, 0x00, 0xd4, 0x07, 0x00, 0x00,
  0x68, 0x06, 0x00, 0x00, 0xfc, 0x04, 0x00, 0x00, 0x90, 0x03, 0x00, 0x00,
  0x4c, 0x02, 0x00, 0x00, 0xc8, 0x01, 0x00, 0x00, 0x0c, 0x01, 0x00, 0x00,
  0x70, 0x00, 0x00, 0x00, 0x04, 0x00, 0x00, 0x00, 0x2a, 0xee, 0xff, 0xff,
  0x00, 0x00, 0x00, 0x01, 0x14, 0x00, 0x00, 0x00, 0x30, 0x00, 0x00, 0x00,
  0x17, 0x00, 0x00, 0x00, 0x00, 0x00, 0x00, 0x09, 0x44, 0x00, 0x00, 0x00,
  0x14, 0xee, 0xff, 0xff, 0x08, 0x00, 0x00, 0x00, 0x10, 0x00, 0x00, 0x00,
  0x01, 0x00, 0x00, 0x00, 0x80, 0xff, 0xff, 0xff, 0xff, 0xff, 0xff, 0xff,
  0x01, 0x00, 0x00, 0x00, 0x00, 0x00, 0x80, 0x3b, 0x1b, 0x00, 0x00, 0x00,
  0x53, 0x74, 0x61, 0x74, 0x65, 0x66, 0x75, 0x6c, 0x50, 0x61, 0x72, 0x74,
  0x69, 0x74, 0x69, 0x6f, 0x6e, 0x65, 0x64, 0x43, 0x61, 0x6c, 0x6c, 0x5f,
  0x31, 0x3a, 0x30, 0x00, 0x02, 0x00, 0x00, 0x00, 0x01, 0x00, 0x00, 0x00,
  0x07, 0x00, 0x00, 0x00, 0x92, 0xee, 0xff, 0xff, 0x00, 0x00, 0x00, 0x01,
  0x14, 0x00, 0x00, 0x00, 0x34, 0x00, 0x00, 0x00, 0x16, 0x00, 0x00, 0x00,
  0x00, 0x00, 0x00, 0x09, 0x74, 0x00, 0x00, 0x00, 0x7c, 0xee, 0xff, 0xff,
  0x08, 0x00, 0x00, 0x00, 0x14, 0x00, 0x00, 0x00, 0x01, 0x00, 0x00, 0x00,
  0x3a, 0x00, 0x00, 0x00, 0x00, 0x00, 0x00, 0x00, 0x00, 0x00, 0x00, 0x00,
  0x01, 0x00, 0x00, 0x00, 0x7e, 0x00, 0xae, 0x3e, 0x44, 0x00, 0x00, 0x00,
  0x73, 0x65, 0x71, 0x75, 0x65, 0x6e, 0x74, 0x69, 0x61, 0x6c, 0x5f, 0x31,
  0x30, 0x5f, 0x31, 0x2f, 0x64, 0x65, 0x6e, 0x73, 0x65, 0x5f, 0x32, 0x31,
  0x5f, 0x31, 0x2f, 0x4d, 0x61, 0x74, 0x4d, 0x75, 0x6c, 0x3b, 0x73, 0x65,
  0x71, 0x75, 0x65, 0x6e, 0x74, 0x69, 0x61, 0x6c, 0x5f, 0x31, 0x30, 0x5f,
  0x31, 0x2f, 0x64, 0x65, 0x6e, 0x73, 0x65, 0x5f, 0x32, 0x31, 0x5f, 0x31,
  0x2f, 0x42, 0x69, 0x61, 0x73, 0x41, 0x64, 0x64, 0x00, 0x00, 0x00, 0x00,
  0x02, 0x00, 0x00, 0x00, 0x01, 0x00, 0x00, 0x00, 0x07, 0x00, 0x00, 0x00,
  0x2a, 0xef, 0xff, 0xff, 0x00, 0x00, 0x00, 0x01, 0x14, 0x00, 0x00, 0x00,
  0x34, 0x00, 0x00, 0x00, 0x15, 0x00, 0x00, 0x00, 0x00, 0x00, 0x00, 0x09,
  0x94, 0x00, 0x00, 0x00, 0x14, 0xef, 0xff, 0xff, 0x08, 0x00, 0x00, 0x00,
  0x14, 0x00, 0x00, 0x00, 0x01, 0x00, 0x00, 0x00, 0x80, 0xff, 0xff, 0xff,
  0xff, 0xff, 0xff, 0xff, 0x00, 0x00, 0x00, 0x00, 0x01, 0x00, 0x00, 0x00,
  0x4f, 0xd6, 0x11, 0x3c, 0x64, 0x00, 0x00, 0x00, 0x73, 0x65, 0x71, 0x75,
  0x65, 0x6e, 0x74, 0x69, 0x61, 0x6c, 0x5f, 0x31, 0x30, 0x5f, 0x31, 0x2f,
  0x64, 0x65, 0x6e, 0x73, 0x65, 0x5f, 0x32, 0x30, 0x5f, 0x31, 0x2f, 0x4d,
  0x61, 0x74, 0x4d, 0x75, 0x6c, 0x3b, 0x73, 0x65, 0x71, 0x75, 0x65, 0x6e,
  0x74, 0x69, 0x61, 0x6c, 0x5f, 0x31, 0x30, 0x5f, 0x31, 0x2f, 0x64, 0x65,
  0x6e, 0x73, 0x65, 0x5f, 0x32, 0x30, 0x5f, 0x31, 0x2f, 0x52, 0x65, 0x6c,
  0x75, 0x3b, 0x73, 0x65, 0x71, 0x75, 0x65, 0x6e, 0x74, 0x69, 0x61, 0x6c,
  0x5f, 0x31, 0x30, 0x5f, 0x31, 0x2f, 0x64, 0x65, 0x6e, 0x73, 0x65, 0x5f,
  0x32, 0x30, 0x5f, 0x31, 0x2f, 0x42, 0x69, 0x61, 0x73, 0x41, 0x64, 0x64,
  0x00, 0x00, 0x00, 0x00, 0x02, 0x00, 0x00, 0x00, 0x01, 0x00, 0x00, 0x00,
  0x10, 0x00, 0x00, 0x00, 0xe2, 0xef, 0xff, 0xff, 0x00, 0x00, 0x00, 0x01,
  0x14, 0x00, 0x00, 0x00, 0x30, 0x00, 0x00, 0x00, 0x14, 0x00, 0x00, 0x00,
  0x00, 0x00, 0x00, 0x09, 0x5c, 0x00, 0x00, 0x00, 0xcc, 0xef, 0xff, 0xff,
  0x08, 0x00, 0x00, 0x00, 0x10, 0x00, 0x00, 0x00, 0x01, 0x00, 0x00, 0x00,
  0x80, 0xff, 0xff, 0xff, 0xff, 0xff, 0xff, 0xff, 0x01, 0x00, 0x00, 0x00,
  0x8b, 0xe0, 0x94, 0x3c, 0x32, 0x00, 0x00, 0x00, 0x73, 0x65, 0x71, 0x75,
  0x65, 0x6e, 0x74, 0x69, 0x61, 0x6c, 0x5f, 0x31, 0x30, 0x5f, 0x31, 0x2f,
  0x67, 0x6c, 0x6f, 0x62, 0x61, 0x6c, 0x5f, 0x61, 0x76, 0x65, 0x72, 0x61,
  0x67, 0x65, 0x5f, 0x70, 0x6f, 0x6f, 0x6c, 0x69, 0x6e, 0x67, 0x31, 0x64,
  0x5f, 0x31, 0x30, 0x5f, 0x31, 0x2f, 0x4d, 0x65, 0x61, 0x6e, 0x00, 0x00,
  0x02, 0x00, 0x00, 0x00, 0x01, 0x00, 0x00, 0x00, 0x08, 0x00, 0x00, 0x00,
  0x62, 0xf0, 0xff, 0xff, 0x00, 0x00, 0x00, 0x01, 0x14, 0x00, 0x00, 0x00,
  0x34, 0x00, 0x00, 0x00, 0x13, 0x00, 0x00, 0x00, 0x00, 0x00, 0x00, 0x09,
  0x18, 0x01, 0x00, 0x00, 0x4c, 0xf0, 0xff, 0xff, 0x08, 0x00, 0x00, 0x00,
  0x14, 0x00, 0x00, 0x00, 0x01, 0x00, 0x00, 0x00, 0x80, 0xff, 0xff, 0xff,
  0xff, 0xff, 0xff, 0xff, 0x00, 0x00, 0x00, 0x00, 0x01, 0x00, 0x00, 0x00,
  0xe9, 0xf4, 0x9d, 0x3d, 0xeb, 0x00, 0x00, 0x00, 0x73, 0x65, 0x71, 0x75,
  0x65, 0x6e, 0x74, 0x69, 0x61, 0x6c, 0x5f, 0x31, 0x30, 0x5f, 0x31, 0x2f,
  0x61, 0x63, 0x74, 0x69, 0x76, 0x61, 0x74, 0x69, 0x6f, 0x6e, 0x5f, 0x33,
  0x32, 0x5f, 0x31, 0x2f, 0x52, 0x65, 0x6c, 0x75, 0x3b, 0x73, 0x65, 0x71,
  0x75, 0x65, 0x6e, 0x74, 0x69, 0x61, 0x6c, 0x5f, 0x31, 0x30, 0x5f, 0x31,
  0x2f, 0x62, 0x61, 0x74, 0x63, 0x68, 0x5f, 0x6e, 0x6f, 0x72, 0x6d, 0x61,
  0x6c, 0x69, 0x7a, 0x61, 0x74, 0x69, 0x6f, 0x6e, 0x5f, 0x33, 0x32, 0x5f,
  0x31, 0x2f, 0x62, 0x61, 0x74, 0x63, 0x68, 0x6e, 0x6f, 0x72, 0x6d, 0x2f,
  0x61, 0x64, 0x64, 0x5f, 0x31, 0x3b, 0x73, 0x65, 0x71, 0x75, 0x65, 0x6e,
  0x74, 0x69, 0x61, 0x6c, 0x5f, 0x31, 0x30, 0x5f, 0x31, 0x2f, 0x63, 0x6f,
  0x6e, 0x76, 0x31, 0x64, 0x5f, 0x33, 0x32, 0x5f, 0x31, 0x2f, 0x63, 0x6f,
  0x6e, 0x76, 0x6f, 0x6c, 0x75, 0x74, 0x69, 0x6f, 0x6e, 0x2f, 0x53, 0x71,
  0x75, 0x65, 0x65, 0x7a, 0x65, 0x3b, 0x73, 0x65, 0x71, 0x75, 0x65, 0x6e,
  0x74, 0x69, 0x61, 0x6c, 0x5f, 0x31, 0x30, 0x5f, 0x31, 0x2f, 0x62, 0x61,
  0x74, 0x63, 0x68, 0x5f, 0x6e, 0x6f, 0x72, 0x6d, 0x61, 0x6c, 0x69, 0x7a,
  0x61, 0x74, 0x69, 0x6f, 0x6e, 0x5f, 0x33, 0x32, 0x5f, 0x31, 0x2f, 0x62,
  0x61, 0x74, 0x63, 0x68, 0x6e, 0x6f, 0x72, 0x6d, 0x2f, 0x6d, 0x75, 0x6c,
  0x5f, 0x31, 0x3b, 0x73, 0x65, 0x71, 0x75, 0x65, 0x6e, 0x74, 0x69, 0x61,
  0x6c, 0x5f, 0x31, 0x30, 0x5f, 0x31, 0x2f, 0x63, 0x6f, 0x6e, 0x76, 0x31,
  0x64, 0x5f, 0x33, 0x32, 0x5f, 0x31, 0x2f, 0x42, 0x69, 0x61, 0x73, 0x41,
  0x64, 0x64, 0x3b, 0x00, 0x03, 0x00, 0x00, 0x00, 0x01, 0x00, 0x00, 0x00,
  0x7d, 0x00, 0x00, 0x00, 0x08, 0x00, 0x00, 0x00, 0xa2, 0xf1, 0xff, 0xff,
  0x00, 0x00, 0x00, 0x01, 0x14, 0x00, 0x00, 0x00, 0x30, 0x00, 0x00, 0x00,
  0x12, 0x00, 0x00, 0x00, 0x00, 0x00, 0x00, 0x09, 0x3c, 0x01, 0x00, 0x00,
  0x8c, 0xf1, 0xff, 0xff, 0x08, 0x00, 0x00, 0x00, 0x10, 0x00, 0x00, 0x00,
  0x01, 0x00, 0x00, 0x00, 0x80, 0xff, 0xff, 0xff, 0xff, 0xff, 0xff, 0xff,
  0x01, 0x00, 0x00, 0x00, 0xe9, 0xf4, 0x9d, 0x3d, 0x13, 0x01, 0x00, 0x00,
  0x73, 0x65, 0x71, 0x75, 0x65, 0x6e, 0x74, 0x69, 0x61, 0x6c, 0x5f, 0x31,
  0x30, 0x5f, 0x31, 0x2f, 0x61, 0x63, 0x74, 0x69, 0x76, 0x61, 0x74, 0x69,
  0x6f, 0x6e, 0x5f, 0x33, 0x32, 0x5f, 0x31, 0x2f, 0x52, 0x65, 0x6c, 0x75,
  0x3b, 0x73, 0x65, 0x71, 0x75, 0x65, 0x6e, 0x74, 0x69, 0x61, 0x6c, 0x5f,
  0x31, 0x30, 0x5f, 0x31, 0x2f, 0x62, 0x61, 0x74, 0x63, 0x68, 0x5f, 0x6e,
  0x6f, 0x72, 0x6d, 0x61, 0x6c, 0x69, 0x7a, 0x61, 0x74, 0x69, 0x6f, 0x6e,
  0x5f, 0x33, 0x32, 0x5f, 0x31, 0x2f, 0x62, 0x61, 0x74, 0x63, 0x68, 0x6e,
  0x6f, 0x72, 0x6d, 0x2f, 0x61, 0x64, 0x64, 0x5f, 0x31, 0x3b, 0x73, 0x65,
  0x71, 0x75, 0x65, 0x6e, 0x74, 0x69, 0x61, 0x6c, 0x5f, 0x31, 0x30, 0x5f,
  0x31, 0x2f, 0x63, 0x6f, 0x6e, 0x76, 0x31, 0x64, 0x5f, 0x33, 0x32, 0x5f,
  0x31, 0x2f, 0x63, 0x6f, 0x6e, 0x76, 0x6f, 0x6c, 0x75, 0x74, 0x69, 0x6f,
  0x6e, 0x2f, 0x53, 0x71, 0x75, 0x65, 0x65, 0x7a, 0x65, 0x3b, 0x73, 0x65,
  0x71, 0x75, 0x65, 0x6e, 0x74, 0x69, 0x61, 0x6c, 0x5f, 0x31, 0x30, 0x5f,
  0x31, 0x2f, 0x62, 0x61, 0x74, 0x63, 0x68, 0x5f, 0x6e, 0x6f, 0x72, 0x6d,
  0x61, 0x6c, 0x69, 0x7a, 0x61, 0x74, 0x69, 0x6f, 0x6e, 0x5f, 0x33, 0x32,
  0x5f, 0x31, 0x2f, 0x62, 0x61, 0x74, 0x63, 0x68, 0x6e, 0x6f, 0x72, 0x6d,
  0x2f, 0x6d, 0x75, 0x6c, 0x5f, 0x31, 0x3b, 0x73, 0x65, 0x71, 0x75, 0x65,
  0x6e, 0x74, 0x69, 0x61, 0x6c, 0x5f, 0x31, 0x30, 0x5f, 0x31, 0x2f, 0x63,
  0x6f, 0x6e, 0x76, 0x31, 0x64, 0x5f, 0x33, 0x32, 0x5f, 0x31, 0x2f, 0x42,
  0x69, 0x61, 0x73, 0x41, 0x64, 0x64, 0x3b, 0x3b, 0x73, 0x65, 0x71, 0x75,
  0x65, 0x6e, 0x74, 0x69, 0x61, 0x6c, 0x5f, 0x31, 0x30, 0x5f, 0x31, 0x2f,
  0x63, 0x6f, 0x6e, 0x76, 0x31, 0x64, 0x5f, 0x33, 0x32, 0x5f, 0x31, 0x2f,
  0x63, 0x6f, 0x6e, 0x76, 0x6f, 0x6c, 0x75, 0x74, 0x69, 0x6f, 0x6e, 0x00,
  0x04, 0x00, 0x00, 0x00, 0x01, 0x00, 0x00, 0x00, 0x01, 0x00, 0x00, 0x00,
  0x7d, 0x00, 0x00, 0x00, 0x08, 0x00, 0x00, 0x00, 0x0a, 0xf3, 0xff, 0xff,
  0x00, 0x00, 0x00, 0x01, 0x14, 0x00, 0x00, 0x00, 0x30, 0x00, 0x00, 0x00,
  0x11, 0x00, 0x00, 0x00, 0x00, 0x00, 0x00, 0x09, 0x3c, 0x01, 0x00, 0x00,
  0xf4, 0xf2, 0xff, 0xff, 0x08, 0x00, 0x00, 0x00, 0x10, 0x00, 0x00, 0x00,
  0x01, 0x00, 0x00, 0x00, 0x80, 0xff, 0xff, 0xff, 0xff, 0xff, 0xff, 0xff,
  0x01, 0x00, 0x00, 0x00, 0x32, 0xd1, 0xff, 0x3c, 0x13, 0x01, 0x00, 0x00,
  0x73, 0x65, 0x71, 0x75, 0x65, 0x6e, 0x74, 0x69, 0x61, 0x6c, 0x5f, 0x31,
  0x30, 0x5f, 0x31, 0x2f, 0x61, 0x63, 0x74, 0x69, 0x76, 0x61, 0x74, 0x69,
  0x6f, 0x6e, 0x5f, 0x33, 0x31, 0x5f, 0x31, 0x2f, 0x52, 0x65, 0x6c, 0x75,
  0x3b, 0x73, 0x65, 0x71, 0x75, 0x65, 0x6e, 0x74, 0x69, 0x61, 0x6c, 0x5f,
  0x31, 0x30, 0x5f, 0x31, 0x2f, 0x62, 0x61, 0x74, 0x63, 0x68, 0x5f, 0x6e,
  0x6f, 0x72, 0x6d, 0x61, 0x6c, 0x69, 0x7a, 0x61, 0x74, 0x69, 0x6f, 0x6e,
  0x5f, 0x33, 0x31, 0x5f, 0x31, 0x2f, 0x62, 0x61, 0x74, 0x63, 0x68, 0x6e,
  0x6f, 0x72, 0x6d, 0x2f, 0x61, 0x64, 0x64, 0x5f, 0x31, 0x3b, 0x73, 0x65,
  0x71, 0x75, 0x65, 0x6e, 0x74, 0x69, 0x61, 0x6c, 0x5f, 0x31, 0x30, 0x5f,
  0x31, 0x2f, 0x63, 0x6f, 0x6e, 0x76, 0x31, 0x64, 0x5f, 0x33, 0x31, 0x5f,
  0x31, 0x2f, 0x63, 0x6f, 0x6e, 0x76, 0x6f, 0x6c, 0x75, 0x74, 0x69, 0x6f,
  0x6e, 0x2f, 0x53, 0x71, 0x75, 0x65, 0x65, 0x7a, 0x65, 0x3b, 0x73, 0x65,
  0x71, 0x75, 0x65, 0x6e, 0x74, 0x69, 0x61, 0x6c, 0x5f, 0x31, 0x30, 0x5f,
  0x31, 0x2f, 0x62, 0x61, 0x74, 0x63, 0x68, 0x5f, 0x6e, 0x6f, 0x72, 0x6d,
  0x61, 0x6c, 0x69, 0x7a, 0x61, 0x74, 0x69, 0x6f, 0x6e, 0x5f, 0x33, 0x31,
  0x5f, 0x31, 0x2f, 0x62, 0x61, 0x74, 0x63, 0x68, 0x6e, 0x6f, 0x72, 0x6d,
  0x2f, 0x6d, 0x75, 0x6c, 0x5f, 0x31, 0x3b, 0x73, 0x65, 0x71, 0x75, 0x65,
  0x6e, 0x74, 0x69, 0x61, 0x6c, 0x5f, 0x31, 0x30, 0x5f, 0x31, 0x2f, 0x63,
  0x6f, 0x6e, 0x76, 0x31, 0x64, 0x5f, 0x33, 0x31, 0x5f, 0x31, 0x2f, 0x42,
  0x69, 0x61, 0x73, 0x41, 0x64, 0x64, 0x3b, 0x3b, 0x73, 0x65, 0x71, 0x75,
  0x65, 0x6e, 0x74, 0x69, 0x61, 0x6c, 0x5f, 0x31, 0x30, 0x5f, 0x31, 0x2f,
  0x63, 0x6f, 0x6e, 0x76, 0x31, 0x64, 0x5f, 0x33, 0x31, 0x5f, 0x31, 0x2f,
  0x63, 0x6f, 0x6e, 0x76, 0x6f, 0x6c, 0x75, 0x74, 0x69, 0x6f, 0x6e, 0x00,
  0x04, 0x00, 0x00, 0x00, 0x01, 0x00, 0x00, 0x00, 0x01, 0x00, 0x00, 0x00,
  0x7d, 0x00, 0x00, 0x00, 0x0c, 0x00, 0x00, 0x00, 0x72, 0xf4, 0xff, 0xff,
  0x00, 0x00, 0x00, 0x01, 0x14, 0x00, 0x00, 0x00, 0x30, 0x00, 0x00, 0x00,
  0x10, 0x00, 0x00, 0x00, 0x00, 0x00, 0x00, 0x09, 0x3c, 0x01, 0x00, 0x00,
  0x5c, 0xf4, 0xff, 0xff, 0x08, 0x00, 0x00, 0x00, 0x10, 0x00, 0x00, 0x00,
  0x01, 0x00, 0x00, 0x00, 0x80, 0xff, 0xff, 0xff, 0xff, 0xff, 0xff, 0xff,
  0x01, 0x00, 0x00, 0x00, 0x27, 0x7c, 0x9f, 0x3d, 0x13, 0x01, 0x00, 0x00,
  0x73, 0x65, 0x71, 0x75, 0x65, 0x6e, 0x74, 0x69, 0x61, 0x6c, 0x5f, 0x31,
  0x30, 0x5f, 0x31, 0x2f, 0x61, 0x63, 0x74, 0x69, 0x76, 0x61, 0x74, 0x69,
  0x6f, 0x6e, 0x5f, 0x33, 0x30, 0x5f, 0x31, 0x2f, 0x52, 0x65, 0x6c, 0x75,
  0x3b, 0x73, 0x65, 0x71, 0x75, 0x65, 0x6e, 0x74, 0x69, 0x61, 0x6c, 0x5f,
  0x31, 0x30, 0x5f, 0x31, 0x2f, 0x62, 0x61, 0x74, 0x63, 0x68, 0x5f, 0x6e,
  0x6f, 0x72, 0x6d, 0x61, 0x6c, 0x69, 0x7a, 0x61, 0x74, 0x69, 0x6f, 0x6e,
  0x5f, 0x33, 0x30, 0x5f, 0x31, 0x2f, 0x62, 0x61, 0x74, 0x63, 0x68, 0x6e,
  0x6f, 0x72, 0x6d, 0x2f, 0x61, 0x64, 0x64, 0x5f, 0x31, 0x3b, 0x73, 0x65,
  0x71, 0x75, 0x65, 0x6e, 0x74, 0x69, 0x61, 0x6c, 0x5f, 0x31, 0x30, 0x5f,
  0x31, 0x2f, 0x63, 0x6f, 0x6e, 0x76, 0x31, 0x64, 0x5f, 0x33, 0x30, 0x5f,
  0x31, 0x2f, 0x63, 0x6f, 0x6e, 0x76, 0x6f, 0x6c, 0x75, 0x74, 0x69, 0x6f,
  0x6e, 0x2f, 0x53, 0x71, 0x75, 0x65, 0x65, 0x7a, 0x65, 0x3b, 0x73, 0x65,
  0x71, 0x75, 0x65, 0x6e, 0x74, 0x69, 0x61, 0x6c, 0x5f, 0x31, 0x30, 0x5f,
  0x31, 0x2f, 0x62, 0x61, 0x74, 0x63, 0x68, 0x5f, 0x6e, 0x6f, 0x72, 0x6d,
  0x61, 0x6c, 0x69, 0x7a, 0x61, 0x74, 0x69, 0x6f, 0x6e, 0x5f, 0x33, 0x30,
  0x5f, 0x31, 0x2f, 0x62, 0x61, 0x74, 0x63, 0x68, 0x6e, 0x6f, 0x72, 0x6d,
  0x2f, 0x6d, 0x75, 0x6c, 0x5f, 0x31, 0x3b, 0x73, 0x65, 0x71, 0x75, 0x65,
  0x6e, 0x74, 0x69, 0x61, 0x6c, 0x5f, 0x31, 0x30, 0x5f, 0x31, 0x2f, 0x63,
  0x6f, 0x6e, 0x76, 0x31, 0x64, 0x5f, 0x33, 0x30, 0x5f, 0x31, 0x2f, 0x42,
  0x69, 0x61, 0x73, 0x41, 0x64, 0x64, 0x3b, 0x3b, 0x73, 0x65, 0x71, 0x75,
  0x65, 0x6e, 0x74, 0x69, 0x61, 0x6c, 0x5f, 0x31, 0x30, 0x5f, 0x31, 0x2f,
  0x63, 0x6f, 0x6e, 0x76, 0x31, 0x64, 0x5f, 0x33, 0x30, 0x5f, 0x31, 0x2f,
  0x63, 0x6f, 0x6e, 0x76, 0x6f, 0x6c, 0x75, 0x74, 0x69, 0x6f, 0x6e, 0x00,
  0x04, 0x00, 0x00, 0x00, 0x01, 0x00, 0x00, 0x00, 0x01, 0x00, 0x00, 0x00,
  0xfa, 0x00, 0x00, 0x00, 0x10, 0x00, 0x00, 0x00, 0xda, 0xf5, 0xff, 0xff,
  0x00, 0x00, 0x00, 0x01, 0x14, 0x00, 0x00, 0x00, 0x30, 0x00, 0x00, 0x00,
  0x0f, 0x00, 0x00, 0x00, 0x00, 0x00, 0x00, 0x09, 0x5c, 0x00, 0x00, 0x00,
  0xc4, 0xf5, 0xff, 0xff, 0x08, 0x00, 0x00, 0x00, 0x10, 0x00, 0x00, 0x00,
  0x01, 0x00, 0x00, 0x00, 0x94, 0xff, 0xff, 0xff, 0xff, 0xff, 0xff, 0xff,
  0x01, 0x00, 0x00, 0x00, 0xd5, 0x2a, 0xfb, 0x3e, 0x33, 0x00, 0x00, 0x00,
  0x73, 0x65, 0x71, 0x75, 0x65, 0x6e, 0x74, 0x69, 0x61, 0x6c, 0x5f, 0x31,
  0x30, 0x5f, 0x31, 0x2f, 0x63, 0x6f, 0x6e, 0x76, 0x31, 0x64, 0x5f, 0x33,
  0x30, 0x5f, 0x31, 0x2f, 0x63, 0x6f, 0x6e, 0x76, 0x6f, 0x6c, 0x75, 0x74,
  0x69, 0x6f, 0x6e, 0x2f, 0x45, 0x78, 0x70, 0x61, 0x6e, 0x64, 0x44, 0x69,
  0x6d, 0x73, 0x31, 0x00, 0x04, 0x00, 0x00, 0x00, 0x01, 0x00, 0x00, 0x00,
  0x01, 0x00, 0x00, 0x00, 0xf4, 0x01, 0x00, 0x00, 0x06, 0x00, 0x00, 0x00,
  0x62, 0xf6, 0xff, 0xff, 0x00, 0x00, 0x00, 0x01, 0x14, 0x00, 0x00, 0x00,
  0xe8, 0x00, 0x00, 0x00, 0x0e, 0x00, 0x00, 0x00, 0x00, 0x00, 0x00, 0x09,
  0xf4, 0x00, 0x00, 0x00, 0x4c, 0xf6, 0xff, 0xff, 0x08, 0x00, 0x00, 0x00,
  0x8c, 0x00, 0x00, 0x00, 0x10, 0x00, 0x00, 0x00, 0x00, 0x00, 0x00, 0x00,
  0x00, 0x00, 0x00, 0x00, 0x00, 0x00, 0x00, 0x00, 0x00, 0x00, 0x00, 0x00,
  0x00, 0x00, 0x00, 0x00, 0x00, 0x00, 0x00, 0x00, 0x00, 0x00, 0x00, 0x00,
  0x00, 0x00, 0x00, 0x00, 0x00, 0x00, 0x00, 0x00, 0x00, 0x00, 0x00, 0x00,
  0x00, 0x00, 0x00, 0x00, 0x00, 0x00, 0x00, 0x00, 0x00, 0x00, 0x00, 0x00,
  0x00, 0x00, 0x00, 0x00, 0x00, 0x00, 0x00, 0x00, 0x00, 0x00, 0x00, 0x00,
  0x00, 0x00, 0x00, 0x00, 0x00, 0x00, 0x00, 0x00, 0x00, 0x00, 0x00, 0x00,
  0x00, 0x00, 0x00, 0x00, 0x00, 0x00, 0x00, 0x00, 0x00, 0x00, 0x00, 0x00,
  0x00, 0x00, 0x00, 0x00, 0x00, 0x00, 0x00, 0x00, 0x00, 0x00, 0x00, 0x00,
  0x00, 0x00, 0x00, 0x00, 0x00, 0x00, 0x00, 0x00, 0x00, 0x00, 0x00, 0x00,
  0x00, 0x00, 0x00, 0x00, 0x00, 0x00, 0x00, 0x00, 0x00, 0x00, 0x00, 0x00,
  0x00, 0x00, 0x00, 0x00, 0x00, 0x00, 0x00, 0x00, 0x10, 0x00, 0x00, 0x00,
  0x64, 0x8e, 0xa7, 0x3a, 0x03, 0x7b, 0xbe, 0x3a, 0x4d, 0xe1, 0x9f, 0x3b,
  0xb7, 0x10, 0x09, 0x3b, 0x6e, 0x7c, 0x29, 0x3b, 0xe3, 0x9d, 0x98, 0x3a,
  0x30, 0x2b, 0x74, 0x3a, 0x64, 0xcd, 0x07, 0x3b, 0xa2, 0x95, 0xcf, 0x3a,
  0x90, 0x47, 0x38, 0x3a, 0x98, 0x5e, 0x06, 0x3b, 0x18, 0x93, 0xa7, 0x3a,
  0x86, 0x8f, 0x27, 0x3b, 0x28, 0xd2, 0x50, 0x3b, 0xb2, 0xe8, 0x7c, 0x3a,
  0xde, 0xba, 0xf9, 0x3a, 0x12, 0x00, 0x00, 0x00, 0x74, 0x66, 0x6c, 0x2e,
  0x70, 0x73, 0x65, 0x75, 0x64, 0x6f, 0x5f, 0x71, 0x63, 0x6f, 0x6e, 0x73,
  0x74, 0x39, 0x00, 0x00, 0x04, 0x00, 0x00, 0x00, 0x10, 0x00, 0x00, 0x00,
  0x01, 0x00, 0x00, 0x00, 0x07, 0x00, 0x00, 0x00, 0x06, 0x00, 0x00, 0x00,
  0x82, 0xf7, 0xff, 0xff, 0x00, 0x00, 0x00, 0x01, 0x14, 0x00, 0x00, 0x00,
  0xe4, 0x00, 0x00, 0x00, 0x0d, 0x00, 0x00, 0x00, 0x00, 0x00, 0x00, 0x02,
  0xf0, 0x00, 0x00, 0x00, 0x6c, 0xf7, 0xff, 0xff, 0x08, 0x00, 0x00, 0x00,
  0x88, 0x00, 0x00, 0x00, 0x10, 0x00, 0x00, 0x00, 0x00, 0x00, 0x00, 0x00,
  0x00, 0x00, 0x00, 0x00, 0x00, 0x00, 0x00, 0x00, 0x00, 0x00, 0x00, 0x00,
  0x00, 0x00, 0x00, 0x00, 0x00, 0x00, 0x00, 0x00, 0x00, 0x00, 0x00, 0x00,
  0x00, 0x00, 0x00, 0x00, 0x00, 0x00, 0x00, 0x00, 0x00, 0x00, 0x00, 0x00,
  0x00, 0x00, 0x00, 0x00, 0x00, 0x00, 0x00, 0x00, 0x00, 0x00, 0x00, 0x00,
  0x00, 0x00, 0x00, 0x00, 0x00, 0x00, 0x00, 0x00, 0x00, 0x00, 0x00, 0x00,
  0x00, 0x00, 0x00, 0x00, 0x00, 0x00, 0x00, 0x00, 0x00, 0x00, 0x00, 0x00,
  0x00, 0x00, 0x00, 0x00, 0x00, 0x00, 0x00, 0x00, 0x00, 0x00, 0x00, 0x00,
  0x00, 0x00, 0x00, 0x00, 0x00, 0x00, 0x00, 0x00, 0x00, 0x00, 0x00, 0x00,
  0x00, 0x00, 0x00, 0x00, 0x00, 0x00, 0x00, 0x00, 0x00, 0x00, 0x00, 0x00,
  0x00, 0x00, 0x00, 0x00, 0x00, 0x00, 0x00, 0x00, 0x00, 0x00, 0x00, 0x00,
  0x00, 0x00, 0x00, 0x00, 0x10, 0x00, 0x00, 0x00, 0xa5, 0x64, 0x24, 0x3a,
  0x7b, 0xe2, 0x3a, 0x3a, 0xa6, 0xdc, 0x1c, 0x3b, 0x52, 0x7a, 0x86, 0x3a,
  0x5b, 0x49, 0xa6, 0x3a, 0x56, 0xbc, 0x15, 0x3a, 0x32, 0x8f, 0xef, 0x39,
  0x1a, 0x3d, 0x85, 0x3a, 0x71, 0xaa, 0x4b, 0x3a, 0xff, 0xcc, 0xb4, 0x39,
  0x3a, 0xd5, 0x83, 0x3a, 0x42, 0x69, 0x24, 0x3a, 0xc1, 0x65, 0xa4, 0x3a,
  0xfd, 0xe0, 0xcc, 0x3a, 0x77, 0x22, 0xf8, 0x39, 0x00, 0x04, 0x75, 0x3a,
  0x12, 0x00, 0x00, 0x00, 0x74, 0x66, 0x6c, 0x2e, 0x70, 0x73, 0x65, 0x75,
  0x64, 0x6f, 0x5f, 0x71, 0x63, 0x6f, 0x6e, 0x73, 0x74, 0x38, 0x00, 0x00,
  0x01, 0x00, 0x00, 0x00, 0x10, 0x00, 0x00, 0x00, 0x92, 0xf8, 0xff, 0xff,
  0x00, 0x00, 0x00, 0x01, 0x14, 0x00, 0x00, 0x00, 0xb8, 0x00, 0x00, 0x00,
  0x0c, 0x00, 0x00, 0x00, 0x00, 0x00, 0x00, 0x09, 0xc4, 0x00, 0x00, 0x00,
  0x7c, 0xf8, 0xff, 0xff, 0x08, 0x00, 0x00, 0x00, 0x6c, 0x00, 0x00, 0x00,
  0x0c, 0x00, 0x00, 0x00, 0x00, 0x00, 0x00, 0x00, 0x00, 0x00, 0x00, 0x00,
  0x00, 0x00, 0x00, 0x00, 0x00, 0x00, 0x00, 0x00, 0x00, 0x00, 0x00, 0x00,
  0x00, 0x00, 0x00, 0x00, 0x00, 0x00, 0x00, 0x00, 0x00, 0x00, 0x00, 0x00,
  0x00, 0x00, 0x00, 0x00, 0x00, 0x00, 0x00, 0x00, 0x00, 0x00, 0x00, 0x00,
  0x00, 0x00, 0x00, 0x00, 0x00, 0x00, 0x00, 0x00, 0x00, 0x00, 0x00, 0x00,
  0x00, 0x00, 0x00, 0x00, 0x00, 0x00, 0x00, 0x00, 0x00, 0x00, 0x00, 0x00,
  0x00, 0x00, 0x00, 0x00, 0x00, 0x00, 0x00, 0x00, 0x00, 0x00, 0x00, 0x00,
  0x00, 0x00, 0x00, 0x00, 0x00, 0x00, 0x00, 0x00, 0x00, 0x00, 0x00, 0x00,
  0x00, 0x00, 0x00, 0x00, 0x00, 0x00, 0x00, 0x00, 0x0c, 0x00, 0x00, 0x00,
  0x32, 0x29, 0x95, 0x3a, 0xdd, 0xe2, 0x35, 0x3b, 0x85, 0x9f, 0x2f, 0x3b,
  0x89, 0x2e, 0x2e, 0x3b, 0x8b, 0x56, 0x06, 0x3b, 0x1e, 0x44, 0x0e, 0x3b,
  0xe3, 0x78, 0x9f, 0x3b, 0x54, 0x91, 0x20, 0x3b, 0x41, 0x30, 0x45, 0x3b,
  0xd2, 0xae, 0x22, 0x3b, 0xd9, 0x96, 0x4d, 0x3b, 0xd5, 0xb5, 0x36, 0x3b,
  0x12, 0x00, 0x00, 0x00, 0x74, 0x66, 0x6c, 0x2e, 0x70, 0x73, 0x65, 0x75,
  0x64, 0x6f, 0x5f, 0x71, 0x63, 0x6f, 0x6e, 0x73, 0x74, 0x37, 0x00, 0x00,
  0x04, 0x00, 0x00, 0x00, 0x0c, 0x00, 0x00, 0x00, 0x01, 0x00, 0x00, 0x00,
  0x05, 0x00, 0x00, 0x00, 0x10, 0x00, 0x00, 0x00, 0x82, 0xf9, 0xff, 0xff,
  0x00, 0x00, 0x00, 0x01, 0x14, 0x00, 0x00, 0x00, 0xb4, 0x00, 0x00, 0x00,
  0x0b, 0x00, 0x00, 0x00, 0x00, 0x00, 0x00, 0x02, 0xc0, 0x00, 0x00, 0x00,
  0x6c, 0xf9, 0xff, 0xff, 0x08, 0x00, 0x00, 0x00, 0x68, 0x00, 0x00, 0x00,
  0x0c, 0x00, 0x00, 0x00, 0x00, 0x00, 0x00, 0x00, 0x00, 0x00, 0x00, 0x00,
  0x00, 0x00, 0x00, 0x00, 0x00, 0x00, 0x00, 0x00, 0x00, 0x00, 0x00, 0x00,
  0x00, 0x00, 0x00, 0x00, 0x00, 0x00, 0x00, 0x00, 0x00, 0x00, 0x00, 0x00,
  0x00, 0x00, 0x00, 0x00, 0x00, 0x00, 0x00, 0x00, 0x00, 0x00, 0x00, 0x00,
  0x00, 0x00, 0x00, 0x00, 0x00, 0x00, 0x00, 0x00, 0x00, 0x00, 0x00, 0x00,
  0x00, 0x00, 0x00, 0x00, 0x00, 0x00, 0x00, 0x00, 0x00, 0x00, 0x00, 0x00,
  0x00, 0x00, 0x00, 0x00, 0x00, 0x00, 0x00, 0x00, 0x00, 0x00, 0x00, 0x00,
  0x00, 0x00, 0x00, 0x00, 0x00, 0x00, 0x00, 0x00, 0x00, 0x00, 0x00, 0x00,
  0x00, 0x00, 0x00, 0x00, 0x0c, 0x00, 0x00, 0x00, 0xd9, 0xd9, 0xb9, 0x38,
  0x3a, 0xa0, 0x62, 0x39, 0x7f, 0xd2, 0x5a, 0x39, 0xc0, 0x06, 0x59, 0x39,
  0xcd, 0x61, 0x27, 0x39, 0x9b, 0x42, 0x31, 0x39, 0xd8, 0xb2, 0xc6, 0x39,
  0x44, 0x10, 0x48, 0x39, 0x34, 0xb1, 0x75, 0x39, 0xf4, 0xb2, 0x4a, 0x39,
  0x65, 0x14, 0x80, 0x39, 0x16, 0xa7, 0x63, 0x39, 0x12, 0x00, 0x00, 0x00,
  0x74, 0x66, 0x6c, 0x2e, 0x70, 0x73, 0x65, 0x75, 0x64, 0x6f, 0x5f, 0x71,
  0x63, 0x6f, 0x6e, 0x73, 0x74, 0x36, 0x00, 0x00, 0x01, 0x00, 0x00, 0x00,
  0x0c, 0x00, 0x00, 0x00, 0x62, 0xfa, 0xff, 0xff, 0x00, 0x00, 0x00, 0x01,
  0x14, 0x00, 0x00, 0x00, 0x88, 0x00, 0x00, 0x00, 0x0a, 0x00, 0x00, 0x00,
  0x00, 0x00, 0x00, 0x09, 0x94, 0x00, 0x00, 0x00, 0x4c, 0xfa, 0xff, 0xff,
  0x08, 0x00, 0x00, 0x00, 0x4c, 0x00, 0x00, 0x00, 0x08, 0x00, 0x00, 0x00,
  0x00, 0x00, 0x00, 0x00, 0x00, 0x00, 0x00, 0x00, 0x00, 0x00, 0x00, 0x00,
  0x00, 0x00, 0x00, 0x00, 0x00, 0x00, 0x00, 0x00, 0x00, 0x00, 0x00, 0x00,
  0x00, 0x00, 0x00, 0x00, 0x00, 0x00, 0x00, 0x00, 0x00, 0x00, 0x00, 0x00,
  0x00, 0x00, 0x00, 0x00, 0x00, 0x00, 0x00, 0x00, 0x00, 0x00, 0x00, 0x00,
  0x00, 0x00, 0x00, 0x00, 0x00, 0x00, 0x00, 0x00, 0x00, 0x00, 0x00, 0x00,
  0x00, 0x00, 0x00, 0x00, 0x00, 0x00, 0x00, 0x00, 0x08, 0x00, 0x00, 0x00,
  0x34, 0x2e, 0x33, 0x3c, 0x81, 0xc7, 0x89, 0x3c, 0x57, 0xdb, 0x6d, 0x3c,
  0x24, 0xf3, 0x87, 0x3c, 0xd6, 0x70, 0xca, 0x3c, 0x9d, 0xc5, 0x71, 0x3c,
  0x49, 0x01, 0x35, 0x3c, 0x88, 0xfa, 0x5f, 0x3c, 0x12, 0x00, 0x00, 0x00,
  0x74, 0x66, 0x6c, 0x2e, 0x70, 0x73, 0x65, 0x75, 0x64, 0x6f, 0x5f, 0x71,
  0x63, 0x6f, 0x6e, 0x73, 0x74, 0x35, 0x00, 0x00, 0x04, 0x00, 0x00, 0x00,
  0x08, 0x00, 0x00, 0x00, 0x01, 0x00, 0x00, 0x00, 0x03, 0x00, 0x00, 0x00,
  0x0c, 0x00, 0x00, 0x00, 0x22, 0xfb, 0xff, 0xff, 0x00, 0x00, 0x00, 0x01,
  0x14, 0x00, 0x00, 0x00, 0x84, 0x00, 0x00, 0x00, 0x09, 0x00, 0x00, 0x00,
  0x00, 0x00, 0x00, 0x02, 0x90, 0x00, 0x00, 0x00, 0x0c, 0xfb, 0xff, 0xff,
  0x08, 0x00, 0x00, 0x00, 0x48, 0x00, 0x00, 0x00, 0x08, 0x00, 0x00, 0x00,
  0x00, 0x00, 0x00, 0x00, 0x00, 0x00, 0x00, 0x00, 0x00, 0x00, 0x00, 0x00,
  0x00, 0x00, 0x00, 0x00, 0x00, 0x00, 0x00, 0x00, 0x00, 0x00, 0x00, 0x00,
  0x00, 0x00, 0x00, 0x00, 0x00, 0x00, 0x00, 0x00, 0x00, 0x00, 0x00, 0x00,
  0x00, 0x00, 0x00, 0x00, 0x00, 0x00, 0x00, 0x00, 0x00, 0x00, 0x00, 0x00,
  0x00, 0x00, 0x00, 0x00, 0x00, 0x00, 0x00, 0x00, 0x00, 0x00, 0x00, 0x00,
  0x00, 0x00, 0x00, 0x00, 0x08, 0x00, 0x00, 0x00, 0x72, 0x0d, 0xb3, 0x39,
  0x50, 0xae, 0x09, 0x3a, 0xda, 0xaf, 0xed, 0x39, 0x49, 0xda, 0x07, 0x3a,
  0xd3, 0x4b, 0x4a, 0x3a, 0x69, 0x99, 0xf1, 0x39, 0x31, 0xe0, 0xb4, 0x39,
  0x95, 0xd1, 0xdf, 0x39, 0x12, 0x00, 0x00, 0x00, 0x74, 0x66, 0x6c, 0x2e,
  0x70, 0x73, 0x65, 0x75, 0x64, 0x6f, 0x5f, 0x71, 0x63, 0x6f, 0x6e, 0x73,
  0x74, 0x34, 0x00, 0x00, 0x01, 0x00, 0x00, 0x00, 0x08, 0x00, 0x00, 0x00,
  0xd2, 0xfb, 0xff, 0xff, 0x00, 0x00, 0x00, 0x01, 0x14, 0x00, 0x00, 0x00,
  0xe8, 0x00, 0x00, 0x00, 0x08, 0x00, 0x00, 0x00, 0x00, 0x00, 0x00, 0x09,
  0xf4, 0x00, 0x00, 0x00, 0xbc, 0xfb, 0xff, 0xff, 0x08, 0x00, 0x00, 0x00,
  0x8c, 0x00, 0x00, 0x00, 0x10, 0x00, 0x00, 0x00, 0x00, 0x00, 0x00, 0x00,
  0x00, 0x00, 0x00, 0x00, 0x00, 0x00, 0x00, 0x00, 0x00, 0x00, 0x00, 0x00,
  0x00, 0x00, 0x00, 0x00, 0x00, 0x00, 0x00, 0x00, 0x00, 0x00, 0x00, 0x00,
  0x00, 0x00, 0x00, 0x00, 0x00, 0x00, 0x00, 0x00, 0x00, 0x00, 0x00, 0x00,
  0x00, 0x00, 0x00, 0x00, 0x00, 0x00, 0x00, 0x00, 0x00, 0x00, 0x00, 0x00,
  0x00, 0x00, 0x00, 0x00, 0x00, 0x00, 0x00, 0x00, 0x00, 0x00, 0x00, 0x00,
  0x00, 0x00, 0x00, 0x00, 0x00, 0x00, 0x00, 0x00, 0x00, 0x00, 0x00, 0x00,
  0x00, 0x00, 0x00, 0x00, 0x00, 0x00, 0x00, 0x00, 0x00, 0x00, 0x00, 0x00,
  0x00, 0x00, 0x00, 0x00, 0x00, 0x00, 0x00, 0x00, 0x00, 0x00, 0x00, 0x00,
  0x00, 0x00, 0x00, 0x00, 0x00, 0x00, 0x00, 0x00, 0x00, 0x00, 0x00, 0x00,
  0x00, 0x00, 0x00, 0x00, 0x00, 0x00, 0x00, 0x00, 0x00, 0x00, 0x00, 0x00,
  0x00, 0x00, 0x00, 0x00, 0x00, 0x00, 0x00, 0x00, 0x10, 0x00, 0x00, 0x00,
  0x6c, 0xea, 0x05, 0x3c, 0xaa, 0x70, 0x07, 0x3c, 0x86, 0x92, 0xce, 0x3b,
  0xce, 0x60, 0xed, 0x3b, 0xe6, 0x66, 0x1d, 0x3c, 0x9e, 0x9a, 0xdf, 0x3b,
  0x9c, 0x70, 0x1b, 0x3c, 0x4a, 0x97, 0xbd, 0x3b, 0x31, 0x63, 0x98, 0x3b,
  0x63, 0x50, 0xd1, 0x3b, 0xd2, 0x29, 0xb0, 0x3b, 0xd1, 0x2f, 0xbc, 0x3b,
  0x66, 0x86, 0xfc, 0x3b, 0x98, 0xcf, 0x0e, 0x3c, 0xcd, 0x7f, 0x16, 0x3c,
  0x85, 0x0a, 0x06, 0x3c, 0x12, 0x00, 0x00, 0x00, 0x74, 0x66, 0x6c, 0x2e,
  0x70, 0x73, 0x65, 0x75, 0x64, 0x6f, 0x5f, 0x71, 0x63, 0x6f, 0x6e, 0x73,
  0x74, 0x33, 0x00, 0x00, 0x02, 0x00, 0x00, 0x00, 0x10, 0x00, 0x00, 0x00,
  0x08, 0x00, 0x00, 0x00, 0xea, 0xfc, 0xff, 0xff, 0x00, 0x00, 0x00, 0x01,
  0x14, 0x00, 0x00, 0x00, 0xe4, 0x00, 0x00, 0x00, 0x07, 0x00, 0x00, 0x00,
  0x00, 0x00, 0x00, 0x02, 0xf0, 0x00, 0x00, 0x00, 0xd4, 0xfc, 0xff, 0xff,
  0x08, 0x00, 0x00, 0x00, 0x88, 0x00, 0x00, 0x00, 0x10, 0x00, 0x00, 0x00,
  0x00, 0x00, 0x00, 0x00, 0x00, 0x00, 0x00, 0x00, 0x00, 0x00, 0x00, 0x00,
  0x00, 0x00, 0x00, 0x00, 0x00, 0x00, 0x00, 0x00, 0x00, 0x00, 0x00, 0x00,
  0x00, 0x00, 0x00, 0x00, 0x00, 0x00, 0x00, 0x00, 0x00, 0x00, 0x00, 0x00,
  0x00, 0x00, 0x00, 0x00, 0x00, 0x00, 0x00, 0x00, 0x00, 0x00, 0x00, 0x00,
  0x00, 0x00, 0x00, 0x00, 0x00, 0x00, 0x00, 0x00, 0x00, 0x00, 0x00, 0x00,
  0x00, 0x00, 0x00, 0x00, 0x00, 0x00, 0x00, 0x00, 0x00, 0x00, 0x00, 0x00,
  0x00, 0x00, 0x00, 0x00, 0x00, 0x00, 0x00, 0x00, 0x00, 0x00, 0x00, 0x00,
  0x00, 0x00, 0x00, 0x00, 0x00, 0x00, 0x00, 0x00, 0x00, 0x00, 0x00, 0x00,
  0x00, 0x00, 0x00, 0x00, 0x00, 0x00, 0x00, 0x00, 0x00, 0x00, 0x00, 0x00,
  0x00, 0x00, 0x00, 0x00, 0x00, 0x00, 0x00, 0x00, 0x00, 0x00, 0x00, 0x00,
  0x00, 0x00, 0x00, 0x00, 0x00, 0x00, 0x00, 0x00, 0x10, 0x00, 0x00, 0x00,
  0xf9, 0xc1, 0x1b, 0x39, 0xdd, 0x87, 0x1d, 0x39, 0xcc, 0x43, 0xf0, 0x38,
  0x2d, 0x0c, 0x0a, 0x39, 0x19, 0x13, 0x37, 0x39, 0x84, 0x09, 0x02, 0x39,
  0xe2, 0xca, 0x34, 0x39, 0x84, 0x83, 0xdc, 0x38, 0x04, 0x3e, 0xb1, 0x38,
  0x22, 0x74, 0xf3, 0x38, 0x63, 0xe5, 0xcc, 0x38, 0x6a, 0xe1, 0xda, 0x38,
  0x32, 0xdb, 0x12, 0x39, 0x8e, 0x1a, 0x26, 0x39, 0xc8, 0x0b, 0x2f, 0x39,
  0x4e, 0xe7, 0x1b, 0x39, 0x12, 0x00, 0x00, 0x00, 0x74, 0x66, 0x6c, 0x2e,
  0x70, 0x73, 0x65, 0x75, 0x64, 0x6f, 0x5f, 0x71, 0x63, 0x6f, 0x6e, 0x73,
  0x74, 0x32, 0x00, 0x00, 0x01, 0x00, 0x00, 0x00, 0x10, 0x00, 0x00, 0x00,
  0xfa, 0xfd, 0xff, 0xff, 0x00, 0x00, 0x00, 0x01, 0x14, 0x00, 0x00, 0x00,
  0x78, 0x00, 0x00, 0x00, 0x06, 0x00, 0x00, 0x00, 0x00, 0x00, 0x00, 0x09,
  0x84, 0x00, 0x00, 0x00, 0xe4, 0xfd, 0xff, 0xff, 0x08, 0x00, 0x00, 0x00,
  0x40, 0x00, 0x00, 0x00, 0x07, 0x00, 0x00, 0x00, 0x00, 0x00, 0x00, 0x00,
  0x00, 0x00, 0x00, 0x00, 0x00, 0x00, 0x00, 0x00, 0x00, 0x00, 0x00, 0x00,
  0x00, 0x00, 0x00, 0x00, 0x00, 0x00, 0x00, 0x00, 0x00, 0x00, 0x00, 0x00,
  0x00, 0x00, 0x00, 0x00, 0x00, 0x00, 0x00, 0x00, 0x00, 0x00, 0x00, 0x00,
  0x00, 0x00, 0x00, 0x00, 0x00, 0x00, 0x00, 0x00, 0x00, 0x00, 0x00, 0x00,
  0x00, 0x00, 0x00, 0x00, 0x07, 0x00, 0x00, 0x00, 0xe2, 0xd8, 0x7e, 0x3d,
  0xa1, 0xc8, 0x67, 0x3d, 0xdc, 0x5e, 0x8e, 0x3d, 0xc4, 0xb2, 0x8d, 0x3d,
  0xd3, 0x68, 0x52, 0x3d, 0xd7, 0xc3, 0x24, 0x3d, 0x5a, 0xdc, 0x58, 0x3d,
  0x12, 0x00, 0x00, 0x00, 0x74, 0x66, 0x6c, 0x2e, 0x70, 0x73, 0x65, 0x75,
  0x64, 0x6f, 0x5f, 0x71, 0x63, 0x6f, 0x6e, 0x73, 0x74, 0x31, 0x00, 0x00,
  0x02, 0x00, 0x00, 0x00, 0x07, 0x00, 0x00, 0x00, 0x10, 0x00, 0x00, 0x00,
  0xa2, 0xfe, 0xff, 0xff, 0x00, 0x00, 0x00, 0x01, 0x14, 0x00, 0x00, 0x00,
  0x7c, 0x00, 0x00, 0x00, 0x05, 0x00, 0x00, 0x00, 0x00, 0x00, 0x00, 0x02,
  0x88, 0x00, 0x00, 0x00, 0x8c, 0xfe, 0xff, 0xff, 0x08, 0x00, 0x00, 0x00,
  0x44, 0x00, 0x00, 0x00, 0x07, 0x00, 0x00, 0x00, 0x00, 0x00, 0x00, 0x00,
  0x00, 0x00, 0x00, 0x00, 0x00, 0x00, 0x00, 0x00, 0x00, 0x00, 0x00, 0x00,
  0x00, 0x00, 0x00, 0x00, 0x00, 0x00, 0x00, 0x00, 0x00, 0x00, 0x00, 0x00,
  0x00, 0x00, 0x00, 0x00, 0x00, 0x00, 0x00, 0x00, 0x00, 0x00, 0x00, 0x00,
  0x00, 0x00, 0x00, 0x00, 0x00, 0x00, 0x00, 0x00, 0x00, 0x00, 0x00, 0x00,
  0x00, 0x00, 0x00, 0x00, 0x00, 0x00, 0x00, 0x00, 0x07, 0x00, 0x00, 0x00,
  0x30, 0x2e, 0x11, 0x3a, 0xac, 0x0a, 0x04, 0x3a, 0xd4, 0x35, 0x22, 0x3a,
  0xc0, 0x71, 0x21, 0x3a, 0x08, 0xbb, 0xef, 0x39, 0xb7, 0xb9, 0xbb, 0x39,
  0xb4, 0x14, 0xf7, 0x39, 0x11, 0x00, 0x00, 0x00, 0x74, 0x66, 0x6c, 0x2e,
  0x70, 0x73, 0x65, 0x75, 0x64, 0x6f, 0x5f, 0x71, 0x63, 0x6f, 0x6e, 0x73,
  0x74, 0x00, 0x00, 0x00, 0x01, 0x00, 0x00, 0x00, 0x07, 0x00, 0x00, 0x00,
  0x4a, 0xff, 0xff, 0xff, 0x00, 0x00, 0x00, 0x01, 0x14, 0x00, 0x00, 0x00,
  0x14, 0x00, 0x00, 0x00, 0x04, 0x00, 0x00, 0x00, 0x00, 0x00, 0x00, 0x02,
  0x1c, 0x00, 0x00, 0x00, 0x8c, 0xff, 0xff, 0xff, 0x0f, 0x00, 0x00, 0x00,
  0x61, 0x72, 0x69, 0x74, 0x68, 0x2e, 0x63, 0x6f, 0x6e, 0x73, 0x74, 0x61,
  0x6e, 0x74, 0x32, 0x00, 0x00, 0x00, 0x00, 0x00, 0x82, 0xff, 0xff, 0xff,
  0x00, 0x00, 0x00, 0x01, 0x14, 0x00, 0x00, 0x00, 0x14, 0x00, 0x00, 0x00,
  0x03, 0x00, 0x00, 0x00, 0x00, 0x00, 0x00, 0x02, 0x1c, 0x00, 0x00, 0x00,
  0xc4, 0xff, 0xff, 0xff, 0x0f, 0x00, 0x00, 0x00, 0x61, 0x72, 0x69, 0x74,
  0x68, 0x2e, 0x63, 0x6f, 0x6e, 0x73, 0x74, 0x61, 0x6e, 0x74, 0x31, 0x00,
  0x01, 0x00, 0x00, 0x00, 0x03, 0x00, 0x00, 0x00, 0xbe, 0xff, 0xff, 0xff,
  0x00, 0x00, 0x00, 0x01, 0x18, 0x00, 0x00, 0x00, 0x18, 0x00, 0x00, 0x00,
  0x02, 0x00, 0x00, 0x00, 0x00, 0x00, 0x00, 0x02, 0x20, 0x00, 0x00, 0x00,
  0x04, 0x00, 0x04, 0x00, 0x04, 0x00, 0x00, 0x00, 0x0e, 0x00, 0x00, 0x00,
  0x61, 0x72, 0x69, 0x74, 0x68, 0x2e, 0x63, 0x6f, 0x6e, 0x73, 0x74, 0x61,
  0x6e, 0x74, 0x00, 0x00, 0x01, 0x00, 0x00, 0x00, 0x04, 0x00, 0x00, 0x00,
  0x00, 0x00, 0x16, 0x00, 0x1c, 0x00, 0x18, 0x00, 0x17, 0x00, 0x10, 0x00,
  0x0c, 0x00, 0x08, 0x00, 0x00, 0x00, 0x00, 0x00, 0x00, 0x00, 0x07, 0x00,
  0x16, 0x00, 0x00, 0x00, 0x00, 0x00, 0x00, 0x01, 0x20, 0x00, 0x00, 0x00,
  0x40, 0x00, 0x00, 0x00, 0x01, 0x00, 0x00, 0x00, 0x00, 0x00, 0x00, 0x09,
  0x5c, 0x00, 0x00, 0x00, 0x0c, 0x00, 0x0c, 0x00, 0x00, 0x00, 0x00, 0x00,
  0x08, 0x00, 0x04, 0x00, 0x0c, 0x00, 0x00, 0x00, 0x08, 0x00, 0x00, 0x00,
  0x14, 0x00, 0x00, 0x00, 0x01, 0x00, 0x00, 0x00, 0x94, 0xff, 0xff, 0xff,
  0xff, 0xff, 0xff, 0xff, 0x00, 0x00, 0x00, 0x00, 0x01, 0x00, 0x00, 0x00,
  0xd5, 0x2a, 0xfb, 0x3e, 0x22, 0x00, 0x00, 0x00, 0x73, 0x65, 0x72, 0x76,
  0x69, 0x6e, 0x67, 0x5f, 0x64, 0x65, 0x66, 0x61, 0x75, 0x6c, 0x74, 0x5f,
  0x6b, 0x65, 0x72, 0x61, 0x73, 0x5f, 0x74, 0x65, 0x6e, 0x73, 0x6f, 0x72,
  0x5f, 0x31, 0x34, 0x30, 0x3a, 0x30, 0x00, 0x00, 0x03, 0x00, 0x00, 0x00,
  0x01, 0x00, 0x00, 0x00, 0xf4, 0x01, 0x00, 0x00, 0x06, 0x00, 0x00, 0x00,
  0x05, 0x00, 0x00, 0x00, 0x6c, 0x00, 0x00, 0x00, 0x4c, 0x00, 0x00, 0x00,
  0x2c, 0x00, 0x00, 0x00, 0x18, 0x00, 0x00, 0x00, 0x04, 0x00, 0x00, 0x00,
  0xd0, 0xff, 0xff, 0xff, 0x19, 0x00, 0x00, 0x00, 0x02, 0x00, 0x00, 0x00,
  0x00, 0x00, 0x00, 0x19, 0xe0, 0xff, 0xff, 0xff, 0x09, 0x00, 0x00, 0x00,
  0x04, 0x00, 0x00, 0x00, 0x00, 0x00, 0x00, 0x09, 0xf0, 0xff, 0xff, 0xff,
  0x28, 0x00, 0x00, 0x00, 0x02, 0x00, 0x00, 0x00, 0x00, 0x00, 0x00, 0x28,
  0x0c, 0x00, 0x10, 0x00, 0x0f, 0x00, 0x00, 0x00, 0x08, 0x00, 0x04, 0x00,
  0x0c, 0x00, 0x00, 0x00, 0x03, 0x00, 0x00, 0x00, 0x03, 0x00, 0x00, 0x00,
  0x00, 0x00, 0x00, 0x03, 0x0c, 0x00, 0x0c, 0x00, 0x0b, 0x00, 0x00, 0x00,
  0x00, 0x00, 0x04, 0x00, 0x0c, 0x00, 0x00, 0x00, 0x16, 0x00, 0x00, 0x00,
  0x00, 0x00, 0x00, 0x16
};
inline const unsigned int gesture_model_0_tflite_len = 8824;

inline const unsigned char gesture_model_1_tflite[] = {
  0x20, 0x00, 0x00, 0x00, 0x54, 0x46, 0x4c, 0x33, 0x00, 0x00, 0x00, 0x00,
  0x14, 0x00, 0x20, 0x00, 0x1c, 0x00, 0x18, 0x00, 0x14, 0x00, 0x10, 0x00,
  0x0c, 0x00, 0x00, 0x00, 0x08, 0x00, 0x04, 0x00, 0x14, 0x00, 0x00, 0x00,
  0x1c, 0x00, 0x00, 0x00, 0x9c, 0x00, 0x00, 0x00, 0x1c, 0x01, 0x00, 0x00,
  0x70, 0x0c, 0x00, 0x00, 0x80, 0x0c, 0x00, 0x00, 0xc4, 0x21, 0x00, 0x00,
  0x03, 0x00, 0x00, 0x00, 0x01, 0x00, 0x00, 0x00, 0x10, 0x00, 0x00, 0x00,
  0x00, 0x00, 0x0a, 0x00, 0x10, 0x00, 0x0c, 0x00, 0x08, 0x00, 0x04, 0x00,
  0x0a, 0x00, 0x00, 0x00, 0x0c, 0x00, 0x00, 0x00, 0x1c, 0x00, 0x00, 0x00,
  0x3c, 0x00, 0x00, 0x00, 0x0f, 0x00, 0x00, 0x00, 0x73, 0x65, 0x72, 0x76,
  0x69, 0x6e, 0x67, 0x5f, 0x64, 0x65, 0x66, 0x61, 0x75, 0x6c, 0x74, 0x00,
  0x01, 0x00, 0x00, 0x00, 0x04, 0x00, 0x00, 0x00, 0x64, 0xff, 0xff, 0xff,
  0x16, 0x00, 0x00, 0x00, 0x04, 0x00, 0x00, 0x00, 0x08, 0x00, 0x00, 0x00,
  0x6f, 0x75, 0x74, 0x70, 0x75, 0x74, 0x5f, 0x30, 0x00, 0x00, 0x00, 0x00,
  0x01, 0x00, 0x00, 0x00, 0x04, 0x00, 0x00, 0x00, 0x72, 0xf3, 0xff, 0xff,
  0x04, 0x00, 0x00, 0x00, 0x10, 0x00, 0x00, 0x00, 0x6b, 0x65, 0x72, 0x61,
  0x73, 0x5f, 0x74, 0x65, 0x6e, 0x73, 0x6f, 0x72, 0x5f, 0x31, 0x35, 0x34,
  0x00, 0x00, 0x00, 0x00, 0x03, 0x00, 0x00, 0x00, 0x5c, 0x00, 0x00, 0x00,
  0x2c, 0x00, 0x00, 0x00, 0x04, 0x00, 0x00, 0x00, 0xb8, 0xff, 0xff, 0xff,
  0x1a, 0x00, 0x00, 0x00, 0x04, 0x00, 0x00, 0x00, 0x13, 0x00, 0x00, 0x00,
  0x43, 0x4f, 0x4e, 0x56, 0x45, 0x52, 0x53, 0x49, 0x4f, 0x4e, 0x5f, 0x4d,
  0x45, 0x54, 0x41, 0x44, 0x41, 0x54, 0x41, 0x00, 0xdc, 0xff, 0xff, 0xff,
  0x19, 0x00, 0x00, 0x00, 0x04, 0x00, 0x00, 0x00, 0x13, 0x00, 0x00, 0x00,
  0x6d, 0x69, 0x6e, 0x5f, 0x72, 0x75, 0x6e, 0x74, 0x69, 0x6d, 0x65, 0x5f,
  0x76, 0x65, 0x72, 0x73, 0x69, 0x6f, 0x6e, 0x00, 0x08, 0x00, 0x0c, 0x00,
  0x08, 0x00, 0x04, 0x00, 0x08, 0x00, 0x00, 0x00, 0x18, 0x00, 0x00, 0x00,
  0x04, 0x00, 0x00, 0x00, 0x13, 0x00, 0x00, 0x00, 0x6d, 0x69, 0x6e, 0x5f,
  0x72, 0x75, 0x6e, 0x74, 0x69, 0x6d, 0x65, 0x5f, 0x76, 0x65, 0x72, 0x73,
  0x69, 0x6f, 0x6e, 0x00, 0x1b, 0x00, 0x00, 0x00, 0x50, 0x0b, 0x00, 0x00,
  0x48, 0x0b, 0x00, 0x00, 0x28, 0x0b, 0x00, 0x00, 0x0c, 0x0b, 0x00, 0x00,
  0xf8, 0x0a, 0x00, 0x00, 0xcc, 0x0a, 0x00, 0x00, 0x4c, 0x0a, 0x00, 0x00,
  0xfc, 0x09, 0x00, 0x00, 0x6c, 0x09, 0x00, 0x00, 0x3c, 0x09, 0x00, 0x00,
  0x0c, 0x08, 0x00, 0x00, 0xcc, 0x07, 0x00, 0x00, 0xfc, 0x03, 0x00, 0x00,
  0xac, 0x03, 0x00, 0x00, 0xfc, 0x00, 0x00, 0x00, 0xf4, 0x00, 0x00, 0x00,
  0xec, 0x00, 0x00, 0x00, 0xe4, 0x00, 0x00, 0x00, 0xdc, 0x00, 0x00, 0x00,
  0xd4, 0x00, 0x00, 0x00, 0xcc, 0x00, 0x00, 0x00, 0xc4, 0x00, 0x00, 0x00,
  0xbc, 0x00, 0x00, 0x00, 0xb4, 0x00, 0x00, 0x00, 0x94, 0x00, 0x00, 0x00,
  0x74, 0x00, 0x00, 0x00, 0x04, 0x00, 0x00, 0x00, 0x86, 0xf4, 0xff, 0xff,
  0x04, 0x00, 0x00, 0x00, 0x60, 0x00, 0x00, 0x00, 0x0c, 0x00, 0x00, 0x00,
  0x08, 0x00, 0x0e, 0x00, 0x08, 0x00, 0x04, 0x00, 0x08, 0x00, 0x00, 0x00,
  0x10, 0x00, 0x00, 0x00, 0x28, 0x00, 0x00, 0x00, 0x00, 0x00, 0x06, 0x00,
  0x08, 0x00, 0x04, 0x00, 0x06, 0x00, 0x00, 0x00, 0x04, 0x00, 0x00, 0x00,
  0x01, 0x00, 0x00, 0x00, 0xeb, 0x03, 0x00, 0x00, 0x0c, 0x00, 0x18, 0x00,
  0x14, 0x00, 0x10, 0x00, 0x0c, 0x00, 0x04, 0x00, 0x0c, 0x00, 0x00, 0x00,
  0x90, 0x23, 0x1c, 0x91, 0xe1, 0x42, 0xe3, 0x7e, 0x02, 0x00, 0x00, 0x00,
  0x02, 0x00, 0x00, 0x00, 0x04, 0x00, 0x00, 0x00, 0x06, 0x00, 0x00, 0x00,
  0x32, 0x2e, 0x31, 0x39, 0x2e, 0x30, 0x00, 0x00, 0xf2, 0xf4, 0xff, 0xff,
  0x04, 0x00, 0x00, 0x00, 0x10, 0x00, 0x00, 0x00, 0x00, 0x00, 0x00, 0x00,
  0x00, 0x00, 0x00, 0x00, 0x00, 0x00, 0x00, 0x00, 0x00, 0x00, 0x00, 0x00,
  0x0e, 0xf5, 0xff, 0xff, 0x04, 0x00, 0x00, 0x00, 0x10, 0x00, 0x00, 0x00,
  0x31, 0x2e, 0x31, 0x34, 0x2e, 0x30, 0x00, 0x00, 0x00, 0x00, 0x00, 0x00,
  0x00, 0x00, 0x00, 0x00, 0x20, 0xe1, 0xff, 0xff, 0x24, 0xe1, 0xff, 0xff,
  0x28, 0xe1, 0xff, 0xff, 0x2c, 0xe1, 0xff, 0xff, 0x30, 0xe1, 0xff, 0xff,
  0x34, 0xe1, 0xff, 0xff, 0x38, 0xe1, 0xff, 0xff, 0x3c, 0xe1, 0xff, 0xff,
  0x40, 0xe1, 0xff, 0xff, 0x4e, 0xf5, 0xff, 0xff, 0x04, 0x00, 0x00, 0x00,
  0xa0, 0x02, 0x00, 0x00, 0x0d, 0x1f, 0xdd, 0xc9, 0x2c, 0x8f, 0x10, 0x24,
  0x01, 0xaf, 0x49, 0xa1, 0x13, 0x0a, 0x0e, 0xf2, 0x1d, 0xb3, 0xfe, 0x07,
  0x10, 0xe1, 0x0f, 0xa9, 0x13, 0xf6, 0x19, 0xf9, 0xc8, 0xa0, 0xf7, 0xcb,
  0x08, 0x1b, 0x9d, 0x99, 0xf1, 0xd2, 0xe2, 0x05, 0x81, 0x93, 0x45, 0x22,
  0x15, 0xf7, 0xeb, 0x28, 0x0b, 0x29, 0x0f, 0xd0, 0x14, 0x4a, 0x13, 0x0b,
  0x06, 0xde, 0x2b, 0x58, 0xed, 0xef, 0xe1, 0x01, 0x19, 0x4e, 0xe3, 0xfb,
  0xb5, 0xf3, 0x18, 0x49, 0xce, 0xf8, 0xa9, 0x09, 0x1c, 0x58, 0xd6, 0x03,
  0x81, 0x18, 0xfb, 0x51, 0x42, 0x4b, 0x7f, 0xbe, 0xf5, 0xfe, 0x26, 0x2a,
  0x5e, 0xcf, 0x08, 0x00, 0x61, 0x32, 0x47, 0xe4, 0xf5, 0x06, 0x53, 0x3a,
  0x45, 0xe3, 0xfb, 0x07, 0x56, 0x1c, 0x3e, 0xf3, 0x00, 0xef, 0x66, 0x49,
  0x53, 0x05, 0x1c, 0xdf, 0x4e, 0x5b, 0x6a, 0x48, 0x0c, 0xed, 0xef, 0xdd,
  0xb9, 0x4a, 0xc7, 0x81, 0xf8, 0x01, 0xd4, 0x45, 0xa6, 0x8e, 0x0a, 0xdb,
  0xbf, 0x5e, 0xa7, 0xab, 0xf7, 0xfc, 0xcc, 0x60, 0xa0, 0x99, 0x00, 0xdc,
  0xe9, 0x4b, 0xaa, 0xa1, 0x18, 0xcf, 0xf8, 0x0c, 0xc6, 0x9b, 0x02, 0xc1,
  0xde, 0xeb, 0xc8, 0xb0, 0x99, 0xd4, 0xfa, 0x24, 0x00, 0x7f, 0xc4, 0xd8,
  0xf8, 0x0e, 0xe4, 0x4e, 0xba, 0xf4, 0xfe, 0x17, 0xcf, 0x23, 0xf7, 0xe6,
  0x11, 0x03, 0xcd, 0x02, 0xdb, 0x07, 0x01, 0x2a, 0xab, 0xfa, 0x01, 0xf5,
  0x05, 0x60, 0xbc, 0xe3, 0xff, 0x12, 0x15, 0x6a, 0xa2, 0xef, 0x0f, 0x8c,
  0x06, 0xec, 0xc0, 0x48, 0x27, 0xa1, 0xf5, 0xf8, 0xad, 0x25, 0x27, 0xa5,
  0x1b, 0xeb, 0xc7, 0x0a, 0xfc, 0xaf, 0x0d, 0xfb, 0xfb, 0xda, 0xf1, 0xb6,
  0x12, 0xd6, 0xee, 0xb9, 0x03, 0xca, 0x37, 0xba, 0x10, 0x94, 0xc4, 0xd0,
  0x13, 0xc3, 0x1a, 0x81, 0xe7, 0x1a, 0x26, 0x0c, 0x72, 0x52, 0xdc, 0x08,
  0xeb, 0xe7, 0x7f, 0x4b, 0xfe, 0xf7, 0xec, 0xf3, 0x74, 0x43, 0xfb, 0xfd,
  0xcd, 0xcd, 0x57, 0x4b, 0x0a, 0x02, 0xf9, 0xe0, 0x5c, 0x23, 0x2e, 0xca,
  0xc0, 0xca, 0x3a, 0x2c, 0x29, 0xc8, 0xe5, 0xa0, 0x11, 0x0a, 0x1a, 0x49,
  0x50, 0xe5, 0x17, 0xce, 0x1a, 0x4a, 0x38, 0xeb, 0x0f, 0x00, 0x30, 0x44,
  0x29, 0xdd, 0x00, 0x14, 0x00, 0x47, 0x03, 0x01, 0xfc, 0x3a, 0x00, 0x51,
  0x00, 0xf5, 0xf6, 0x47, 0xdf, 0x4d, 0xc9, 0xf7, 0xf6, 0x67, 0xd7, 0x47,
  0xd2, 0x30, 0xec, 0x7f, 0xdb, 0x42, 0xd1, 0x04, 0x44, 0x81, 0xbe, 0x2b,
  0xc1, 0x1a, 0x43, 0x83, 0xf2, 0x0c, 0xed, 0x19, 0x44, 0x99, 0x08, 0x03,
  0xf4, 0x16, 0x1b, 0xa2, 0x15, 0xfb, 0xf6, 0x14, 0x3f, 0xb1, 0x04, 0xfa,
  0xde, 0xf9, 0x23, 0xa7, 0x0f, 0xc9, 0xe9, 0xb6, 0x2c, 0xd4, 0xdc, 0x60,
  0x2d, 0xc5, 0x81, 0xb0, 0xd4, 0x47, 0x45, 0xbf, 0x82, 0xe0, 0xfa, 0x41,
  0x42, 0xbb, 0xa4, 0xdf, 0xe5, 0x28, 0x32, 0xd6, 0x8d, 0x04, 0x0f, 0x0e,
  0x38, 0xc0, 0x9d, 0xff, 0x18, 0x03, 0x29, 0xdc, 0x96, 0x04, 0x3b, 0x04,
  0x19, 0xa5, 0x8c, 0x13, 0xec, 0xa1, 0x17, 0xe5, 0x05, 0x64, 0xef, 0xa7,
  0x13, 0xde, 0x0a, 0x45, 0xf8, 0xe8, 0x01, 0x06, 0xf8, 0x39, 0x00, 0x07,
  0xf6, 0x07, 0xf0, 0x26, 0x0d, 0x2e, 0xe0, 0x13, 0xeb, 0x23, 0x16, 0x6f,
  0xff, 0x19, 0xf4, 0x33, 0x02, 0x7f, 0xe9, 0x36, 0xf7, 0x48, 0x81, 0xf0,
  0x3c, 0xf0, 0x2b, 0x0b, 0xa0, 0xfd, 0x29, 0xe3, 0x1c, 0x03, 0xc4, 0x01,
  0x26, 0xea, 0x06, 0xe7, 0xba, 0x0a, 0x20, 0xc9, 0x09, 0xde, 0xcf, 0x17,
  0x26, 0xbc, 0x03, 0xd1, 0xcd, 0x07, 0x0e, 0xa5, 0xf9, 0xeb, 0xd2, 0x06,
  0x0e, 0xa6, 0xf0, 0xcd, 0xe4, 0x23, 0xe0, 0x0c, 0x81, 0x0c, 0xd4, 0x45,
  0xe8, 0x02, 0xab, 0x2f, 0xcd, 0x1b, 0xee, 0xee, 0xcb, 0x16, 0xb8, 0x1d,
  0xf6, 0x07, 0xd2, 0x54, 0x98, 0x28, 0xfd, 0xee, 0xe0, 0x43, 0xb7, 0x2e,
  0x03, 0xf6, 0xde, 0x64, 0x97, 0x2c, 0x21, 0xda, 0xea, 0x7c, 0x02, 0xf4,
  0xfd, 0x07, 0x0c, 0x7f, 0x03, 0xfa, 0x0f, 0x06, 0x1d, 0x75, 0xf2, 0xec,
  0xff, 0xe8, 0x09, 0x6b, 0xf6, 0xf6, 0x08, 0xf3, 0x1a, 0x5f, 0xfb, 0xf1,
  0x06, 0xe4, 0x19, 0x53, 0x17, 0xcb, 0x0d, 0xd2, 0x19, 0x49, 0xfc, 0xd9,
  0x16, 0xd6, 0x05, 0x3f, 0xe7, 0xe6, 0x81, 0xbb, 0xd0, 0xea, 0xcc, 0xf5,
  0x94, 0xdf, 0xf2, 0xee, 0xfb, 0x01, 0xb7, 0xd5, 0xdc, 0xd5, 0xd2, 0xe2,
  0xd3, 0xca, 0xf6, 0xd3, 0xe1, 0xf1, 0xfe, 0xc4, 0x00, 0xea, 0xcc, 0xdc,
  0x10, 0xd6, 0x0b, 0xe2, 0xd9, 0xd8, 0x36, 0xec, 0x17, 0xf3, 0x17, 0xf2,
  0x09, 0x4c, 0xd6, 0xe2, 0x1d, 0xd6, 0x03, 0x35, 0xe6, 0xdc, 0x1b, 0xd1,
  0x20, 0x0c, 0xd2, 0xd2, 0x25, 0xca, 0x17, 0x02, 0xfe, 0xb6, 0x06, 0xd0,
  0x1b, 0x01, 0xfe, 0xaf, 0xf1, 0xad, 0x2e, 0x09, 0x16, 0x99, 0xe2, 0x9c,
  0x34, 0x00, 0x05, 0x81, 0xfa, 0xf7, 0xff, 0xff, 0x04, 0x00, 0x00, 0x00,
  0x40, 0x00, 0x00, 0x00, 0xa6, 0xff, 0xff, 0xff, 0xc4, 0xfe, 0xff, 0xff,
  0x11, 0x00, 0x00, 0x00, 0x27, 0xfc, 0xff, 0xff, 0xc5, 0xfd, 0xff, 0xff,
  0xd7, 0x00, 0x00, 0x00, 0x4f, 0x00, 0x00, 0x00, 0x3a, 0xff, 0xff, 0xff,
  0x7c, 0x00, 0x00, 0x00, 0xde, 0x00, 0x00, 0x00, 0x9f, 0xff, 0xff, 0xff,
  0xfe, 0xfe, 0xff, 0xff, 0x37, 0xfd, 0xff, 0xff, 0x52, 0xfe, 0xff, 0xff,
  0x0d, 0x00, 0x00, 0x00, 0x94, 0xff, 0xff, 0xff, 0x46, 0xf8, 0xff, 0xff,
  0x04, 0x00, 0x00, 0x00, 0xc0, 0x03, 0x00, 0x00, 0x30, 0xda, 0xd3, 0xfc,
  0xfe, 0x9f, 0xe6, 0x27, 0x5b, 0xf7, 0xdf, 0xeb, 0x15, 0xac, 0x00, 0xcb,
  0x0c, 0xf9, 0xd4, 0xeb, 0xf9, 0x81, 0xf3, 0xfa, 0x51, 0x00, 0xe3, 0xff,
  0x1c, 0xc7, 0xd7, 0xd9, 0x03, 0x05, 0xe4, 0xe5, 0xf6, 0x9d, 0xee, 0xcb,
  0x25, 0xfc, 0xd5, 0xe7, 0x0f, 0xee, 0xdf, 0xc3, 0xbf, 0x06, 0xe2, 0xd1,
  0x02, 0xc4, 0xfb, 0xa6, 0xfd, 0x01, 0xef, 0xde, 0x10, 0x1c, 0xff, 0xb5,
  0xb5, 0x09, 0x25, 0xc1, 0x0d, 0x02, 0xf9, 0xa6, 0xe1, 0xf8, 0xed, 0xeb,
  0xf4, 0x41, 0x0c, 0xb5, 0xe3, 0x1a, 0x2a, 0xd0, 0xf9, 0xef, 0x1e, 0x4a,
  0xdf, 0xfa, 0x3b, 0xd0, 0xf6, 0x26, 0x02, 0xd9, 0xd6, 0x0b, 0x14, 0xe6,
  0xfe, 0xf5, 0x17, 0x12, 0xe3, 0x0a, 0x12, 0xdd, 0xeb, 0x01, 0xf3, 0xea,
  0xe2, 0x08, 0xdb, 0xe7, 0x07, 0xec, 0x1c, 0xd3, 0xeb, 0x13, 0x0c, 0xed,
  0xe9, 0xf5, 0xff, 0xfc, 0xd7, 0xe4, 0xba, 0xfd, 0x15, 0xfe, 0x1a, 0xad,
  0xf9, 0x00, 0xe3, 0xf7, 0xfd, 0xd7, 0x23, 0x1a, 0xd3, 0xfe, 0x9a, 0x02,
  0x15, 0x1a, 0x2d, 0x81, 0xf9, 0xf9, 0xdc, 0x0f, 0xee, 0xcd, 0x22, 0x28,
  0x27, 0x4d, 0x6d, 0xe0, 0xb9, 0xb5, 0x15, 0xc9, 0xf0, 0xfb, 0xea, 0xda,
  0x53, 0x0a, 0x2a, 0x1d, 0x07, 0x68, 0x64, 0xe1, 0xf5, 0xb9, 0x09, 0xc2,
  0xdf, 0xfa, 0xee, 0xf0, 0x2e, 0x29, 0x25, 0xfc, 0x28, 0x3e, 0x7f, 0xd1,
  0x13, 0xcb, 0xfb, 0xc5, 0x03, 0xf3, 0x07, 0xdf, 0x56, 0x2b, 0x0c, 0xf8,
  0x27, 0x60, 0x4d, 0xe4, 0x30, 0xc1, 0xc0, 0xd4, 0x09, 0xfe, 0x16, 0xd3,
  0x54, 0x2e, 0xf7, 0x00, 0x54, 0x65, 0x36, 0xfb, 0x52, 0xe4, 0xb4, 0xcb,
  0xf1, 0x0a, 0x05, 0xab, 0x4f, 0x3c, 0xb8, 0xfa, 0x18, 0x0f, 0x7f, 0xe8,
  0xf3, 0xdf, 0xde, 0x23, 0x14, 0x0d, 0x1a, 0xee, 0x02, 0x0f, 0x9c, 0x04,
  0x0e, 0xe2, 0x41, 0xfa, 0xfb, 0x0b, 0xc3, 0xfc, 0x0e, 0x02, 0x19, 0x13,
  0x0e, 0x07, 0xd4, 0x06, 0x1a, 0xdb, 0x1a, 0xe6, 0x1a, 0x0e, 0xb1, 0x02,
  0x06, 0xf0, 0xee, 0x18, 0x11, 0xf4, 0xcd, 0xfe, 0xe3, 0xf4, 0xdc, 0x0e,
  0x06, 0x0c, 0xbd, 0xfb, 0xe6, 0xd5, 0xcc, 0x36, 0x2b, 0xfc, 0xc9, 0x03,
  0xc7, 0xf7, 0xb0, 0x28, 0x29, 0xdb, 0xd5, 0xf7, 0xb9, 0xba, 0xaa, 0x34,
  0x3d, 0xfd, 0xc2, 0xed, 0xcf, 0xf2, 0xc1, 0xfb, 0x2e, 0x0f, 0x31, 0xd6,
  0xfe, 0x81, 0x1b, 0xf2, 0xe4, 0x40, 0xf9, 0x00, 0xdb, 0xf2, 0xed, 0x00,
  0x25, 0x0a, 0x21, 0xd9, 0x01, 0xa7, 0x04, 0xfb, 0xdd, 0x17, 0x18, 0x12,
  0xe3, 0xf8, 0xfd, 0x0c, 0x0a, 0xff, 0x0d, 0xf4, 0xfa, 0xcb, 0x09, 0xf6,
  0xe8, 0x0f, 0x06, 0x00, 0xea, 0xf6, 0x06, 0x11, 0xed, 0xcb, 0xed, 0x15,
  0xf4, 0xe6, 0x15, 0xde, 0xff, 0xe6, 0x1b, 0x01, 0xe1, 0xfb, 0xfb, 0xfd,
  0xd9, 0xb8, 0xd4, 0x1a, 0xe3, 0xed, 0x1e, 0xeb, 0x16, 0xfb, 0x18, 0xf3,
  0xd6, 0x1d, 0x26, 0x1e, 0xf1, 0x43, 0xe6, 0x14, 0xf6, 0x1e, 0xdc, 0xda,
  0xf6, 0x00, 0x43, 0xe2, 0xc1, 0x01, 0x10, 0x0c, 0xf6, 0x36, 0xe9, 0x1c,
  0xee, 0xee, 0xf3, 0xf7, 0xf4, 0xfd, 0x14, 0xd4, 0xbd, 0xda, 0xdd, 0x00,
  0xe8, 0x17, 0xfb, 0x34, 0xf7, 0xf5, 0x08, 0x00, 0xfd, 0xf8, 0x09, 0xc7,
  0xc2, 0xf7, 0x9c, 0xfa, 0xe6, 0x04, 0xdf, 0x20, 0xbf, 0xe4, 0x15, 0x0d,
  0x07, 0xdb, 0x0f, 0xa7, 0xd9, 0x02, 0x81, 0xed, 0xf3, 0xef, 0xea, 0x33,
  0xc3, 0xff, 0x0d, 0x09, 0xff, 0xee, 0xf7, 0x91, 0x92, 0xf3, 0x0c, 0x02,
  0xeb, 0x26, 0xd2, 0x87, 0x81, 0xfe, 0xfb, 0xf7, 0x00, 0xbf, 0x11, 0x19,
  0xcd, 0x05, 0xfb, 0x04, 0xf5, 0x0a, 0xd2, 0x9b, 0xbb, 0xfd, 0x0d, 0xe3,
  0x1a, 0xb0, 0xff, 0x00, 0xd7, 0x20, 0x16, 0xfb, 0xef, 0x19, 0x03, 0xfd,
  0xee, 0x21, 0x20, 0xe0, 0x1b, 0xd4, 0xf1, 0xfe, 0xf7, 0x56, 0x1b, 0xf5,
  0xe3, 0x1b, 0x03, 0x21, 0xf8, 0x39, 0x50, 0x01, 0x0f, 0xe5, 0xdd, 0xfb,
  0x0e, 0x6c, 0x55, 0xe2, 0xbd, 0x20, 0x31, 0x7a, 0x25, 0x32, 0x45, 0x12,
  0x1a, 0x20, 0xcd, 0xee, 0x33, 0xf0, 0x22, 0x1d, 0x0f, 0x04, 0x04, 0xcd,
  0x00, 0xe4, 0xf1, 0x28, 0xe8, 0xbf, 0xa6, 0xfc, 0xfd, 0xe7, 0x00, 0x2c,
  0x07, 0x0a, 0xf8, 0xd9, 0x09, 0x00, 0xbf, 0x01, 0xfb, 0xcb, 0xa4, 0x07,
  0xf2, 0x03, 0x00, 0x32, 0xf4, 0x24, 0xf6, 0xf5, 0x04, 0x12, 0x8b, 0xd8,
  0x03, 0xdf, 0xb0, 0xea, 0xdd, 0x18, 0x14, 0x14, 0xdb, 0x25, 0x1c, 0xed,
  0xee, 0xff, 0x81, 0xbb, 0x0f, 0xfa, 0xba, 0xf2, 0xda, 0x16, 0x0b, 0x06,
  0xd1, 0x4b, 0x1e, 0xe9, 0xf6, 0x08, 0x98, 0xe2, 0x16, 0x1f, 0xeb, 0xdc,
  0x18, 0xb9, 0x09, 0xe7, 0x11, 0xfa, 0xda, 0x03, 0x1a, 0xf0, 0xc4, 0x21,
  0x50, 0xb6, 0xe4, 0xe0, 0xde, 0xeb, 0x12, 0xe3, 0x10, 0xff, 0xe4, 0x0b,
  0x11, 0xe8, 0xd5, 0xf2, 0x56, 0xb0, 0xe6, 0xed, 0xbe, 0xea, 0xfe, 0xd4,
  0xf7, 0xfa, 0x0d, 0x24, 0x39, 0xe0, 0xca, 0xe6, 0x4a, 0xa6, 0xd2, 0xd8,
  0xa3, 0xf5, 0x0b, 0xd8, 0x06, 0xef, 0x09, 0x26, 0x0b, 0xdc, 0xde, 0xf5,
  0x45, 0x84, 0xf1, 0xf6, 0x93, 0x1f, 0x41, 0xf2, 0x02, 0xfe, 0x28, 0xfc,
  0xf8, 0xe2, 0xb4, 0x02, 0x50, 0x81, 0x0a, 0xfb, 0xa9, 0xff, 0x28, 0xf6,
  0x9f, 0x62, 0xb4, 0xcf, 0xea, 0x01, 0xde, 0x1c, 0x0d, 0xee, 0xfd, 0x8d,
  0x94, 0x1d, 0x30, 0xdc, 0xa7, 0x3d, 0xcb, 0xd6, 0xf1, 0xe9, 0xe0, 0x28,
  0xfc, 0xc1, 0x01, 0x96, 0xa8, 0x0f, 0x22, 0xe2, 0xbb, 0x0f, 0xf2, 0x06,
  0x03, 0xf1, 0xee, 0x2e, 0xfa, 0xcf, 0xdd, 0xac, 0x8e, 0xf8, 0x0a, 0xf2,
  0xd6, 0xc6, 0x1e, 0x04, 0x1e, 0xfc, 0xde, 0x3b, 0x08, 0xef, 0xe1, 0xb9,
  0x81, 0xe2, 0x2a, 0xf4, 0xfb, 0xab, 0x38, 0x56, 0x23, 0x02, 0xd3, 0x53,
  0x0a, 0x03, 0xdc, 0xaf, 0xc5, 0x98, 0xb5, 0xcb, 0xd4, 0x11, 0x1d, 0xd6,
  0xd7, 0xf5, 0xcc, 0x0f, 0x52, 0xdc, 0x3e, 0xed, 0xd0, 0xb8, 0xb0, 0xca,
  0xca, 0x0a, 0x20, 0xfb, 0xdb, 0xf2, 0xc6, 0xf7, 0x3c, 0x05, 0x1f, 0xe2,
  0x0b, 0xaf, 0xff, 0xd5, 0xd8, 0xf1, 0xf0, 0xe7, 0xe9, 0xe7, 0xf0, 0x02,
  0x21, 0x1e, 0x06, 0xc1, 0x12, 0xd5, 0x10, 0xfe, 0xf4, 0xe0, 0xba, 0xec,
  0x1d, 0x02, 0x0a, 0xe1, 0x16, 0x22, 0xf2, 0xe1, 0x28, 0x9f, 0x54, 0x06,
  0xe7, 0xed, 0x81, 0xdd, 0x36, 0x00, 0x09, 0xea, 0x04, 0x3d, 0xef, 0x0a,
  0xe3, 0xd9, 0xfb, 0x32, 0x15, 0x16, 0x06, 0x01, 0x9b, 0xf0, 0xf7, 0xcf,
  0xd6, 0x3b, 0x3f, 0xc9, 0xcb, 0xdd, 0xfc, 0x2c, 0x0a, 0xff, 0xf0, 0x1f,
  0xbd, 0xf3, 0xf4, 0xcc, 0xe2, 0x33, 0x19, 0xe0, 0xec, 0xb7, 0xf7, 0x28,
  0x17, 0x12, 0x10, 0x01, 0xe6, 0xdb, 0xde, 0xf1, 0xe4, 0x0d, 0x0f, 0xfd,
  0x12, 0xae, 0xff, 0x16, 0xfc, 0x06, 0x06, 0xf9, 0x27, 0xf2, 0xd9, 0xfc,
  0xdf, 0x1f, 0x1e, 0x19, 0x37, 0x86, 0x11, 0x07, 0xf8, 0x26, 0x15, 0xf4,
  0x7f, 0xe5, 0xcb, 0x1d, 0xf1, 0x01, 0x3d, 0x68, 0x12, 0xfc, 0xff, 0xff,
  0x04, 0x00, 0x00, 0x00, 0x30, 0x00, 0x00, 0x00, 0xe9, 0x18, 0x00, 0x00,
  0x9c, 0x14, 0x00, 0x00, 0x59, 0xcf, 0xff, 0xff, 0x2c, 0x0b, 0x00, 0x00,
  0x92, 0x07, 0x00, 0x00, 0x6d, 0x10, 0x00, 0x00, 0x4c, 0xfe, 0xff, 0xff,
  0xf0, 0x0e, 0x00, 0x00, 0x9b, 0x14, 0x00, 0x00, 0x75, 0x17, 0x00, 0x00,
  0x36, 0x14, 0x00, 0x00, 0x17, 0x01, 0x00, 0x00, 0x4e, 0xfc, 0xff, 0xff,
  0x04, 0x00, 0x00, 0x00, 0x20, 0x01, 0x00, 0x00, 0xfd, 0x5c, 0xc0, 0x34,
  0x81, 0x52, 0x06, 0x3a, 0x1c, 0x07, 0xe4, 0x0e, 0x0c, 0x56, 0xe9, 0x31,
  0xb0, 0x16, 0x27, 0x16, 0xed, 0xfa, 0xd8, 0xd2, 0x22, 0x67, 0xfd, 0x01,
  0xc5, 0xf5, 0x30, 0xf3, 0xeb, 0x25, 0xa8, 0xb8, 0x81, 0x0d, 0xe8, 0x40,
  0x50, 0x36, 0x27, 0xe4, 0xd6, 0x31, 0x26, 0x1f, 0xd6, 0xf1, 0xf8, 0x17,
  0x36, 0x24, 0x22, 0xf7, 0xd4, 0x1b, 0x17, 0xfe, 0x1d, 0x09, 0x09, 0xeb,
  0x26, 0xff, 0x32, 0xf0, 0x14, 0x28, 0xa7, 0x9f, 0x30, 0x13, 0x2b, 0x02,
  0xcf, 0x1e, 0x28, 0x27, 0x01, 0x11, 0x4c, 0xd5, 0x4d, 0xf3, 0x00, 0xfc,
  0xd2, 0xed, 0x1b, 0x6d, 0x0a, 0xcb, 0xd4, 0x2c, 0x14, 0xf5, 0xef, 0xf0,
  0xfb, 0xee, 0x1e, 0x11, 0xb8, 0x81, 0xbf, 0x29, 0x10, 0x13, 0xf8, 0x12,
  0x3e, 0x02, 0x38, 0x24, 0xcb, 0x81, 0x17, 0x12, 0x50, 0xd5, 0x12, 0x19,
  0x04, 0x55, 0x16, 0x00, 0x02, 0x96, 0xe6, 0x07, 0x25, 0xc3, 0x19, 0x31,
  0x27, 0x28, 0x42, 0x3c, 0x1e, 0xd0, 0xdd, 0xe2, 0xc4, 0xff, 0x47, 0xd3,
  0x03, 0x08, 0xd9, 0x07, 0xce, 0x2d, 0x98, 0xfa, 0x09, 0x14, 0x27, 0x13,
  0xf1, 0xf0, 0x17, 0x14, 0xa0, 0xef, 0xe0, 0xe7, 0x2c, 0x7f, 0x32, 0x38,
  0xdc, 0x02, 0x04, 0x38, 0xd8, 0xee, 0xe7, 0xf5, 0x50, 0xf1, 0xf8, 0xf1,
  0xba, 0x26, 0x08, 0xec, 0xe6, 0x3b, 0x09, 0x34, 0x05, 0xe2, 0xf3, 0xbf,
  0xd3, 0xb0, 0x18, 0xe0, 0x91, 0xf9, 0x38, 0x15, 0x0f, 0xd7, 0x31, 0xe6,
  0xfe, 0xa8, 0x7f, 0xf1, 0xb2, 0xf4, 0x1d, 0x48, 0x25, 0xd6, 0x0b, 0x7f,
  0x9d, 0xc9, 0x30, 0xbb, 0x4e, 0x23, 0xad, 0x92, 0x12, 0xe9, 0xcf, 0x5f,
  0xfc, 0x17, 0x36, 0x95, 0xe2, 0xe3, 0x16, 0x1a, 0xe8, 0x7c, 0xd3, 0x41,
  0x1c, 0x38, 0xd6, 0xe7, 0x90, 0xe4, 0xdf, 0x56, 0x09, 0xc7, 0xf1, 0x27,
  0x81, 0x16, 0x03, 0x18, 0xf8, 0x47, 0xfb, 0x0e, 0xe8, 0xb4, 0xf4, 0x13,
  0xdd, 0x4a, 0x24, 0xe5, 0xec, 0xfd, 0x0d, 0x26, 0x8e, 0x20, 0xd2, 0xf5,
  0x26, 0x65, 0x2e, 0xda, 0xcd, 0x39, 0xf6, 0x20, 0x7a, 0xfd, 0xff, 0xff,
  0x04, 0x00, 0x00, 0x00, 0x20, 0x00, 0x00, 0x00, 0xc6, 0xf7, 0xff, 0xff,
  0x3d, 0xf8, 0xff, 0xff, 0x14, 0xfc, 0xff, 0xff, 0x98, 0xfc, 0xff, 0xff,
  0xd2, 0x06, 0x00, 0x00, 0x19, 0x15, 0x00, 0x00, 0xd0, 0xfe, 0xff, 0xff,
  0x4b, 0xff, 0xff, 0xff, 0xa6, 0xfd, 0xff, 0xff, 0x04, 0x00, 0x00, 0x00,
  0x80, 0x00, 0x00, 0x00, 0xc6, 0x13, 0xcb, 0x81, 0xea, 0x71, 0x1f, 0xf1,
  0xcc, 0x41, 0x7b, 0x2d, 0x7a, 0x81, 0xe7, 0x44, 0xe8, 0x81, 0xfe, 0x01,
  0x19, 0x01, 0x61, 0xf1, 0x3c, 0x32, 0xca, 0x25, 0x20, 0x81, 0xce, 0x0b,
  0x18, 0x81, 0x39, 0x3b, 0xc1, 0x19, 0x25, 0x09, 0xe6, 0x2b, 0xcf, 0x81,
  0x1b, 0x29, 0x23, 0x73, 0xe7, 0x14, 0x48, 0xb6, 0xfa, 0x2b, 0x00, 0x7f,
  0xe1, 0x31, 0xd4, 0x81, 0x1e, 0x26, 0x26, 0x66, 0xb7, 0xcf, 0x69, 0x16,
  0x7f, 0xb4, 0x5e, 0x47, 0xb8, 0xf7, 0x47, 0xcb, 0xd8, 0x7f, 0xe5, 0x10,
  0x2e, 0xec, 0x17, 0x09, 0x81, 0x65, 0xba, 0xf1, 0x31, 0xf5, 0x13, 0x0e,
  0x81, 0x60, 0xac, 0xee, 0x7f, 0x34, 0x91, 0xb4, 0x82, 0x10, 0x01, 0x4f,
  0x2c, 0x81, 0xd2, 0x2d, 0xdf, 0x00, 0x3c, 0xf2, 0x5d, 0xfe, 0x89, 0x96,
  0xc0, 0x33, 0x17, 0x7f, 0x59, 0x85, 0xda, 0x0d, 0xf3, 0xaf, 0x7d, 0x7f,
  0x32, 0xfe, 0xff, 0xff, 0x04, 0x00, 0x00, 0x00, 0x40, 0x00, 0x00, 0x00,
  0xb4, 0x08, 0x00, 0x00, 0xce, 0xf3, 0xff, 0xff, 0x7c, 0x04, 0x00, 0x00,
  0x95, 0x09, 0x00, 0x00, 0x9f, 0x02, 0x00, 0x00, 0x64, 0xfa, 0xff, 0xff,
  0x30, 0xf1, 0xff, 0xff, 0xc4, 0xfa, 0xff, 0xff, 0x88, 0xf6, 0xff, 0xff,
  0x6f, 0xfb, 0xff, 0xff, 0x31, 0x01, 0x00, 0x00, 0xf7, 0x00, 0x00, 0x00,
  0x6a, 0xff, 0xff, 0xff, 0xaf, 0x0c, 0x00, 0x00, 0x2c, 0x01, 0x00, 0x00,
  0xdd, 0xff, 0xff, 0xff, 0x7e, 0xfe, 0xff, 0xff, 0x04, 0x00, 0x00, 0x00,
  0x70, 0x00, 0x00, 0x00, 0x27, 0xad, 0xa3, 0xbb, 0xb9, 0x1d, 0x0e, 0x1a,
  0x81, 0x17, 0x17, 0x15, 0x13, 0xa3, 0x13, 0xb9, 0xcb, 0x13, 0x9b, 0x18,
  0x8a, 0xbb, 0x8c, 0xc1, 0xff, 0x9f, 0xa4, 0xb1, 0xb8, 0x95, 0x81, 0x84,
  0x28, 0xac, 0x1f, 0x81, 0x13, 0x1c, 0x0e, 0x1a, 0x14, 0x17, 0xe1, 0xd8,
  0xdd, 0x14, 0x0a, 0x15, 0x9e, 0x0d, 0x2b, 0xc2, 0x25, 0xa0, 0xa3, 0x9e,
  0x27, 0xbb, 0x81, 0x85, 0xa9, 0x23, 0xa2, 0x25, 0x94, 0x0c, 0xa0, 0x11,
  0x81, 0x26, 0x16, 0x23, 0x07, 0x9a, 0x92, 0x8f, 0x1c, 0xa6, 0x19, 0x10,
  0x9e, 0x0b, 0xa6, 0x91, 0x0e, 0xb5, 0x1d, 0xa9, 0x06, 0x1f, 0x20, 0x1d,
  0x9d, 0x81, 0xb3, 0x90, 0xc3, 0xa5, 0xd0, 0x12, 0x0a, 0xce, 0xcd, 0xc5,
  0x81, 0xda, 0x16, 0x16, 0x19, 0x0e, 0x0f, 0x0d, 0xfa, 0xfe, 0xff, 0xff,
  0x04, 0x00, 0x00, 0x00, 0x1c, 0x00, 0x00, 0x00, 0xaf, 0xf9, 0xff, 0xff,
  0x54, 0x19, 0x00, 0x00, 0x48, 0xe8, 0xff, 0xff, 0x94, 0xf8, 0xff, 0xff,
  0x48, 0xfd, 0xff, 0xff, 0x75, 0x05, 0x00, 0x00, 0x63, 0xff, 0xff, 0xff,
  0x22, 0xff, 0xff, 0xff, 0x04, 0x00, 0x00, 0x00, 0x04, 0x00, 0x00, 0x00,
  0x01, 0x00, 0x00, 0x00, 0x32, 0xff, 0xff, 0xff, 0x04, 0x00, 0x00, 0x00,
  0x0c, 0x00, 0x00, 0x00, 0x01, 0x00, 0x00, 0x00, 0x7d, 0x00, 0x00, 0x00,
  0x08, 0x00, 0x00, 0x00, 0x4a, 0xff, 0xff, 0xff, 0x04, 0x00, 0x00, 0x00,
  0x10, 0x00, 0x00, 0x00, 0x01, 0x00, 0x00, 0x00, 0x01, 0x00, 0x00, 0x00,
  0xf4, 0x01, 0x00, 0x00, 0x06, 0x00, 0x00, 0x00, 0x5c, 0xeb, 0xff, 0xff,
  0x60, 0xeb, 0xff, 0xff, 0x0f, 0x00, 0x00, 0x00, 0x4d, 0x4c, 0x49, 0x52,
  0x20, 0x43, 0x6f, 0x6e, 0x76, 0x65, 0x72, 0x74, 0x65, 0x64, 0x2e, 0x00,
  0x01, 0x00, 0x00, 0x00, 0x14, 0x00, 0x00, 0x00, 0x00, 0x00, 0x0e, 0x00,
  0x18, 0x00, 0x14, 0x00, 0x10, 0x00, 0x0c, 0x00, 0x08, 0x00, 0x04, 0x00,
  0x0e, 0x00, 0x00, 0x00, 0x14, 0x00, 0x00, 0x00, 0x1c, 0x00, 0x00, 0x00,
  0x44, 0x02, 0x00, 0x00, 0x48, 0x02, 0x00, 0x00, 0x4c, 0x02, 0x00, 0x00,
  0x04, 0x00, 0x00, 0x00, 0x6d, 0x61, 0x69, 0x6e, 0x00, 0x00, 0x00, 0x00,
  0x09, 0x00, 0x00, 0x00, 0x08, 0x02, 0x00, 0x00, 0xac, 0x01, 0x00, 0x00,
  0x58, 0x01, 0x00, 0x00, 0x14, 0x01, 0x00, 0x00, 0xf0, 0x00, 0x00, 0x00,
  0xbc, 0x00, 0x00, 0x00, 0x78, 0x00, 0x00, 0x00, 0x40, 0x00, 0x00, 0x00,
  0x04, 0x00, 0x00, 0x00, 0x82, 0xfe, 0xff, 0xff, 0x1c, 0x00, 0x00, 0x00,
  0x00, 0x00, 0x00, 0x09, 0x1c, 0x00, 0x00, 0x00, 0x20, 0x00, 0x00, 0x00,
  0x04, 0x00, 0x00, 0x00, 0x00, 0x00, 0x06, 0x00, 0x08, 0x00, 0x04, 0x00,
  0x06, 0x00, 0x00, 0x00, 0x00, 0x00, 0x80, 0x3f, 0x01, 0x00, 0x00, 0x00,
  0x16, 0x00, 0x00, 0x00, 0x01, 0x00, 0x00, 0x00, 0x15, 0x00, 0x00, 0x00,
  0xba, 0xfe, 0xff, 0xff, 0x14, 0x00, 0x00, 0x00, 0x00, 0x00, 0x00, 0x08,
  0x10, 0x00, 0x00, 0x00, 0x14, 0x00, 0x00, 0x00, 0x03, 0x00, 0x00, 0x00,
  0x2c, 0xec, 0xff, 0xff, 0x01, 0x00, 0x00, 0x00, 0x15, 0x00, 0x00, 0x00,
  0x03, 0x00, 0x00, 0x00, 0x14, 0x00, 0x00, 0x00, 0x05, 0x00, 0x00, 0x00,
  0x04, 0x00, 0x00, 0x00, 0xee, 0xfe, 0xff, 0xff, 0x1c, 0x00, 0x00, 0x00,
  0x00, 0x00, 0x00, 0x08, 0x1c, 0x00, 0x00, 0x00, 0x20, 0x00, 0x00, 0x00,
  0x03, 0x00, 0x00, 0x00, 0x00, 0x00, 0x06, 0x00, 0x08, 0x00, 0x07, 0x00,
  0x06, 0x00, 0x00, 0x00, 0x00, 0x00, 0x00, 0x01, 0x01, 0x00, 0x00, 0x00,
  0x14, 0x00, 0x00, 0x00, 0x03, 0x00, 0x00, 0x00, 0x13, 0x00, 0x00, 0x00,
  0x07, 0x00, 0x00, 0x00, 0x06, 0x00, 0x00, 0x00, 0x2e, 0xff, 0xff, 0xff,
  0x14, 0x00, 0x00, 0x00, 0x00, 0x00, 0x00, 0x1b, 0x10, 0x00, 0x00, 0x00,
  0x14, 0x00, 0x00, 0x00, 0x02, 0x00, 0x00, 0x00, 0xa0, 0xec, 0xff, 0xff,
  0x01, 0x00, 0x00, 0x00, 0x13, 0x00, 0x00, 0x00, 0x02, 0x00, 0x00, 0x00,
  0x12, 0x00, 0x00, 0x00, 0x03, 0x00, 0x00, 0x00, 0x02, 0xff, 0xff, 0xff,
  0x08, 0x00, 0x00, 0x00, 0x0c, 0x00, 0x00, 0x00, 0x01, 0x00, 0x00, 0x00,
  0x12, 0x00, 0x00, 0x00, 0x02, 0x00, 0x00, 0x00, 0x11, 0x00, 0x00, 0x00,
  0x02, 0x00, 0x00, 0x00, 0x7e, 0xff, 0xff, 0xff, 0x14, 0x00, 0x00, 0x00,
  0x00, 0x00, 0x00, 0x01, 0x1c, 0x00, 0x00, 0x00, 0x20, 0x00, 0x00, 0x00,
  0x01, 0x00, 0x00, 0x00, 0x70, 0xff, 0xff, 0xff, 0x00, 0x00, 0x00, 0x01,
  0x01, 0x00, 0x00, 0x00, 0x01, 0x00, 0x00, 0x00, 0x01, 0x00, 0x00, 0x00,
  0x11, 0x00, 0x00, 0x00, 0x03, 0x00, 0x00, 0x00, 0x10, 0x00, 0x00, 0x00,
  0x09, 0x00, 0x00, 0x00, 0x08, 0x00, 0x00, 0x00, 0xbe, 0xff, 0xff, 0xff,
  0x14, 0x00, 0x00, 0x00, 0x00, 0x00, 0x00, 0x01, 0x1c, 0x00, 0x00, 0x00,
  0x20, 0x00, 0x00, 0x00, 0x01, 0x00, 0x00, 0x00, 0xb0, 0xff, 0xff, 0xff,
  0x00, 0x00, 0x00, 0x01, 0x01, 0x00, 0x00, 0x00, 0x02, 0x00, 0x00, 0x00,
  0x01, 0x00, 0x00, 0x00, 0x10, 0x00, 0x00, 0x00, 0x03, 0x00, 0x00, 0x00,
  0x0f, 0x00, 0x00, 0x00, 0x0b, 0x00, 0x00, 0x00, 0x0a, 0x00, 0x00, 0x00,
  0x00, 0x00, 0x0e, 0x00, 0x18, 0x00, 0x14, 0x00, 0x10, 0x00, 0x0c, 0x00,
  0x0b, 0x00, 0x04, 0x00, 0x0e, 0x00, 0x00, 0x00, 0x20, 0x00, 0x00, 0x00,
  0x00, 0x00, 0x00, 0x01, 0x28, 0x00, 0x00, 0x00, 0x2c, 0x00, 0x00, 0x00,
  0x01, 0x00, 0x00, 0x00, 0x0c, 0x00, 0x10, 0x00, 0x00, 0x00, 0x0c, 0x00,
  0x08, 0x00, 0x07, 0x00, 0x0c, 0x00, 0x00, 0x00, 0x00, 0x00, 0x00, 0x01,
  0x01, 0x00, 0x00, 0x00, 0x02, 0x00, 0x00, 0x00, 0x01, 0x00, 0x00, 0x00,
  0x0f, 0x00, 0x00, 0x00, 0x03, 0x00, 0x00, 0x00, 0x0e, 0x00, 0x00, 0x00,
  0x0d, 0x00, 0x00, 0x00, 0x0c, 0x00, 0x00, 0x00, 0x00, 0x00, 0x0a, 0x00,
  0x0c, 0x00, 0x00, 0x00, 0x08, 0x00, 0x04, 0x00, 0x0a, 0x00, 0x00, 0x00,
  0x08, 0x00, 0x00, 0x00, 0x0c, 0x00, 0x00, 0x00, 0x01, 0x00, 0x00, 0x00,
  0x0e, 0x00, 0x00, 0x00, 0x02, 0x00, 0x00, 0x00, 0x00, 0x00, 0x00, 0x00,
  0x01, 0x00, 0x00, 0x00, 0x01, 0x00, 0x00, 0x00, 0x16, 0x00, 0x00, 0x00,
  0x01, 0x00, 0x00, 0x00, 0x00, 0x00, 0x00, 0x00, 0x17, 0x00, 0x00, 0x00,
  0x48, 0x12, 0x00, 0x00, 0xec, 0x11, 0x00, 0x00, 0xac, 0x11, 0x00, 0x00,
  0x70, 0x11, 0x00, 0x00, 0xc4, 0x10, 0x00, 0x00, 0x18, 0x10, 0x00, 0x00,
  0x04, 0x0f, 0x00, 0x00, 0xe8, 0x0d, 0x00, 0x00, 0x34, 0x0d, 0x00, 0x00,
  0x70, 0x0c, 0x00, 0x00, 0x8c, 0x0b, 0x00, 0x00, 0x98, 0x0a, 0x00, 0x00,
  0x84, 0x09, 0x00, 0x00, 0x60, 0x08, 0x00, 0x00, 0xd4, 0x07, 0x00, 0x00,
  0x68, 0x06, 0x00, 0x00, 0xfc, 0x04, 0x00, 0x00, 0x90, 0x03, 0x00, 0x00,
  0x4c, 0x02, 0x00, 0x00, 0xc8, 0x01, 0x00, 0x00, 0x0c, 0x01, 0x00, 0x00,
  0x70, 0x00, 0x00, 0x00, 0x04, 0x00, 0x00, 0x00, 0x2a, 0xee, 0xff, 0xff,
  0x00, 0x00, 0x00, 0x01, 0x14, 0x00, 0x00, 0x00, 0x30, 0x00, 0x00, 0x00,
  0x17, 0x00, 0x00, 0x00, 0x00, 0x00, 0x00, 0x09, 0x44, 0x00, 0x00, 0x00,
  0x14, 0xee, 0xff, 0xff, 0x08, 0x00, 0x00, 0x00, 0x10, 0x00, 0x00, 0x00,
  0x01, 0x00, 0x00, 0x00, 0x80, 0xff, 0xff, 0xff, 0xff, 0xff, 0xff, 0xff,
  0x01, 0x00, 0x00, 0x00, 0x00, 0x00, 0x80, 0x3b, 0x1b, 0x00, 0x00, 0x00,
  0x53, 0x74, 0x61, 0x74, 0x65, 0x66, 0x75, 0x6c, 0x50, 0x61, 0x72, 0x74,
  0x69, 0x74, 0x69, 0x6f, 0x6e, 0x65, 0x64, 0x43, 0x61, 0x6c, 0x6c, 0x5f,
  0x31, 0x3a, 0x30, 0x00, 0x02, 0x00, 0x00, 0x00, 0x01, 0x00, 0x00, 0x00,
  0x07, 0x00, 0x00, 0x00, 0x92, 0xee, 0xff, 0xff, 0x00, 0x00, 0x00, 0x01,
  0x14, 0x00, 0x00, 0x00, 0x34, 0x00, 0x00, 0x00, 0x16, 0x00, 0x00, 0x00,
  0x00, 0x00, 0x00, 0x09, 0x74, 0x00, 0x00, 0x00, 0x7c, 0xee, 0xff, 0xff,
  0x08, 0x00, 0x00, 0x00, 0x14, 0x00, 0x00, 0x00, 0x01, 0x00, 0x00, 0x00,
  0x4b, 0x00, 0x00, 0x00, 0x00, 0x00, 0x00, 0x00, 0x00, 0x00, 0x00, 0x00,
  0x01, 0x00, 0x00, 0x00, 0x58, 0x12, 0xd3, 0x3e, 0x44, 0x00, 0x00, 0x00,
  0x73, 0x65, 0x71, 0x75, 0x65, 0x6e, 0x74, 0x69, 0x61, 0x6c, 0x5f, 0x31,
  0x31, 0x5f, 0x31, 0x2f, 0x64, 0x65, 0x6e, 0x73, 0x65, 0x5f, 0x32, 0x33,
  0x5f, 0x31, 0x2f, 0x4d, 0x61, 0x74, 0x4d, 0x75, 0x6c, 0x3b, 0x73, 0x65,
  0x71, 0x75, 0x65, 0x6e, 0x74, 0x69, 0x61, 0x6c, 0x5f, 0x31, 0x31, 0x5f,
  0x31, 0x2f, 0x64, 0x65, 0x6e, 0x73, 0x65, 0x5f, 0x32, 0x33, 0x5f, 0x31,
  0x2f, 0x42, 0x69, 0x61, 0x73, 0x41, 0x64, 0x64, 0x00, 0x00, 0x00, 0x00,
  0x02, 0x00, 0x00, 0x00, 0x01, 0x00, 0x00, 0x00, 0x07, 0x00, 0x00, 0x00,
  0x2a, 0xef, 0xff, 0xff, 0x00, 0x00, 0x00, 0x01, 0x14, 0x00, 0x00, 0x00,
  0x34, 0x00, 0x00, 0x00, 0x15, 0x00, 0x00, 0x00, 0x00, 0x00, 0x00, 0x09,
  0x94, 0x00, 0x00, 0x00, 0x14, 0xef, 0xff, 0xff, 0x08, 0x00, 0x00, 0x00,
  0x14, 0x00, 0x00, 0x00, 0x01, 0x00, 0x00, 0x00, 0x80, 0xff, 0xff, 0xff,
  0xff, 0xff, 0xff, 0xff, 0x00, 0x00, 0x00, 0x00, 0x01, 0x00, 0x00, 0x00,
  0x24, 0x0c, 0x13, 0x3c, 0x64, 0x00, 0x00, 0x00, 0x73, 0x65, 0x71, 0x75,
  0x65, 0x6e, 0x74, 0x69, 0x61, 0x6c, 0x5f, 0x31, 0x31, 0x5f, 0x31, 0x2f,
  0x64, 0x65, 0x6e, 0x73, 0x65, 0x5f, 0x32, 0x32, 0x5f, 0x31, 0x2f, 0x4d,
  0x61, 0x74, 0x4d, 0x75, 0x6c, 0x3b, 0x73, 0x65, 0x71, 0x75, 0x65, 0x6e,
  0x74, 0x69, 0x61, 0x6c, 0x5f, 0x31, 0x31, 0x5f, 0x31, 0x2f, 0x64, 0x65,
  0x6e, 0x73, 0x65, 0x5f, 0x32, 0x32, 0x5f, 0x31, 0x2f, 0x52, 0x65, 0x6c,
  0x75, 0x3b, 0x73, 0x65, 0x71, 0x75, 0x65, 0x6e, 0x74, 0x69, 0x61, 0x6c,
  0x5f, 0x31, 0x31, 0x5f, 0x31, 0x2f, 0x64, 0x65, 0x6e, 0x73, 0x65, 0x5f,
  0x32, 0x32, 0x5f, 0x31, 0x2f, 0x42, 0x69, 0x61, 0x73, 0x41, 0x64, 0x64,
  0x00, 0x00, 0x00, 0x00, 0x02, 0x00, 0x00, 0x00, 0x01, 0x00, 0x00, 0x00,
  0x10, 0x00, 0x00, 0x00, 0xe2, 0xef, 0xff, 0xff, 0x00, 0x00, 0x00, 0x01,
  0x14, 0x00, 0x00, 0x00, 0x30, 0x00, 0x00, 0x00, 0x14, 0x00, 0x00, 0x00,
  0x00, 0x00, 0x00, 0x09, 0x5c, 0x00, 0x00, 0x00, 0xcc, 0xef, 0xff, 0xff,
  0x08, 0x00, 0x00, 0x00, 0x10, 0x00, 0x00, 0x00, 0x01, 0x00, 0x00, 0x00,
  0x80, 0xff, 0xff, 0xff, 0xff, 0xff, 0xff, 0xff, 0x01, 0x00, 0x00, 0x00,
  0xa8, 0x00, 0x6f, 0x3c, 0x32, 0x00, 0x00, 0x00, 0x73, 0x65, 0x71, 0x75,
  0x65, 0x6e, 0x74, 0x69, 0x61, 0x6c, 0x5f, 0x31, 0x31, 0x5f, 0x31, 0x2f,
  0x67, 0x6c, 0x6f, 0x62, 0x61, 0x6c, 0x5f, 0x61, 0x76, 0x65, 0x72, 0x61,
  0x67, 0x65, 0x5f, 0x70, 0x6f, 0x6f, 0x6c, 0x69, 0x6e, 0x67, 0x31, 0x64,
  0x5f, 0x31, 0x31, 0x5f, 0x31, 0x2f, 0x4d, 0x65, 0x61, 0x6e, 0x00, 0x00,
  0x02, 0x00, 0x00, 0x00, 0x01, 0x00, 0x00, 0x00, 0x08, 0x00, 0x00, 0x00,
  0x62, 0xf0, 0xff, 0xff, 0x00, 0x00, 0x00, 0x01, 0x14, 0x00, 0x00, 0x00,
  0x34, 0x00, 0x00, 0x00, 0x13, 0x00, 0x00, 0x00, 0x00, 0x00, 0x00, 0x09,
  0x18, 0x01, 0x00, 0x00, 0x4c, 0xf0, 0xff, 0xff, 0x08, 0x00, 0x00, 0x00,
  0x14, 0x00, 0x00, 0x00, 0x01, 0x00, 0x00, 0x00, 0x80, 0xff, 0xff, 0xff,
  0xff, 0xff, 0xff, 0xff, 0x00, 0x00, 0x00, 0x00, 0x01, 0x00, 0x00, 0x00,
  0xe0, 0xbd, 0x84, 0x3d, 0xeb, 0x00, 0x00, 0x00, 0x73, 0x65, 0x71, 0x75,
  0x65, 0x6e, 0x74, 0x69, 0x61, 0x6c, 0x5f, 0x31, 0x31, 0x5f, 0x31, 0x2f,
  0x61, 0x63, 0x74, 0x69, 0x76, 0x61, 0x74, 0x69, 0x6f, 0x6e, 0x5f, 0x33,
  0x35, 0x5f, 0x31, 0x2f, 0x52, 0x65, 0x6c, 0x75, 0x3b, 0x73, 0x65, 0x71,
  0x75, 0x65, 0x6e, 0x74, 0x69, 0x61, 0x6c, 0x5f, 0x31, 0x31, 0x5f, 0x31,
  0x2f, 0x62, 0x61, 0x74, 0x63, 0x68, 0x5f, 0x6e, 0x6f, 0x72, 0x6d, 0x61,
  0x6c, 0x69, 0x7a, 0x61, 0x74, 0x69, 0x6f, 0x6e, 0x5f, 0x33, 0x35, 0x5f,
  0x31, 0x2f, 0x62, 0x61, 0x74, 0x63, 0x68, 0x6e, 0x6f, 0x72, 0x6d, 0x2f,
  0x61, 0x64, 0x64, 0x5f, 0x31, 0x3b, 0x73, 0x65, 0x71, 0x75, 0x65, 0x6e,
  0x74, 0x69, 0x61, 0x6c, 0x5f, 0x31, 0x31, 0x5f, 0x31, 0x2f, 0x63, 0x6f,
  0x6e, 0x76, 0x31, 0x64, 0x5f, 0x33, 0x35, 0x5f, 0x31, 0x2f, 0x63, 0x6f,
  0x6e, 0x76, 0x6f, 0x6c, 0x75, 0x74, 0x69, 0x6f, 0x6e, 0x2f, 0x53, 0x71,
  0x75, 0x65, 0x65, 0x7a, 0x65, 0x3b, 0x73, 0x65, 0x71, 0x75, 0x65, 0x6e,
  0x74, 0x69, 0x61, 0x6c, 0x5f, 0x31, 0x31, 0x5f, 0x31, 0x2f, 0x62, 0x61,
  0x74, 0x63, 0x68, 0x5f, 0x6e, 0x6f, 0x72, 0x6d, 0x61, 0x6c, 0x69, 0x7a,
  0x61, 0x74, 0x69, 0x6f, 0x6e, 0x5f, 0x33, 0x35, 0x5f, 0x31, 0x2f, 0x62,
  0x61, 0x74, 0x63, 0x68, 0x6e, 0x6f, 0x72, 0x6d, 0x2f, 0x6d, 0x75, 0x6c,
  0x5f, 0x31, 0x3b, 0x73, 0x65, 0x71, 0x75, 0x65, 0x6e, 0x74, 0x69, 0x61,
  0x6c, 0x5f, 0x31, 0x31, 0x5f, 0x31, 0x2f, 0x63, 0x6f, 0x6e, 0x76, 0x31,
  0x64, 0x5f, 0x33, 0x35, 0x5f, 0x31, 0x2f, 0x42, 0x69, 0x61, 0x73, 0x41,
  0x64, 0x64, 0x3b, 0x00, 0x03, 0x00, 0x00, 0x00, 0x01, 0x00, 0x00, 0x00,
  0x7d, 0x00, 0x00, 0x00, 0x08, 0x00, 0x00, 0x00, 0xa2, 0xf1, 0xff, 0xff,
  0x00, 0x00, 0x00, 0x01, 0x14, 0x00, 0x00, 0x00, 0x30, 0x00, 0x00, 0x00,
  0x12, 0x00, 0x00, 0x00, 0x00, 0x00, 0x00, 0x09, 0x3c, 0x01, 0x00, 0x00,
  0x8c, 0xf1, 0xff, 0xff, 0x08, 0x00, 0x00, 0x00, 0x10, 0x00, 0x00, 0x00,
  0x01, 0x00, 0x00, 0x00, 0x80, 0xff, 0xff, 0xff, 0xff, 0xff, 0xff, 0xff,
  0x01, 0x00, 0x00, 0x00, 0xe0, 0xbd, 0x84, 0x3d, 0x13, 0x01, 0x00, 0x00,
  0x73, 0x65, 0x71, 0x75, 0x65, 0x6e, 0x74, 0x69, 0x61, 0x6c, 0x5f, 0x31,
  0x31, 0x5f, 0x31, 0x2f, 0x61, 0x63, 0x74, 0x69, 0x76, 0x61, 0x74, 0x69,
  0x6f, 0x6e, 0x5f, 0x33, 0x35, 0x5f, 0x31, 0x2f, 0x52, 0x65, 0x6c, 0x75,
  0x3b, 0x73, 0x65, 0x71, 0x75, 0x65, 0x6e, 0x74, 0x69, 0x61, 0x6c, 0x5f,
  0x31, 0x31, 0x5f, 0x31, 0x2f, 0x62, 0x61, 0x74, 0x63, 0x68, 0x5f, 0x6e,
  0x6f, 0x72, 0x6d, 0x61, 0x6c, 0x69, 0x7a, 0x61, 0x74, 0x69, 0x6f, 0x6e,
  0x5f, 0x33, 0x35, 0x5f, 0x31, 0x2f, 0x62, 0x61, 0x74, 0x63, 0x68, 0x6e,
  0x6f, 0x72, 0x6d, 0x2f, 0x61, 0x64, 0x64, 0x5f, 0x31, 0x3b, 0x73, 0x65,
  0x71, 0x75, 0x65, 0x6e, 0x74, 0x69, 0x61, 0x6c, 0x5f, 0x31, 0x31, 0x5f,
  0x31, 0x2f, 0x63, 0x6f, 0x6e, 0x76, 0x31, 0x64, 0x5f, 0x33, 0x35, 0x5f,
  0x31, 0x2f, 0x63, 0x6f, 0x6e, 0x76, 0x6f, 0x6c, 0x75, 0x74, 0x69, 0x6f,
  0x6e, 0x2f, 0x53, 0x71, 0x75, 0x65, 0x65, 0x7a, 0x65, 0x3b, 0x73, 0x65,
  0x71, 0x75, 0x65, 0x6e, 0x74, 0x69, 0x61, 0x6c, 0x5f, 0x31, 0x31, 0x5f,
  0x31, 0x2f, 0x62, 0x61, 0x74, 0x63, 0x68, 0x5f, 0x6e, 0x6f, 0x72, 0x6d,
  0x61, 0x6c, 0x69, 0x7a, 0x61, 0x74, 0x69, 0x6f, 0x6e, 0x5f, 0x33, 0x35,
  0x5f, 0x31, 0x2f, 0x62, 0x61, 0x74, 0x63, 0x68, 0x6e, 0x6f, 0x72, 0x6d,
  0x2f, 0x6d, 0x75, 0x6c, 0x5f, 0x31, 0x3b, 0x73, 0x65, 0x71, 0x75, 0x65,
  0x6e, 0x74, 0x69, 0x61, 0x6c, 0x5f, 0x31, 0x31, 0x5f, 0x31, 0x2f, 0x63,
  0x6f, 0x6e, 0x76, 0x31, 0x64, 0x5f, 0x33, 0x35, 0x5f, 0x31, 0x2f, 0x42,
  0x69, 0x61, 0x73, 0x41, 0x64, 0x64, 0x3b, 0x3b, 0x73, 0x65, 0x71, 0x75,
  0x65, 0x6e, 0x74, 0x69, 0x61, 0x6c, 0x5f, 0x31, 0x31, 0x5f, 0x31, 0x2f,
  0x63, 0x6f, 0x6e, 0x76, 0x31, 0x64, 0x5f, 0x33, 0x35, 0x5f, 0x31, 0x2f,
  0x63, 0x6f, 0x6e, 0x76, 0x6f, 0x6c, 0x75, 0x74, 0x69, 0x6f, 0x6e, 0x00,
  0x04, 0x00, 0x00, 0x00, 0x01, 0x00, 0x00, 0x00, 0x01, 0x00, 0x00, 0x00,
  0x7d, 0x00, 0x00, 0x00, 0x08, 0x00, 0x00, 0x00, 0x0a, 0xf3, 0xff, 0xff,
  0x00, 0x00, 0x00, 0x01, 0x14, 0x00, 0x00, 0x00, 0x30, 0x00, 0x00, 0x00,
  0x11, 0x00, 0x00, 0x00, 0x00, 0x00, 0x00, 0x09, 0x3c, 0x01, 0x00, 0x00,
  0xf4, 0xf2, 0xff, 0xff, 0x08, 0x00, 0x00, 0x00, 0x10, 0x00, 0x00, 0x00,
  0x01, 0x00, 0x00, 0x00, 0x80, 0xff, 0xff, 0xff, 0xff, 0xff, 0xff, 0xff,
  0x01, 0x00, 0x00, 0x00, 0xef, 0xc2, 0x9f, 0x3c, 0x13, 0x01, 0x00, 0x00,
  0x73, 0x65, 0x71, 0x75, 0x65, 0x6e, 0x74, 0x69, 0x61, 0x6c, 0x5f, 0x31,
  0x31, 0x5f, 0x31, 0x2f, 0x61, 0x63, 0x74, 0x69, 0x76, 0x61, 0x74, 0x69,
  0x6f, 0x6e, 0x5f, 0x33, 0x34, 0x5f, 0x31, 0x2f, 0x52, 0x65, 0x6c, 0x75,
  0x3b, 0x73, 0x65, 0x71, 0x75, 0x65, 0x6e, 0x74, 0x69, 0x61, 0x6c, 0x5f,
  0x31, 0x31, 0x5f, 0x31, 0x2f, 0x62, 0x61, 0x74, 0x63, 0x68, 0x5f, 0x6e,
  0x6f, 0x72, 0x6d, 0x61, 0x6c, 0x69, 0x7a, 0x61, 0x74, 0x69, 0x6f, 0x6e,
  0x5f, 0x33, 0x34, 0x5f, 0x31, 0x2f, 0x62, 0x61, 0x74, 0x63, 0x68, 0x6e,
  0x6f, 0x72, 0x6d, 0x2f, 0x61, 0x64, 0x64, 0x5f, 0x31, 0x3b, 0x73, 0x65,
  0x71, 0x75, 0x65, 0x6e, 0x74, 0x69, 0x61, 0x6c, 0x5f, 0x31, 0x31, 0x5f,
  0x31, 0x2f, 0x63, 0x6f, 0x6e, 0x76, 0x31, 0x64, 0x5f, 0x33, 0x34, 0x5f,
  0x31, 0x2f, 0x63, 0x6f, 0x6e, 0x76, 0x6f, 0x6c, 0x75, 0x74, 0x69, 0x6f,
  0x6e, 0x2f, 0x53, 0x71, 0x75, 0x65, 0x65, 0x7a, 0x65, 0x3b, 0x73, 0x65,
  0x71, 0x75, 0x65, 0x6e, 0x74, 0x69, 0x61, 0x6c, 0x5f, 0x31, 0x31, 0x5f,
  0x31, 0x2f, 0x62, 0x61, 0x74, 0x63, 0x68, 0x5f, 0x6e, 0x6f, 0x72, 0x6d,
  0x61, 0x6c, 0x69, 0x7a, 0x61, 0x74, 0x69, 0x6f, 0x6e, 0x5f, 0x33, 0x34,
  0x5f, 0x31, 0x2f, 0x62, 0x61, 0x74, 0x63, 0x68, 0x6e, 0x6f, 0x72, 0x6d,
  0x2f, 0x6d, 0x75, 0x6c, 0x5f, 0x31, 0x3b, 0x73, 0x65, 0x71, 0x75, 0x65,
  0x6e, 0x74, 0x69, 0x61, 0x6c, 0x5f, 0x31, 0x31, 0x5f, 0x31, 0x2f, 0x63,
  0x6f, 0x6e, 0x76, 0x31, 0x64, 0x5f, 0x33, 0x34, 0x5f, 0x31, 0x2f, 0x42,
  0x69, 0x61, 0x73, 0x41, 0x64, 0x64, 0x3b, 0x3b, 0x73, 0x65, 0x71, 0x75,
  0x65, 0x6e, 0x74, 0x69, 0x61, 0x6c, 0x5f, 0x31, 0x31, 0x5f, 0x31, 0x2f,
  0x63, 0x6f, 0x6e, 0x76, 0x31, 0x64, 0x5f, 0x33, 0x34, 0x5f, 0x31, 0x2f,
  0x63, 0x6f, 0x6e, 0x76, 0x6f, 0x6c, 0x75, 0x74, 0x69, 0x6f, 0x6e, 0x00,
  0x04, 0x00, 0x00, 0x00, 0x01, 0x00, 0x00, 0x00, 0x01, 0x00, 0x00, 0x00,
  0x7d, 0x00, 0x00, 0x00, 0x0c, 0x00, 0x00, 0x00, 0x72, 0xf4, 0xff, 0xff,
  0x00, 0x00, 0x00, 0x01, 0x14, 0x00, 0x00, 0x00, 0x30, 0x00, 0x00, 0x00,
  0x10, 0x00, 0x00, 0x00, 0x00, 0x00, 0x00, 0x09, 0x3c, 0x01, 0x00, 0x00,
  0x5c, 0xf4, 0xff, 0xff, 0x08, 0x00, 0x00, 0x00, 0x10, 0x00, 0x00, 0x00,
  0x01, 0x00, 0x00, 0x00, 0x80, 0xff, 0xff, 0xff, 0xff, 0xff, 0xff, 0xff,
  0x01, 0x00, 0x00, 0x00, 0xf5, 0x98, 0x6b, 0x3d, 0x13, 0x01, 0x00, 0x00,
  0x73, 0x65, 0x71, 0x75, 0x65, 0x6e, 0x74, 0x69, 0x61, 0x6c, 0x5f, 0x31,
  0x31, 0x5f, 0x31, 0x2f, 0x61, 0x63, 0x74, 0x69, 0x76, 0x61, 0x74, 0x69,
  0x6f, 0x6e, 0x5f, 0x33, 0x33, 0x5f, 0x31, 0x2f, 0x52, 0x65, 0x6c, 0x75,
  0x3b, 0x73, 0x65, 0x71, 0x75, 0x65, 0x6e, 0x74, 0x69, 0x61, 0x6c, 0x5f,
  0x31, 0x31, 0x5f, 0x31, 0x2f, 0x62, 0x61, 0x74, 0x63, 0x68, 0x5f, 0x6e,
  0x6f, 0x72, 0x6d, 0x61, 0x6c, 0x69, 0x7a, 0x61, 0x74, 0x69, 0x6f, 0x6e,
  0x5f, 0x33, 0x33, 0x5f, 0x31, 0x2f, 0x62, 0x61, 0x74, 0x63, 0x68, 0x6e,
  0x6f, 0x72, 0x6d, 0x2f, 0x61, 0x64, 0x64, 0x5f, 0x31, 0x3b, 0x73, 0x65,
  0x71, 0x75, 0x65, 0x6e, 0x74, 0x69, 0x61, 0x6c, 0x5f, 0x31, 0x31, 0x5f,
  0x31, 0x2f, 0x63, 0x6f, 0x6e, 0x76, 0x31, 0x64, 0x5f, 0x33, 0x33, 0x5f,
  0x31, 0x2f, 0x63, 0x6f, 0x6e, 0x76, 0x6f, 0x6c, 0x75, 0x74, 0x69, 0x6f,
  0x6e, 0x2f, 0x53, 0x71, 0x75, 0x65, 0x65, 0x7a, 0x65, 0x3b, 0x73, 0x65,
  0x71, 0x75, 0x65, 0x6e, 0x74, 0x69, 0x61, 0x6c, 0x5f, 0x31, 0x31, 0x5f,
  0x31, 0x2f, 0x62, 0x61, 0x74, 0x63, 0x68, 0x5f, 0x6e, 0x6f, 0x72, 0x6d,
  0x61, 0x6c, 0x69, 0x7a, 0x61, 0x74, 0x69, 0x6f, 0x6e, 0x5f, 0x33, 0x33,
  0x5f, 0x31, 0x2f, 0x62, 0x61, 0x74, 0x63, 0x68, 0x6e, 0x6f, 0x72, 0x6d,
  0x2f, 0x6d, 0x75, 0x6c, 0x5f, 0x31, 0x3b, 0x73, 0x65, 0x71, 0x75, 0x65,
  0x6e, 0x74, 0x69, 0x61, 0x6c, 0x5f, 0x31, 0x31, 0x5f, 0x31, 0x2f, 0x63,
  0x6f, 0x6e, 0x76, 0x31, 0x64, 0x5f, 0x33, 0x33, 0x5f, 0x31, 0x2f, 0x42,
  0x69, 0x61, 0x73, 0x41, 0x64, 0x64, 0x3b, 0x3b, 0x73, 0x65, 0x71, 0x75,
  0x65, 0x6e, 0x74, 0x69, 0x61, 0x6c, 0x5f, 0x31, 0x31, 0x5f, 0x31, 0x2f,
  0x63, 0x6f, 0x6e, 0x76, 0x31, 0x64, 0x5f, 0x33, 0x33, 0x5f, 0x31, 0x2f,
  0x63, 0x6f, 0x6e, 0x76, 0x6f, 0x6c, 0x75, 0x74, 0x69, 0x6f, 0x6e, 0x00,
  0x04, 0x00, 0x00, 0x00, 0x01, 0x00, 0x00, 0x00, 0x01, 0x00, 0x00, 0x00,
  0xfa, 0x00, 0x00, 0x00, 0x10, 0x00, 0x00, 0x00, 0xda, 0xf5, 0xff, 0xff,
  0x00, 0x00, 0x00, 0x01, 0x14, 0x00, 0x00, 0x00, 0x30, 0x00, 0x00, 0x00,
  0x0f, 0x00, 0x00, 0x00, 0x00, 0x00, 0x00, 0x09, 0x5c, 0x00, 0x00, 0x00,
  0xc4, 0xf5, 0xff, 0xff, 0x08, 0x00, 0x00, 0x00, 0x10, 0x00, 0x00, 0x00,
  0x01, 0x00, 0x00, 0x00, 0x94, 0xff, 0xff, 0xff, 0xff, 0xff, 0xff, 0xff,
  0x01, 0x00, 0x00, 0x00, 0xd5, 0x2a, 0xfb, 0x3e, 0x33, 0x00, 0x00, 0x00,
  0x73, 0x65, 0x71, 0x75, 0x65, 0x6e, 0x74, 0x69, 0x61, 0x6c, 0x5f, 0x31,
  0x31, 0x5f, 0x31, 0x2f, 0x63, 0x6f, 0x6e, 0x76, 0x31, 0x64, 0x5f, 0x33,
  0x33, 0x5f, 0x31, 0x2f, 0x63, 0x6f, 0x6e, 0x76, 0x6f, 0x6c, 0x75, 0x74,
  0x69, 0x6f, 0x6e, 0x2f, 0x45, 0x78, 0x70, 0x61, 0x6e, 0x64, 0x44, 0x69,
  0x6d, 0x73, 0x31, 0x00, 0x04, 0x00, 0x00, 0x00, 0x01, 0x00, 0x00, 0x00,
  0x01, 0x00, 0x00, 0x00, 0xf4, 0x01, 0x00, 0x00, 0x06, 0x00, 0x00, 0x00,
  0x62, 0xf6, 0xff, 0xff, 0x00, 0x00, 0x00, 0x01, 0x14, 0x00, 0x00, 0x00,
  0xe8, 0x00, 0x00, 0x00, 0x0e, 0x00, 0x00, 0x00, 0x00, 0x00, 0x00, 0x09,
  0xf4, 0x00, 0x00, 0x00, 0x4c, 0xf6, 0xff, 0xff, 0x08, 0x00, 0x00, 0x00,
  0x8c, 0x00, 0x00, 0x00, 0x10, 0x00, 0x00, 0x00, 0x00, 0x00, 0x00, 0x00,
  0x00, 0x00, 0x00, 0x00, 0x00, 0x00, 0x00, 0x00, 0x00, 0x00, 0x00, 0x00,
  0x00, 0x00, 0x00, 0x00, 0x00, 0x00, 0x00, 0x00, 0x00, 0x00, 0x00, 0x00,
  0x00, 0x00, 0x00, 0x00, 0x00, 0x00, 0x00, 0x00, 0x00, 0x00, 0x00, 0x00,
  0x00, 0x00, 0x00, 0x00, 0x00, 0x00, 0x00, 0x00, 0x00, 0x00, 0x00, 0x00,
  0x00, 0x00, 0x00, 0x00, 0x00, 0x00, 0x00, 0x00, 0x00, 0x00, 0x00, 0x00,
  0x00, 0x00, 0x00, 0x00, 0x00, 0x00, 0x00, 0x00, 0x00, 0x00, 0x00, 0x00,
  0x00, 0x00, 0x00, 0x00, 0x00, 0x00, 0x00, 0x00, 0x00, 0x00, 0x00, 0x00,
  0x00, 0x00, 0x00, 0x00, 0x00, 0x00, 0x00, 0x00, 0x00, 0x00, 0x00, 0x00,
  0x00, 0x00, 0x00, 0x00, 0x00, 0x00, 0x00, 0x00, 0x00, 0x00, 0x00, 0x00,
  0x00, 0x00, 0x00, 0x00, 0x00, 0x00, 0x00, 0x00, 0x00, 0x00, 0x00, 0x00,
  0x00, 0x00, 0x00, 0x00, 0x00, 0x00, 0x00, 0x00, 0x10, 0x00, 0x00, 0x00,
  0x99, 0xfd, 0x24, 0x3b, 0xb0, 0xd8, 0xf3, 0x3a, 0xa2, 0x34, 0xb2, 0x3a,
  0x88, 0x7e, 0x2f, 0x3a, 0x10, 0x8a, 0xa2, 0x3a, 0x57, 0x56, 0xc2, 0x3a,
  0xa3, 0x0e, 0x81, 0x3a, 0xd9, 0x29, 0x2d, 0x3b, 0x9a, 0x75, 0xf2, 0x3a,
  0x01, 0x7d, 0x54, 0x3a, 0xde, 0x16, 0x4d, 0x3b, 0x4f, 0xe2, 0x96, 0x3a,
  0x13, 0xb4, 0x85, 0x3a, 0xe7, 0x2f, 0xdc, 0x3a, 0xf8, 0x7a, 0xa4, 0x3a,
  0x3b, 0x2d, 0x13, 0x3b, 0x12, 0x00, 0x00, 0x00, 0x74, 0x66, 0x6c, 0x2e,
  0x70, 0x73, 0x65, 0x75, 0x64, 0x6f, 0x5f, 0x71, 0x63, 0x6f, 0x6e, 0x73,
  0x74, 0x39, 0x00, 0x00, 0x04, 0x00, 0x00, 0x00, 0x10, 0x00, 0x00, 0x00,
  0x01, 0x00, 0x00, 0x00, 0x07, 0x00, 0x00, 0x00, 0x06, 0x00, 0x00, 0x00,
  0x82, 0xf7, 0xff, 0xff, 0x00, 0x00, 0x00, 0x01, 0x14, 0x00, 0x00, 0x00,
  0xe4, 0x00, 0x00, 0x00, 0x0d, 0x00, 0x00, 0x00, 0x00, 0x00, 0x00, 0x02,
  0xf0, 0x00, 0x00, 0x00, 0x6c, 0xf7, 0xff, 0xff, 0x08, 0x00, 0x00, 0x00,
  0x88, 0x00, 0x00, 0x00, 0x10, 0x00, 0x00, 0x00, 0x00, 0x00, 0x00, 0x00,
  0x00, 0x00, 0x00, 0x00, 0x00, 0x00, 0x00, 0x00, 0x00, 0x00, 0x00, 0x00,
  0x00, 0x00, 0x00, 0x00, 0x00, 0x00, 0x00, 0x00, 0x00, 0x00, 0x00, 0x00,
  0x00, 0x00, 0x00, 0x00, 0x00, 0x00, 0x00, 0x00, 0x00, 0x00, 0x00, 0x00,
  0x00, 0x00, 0x00, 0x00, 0x00, 0x00, 0x00, 0x00, 0x00, 0x00, 0x00, 0x00,
  0x00, 0x00, 0x00, 0x00, 0x00, 0x00, 0x00, 0x00, 0x00, 0x00, 0x00, 0x00,
  0x00, 0x00, 0x00, 0x00, 0x00, 0x00, 0x00, 0x00, 0x00, 0x00, 0x00, 0x00,
  0x00, 0x00, 0x00, 0x00, 0x00, 0x00, 0x00, 0x00, 0x00, 0x00, 0x00, 0x00,
  0x00, 0x00, 0x00, 0x00, 0x00, 0x00, 0x00, 0x00, 0x00, 0x00, 0x00, 0x00,
  0x00, 0x00, 0x00, 0x00, 0x00, 0x00, 0x00, 0x00, 0x00, 0x00, 0x00, 0x00,
  0x00, 0x00, 0x00, 0x00, 0x00, 0x00, 0x00, 0x00, 0x00, 0x00, 0x00, 0x00,
  0x00, 0x00, 0x00, 0x00, 0x10, 0x00, 0x00, 0x00, 0x40, 0xe0, 0xa1, 0x3a,
  0x41, 0x3e, 0x6f, 0x3a, 0x6c, 0xd7, 0x2e, 0x3a, 0x6c, 0x2e, 0xac, 0x39,
  0x90, 0x78, 0x1f, 0x3a, 0x2b, 0xab, 0x3e, 0x3a, 0xe3, 0x3d, 0xfd, 0x39,
  0x01, 0xe5, 0xa9, 0x3a, 0xdf, 0xe1, 0x6d, 0x3a, 0x1d, 0x7a, 0xd0, 0x39,
  0xbc, 0x37, 0xc9, 0x3a, 0x22, 0x09, 0x14, 0x3a, 0xed, 0x2d, 0x03, 0x3a,
  0xcf, 0x07, 0x58, 0x3a, 0x16, 0x60, 0x21, 0x3a, 0xf9, 0x65, 0x90, 0x3a,
  0x12, 0x00, 0x00, 0x00, 0x74, 0x66, 0x6c, 0x2e, 0x70, 0x73, 0x65, 0x75,
  0x64, 0x6f, 0x5f, 0x71, 0x63, 0x6f, 0x6e, 0x73, 0x74, 0x38, 0x00, 0x00,
  0x01, 0x00, 0x00, 0x00, 0x10, 0x00, 0x00, 0x00, 0x92, 0xf8, 0xff, 0xff,
  0x00, 0x00, 0x00, 0x01, 0x14, 0x00, 0x00, 0x00, 0xb8, 0x00, 0x00, 0x00,
  0x0c, 0x00, 0x00, 0x00, 0x00, 0x00, 0x00, 0x09, 0xc4, 0x00, 0x00, 0x00,
  0x7c, 0xf8, 0xff, 0xff, 0x08, 0x00, 0x00, 0x00, 0x6c, 0x00, 0x00, 0x00,
  0x0c, 0x00, 0x00, 0x00, 0x00, 0x00, 0x00, 0x00, 0x00, 0x00, 0x00, 0x00,
  0x00, 0x00, 0x00, 0x00, 0x00, 0x00, 0x00, 0x00, 0x00, 0x00, 0x00, 0x00,
  0x00, 0x00, 0x00, 0x00, 0x00, 0x00, 0x00, 0x00, 0x00, 0x00, 0x00, 0x00,
  0x00, 0x00, 0x00, 0x00, 0x00, 0x00, 0x00, 0x00, 0x00, 0x00, 0x00, 0x00,
  0x00, 0x00, 0x00, 0x00, 0x00, 0x00, 0x00, 0x00, 0x00, 0x00, 0x00, 0x00,
  0x00, 0x00, 0x00, 0x00, 0x00, 0x00, 0x00, 0x00, 0x00, 0x00, 0x00, 0x00,
  0x00, 0x00, 0x00, 0x00, 0x00, 0x00, 0x00, 0x00, 0x00, 0x00, 0x00, 0x00,
  0x00, 0x00, 0x00, 0x00, 0x00, 0x00, 0x00, 0x00, 0x00, 0x00, 0x00, 0x00,
  0x00, 0x00, 0x00, 0x00, 0x00, 0x00, 0x00, 0x00, 0x0c, 0x00, 0x00, 0x00,
  0xbd, 0x1b, 0x19, 0x3b, 0x36, 0xce, 0x4f, 0x3b, 0x46, 0x48, 0xae, 0x3a,
  0x89, 0xc3, 0x2e, 0x3b, 0xb4, 0x3e, 0x7b, 0x3b, 0xd8, 0x2c, 0x03, 0x3b,
  0x31, 0x1a, 0x39, 0x3b, 0x81, 0x32, 0x1b, 0x3b, 0xf6, 0x73, 0x1a, 0x3b,
  0x31, 0x76, 0xc9, 0x3a, 0x20, 0x5d, 0x6a, 0x3b, 0x37, 0x5f, 0x30, 0x3b,
  0x12, 0x00, 0x00, 0x00, 0x74, 0x66, 0x6c, 0x2e, 0x70, 0x73, 0x65, 0x75,
  0x64, 0x6f, 0x5f, 0x71, 0x63, 0x6f, 0x6e, 0x73, 0x74, 0x37, 0x00, 0x00,
  0x04, 0x00, 0x00, 0x00, 0x0c, 0x00, 0x00, 0x00, 0x01, 0x00, 0x00, 0x00,
  0x05, 0x00, 0x00, 0x00, 0x10, 0x00, 0x00, 0x00, 0x82, 0xf9, 0xff, 0xff,
  0x00, 0x00, 0x00, 0x01, 0x14, 0x00, 0x00, 0x00, 0xb4, 0x00, 0x00, 0x00,
  0x0b, 0x00, 0x00, 0x00, 0x00, 0x00, 0x00, 0x02, 0xc0, 0x00, 0x00, 0x00,
  0x6c, 0xf9, 0xff, 0xff, 0x08, 0x00, 0x00, 0x00, 0x68, 0x00, 0x00, 0x00,
  0x0c, 0x00, 0x00, 0x00, 0x00, 0x00, 0x00, 0x00, 0x00, 0x00, 0x00, 0x00,
  0x00, 0x00, 0x00, 0x00, 0x00, 0x00, 0x00, 0x00, 0x00, 0x00, 0x00, 0x00,
  0x00, 0x00, 0x00, 0x00, 0x00, 0x00, 0x00, 0x00, 0x00, 0x00, 0x00, 0x00,
  0x00, 0x00, 0x00, 0x00, 0x00, 0x00, 0x00, 0x00, 0x00, 0x00, 0x00, 0x00,
  0x00, 0x00, 0x00, 0x00, 0x00, 0x00, 0x00, 0x00, 0x00, 0x00, 0x00, 0x00,
  0x00, 0x00, 0x00, 0x00, 0x00, 0x00, 0x00, 0x00, 0x00, 0x00, 0x00, 0x00,
  0x00, 0x00, 0x00, 0x00, 0x00, 0x00, 0x00, 0x00, 0x00, 0x00, 0x00, 0x00,
  0x00, 0x00, 0x00, 0x00, 0x00, 0x00, 0x00, 0x00, 0x00, 0x00, 0x00, 0x00,
  0x00, 0x00, 0x00, 0x00, 0x0c, 0x00, 0x00, 0x00, 0xf1, 0xe7, 0x0c, 0x39,
  0x75, 0x3e, 0x3f, 0x39, 0x7a, 0x64, 0xa0, 0x38, 0xea, 0xd5, 0x20, 0x39,
  0xad, 0x38, 0x67, 0x39, 0x15, 0x71, 0xf1, 0x38, 0xa4, 0x59, 0x2a, 0x39,
  0x17, 0xd4, 0x0e, 0x39, 0xbb, 0x24, 0x0e, 0x39, 0xde, 0x67, 0xb9, 0x38,
  0x84, 0xaf, 0x57, 0x39, 0xc9, 0x50, 0x22, 0x39, 0x12, 0x00, 0x00, 0x00,
  0x74, 0x66, 0x6c, 0x2e, 0x70, 0x73, 0x65, 0x75, 0x64, 0x6f, 0x5f, 0x71,
  0x63, 0x6f, 0x6e, 0x73, 0x74, 0x36, 0x00, 0x00, 0x01, 0x00, 0x00, 0x00,
  0x0c, 0x00, 0x00, 0x00, 0x62, 0xfa, 0xff, 0xff, 0x00, 0x00, 0x00, 0x01,
  0x14, 0x00, 0x00, 0x00, 0x88, 0x00, 0x00, 0x00, 0x0a, 0x00, 0x00, 0x00,
  0x00, 0x00, 0x00, 0x09, 0x94, 0x00, 0x00, 0x00, 0x4c, 0xfa, 0xff, 0xff,
  0x08, 0x00, 0x00, 0x00, 0x4c, 0x00, 0x00, 0x00, 0x08, 0x00, 0x00, 0x00,
  0x00, 0x00, 0x00, 0x00, 0x00, 0x00, 0x00, 0x00, 0x00, 0x00, 0x00, 0x00,
  0x00, 0x00, 0x00, 0x00, 0x00, 0x00, 0x00, 0x00, 0x00, 0x00, 0x00, 0x00,
  0x00, 0x00, 0x00, 0x00, 0x00, 0x00, 0x00, 0x00, 0x00, 0x00, 0x00, 0x00,
  0x00, 0x00, 0x00, 0x00, 0x00, 0x00, 0x00, 0x00, 0x00, 0x00, 0x00, 0x00,
  0x00, 0x00, 0x00, 0x00, 0x00, 0x00, 0x00, 0x00, 0x00, 0x00, 0x00, 0x00,
  0x00, 0x00, 0x00, 0x00, 0x00, 0x00, 0x00, 0x00, 0x08, 0x00, 0x00, 0x00,
  0x23, 0xa9, 0x23, 0x3c, 0x72, 0x8c, 0x98, 0x3c, 0x7e, 0x04, 0xb7, 0x3c,
  0x84, 0x1b, 0xb8, 0x3c, 0x19, 0xcf, 0x88, 0x3c, 0xc3, 0x21, 0x8b, 0x3c,
  0x88, 0x31, 0x76, 0x3c, 0x88, 0xa1, 0x8f, 0x3c, 0x12, 0x00, 0x00, 0x00,
  0x74, 0x66, 0x6c, 0x2e, 0x70, 0x73, 0x65, 0x75, 0x64, 0x6f, 0x5f, 0x71,
  0x63, 0x6f, 0x6e, 0x73, 0x74, 0x35, 0x00, 0x00, 0x04, 0x00, 0x00, 0x00,
  0x08, 0x00, 0x00, 0x00, 0x01, 0x00, 0x00, 0x00, 0x03, 0x00, 0x00, 0x00,
  0x0c, 0x00, 0x00, 0x00, 0x22, 0xfb, 0xff, 0xff, 0x00, 0x00, 0x00, 0x01,
  0x14, 0x00, 0x00, 0x00, 0x84, 0x00, 0x00, 0x00, 0x09, 0x00, 0x00, 0x00,
  0x00, 0x00, 0x00, 0x02, 0x90, 0x00, 0x00, 0x00, 0x0c, 0xfb, 0xff, 0xff,
  0x08, 0x00, 0x00, 0x00, 0x48, 0x00, 0x00, 0x00, 0x08, 0x00, 0x00, 0x00,
  0x00, 0x00, 0x00, 0x00, 0x00, 0x00, 0x00, 0x00, 0x00, 0x00, 0x00, 0x00,
