
inline const unsigned char gesture_model_2_tflite[] = {
  0x20, 0x00, 0x00, 0x00, 0x54, 0x46, 0x4c, 0x33, 0x00, 0x00, 0x00, 0x00,
  0x14, 0x00, 0x20, 0x00, 0x1c, 0x00, 0x18, 0x00, 0x14, 0x00, 0x10, 0x00,
  0x0c, 0x00, 0x00, 0x00, 0x08, 0x00, 0x04, 0x00, 0x14, 0x00, 0x00, 0x00,
  0x1c, 0x00, 0x00, 0x00, 0x9c, 0x00, 0x00, 0x00, 0x1c, 0x01, 0x00, 0x00,
  0x70, 0x0c, 0x00, 0x00, 0x80, 0x0c, 0x00, 0x00, 0xc4, 0x21, 0x00, 0x00,
  0x03, 0x00, 0x00, 0x00, 0x01, 0x00, 0x00, 0x00, 0x10, 0x00, 0x00, 0x00,
  0x00, 0x00, 0x0a, 0x00, 0x10, 0x00, 0x0c, 0x00, 0x08, 0x00, 0x04, 0x00,
  0x0a, 0x00, 0x00, 0x00, 0x0c, 0x00, 0x00, 0x00, 0x1c, 0x00, 0x00, 0x00,
  0x3c, 0x00, 0x00, 0x00, 0x0f, 0x00, 0x00, 0x00, 0x73, 0x65, 0x72, 0x76,
  0x69, 0x6e, 0x67, 0x5f, 0x64, 0x65, 0x66, 0x61, 0x75, 0x6c, 0x74, 0x00,
  0x01, 0x00, 0x00, 0x00, 0x04, 0x00, 0x00, 0x00, 0x64, 0xff, 0xff, 0xff,
  0x16, 0x00, 0x00, 0x00, 0x04, 0x00, 0x00, 0x00, 0x08, 0x00, 0x00, 0x00,
  0x6f, 0x75, 0x74, 0x70, 0x75, 0x74, 0x5f, 0x30, 0x00, 0x00, 0x00, 0x00,
  0x01, 0x00, 0x00, 0x00, 0x04, 0x00, 0x00, 0x00, 0x72, 0xf3, 0xff, 0xff,
  0x04, 0x00, 0x00, 0x00, 0x10, 0x00, 0x00, 0x00, 0x6b, 0x65, 0x72, 0x61,
  0x73, 0x5f, 0x74, 0x65, 0x6e, 0x73, 0x6f, 0x72, 0x5f, 0x31, 0x36, 0x38,
  0x00, 0x00, 0x00, 0x00, 0x03, 0x00, 0x00, 0x00, 0x5c, 0x00, 0x00, 0x00,
  0x2c, 0x00, 0x00, 0x00, 0x04, 0x00, 0x00, 0x00, 0xb8, 0xff, 0xff, 0xff,
  0x1a, 0x00, 0x00, 0x00, 0x04, 0x00, 0x00, 0x00, 0x13, 0x00, 0x00, 0x00,
  0x43, 0x4f, 0x4e, 0x56, 0x45, 0x52, 0x53, 0x49, 0x4f, 0x4e, 0x5f, 0x4d,
  0x45, 0x54, 0x41, 0x44, 0x41, 0x54, 0x41, 0x00, 0xdc, 0xff, 0xff, 0xff,
  0x19, 0x00, 0x00, 0x00, 0x04, 0x00, 0x00, 0x00, 0x13, 0x00, 0x00, 0x00,
  0x6d, 0x69, 0x6e, 0x5f, 0x72, 0x75, 0x6e, 0x74, 0x69, 0x6d, 0x65, 0x5f,
  0x76, 0x65, 0x72, 0x73, 0x69, 0x6f, 0x6e, 0x00, 0x08, 0x00, 0x0c, 0x00,
  0x08, 0x00, 0x04, 0x00, 0x08, 0x00, 0x00, 0x00, 0x18, 0x00, 0x00, 0x00,
  0x04, 0x00, 0x00, 0x00, 0x13, 0x00, 0x00, 0x00, 0x6d, 0x69, 0x6e, 0x5f,
  0x72, 0x75, 0x6e, 0x74, 0x69, 0x6d, 0x65, 0x5f, 0x76, 0x65, 0x72, 0x73,
  0x69, 0x6f, 0x6e, 0x00, 0x1b, 0x00, 0x00, 0x00, 0x50, 0x0b, 0x00, 0x00,
  0x48, 0x0b, 0x00, 0x00, 0x28, 0x0b, 0x00, 0x00, 0x0c, 0x0b, 0x00, 0x00,
  0xf8, 0x0a, 0x00, 0x00, 0xcc, 0x0a, 0x00, 0x00, 0x4c, 0x0a, 0x00, 0x00,
  0xfc, 0x09, 0x00, 0x00, 0x6c, 0x09, 0x00, 0x00, 0x3c, 0x09, 0x00, 0x00,
  0x0c, 0x08, 0x00, 0x00, 0xcc, 0x07, 0x00, 0x00, 0xfc, 0x03, 0x00, 0x00,
  0xac, 0x03, 0x00, 0x00, 0xfc, 0x00, 0x00, 0x00, 0xf4, 0x00, 0x00, 0x00,
  0xec, 0x00, 0x00, 0x00, 0xe4, 0x00, 0x00, 0x00, 0xdc, 0x00, 0x00, 0x00,
  0xd4, 0x00, 0x00, 0x00, 0xcc, 0x00, 0x00, 0x00, 0xc4, 0x00, 0x00, 0x00,
  0xbc, 0x00, 0x00, 0x00, 0xb4, 0x00, 0x00, 0x00, 0x94, 0x00, 0x00, 0x00,
  0x74, 0x00, 0x00, 0x00, 0x04, 0x00, 0x00, 0x00, 0x86, 0xf4, 0xff, 0xff,
  0x04, 0x00, 0x00, 0x00, 0x60, 0x00, 0x00, 0x00, 0x0c, 0x00, 0x00, 0x00,
  0x08, 0x00, 0x0e, 0x00, 0x08, 0x00, 0x04, 0x00, 0x08, 0x00, 0x00, 0x00,
  0x10, 0x00, 0x00, 0x00, 0x28, 0x00, 0x00, 0x00, 0x00, 0x00, 0x06, 0x00,
  0x08, 0x00, 0x04, 0x00, 0x06, 0x00, 0x00, 0x00, 0x04, 0x00, 0x00, 0x00,
  0x01, 0x00, 0x00, 0x00, 0xeb, 0x03, 0x00, 0x00, 0x0c, 0x00, 0x18, 0x00,
  0x14, 0x00, 0x10, 0x00, 0x0c, 0x00, 0x04, 0x00, 0x0c, 0x00, 0x00, 0x00,
  0x90, 0x23, 0x1c, 0x91, 0xe1, 0x42, 0xe3, 0x7e, 0x02, 0x00, 0x00, 0x00,
  0x02, 0x00, 0x00, 0x00, 0x04, 0x00, 0x00, 0x00, 0x06, 0x00, 0x00, 0x00,
  0x32, 0x2e, 0x31, 0x39, 0x2e, 0x30, 0x00, 0x00, 0xf2, 0xf4, 0xff, 0xff,
  0x04, 0x00, 0x00, 0x00, 0x10, 0x00, 0x00, 0x00, 0x00, 0x00, 0x00, 0x00,
  0x00, 0x00, 0x00, 0x00, 0x00, 0x00, 0x00, 0x00, 0x00, 0x00, 0x00, 0x00,
  0x0e, 0xf5, 0xff, 0xff, 0x04, 0x00, 0x00, 0x00, 0x10, 0x00, 0x00, 0x00,
  0x31, 0x2e, 0x31, 0x34, 0x2e, 0x30, 0x00, 0x00, 0x00, 0x00, 0x00, 0x00,
  0x00, 0x00, 0x00, 0x00, 0x20, 0xe1, 0xff, 0xff, 0x24, 0xe1, 0xff, 0xff,
  0x28, 0xe1, 0xff, 0xff, 0x2c, 0xe1, 0xff, 0xff, 0x30, 0xe1, 0xff, 0xff,
  0x34, 0xe1, 0xff, 0xff, 0x38, 0xe1, 0xff, 0xff, 0x3c, 0xe1, 0xff, 0xff,
  0x40, 0xe1, 0xff, 0xff, 0x4e, 0xf5, 0xff, 0xff, 0x04, 0x00, 0x00, 0x00,
  0xa0, 0x02, 0x00, 0x00, 0x65, 0x03, 0x1f, 0xf6, 0xc7, 0x13, 0x4d, 0xfc,
  0x15, 0xfe, 0xfc, 0x0f, 0x23, 0x15, 0x1a, 0xf2, 0x15, 0x07, 0x0a, 0x1a,
  0x2d, 0x0a, 0x0c, 0x22, 0xea, 0x3b, 0x0b, 0xfe, 0x29, 0x2a, 0xe2, 0x65,
  0x21, 0x04, 0x32, 0x19, 0xcc, 0x7f, 0x0f, 0x3f, 0x1b, 0x36, 0xab, 0xe9,
  0x41, 0xd5, 0x2a, 0xb6, 0xde, 0x01, 0x53, 0xd3, 0x26, 0xad, 0xab, 0xc9,
  0x1c, 0xbd, 0x0a, 0xe7, 0xc9, 0xf0, 0x3e, 0xb5, 0x00, 0xf2, 0xe3, 0xcb,
  0x0c, 0x9b, 0xe4, 0xd8, 0xbf, 0xb0, 0x3d, 0x84, 0xb0, 0xeb, 0xda, 0xbb,
  0x05, 0x81, 0x9f, 0xfa, 0xb4, 0x04, 0x2d, 0x4d, 0xce, 0x4c, 0xad, 0x15,
  0x2c, 0x23, 0xb1, 0x41, 0xbf, 0xea, 0x2c, 0x1d, 0xd2, 0x35, 0xce, 0xe8,
  0x20, 0xed, 0xe1, 0x39, 0xda, 0xf2, 0x55, 0xe4, 0xf5, 0x21, 0xfd, 0xbf,
  0x4e, 0xe5, 0xfd, 0xea, 0xfd, 0xc7, 0x7f, 0xd2, 0xfb, 0xc0, 0xe8, 0xf0,
  0x31, 0x81, 0x1b, 0xb7, 0xe3, 0x06, 0x38, 0x9f, 0x1b, 0xc4, 0x11, 0x16,
  0x16, 0xad, 0x0a, 0xcb, 0x02, 0x1f, 0x1d, 0xd2, 0x1a, 0xdd, 0x14, 0x18,
  0x20, 0xfa, 0x1c, 0xe5, 0x14, 0x24, 0x15, 0xf9, 0x1b, 0xf3, 0x47, 0x30,
  0x32, 0x00, 0x31, 0xfd, 0x51, 0x82, 0x23, 0x2d, 0xe6, 0x02, 0x31, 0xad,
  0x30, 0x1a, 0xeb, 0xf0, 0x2d, 0xaf, 0x34, 0x1b, 0xef, 0xe3, 0x1d, 0xc3,
  0x21, 0x0d, 0xeb, 0xfc, 0x27, 0xe2, 0x49, 0xf3, 0xee, 0xe5, 0x2b, 0xe7,
  0x47, 0xc7, 0xf6, 0xef, 0x04, 0xd6, 0x7f, 0xd7, 0xe9, 0xe5, 0x04, 0x97,
  0xfd, 0xcc, 0x13, 0x7f, 0xdd, 0xae, 0xea, 0xe6, 0xf0, 0x6b, 0x0f, 0xee,
  0xff, 0xdb, 0x01, 0x4b, 0xf6, 0x03, 0xf6, 0x13, 0xd2, 0x50, 0xff, 0x3d,
  0x10, 0x0c, 0xb1, 0x35, 0xe3, 0x60, 0x05, 0x2c, 0xd3, 0x47, 0x0b, 0x71,
  0x0b, 0x4e, 0xbe, 0x51, 0x48, 0x1a, 0x7f, 0xfa, 0x9f, 0xf0, 0x1b, 0x10,
  0x60, 0xf2, 0xc8, 0x1f, 0x4b, 0x18, 0x2b, 0xf8, 0xd4, 0x08, 0x31, 0x11,
  0x47, 0xe8, 0xe3, 0x04, 0x27, 0x40, 0x38, 0xe4, 0xfa, 0x2a, 0x49, 0x46,
  0x1f, 0x1c, 0x3a, 0x08, 0x2d, 0x50, 0x5d, 0x17, 0x35, 0x2a, 0x1d, 0x1f,
  0x02, 0xa2, 0xa0, 0x24, 0x1f, 0xf7, 0xff, 0x9c, 0xdd, 0x1f, 0x0a, 0xec,
  0x08, 0xc5, 0xf0, 0x09, 0x0f, 0xdf, 0x14, 0xf0, 0x06, 0x05, 0xf4, 0xdb,
  0x15, 0x23, 0x20, 0x03, 0xdf, 0xe7, 0x33, 0x43, 0x37, 0xf5, 0xb4, 0xf6,
  0x1d, 0x7f, 0x39, 0xe9, 0xf4, 0x22, 0xf1, 0x07, 0x0f, 0x81, 0x0d, 0x11,
  0x0a, 0x00, 0x03, 0xa1, 0x07, 0x13, 0x0b, 0x0a, 0xf7, 0xbb, 0x16, 0x0c,
  0x04, 0x03, 0xf9, 0xdc, 0x1a, 0x02, 0x11, 0x11, 0xfa, 0xf5, 0x07, 0x05,
  0x12, 0x06, 0x08, 0x08, 0x1a, 0xef, 0x17, 0x05, 0xfb, 0x1b, 0x18, 0x5c,
  0x03, 0x36, 0xb2, 0x0f, 0x08, 0x2c, 0x1f, 0x39, 0xd9, 0x27, 0x1e, 0xfa,
  0x19, 0x2f, 0xde, 0x18, 0xfe, 0xf7, 0x18, 0x27, 0x0a, 0x0a, 0xf4, 0xd3,
  0x1a, 0x23, 0x19, 0x0a, 0xe9, 0xc2, 0x05, 0x0b, 0x39, 0xe2, 0xae, 0x81,
  0x0d, 0x1f, 0x67, 0x01, 0xca, 0xe7, 0x29, 0x0d, 0x7f, 0x3b, 0xc4, 0xcd,
  0x1d, 0x16, 0x65, 0x42, 0xe1, 0xfb, 0x1e, 0xf1, 0x50, 0x3b, 0xeb, 0xda,
  0xdd, 0xdb, 0x1f, 0x3b, 0x3c, 0x04, 0xe8, 0xf8, 0x2f, 0x58, 0x4c, 0x16,
  0xdd, 0x27, 0x10, 0x67, 0x75, 0x07, 0xed, 0x76, 0x0c, 0x6c, 0xf3, 0x20,
  0x36, 0xcf, 0xfb, 0x42, 0xf8, 0x04, 0x31, 0xe3, 0xdd, 0x3f, 0xfc, 0x0b,
  0x34, 0xca, 0xe2, 0x19, 0x16, 0x46, 0x12, 0xf4, 0xdb, 0x25, 0x22, 0x52,
  0x0c, 0x02, 0xc1, 0x1c, 0x06, 0x43, 0xfa, 0x08, 0xb0, 0x26, 0x19, 0x7f,
  0xe4, 0x2e, 0xbe, 0x42, 0x05, 0xcc, 0xfd, 0xd6, 0x1c, 0x7f, 0xf2, 0xd7,
  0x0c, 0xfe, 0x17, 0x75, 0x0d, 0xda, 0x01, 0xff, 0x1d, 0x62, 0xf6, 0xdd,
  0xef, 0x00, 0x13, 0x4c, 0x02, 0xec, 0xef, 0xf8, 0x0f, 0x3c, 0x02, 0x00,
  0xfe, 0xfa, 0x03, 0x2a, 0x31, 0x05, 0x0b, 0xe3, 0xe4, 0x23, 0x04, 0x7f,
  0xa8, 0x01, 0xcd, 0x44, 0xf5, 0x75, 0xac, 0xfa, 0xe1, 0x41, 0x13, 0x51,
  0xd4, 0xf6, 0xf4, 0x49, 0x00, 0x3b, 0xda, 0xe7, 0xf7, 0x41, 0x09, 0x22,
  0x0a, 0xf5, 0x00, 0x44, 0x1c, 0x02, 0x0d, 0xf4, 0x07, 0x5b, 0xf5, 0xfe,
  0x09, 0xef, 0x17, 0x4a, 0x05, 0xe8, 0xf3, 0xea, 0xd8, 0x23, 0x1a, 0xfc,
  0xfd, 0xf3, 0xf9, 0x0d, 0x06, 0xf1, 0xfe, 0xff, 0xfb, 0x04, 0x0e, 0xef,
  0x11, 0x0c, 0xfd, 0xe6, 0xff, 0x01, 0x08, 0x01, 0x04, 0xcf, 0xf0, 0xfc,
  0x04, 0x00, 0xfe, 0xb2, 0xe9, 0x0f, 0x16, 0xf7, 0xfe, 0x81, 0xdd, 0xff,
  0xbb, 0xc8, 0x0a, 0x8d, 0xf9, 0xe9, 0xbd, 0xf7, 0x08, 0x83, 0xdb, 0xf4,
  0xcc, 0xd0, 0x07, 0x8b, 0xf0, 0xfc, 0xc1, 0xf4, 0xed, 0x81, 0x15, 0xf7,
  0xaf, 0xf1, 0xfb, 0x8a, 0x2a, 0xfc, 0xd4, 0xd5, 0xd8, 0x95, 0x58, 0xf2,
  0xb2, 0xeb, 0xf2, 0x8f, 0xfa, 0xf7, 0xff, 0xff, 0x04, 0x00, 0x00, 0x00,
  0x40, 0x00, 0x00, 0x00, 0x2c, 0xfd, 0xff, 0xff, 0x67, 0xfa, 0xff, 0xff,
  0x1c, 0xff, 0xff, 0xff, 0x28, 0xfc, 0xff, 0xff, 0x05, 0x00, 0x00, 0x00,
  0xa3, 0xf9, 0xff, 0xff, 0x06, 0xfb, 0xff, 0xff, 0xe0, 0xfd, 0xff, 0xff,
  0x57, 0x00, 0x00, 0x00, 0x87, 0x01, 0x00, 0x00, 0x91, 0xf3, 0xff, 0xff,
  0x7f, 0xf8, 0xff, 0xff, 0x85, 0xfc, 0xff, 0xff, 0x97, 0x01, 0x00, 0x00,
  0xf3, 0xfe, 0xff, 0xff, 0xef, 0x09, 0x00, 0x00, 0x46, 0xf8, 0xff, 0xff,
  0x04, 0x00, 0x00, 0x00, 0xc0, 0x03, 0x00, 0x00, 0xa9, 0xac, 0x23, 0x0e,
  0xd1, 0x81, 0x96, 0xd7, 0xfe, 0xe3, 0xfa, 0xc1, 0xce, 0xae, 0xe4, 0x0f,
  0xc5, 0xa7, 0x34, 0x07, 0x10, 0xaa, 0xf1, 0xe9, 0xff, 0xf4, 0xef, 0xc1,
  0xe7, 0xcb, 0xee, 0xe6, 0xda, 0xbd, 0x24, 0xf5, 0x12, 0xb4, 0xf4, 0xe9,
  0xf5, 0xcf, 0xe8, 0xd3, 0xfc, 0xf6, 0xee, 0x06, 0x06, 0xd5, 0x33, 0xff,
  0x53, 0xae, 0x43, 0xf6, 0x04, 0xc3, 0xf7, 0xe2, 0x07, 0xf9, 0x04, 0xdb,
  0x0f, 0x0b, 0x57, 0x21, 0x69, 0x8a, 0x66, 0xff, 0x07, 0xaa, 0x06, 0xde,
  0x23, 0x0b, 0x13, 0xd3, 0xa1, 0x01, 0x0b, 0xde, 0xf9, 0xd7, 0x81, 0xf6,
  0xfa, 0xf7, 0x7b, 0x8e, 0x5b, 0xa3, 0xfb, 0x3d, 0xd3, 0x03, 0xe7, 0xf7,
  0xd2, 0x1a, 0xcb, 0xee, 0x01, 0xab, 0x2c, 0xcc, 0x32, 0xcf, 0xb9, 0x38,
  0xd8, 0xe8, 0xf8, 0x11, 0xd5, 0x23, 0xdb, 0x07, 0xf6, 0xa2, 0xfb, 0xdf,
  0xf7, 0xff, 0xb8, 0x0d, 0x00, 0xc7, 0xea, 0xfa, 0xfe, 0x27, 0x1b, 0x13,
  0xe3, 0x0a, 0xdf, 0x03, 0xcc, 0x38, 0x96, 0x14, 0x1a, 0xc1, 0xf4, 0x0f,
  0xed, 0x02, 0x6d, 0x13, 0x94, 0x64, 0xdd, 0x02, 0xde, 0x6a, 0x98, 0xd5,
  0x36, 0x19, 0xdb, 0x81, 0x24, 0xea, 0x0f, 0x2b, 0xc9, 0xca, 0xf3, 0xcb,
  0xe6, 0xe6, 0x9d, 0xf4, 0x19, 0x16, 0x0d, 0x95, 0x3b, 0xfb, 0xec, 0x15,
  0xdd, 0xed, 0xea, 0xe6, 0xf6, 0xcf, 0xd3, 0x0b, 0x11, 0x2c, 0x07, 0xc4,
  0xff, 0xfc, 0x0e, 0x11, 0xe2, 0xdd, 0xca, 0x02, 0xf6, 0xd8, 0xe3, 0x07,
  0x0e, 0x26, 0x03, 0xea, 0x06, 0xe8, 0x05, 0x0a, 0x00, 0xbb, 0xae, 0x26,
  0xde, 0x08, 0xc0, 0x05, 0x18, 0x28, 0x13, 0xff, 0xe2, 0xec, 0x0a, 0x0f,
  0x1f, 0x83, 0x9e, 0x52, 0xfa, 0xfe, 0x90, 0x19, 0xe8, 0x2d, 0x0a, 0xd7,
  0x16, 0xff, 0xe8, 0x0f, 0x81, 0xd3, 0x03, 0xd0, 0x41, 0x96, 0xf0, 0x0a,
  0xed, 0x26, 0x19, 0xe8, 0xfa, 0xf2, 0xf1, 0x0a, 0xbb, 0xc9, 0xe4, 0xf3,
  0xee, 0xad, 0xf0, 0x35, 0xdb, 0x05, 0x01, 0x00, 0x0e, 0xd6, 0xf8, 0xf5,
  0xe9, 0xdd, 0xdc, 0x07, 0xde, 0xdf, 0xd9, 0x32, 0x00, 0xde, 0xca, 0x02,
  0xfd, 0xf3, 0xf2, 0xfe, 0x09, 0xcb, 0xf3, 0x19, 0xba, 0xef, 0xea, 0x0b,
  0x4b, 0xc7, 0xa5, 0x1a, 0xdc, 0x08, 0x18, 0xfa, 0x37, 0xac, 0x08, 0x22,
  0xb3, 0xfd, 0x05, 0x08, 0x2e, 0x00, 0x2c, 0x11, 0x09, 0xfa, 0x35, 0x06,
  0x15, 0xfe, 0xf8, 0x3d, 0x81, 0x05, 0x19, 0x0d, 0x18, 0xf8, 0x01, 0x0c,
  0x02, 0x0d, 0x04, 0xfd, 0x07, 0xf8, 0xfa, 0x18, 0x9e, 0x08, 0x15, 0x04,
  0xf3, 0xeb, 0x05, 0x04, 0x06, 0x12, 0xf3, 0xfb, 0xff, 0xf7, 0x00, 0xe9,
  0xa8, 0xfe, 0xf8, 0x19, 0xda, 0xf5, 0xea, 0xf9, 0xfc, 0x12, 0xdb, 0xde,
  0xea, 0x03, 0x16, 0xcb, 0xbc, 0xed, 0xf2, 0x0b, 0x93, 0xf9, 0xf5, 0xd3,
  0xfa, 0x00, 0xc7, 0xf0, 0xd6, 0xf9, 0x3a, 0xc5, 0xdb, 0xeb, 0xe3, 0x17,
  0x40, 0x12, 0xe5, 0x50, 0xc0, 0xd7, 0xe4, 0x34, 0xf2, 0xca, 0xfe, 0xee,
  0x03, 0xdf, 0xff, 0x05, 0x27, 0xfd, 0x02, 0x3b, 0xd1, 0xdd, 0xbc, 0x22,
  0x02, 0xe6, 0xfa, 0x0c, 0x0c, 0xf4, 0xfb, 0x02, 0xee, 0xff, 0x0b, 0x03,
  0xc9, 0xd8, 0x99, 0x1a, 0xf3, 0x0e, 0xfd, 0x1f, 0xfb, 0xf2, 0xe4, 0x0a,
  0xe2, 0xfb, 0x37, 0xf7, 0xe0, 0xd9, 0x8d, 0x16, 0xe9, 0x0c, 0xec, 0x1d,
  0x08, 0xf1, 0x0f, 0x31, 0xb6, 0x2f, 0x34, 0xe7, 0x05, 0xd9, 0x81, 0x06,
  0x08, 0x2d, 0xb5, 0x00, 0x15, 0xf5, 0x55, 0x24, 0xef, 0xff, 0xed, 0x33,
  0xc5, 0x13, 0xe2, 0xf5, 0x64, 0x0b, 0x09, 0xea, 0x23, 0x15, 0xeb, 0x18,
  0xee, 0xf3, 0xfe, 0x04, 0xca, 0x0e, 0xf9, 0xfa, 0x34, 0x04, 0x09, 0xfe,
  0x33, 0x03, 0xf5, 0x17, 0xea, 0xe4, 0x11, 0xe9, 0xe1, 0xe8, 0x0a, 0xfc,
  0x02, 0xe6, 0xf9, 0x02, 0x1b, 0x00, 0xec, 0x17, 0xd3, 0xe8, 0x2d, 0xc7,
  0x02, 0xb5, 0x12, 0x1d, 0x06, 0x03, 0x01, 0xff, 0xfc, 0xf6, 0xd8, 0x22,
  0xcb, 0xe6, 0x29, 0xbf, 0x20, 0x81, 0x00, 0x30, 0xe0, 0x00, 0xe1, 0xd5,
  0xf9, 0xcd, 0xa4, 0x06, 0x01, 0xf5, 0x96, 0x14, 0xca, 0xe9, 0x05, 0xb4,
  0x2b, 0xd3, 0xf6, 0x15, 0x81, 0xdf, 0xab, 0x23, 0x1a, 0xda, 0xc4, 0x19,
  0xea, 0xff, 0xfb, 0xa1, 0x1a, 0x11, 0x02, 0x11, 0xb1, 0xe3, 0xa8, 0x0e,
  0x0e, 0xcb, 0xff, 0x14, 0xfa, 0x09, 0x15, 0xaa, 0x05, 0x18, 0xf4, 0xdf,
  0xdd, 0x04, 0x9a, 0xf0, 0xfe, 0xd5, 0x21, 0x32, 0x19, 0x2e, 0x12, 0xda,
  0x12, 0x02, 0xe9, 0xc1, 0x06, 0x14, 0xa5, 0xbf, 0xdd, 0xf1, 0x52, 0x3a,
  0x52, 0x1e, 0x0a, 0xe9, 0x1a, 0xfc, 0xe1, 0xb0, 0x19, 0x17, 0xb0, 0x95,
  0xcf, 0x17, 0x0c, 0x11, 0x20, 0xf3, 0x03, 0xc8, 0x2d, 0x0e, 0xe2, 0xd2,
  0xce, 0xcd, 0x4f, 0x2e, 0xe4, 0x1c, 0x0a, 0x16, 0x11, 0xfd, 0xfe, 0xc5,
  0x37, 0xeb, 0x00, 0xe5, 0xde, 0xe6, 0x11, 0x1b, 0x02, 0x03, 0x0d, 0x0a,
  0xf3, 0xf4, 0x13, 0xe3, 0x09, 0xf4, 0x0c, 0x04, 0xfb, 0xff, 0xf6, 0x15,
  0x0f, 0xf2, 0x13, 0xfc, 0xec, 0xe6, 0x08, 0xef, 0xf6, 0xfa, 0x14, 0x1f,
  0x12, 0x18, 0xc0, 0xef, 0x27, 0xe0, 0x1c, 0xff, 0xda, 0xdf, 0xfe, 0x14,
  0xd0, 0x0a, 0x24, 0x1a, 0x30, 0x22, 0x81, 0xd6, 0x1d, 0xc4, 0x12, 0xe5,
  0xfe, 0xf8, 0x7f, 0x1b, 0x99, 0xe3, 0xf8, 0x05, 0x11, 0xd7, 0xee, 0xaa,
  0xfb, 0xdb, 0x0f, 0xee, 0xee, 0xff, 0x43, 0xfa, 0xaa, 0xf1, 0x16, 0xfb,
  0x19, 0xee, 0x25, 0xd9, 0x02, 0xde, 0xf1, 0xfe, 0x00, 0xf2, 0x17, 0xff,
  0xcc, 0xf2, 0x06, 0xf5, 0x1e, 0xe6, 0x22, 0xdd, 0xf2, 0xd8, 0x07, 0x0c,
  0x11, 0xf1, 0xed, 0x01, 0xf4, 0xd0, 0xfa, 0xca, 0x03, 0xec, 0x28, 0xfa,
  0xec, 0xf2, 0x09, 0x0d, 0x1b, 0xcc, 0xe6, 0x0d, 0xff, 0xe1, 0xf7, 0x9c,
  0x09, 0xdc, 0x19, 0xf6, 0x84, 0x2b, 0xd0, 0x3e, 0xdd, 0xca, 0x1f, 0x4d,
  0x24, 0x14, 0x36, 0x05, 0xc8, 0xf5, 0x41, 0x51, 0x90, 0xff, 0xe9, 0x1b,
  0xd2, 0xe8, 0x0e, 0x2f, 0x04, 0x2b, 0x44, 0xfc, 0xac, 0xf3, 0x29, 0x50,
  0x92, 0x0e, 0x00, 0x23, 0xe0, 0xf1, 0x00, 0x1d, 0xf5, 0x3c, 0x4e, 0xf3,
  0xd0, 0xe5, 0xf5, 0x41, 0x8e, 0xfc, 0xf8, 0x23, 0xea, 0xdd, 0xf8, 0x30,
  0xe2, 0x19, 0x52, 0xf6, 0xc3, 0xde, 0x18, 0x55, 0x81, 0xfb, 0xd5, 0x15,
  0xbc, 0xd2, 0x01, 0x0e, 0xd7, 0xeb, 0x54, 0x04, 0xaf, 0xd4, 0x16, 0x6e,
  0x11, 0x09, 0xba, 0x31, 0xb1, 0xcc, 0xab, 0x1d, 0x7f, 0x3b, 0xdb, 0xee,
  0x2a, 0xc7, 0xcc, 0x1d, 0xf3, 0xfe, 0xc7, 0x2a, 0xa0, 0x18, 0xb2, 0x07,
  0x62, 0xec, 0xfc, 0x1e, 0x35, 0xce, 0xa9, 0x19, 0xe3, 0xea, 0xa5, 0x0b,
  0xaf, 0x3f, 0xc0, 0xfe, 0x39, 0xd0, 0x27, 0x08, 0x00, 0xfc, 0xad, 0x14,
  0x11, 0xf4, 0x9b, 0xfa, 0xce, 0x54, 0xe6, 0x05, 0x2a, 0xd9, 0xf5, 0x3a,
  0x10, 0x01, 0xb0, 0x07, 0x01, 0xe7, 0x95, 0xe3, 0xd2, 0x4b, 0x00, 0xd9,
  0x17, 0xfc, 0xe7, 0x10, 0xf5, 0x2f, 0xa3, 0x07, 0x12, 0xfc, 0xff, 0xff,
  0x04, 0x00, 0x00, 0x00, 0x30, 0x00, 0x00, 0x00, 0xfb, 0x1f, 0x00, 0x00,
  0xdc, 0x0f, 0x00, 0x00, 0x61, 0x15, 0x00, 0x00, 0x14, 0x16, 0x00, 0x00,
  0xd4, 0x0f, 0x00, 0x00, 0x50, 0x0a, 0x00, 0x00, 0xa8, 0x03, 0x00, 0x00,
  0xc5, 0x19, 0x00, 0x00, 0x9b, 0xfe, 0xff, 0xff, 0x85, 0x0b, 0x00, 0x00,
  0x12, 0xfe, 0xff, 0xff, 0xe3, 0x07, 0x00, 0x00, 0x4e, 0xfc, 0xff, 0xff,
  0x04, 0x00, 0x00, 0x00, 0x20, 0x01, 0x00, 0x00, 0x9d, 0x00, 0x1c, 0xf5,
  0xe0, 0xe4, 0xf5, 0x7f, 0x52, 0x76, 0xec, 0x0b, 0xb4, 0x66, 0xf9, 0xc0,
  0xa6, 0x1a, 0x13, 0xdd, 0xf4, 0x25, 0xde, 0xea, 0xbc, 0x7c, 0x1e, 0xdd,
  0xbe, 0x23, 0x5d, 0x8f, 0x52, 0x00, 0xca, 0xd0, 0x54, 0xde, 0x21, 0xbd,
  0xed, 0xee, 0xd7, 0xb7, 0x0a, 0x0f, 0x1c, 0x34, 0x2f, 0x0f, 0xf2, 0xd4,
  0xeb, 0xc3, 0x30, 0x93, 0x0b, 0x0e, 0xfc, 0x3c, 0x1b, 0x50, 0xe1, 0xcc,
  0x00, 0x15, 0x7f, 0x20, 0x1b, 0xfc, 0x1e, 0x47, 0x75, 0xac, 0x29, 0xa3,
  0x00, 0xe7, 0xe4, 0xfc, 0xe9, 0x30, 0x33, 0x77, 0x01, 0x8a, 0x22, 0xdf,
  0xf3, 0xff, 0x07, 0xbc, 0x0c, 0x04, 0x4c, 0x51, 0xc9, 0x95, 0x50, 0x31,
  0x5c, 0xf8, 0xfd, 0x9e, 0xba, 0x47, 0x7f, 0x27, 0xfb, 0xc5, 0xc7, 0x2e,
  0xee, 0xdc, 0xff, 0xe5, 0x71, 0x53, 0xd8, 0x1a, 0xfe, 0xc9, 0x81, 0x2d,
  0xfe, 0x16, 0x1a, 0xc4, 0x28, 0x16, 0x0b, 0x2d, 0xc3, 0xc1, 0x86, 0x4d,
  0x4c, 0xfd, 0x15, 0x04, 0x57, 0xef, 0xfd, 0x11, 0x06, 0xcc, 0x60, 0x6f,
  0xc1, 0xbd, 0xb0, 0xe3, 0x31, 0xee, 0xf9, 0xf1, 0x12, 0xd9, 0x3c, 0x58,
  0xb7, 0xe8, 0x0b, 0xb1, 0x1d, 0xce, 0xd6, 0x38, 0xbd, 0xa4, 0x05, 0x17,
  0x03, 0xf8, 0x7f, 0xaf, 0x4c, 0xf4, 0xd7, 0x01, 0xf7, 0x54, 0xde, 0xff,
  0x0b, 0xde, 0x01, 0xcf, 0x03, 0xbe, 0x30, 0x07, 0xee, 0x0f, 0xd7, 0x13,
  0x06, 0xe3, 0xfc, 0xfe, 0x3f, 0xcf, 0x09, 0x00, 0x1d, 0x01, 0xea, 0x22,
  0xf3, 0x81, 0xba, 0xe8, 0xfa, 0x01, 0x19, 0x2d, 0xed, 0xea, 0x2c, 0xee,
  0xcb, 0x04, 0xdc, 0x2f, 0xfb, 0xae, 0x45, 0xf8, 0x17, 0xf9, 0x0b, 0xe7,
  0x91, 0xf7, 0x12, 0x11, 0x37, 0xeb, 0xfa, 0x2b, 0x0b, 0xf9, 0x3b, 0x26,
  0x81, 0x38, 0x18, 0x27, 0x49, 0xf1, 0xf0, 0x42, 0xf8, 0xf0, 0xc4, 0xfc,
  0xfa, 0x38, 0xe2, 0x2f, 0x49, 0x21, 0x22, 0x3e, 0x1a, 0x41, 0xf0, 0xf9,
  0x1e, 0x21, 0x20, 0x54, 0x2b, 0x3c, 0xeb, 0x5f, 0x32, 0x06, 0xec, 0x0a,
  0x2b, 0xf3, 0x2e, 0x7f, 0x14, 0x28, 0xd8, 0xf1, 0x7a, 0xfd, 0xff, 0xff,
  0x04, 0x00, 0x00, 0x00, 0x20, 0x00, 0x00, 0x00, 0x8a, 0x0e, 0x00, 0x00,
  0x70, 0xff, 0xff, 0xff, 0x2e, 0xfa, 0xff, 0xff, 0x3f, 0x09, 0x00, 0x00,
  0x3a, 0x19, 0x00, 0x00, 0x32, 0x0c, 0x00, 0x00, 0x2e, 0x01, 0x00, 0x00,
  0xb8, 0xdf, 0xff, 0xff, 0xa6, 0xfd, 0xff, 0xff, 0x04, 0x00, 0x00, 0x00,
  0x80, 0x00, 0x00, 0x00, 0x42, 0x81, 0x4a, 0x32, 0x02, 0xf4, 0xcf, 0xd4,
  0x81, 0x37, 0x0f, 0xf7, 0xbc, 0x4f, 0xc7, 0x43, 0x27, 0x13, 0x7f, 0xba,
  0x35, 0x93, 0x41, 0xb6, 0x13, 0x7f, 0xf0, 0xa0, 0xce, 0x38, 0x6d, 0xb8,
  0xf7, 0xec, 0x51, 0x7f, 0xec, 0xca, 0xd4, 0xbd, 0x1e, 0x40, 0x81, 0x0e,
  0xdb, 0x6e, 0xbb, 0xd3, 0xb1, 0xe3, 0x88, 0x7f, 0xe9, 0xfc, 0xdc, 0x39,
  0x1b, 0xef, 0x7f, 0xf7, 0xfe, 0xab, 0x6d, 0xa2, 0x64, 0xce, 0xff, 0x81,
  0x29, 0x39, 0xfa, 0x12, 0xce, 0x5c, 0xeb, 0x7f, 0x9a, 0x55, 0xcf, 0xb5,
  0x19, 0x81, 0x33, 0x2b, 0x15, 0x0a, 0xb6, 0x2e, 0xba, 0xcf, 0x7f, 0x4a,
  0xf0, 0xcb, 0xaa, 0x24, 0x81, 0x46, 0x0a, 0xe9, 0xba, 0x4b, 0xd8, 0x3f,
  0x4f, 0xb3, 0xfe, 0x81, 0x38, 0x53, 0x99, 0x51, 0x2a, 0xe8, 0xd2, 0xc3,
  0x7f, 0xa6, 0xee, 0x40, 0x20, 0xe4, 0xef, 0x1d, 0x8d, 0x7f, 0xf1, 0xed,
  0x32, 0xfe, 0xff, 0xff, 0x04, 0x00, 0x00, 0x00, 0x40, 0x00, 0x00, 0x00,
  0x17, 0x02, 0x00, 0x00, 0x41, 0x07, 0x00, 0x00, 0xa6, 0xf3, 0xff, 0xff,
  0x57, 0xf6, 0xff, 0xff, 0xd4, 0x01, 0x00, 0x00, 0xf8, 0x06, 0x00, 0x00,
  0xb2, 0x17, 0x00, 0x00, 0xd5, 0xf7, 0xff, 0xff, 0xfa, 0x01, 0x00, 0x00,
  0xc5, 0xff, 0xff, 0xff, 0x9d, 0x06, 0x00, 0x00, 0x25, 0x06, 0x00, 0x00,
  0x38, 0x07, 0x00, 0x00, 0x3f, 0x0b, 0x00, 0x00, 0x98, 0x05, 0x00, 0x00,
  0xf2, 0x01, 0x00, 0x00, 0x7e, 0xfe, 0xff, 0xff, 0x04, 0x00, 0x00, 0x00,
  0x70, 0x00, 0x00, 0x00, 0x22, 0xc2, 0x16, 0x99, 0x0c, 0x81, 0xa6, 0x12,
  0x12, 0x85, 0x14, 0x13, 0xaf, 0x0c, 0x01, 0xe2, 0x99, 0x2d, 0x96, 0x23,
  0x81, 0x37, 0xa6, 0xa5, 0x23, 0x1a, 0x86, 0x81, 0x28, 0x16, 0x93, 0x4d,
  0x20, 0xc1, 0xbb, 0x9d, 0x16, 0xd0, 0x12, 0x0c, 0x81, 0x0f, 0x17, 0x0d,
  0xaf, 0x9e, 0x93, 0x30, 0xa5, 0xb1, 0x98, 0xff, 0x0c, 0x21, 0x1c, 0x89,
  0x9b, 0x17, 0xab, 0x89, 0xb6, 0x81, 0x15, 0xbe, 0x9f, 0xab, 0x17, 0x11,
  0x81, 0xba, 0xa4, 0x11, 0x12, 0x9c, 0xa3, 0xa6, 0xca, 0xf5, 0x0d, 0xab,
  0xad, 0x1f, 0x19, 0x0f, 0x0a, 0xb5, 0x91, 0x18, 0x92, 0x09, 0xb5, 0x10,
  0x1c, 0x81, 0xb8, 0xcc, 0xd1, 0x26, 0xae, 0x81, 0xa3, 0xcf, 0x1b, 0x95,
  0x02, 0x86, 0x11, 0x12, 0x20, 0x17, 0x16, 0xd8, 0xfa, 0xfe, 0xff, 0xff,
  0x04, 0x00, 0x00, 0x00, 0x1c, 0x00, 0x00, 0x00, 0x96, 0xf6, 0xff, 0xff,
  0xa4, 0xf3, 0xff, 0xff, 0x01, 0xf7, 0xff, 0xff, 0xdd, 0x09, 0x00, 0x00,
  0x73, 0x0d, 0x00, 0x00, 0x23, 0xff, 0xff, 0xff, 0x00, 0x01, 0x00, 0x00,
  0x22, 0xff, 0xff, 0xff, 0x04, 0x00, 0x00, 0x00, 0x04, 0x00, 0x00, 0x00,
  0x01, 0x00, 0x00, 0x00, 0x32, 0xff, 0xff, 0xff, 0x04, 0x00, 0x00, 0x00,
  0x0c, 0x00, 0x00, 0x00, 0x01, 0x00, 0x00, 0x00, 0x7d, 0x00, 0x00, 0x00,
  0x08, 0x00, 0x00, 0x00, 0x4a, 0xff, 0xff, 0xff, 0x04, 0x00, 0x00, 0x00,
  0x10, 0x00, 0x00, 0x00, 0x01, 0x00, 0x00, 0x00, 0x01, 0x00, 0x00, 0x00,
  0xf4, 0x01, 0x00, 0x00, 0x06, 0x00, 0x00, 0x00, 0x5c, 0xeb, 0xff, 0xff,
  0x60, 0xeb, 0xff, 0xff, 0x0f, 0x00, 0x00, 0x00, 0x4d, 0x4c, 0x49, 0x52,
  0x20, 0x43, 0x6f, 0x6e, 0x76, 0x65, 0x72, 0x74, 0x65, 0x64, 0x2e, 0x00,
  0x01, 0x00, 0x00, 0x00, 0x14, 0x00, 0x00, 0x00, 0x00, 0x00, 0x0e, 0x00,
  0x18, 0x00, 0x14, 0x00, 0x10, 0x00, 0x0c, 0x00, 0x08, 0x00, 0x04, 0x00,
  0x0e, 0x00, 0x00, 0x00, 0x14, 0x00, 0x00, 0x00, 0x1c, 0x00, 0x00, 0x00,
  0x44, 0x02, 0x00, 0x00, 0x48, 0x02, 0x00, 0x00, 0x4c, 0x02, 0x00, 0x00,
  0x04, 0x00, 0x00, 0x00, 0x6d, 0x61, 0x69, 0x6e, 0x00, 0x00, 0x00, 0x00,
  0x09, 0x00, 0x00, 0x00, 0x08, 0x02, 0x00, 0x00, 0xac, 0x01, 0x00, 0x00,
  0x58, 0x01, 0x00, 0x00, 0x14, 0x01, 0x00, 0x00, 0xf0, 0x00, 0x00, 0x00,
  0xbc, 0x00, 0x00, 0x00, 0x78, 0x00, 0x00, 0x00, 0x40, 0x00, 0x00, 0x00,
  0x04, 0x00, 0x00, 0x00, 0x82, 0xfe, 0xff, 0xff, 0x1c, 0x00, 0x00, 0x00,
  0x00, 0x00, 0x00, 0x09, 0x1c, 0x00, 0x00, 0x00, 0x20, 0x00, 0x00, 0x00,
  0x04, 0x00, 0x00, 0x00, 0x00, 0x00, 0x06, 0x00, 0x08, 0x00, 0x04, 0x00,
  0x06, 0x00, 0x00, 0x00, 0x00, 0x00, 0x80, 0x3f, 0x01, 0x00, 0x00, 0x00,
  0x16, 0x00, 0x00, 0x00, 0x01, 0x00, 0x00, 0x00, 0x15, 0x00, 0x00, 0x00,
  0xba, 0xfe, 0xff, 0xff, 0x14, 0x00, 0x00, 0x00, 0x00, 0x00, 0x00, 0x08,
  0x10, 0x00, 0x00, 0x00, 0x14, 0x00, 0x00, 0x00, 0x03, 0x00, 0x00, 0x00,
  0x2c, 0xec, 0xff, 0xff, 0x01, 0x00, 0x00, 0x00, 0x15, 0x00, 0x00, 0x00,
  0x03, 0x00, 0x00, 0x00, 0x14, 0x00, 0x00, 0x00, 0x05, 0x00, 0x00, 0x00,
  0x04, 0x00, 0x00, 0x00, 0xee, 0xfe, 0xff, 0xff, 0x1c, 0x00, 0x00, 0x00,
  0x00, 0x00, 0x00, 0x08, 0x1c, 0x00, 0x00, 0x00, 0x20, 0x00, 0x00, 0x00,
  0x03, 0x00, 0x00, 0x00, 0x00, 0x00, 0x06, 0x00, 0x08, 0x00, 0x07, 0x00,
  0x06, 0x00, 0x00, 0x00, 0x00, 0x00, 0x00, 0x01, 0x01, 0x00, 0x00, 0x00,
  0x14, 0x00, 0x00, 0x00, 0x03, 0x00, 0x00, 0x00, 0x13, 0x00, 0x00, 0x00,
  0x07, 0x00, 0x00, 0x00, 0x06, 0x00, 0x00, 0x00, 0x2e, 0xff, 0xff, 0xff,
  0x14, 0x00, 0x00, 0x00, 0x00, 0x00, 0x00, 0x1b, 0x10, 0x00, 0x00, 0x00,
  0x14, 0x00, 0x00, 0x00, 0x02, 0x00, 0x00, 0x00, 0xa0, 0xec, 0xff, 0xff,
  0x01, 0x00, 0x00, 0x00, 0x13, 0x00, 0x00, 0x00, 0x02, 0x00, 0x00, 0x00,
  0x12, 0x00, 0x00, 0x00, 0x03, 0x00, 0x00, 0x00, 0x02, 0xff, 0xff, 0xff,
  0x08, 0x00, 0x00, 0x00, 0x0c, 0x00, 0x00, 0x00, 0x01, 0x00, 0x00, 0x00,
  0x12, 0x00, 0x00, 0x00, 0x02, 0x00, 0x00, 0x00, 0x11, 0x00, 0x00, 0x00,
  0x02, 0x00, 0x00, 0x00, 0x7e, 0xff, 0xff, 0xff, 0x14, 0x00, 0x00, 0x00,
  0x00, 0x00, 0x00, 0x01, 0x1c, 0x00, 0x00, 0x00, 0x20, 0x00, 0x00, 0x00,
  0x01, 0x00, 0x00, 0x00, 0x70, 0xff, 0xff, 0xff, 0x00, 0x00, 0x00, 0x01,
  0x01, 0x00, 0x00, 0x00, 0x01, 0x00, 0x00, 0x00, 0x01, 0x00, 0x00, 0x00,
  0x11, 0x00, 0x00, 0x00, 0x03, 0x00, 0x00, 0x00, 0x10, 0x00, 0x00, 0x00,
  0x09, 0x00, 0x00, 0x00, 0x08, 0x00, 0x00, 0x00, 0xbe, 0xff, 0xff, 0xff,
  0x14, 0x00, 0x00, 0x00, 0x00, 0x00, 0x00, 0x01, 0x1c, 0x00, 0x00, 0x00,
  0x20, 0x00, 0x00, 0x00, 0x01, 0x00, 0x00, 0x00, 0xb0, 0xff, 0xff, 0xff,
  0x00, 0x00, 0x00, 0x01, 0x01, 0x00, 0x00, 0x00, 0x02, 0x00, 0x00, 0x00,
  0x01, 0x00, 0x00, 0x00, 0x10, 0x00, 0x00, 0x00, 0x03, 0x00, 0x00, 0x00,
  0x0f, 0x00, 0x00, 0x00, 0x0b, 0x00, 0x00, 0x00, 0x0a, 0x00, 0x00, 0x00,
  0x00, 0x00, 0x0e, 0x00, 0x18, 0x00, 0x14, 0x00, 0x10, 0x00, 0x0c, 0x00,
  0x0b, 0x00, 0x04, 0x00, 0x0e, 0x00, 0x00, 0x00, 0x20, 0x00, 0x00, 0x00,
  0x00, 0x00, 0x00, 0x01, 0x28, 0x00, 0x00, 0x00, 0x2c, 0x00, 0x00, 0x00,
  0x01, 0x00, 0x00, 0x00, 0x0c, 0x00, 0x10, 0x00, 0x00, 0x00, 0x0c, 0x00,
  0x08, 0x00, 0x07, 0x00, 0x0c, 0x00, 0x00, 0x00, 0x00, 0x00, 0x00, 0x01,
  0x01, 0x00, 0x00, 0x00, 0x02, 0x00, 0x00, 0x00, 0x01, 0x00, 0x00, 0x00,
  0x0f, 0x00, 0x00, 0x00, 0x03, 0x00, 0x00, 0x00, 0x0e, 0x00, 0x00, 0x00,
  0x0d, 0x00, 0x00, 0x00, 0x0c, 0x00, 0x00, 0x00, 0x00, 0x00, 0x0a, 0x00,
  0x0c, 0x00, 0x00, 0x00, 0x08, 0x00, 0x04, 0x00, 0x0a, 0x00, 0x00, 0x00,
  0x08, 0x00, 0x00, 0x00, 0x0c, 0x00, 0x00, 0x00, 0x01, 0x00, 0x00, 0x00,
  0x0e, 0x00, 0x00, 0x00, 0x02, 0x00, 0x00, 0x00, 0x00, 0x00, 0x00, 0x00,
  0x01, 0x00, 0x00, 0x00, 0x01, 0x00, 0x00, 0x00, 0x16, 0x00, 0x00, 0x00,
  0x01, 0x00, 0x00, 0x00, 0x00, 0x00, 0x00, 0x00, 0x17, 0x00, 0x00, 0x00,
  0x48, 0x12, 0x00, 0x00, 0xec, 0x11, 0x00, 0x00, 0xac, 0x11, 0x00, 0x00,
  0x70, 0x11, 0x00, 0x00, 0xc4, 0x10, 0x00, 0x00, 0x18, 0x10, 0x00, 0x00,
  0x04, 0x0f, 0x00, 0x00, 0xe8, 0x0d, 0x00, 0x00, 0x34, 0x0d, 0x00, 0x00,
  0x70, 0x0c, 0x00, 0x00, 0x8c, 0x0b, 0x00, 0x00, 0x98, 0x0a, 0x00, 0x00,
  0x84, 0x09, 0x00, 0x00, 0x60, 0x08, 0x00, 0x00, 0xd4, 0x07, 0x00, 0x00,
  0x68, 0x06, 0x00, 0x00, 0xfc, 0x04, 0x00, 0x00, 0x90, 0x03, 0x00, 0x00,
  0x4c, 0x02, 0x00, 0x00, 0xc8, 0x01, 0x00, 0x00, 0x0c, 0x01, 0x00, 0x00,
  0x70, 0x00, 0x00, 0x00, 0x04, 0x00, 0x00, 0x00, 0x2a, 0xee, 0xff, 0xff,
  0x00, 0x00, 0x00, 0x01, 0x14, 0x00, 0x00, 0x00, 0x30, 0x00, 0x00, 0x00,
  0x17, 0x00, 0x00, 0x00, 0x00, 0x00, 0x00, 0x09, 0x44, 0x00, 0x00, 0x00,
  0x14, 0xee, 0xff, 0xff, 0x08, 0x00, 0x00, 0x00, 0x10, 0x00, 0x00, 0x00,
  0x01, 0x00, 0x00, 0x00, 0x80, 0xff, 0xff, 0xff, 0xff, 0xff, 0xff, 0xff,
  0x01, 0x00, 0x00, 0x00, 0x00, 0x00, 0x80, 0x3b, 0x1b, 0x00, 0x00, 0x00,
  0x53, 0x74, 0x61, 0x74, 0x65, 0x66, 0x75, 0x6c, 0x50, 0x61, 0x72, 0x74,
  0x69, 0x74, 0x69, 0x6f, 0x6e, 0x65, 0x64, 0x43, 0x61, 0x6c, 0x6c, 0x5f,
  0x31, 0x3a, 0x30, 0x00, 0x02, 0x00, 0x00, 0x00, 0x01, 0x00, 0x00, 0x00,
  0x07, 0x00, 0x00, 0x00, 0x92, 0xee, 0xff, 0xff, 0x00, 0x00, 0x00, 0x01,
  0x14, 0x00, 0x00, 0x00, 0x34, 0x00, 0x00, 0x00, 0x16, 0x00, 0x00, 0x00,
  0x00, 0x00, 0x00, 0x09, 0x74, 0x00, 0x00, 0x00, 0x7c, 0xee, 0xff, 0xff,
  0x08, 0x00, 0x00, 0x00, 0x14, 0x00, 0x00, 0x00, 0x01, 0x00, 0x00, 0x00,
  0x46, 0x00, 0x00, 0x00, 0x00, 0x00, 0x00, 0x00, 0x00, 0x00, 0x00, 0x00,
  0x01, 0x00, 0x00, 0x00, 0x61, 0x35, 0x9e, 0x3e, 0x44, 0x00, 0x00, 0x00,
  0x73, 0x65, 0x71, 0x75, 0x65, 0x6e, 0x74, 0x69, 0x61, 0x6c, 0x5f, 0x31,
  0x32, 0x5f, 0x31, 0x2f, 0x64, 0x65, 0x6e, 0x73, 0x65, 0x5f, 0x32, 0x35,
  0x5f, 0x31, 0x2f, 0x4d, 0x61, 0x74, 0x4d, 0x75, 0x6c, 0x3b, 0x73, 0x65,
  0x71, 0x75, 0x65, 0x6e, 0x74, 0x69, 0x61, 0x6c, 0x5f, 0x31, 0x32, 0x5f,
  0x31, 0x2f, 0x64, 0x65, 0x6e, 0x73, 0x65, 0x5f, 0x32, 0x35, 0x5f, 0x31,
  0x2f, 0x42, 0x69, 0x61, 0x73, 0x41, 0x64, 0x64, 0x00, 0x00, 0x00, 0x00,
  0x02, 0x00, 0x00, 0x00, 0x01, 0x00, 0x00, 0x00, 0x07, 0x00, 0x00, 0x00,
  0x2a, 0xef, 0xff, 0xff, 0x00, 0x00, 0x00, 0x01, 0x14, 0x00, 0x00, 0x00,
  0x34, 0x00, 0x00, 0x00, 0x15, 0x00, 0x00, 0x00, 0x00, 0x00, 0x00, 0x09,
  0x94, 0x00, 0x00, 0x00, 0x14, 0xef, 0xff, 0xff, 0x08, 0x00, 0x00, 0x00,
  0x14, 0x00, 0x00, 0x00, 0x01, 0x00, 0x00, 0x00, 0x80, 0xff, 0xff, 0xff,
  0xff, 0xff, 0xff, 0xff, 0x00, 0x00, 0x00, 0x00, 0x01, 0x00, 0x00, 0x00,
  0xa7, 0xea, 0x01, 0x3c, 0x64, 0x00, 0x00, 0x00, 0x73, 0x65, 0x71, 0x75,
  0x65, 0x6e, 0x74, 0x69, 0x61, 0x6c, 0x5f, 0x31, 0x32, 0x5f, 0x31, 0x2f,
  0x64, 0x65, 0x6e, 0x73, 0x65, 0x5f, 0x32, 0x34, 0x5f, 0x31, 0x2f, 0x4d,
  0x61, 0x74, 0x4d, 0x75, 0x6c, 0x3b, 0x73, 0x65, 0x71, 0x75, 0x65, 0x6e,
  0x74, 0x69, 0x61, 0x6c, 0x5f, 0x31, 0x32, 0x5f, 0x31, 0x2f, 0x64, 0x65,
  0x6e, 0x73, 0x65, 0x5f, 0x32, 0x34, 0x5f, 0x31, 0x2f, 0x52, 0x65, 0x6c,
  0x75, 0x3b, 0x73, 0x65, 0x71, 0x75, 0x65, 0x6e, 0x74, 0x69, 0x61, 0x6c,
  0x5f, 0x31, 0x32, 0x5f, 0x31, 0x2f, 0x64, 0x65, 0x6e, 0x73, 0x65, 0x5f,
  0x32, 0x34, 0x5f, 0x31, 0x2f, 0x42, 0x69, 0x61, 0x73, 0x41, 0x64, 0x64,
  0x00, 0x00, 0x00, 0x00, 0x02, 0x00, 0x00, 0x00, 0x01, 0x00, 0x00, 0x00,
  0x10, 0x00, 0x00, 0x00, 0xe2, 0xef, 0xff, 0xff, 0x00, 0x00, 0x00, 0x01,
  0x14, 0x00, 0x00, 0x00, 0x30, 0x00, 0x00, 0x00, 0x14, 0x00, 0x00, 0x00,
  0x00, 0x00, 0x00, 0x09, 0x5c, 0x00, 0x00, 0x00, 0xcc, 0xef, 0xff, 0xff,
  0x08, 0x00, 0x00, 0x00, 0x10, 0x00, 0x00, 0x00, 0x01, 0x00, 0x00, 0x00,
  0x80, 0xff, 0xff, 0xff, 0xff, 0xff, 0xff, 0xff, 0x01, 0x00, 0x00, 0x00,
  0x65, 0x0b, 0x97, 0x3c, 0x32, 0x00, 0x00, 0x00, 0x73, 0x65, 0x71, 0x75,
  0x65, 0x6e, 0x74, 0x69, 0x61, 0x6c, 0x5f, 0x31, 0x32, 0x5f, 0x31, 0x2f,
  0x67, 0x6c, 0x6f, 0x62, 0x61, 0x6c, 0x5f, 0x61, 0x76, 0x65, 0x72, 0x61,
  0x67, 0x65, 0x5f, 0x70, 0x6f, 0x6f, 0x6c, 0x69, 0x6e, 0x67, 0x31, 0x64,
  0x5f, 0x31, 0x32, 0x5f, 0x31, 0x2f, 0x4d, 0x65, 0x61, 0x6e, 0x00, 0x00,
  0x02, 0x00, 0x00, 0x00, 0x01, 0x00, 0x00, 0x00, 0x08, 0x00, 0x00, 0x00,
  0x62, 0xf0, 0xff, 0xff, 0x00, 0x00, 0x00, 0x01, 0x14, 0x00, 0x00, 0x00,
  0x34, 0x00, 0x00, 0x00, 0x13, 0x00, 0x00, 0x00, 0x00, 0x00, 0x00, 0x09,
  0x18, 0x01, 0x00, 0x00, 0x4c, 0xf0, 0xff, 0xff, 0x08, 0x00, 0x00, 0x00,
  0x14, 0x00, 0x00, 0x00, 0x01, 0x00, 0x00, 0x00, 0x80, 0xff, 0xff, 0xff,
  0xff, 0xff, 0xff, 0xff, 0x00, 0x00, 0x00, 0x00, 0x01, 0x00, 0x00, 0x00,
  0x2a, 0x76, 0xbe, 0x3d, 0xeb, 0x00, 0x00, 0x00, 0x73, 0x65, 0x71, 0x75,
  0x65, 0x6e, 0x74, 0x69, 0x61, 0x6c, 0x5f, 0x31, 0x32, 0x5f, 0x31, 0x2f,
  0x61, 0x63, 0x74, 0x69, 0x76, 0x61, 0x74, 0x69, 0x6f, 0x6e, 0x5f, 0x33,
  0x38, 0x5f, 0x31, 0x2f, 0x52, 0x65, 0x6c, 0x75, 0x3b, 0x73, 0x65, 0x71,
  0x75, 0x65, 0x6e, 0x74, 0x69, 0x61, 0x6c, 0x5f, 0x31, 0x32, 0x5f, 0x31,
  0x2f, 0x62, 0x61, 0x74, 0x63, 0x68, 0x5f, 0x6e, 0x6f, 0x72, 0x6d, 0x61,
  0x6c, 0x69, 0x7a, 0x61, 0x74, 0x69, 0x6f, 0x6e, 0x5f, 0x33, 0x38, 0x5f,
  0x31, 0x2f, 0x62, 0x61, 0x74, 0x63, 0x68, 0x6e, 0x6f, 0x72, 0x6d, 0x2f,
  0x61, 0x64, 0x64, 0x5f, 0x31, 0x3b, 0x73, 0x65, 0x71, 0x75, 0x65, 0x6e,
  0x74, 0x69, 0x61, 0x6c, 0x5f, 0x31, 0x32, 0x5f, 0x31, 0x2f, 0x63, 0x6f,
  0x6e, 0x76, 0x31, 0x64, 0x5f, 0x33, 0x38, 0x5f, 0x31, 0x2f, 0x63, 0x6f,
  0x6e, 0x76, 0x6f, 0x6c, 0x75, 0x74, 0x69, 0x6f, 0x6e, 0x2f, 0x53, 0x71,
  0x75, 0x65, 0x65, 0x7a, 0x65, 0x3b, 0x73, 0x65, 0x71, 0x75, 0x65, 0x6e,
  0x74, 0x69, 0x61, 0x6c, 0x5f, 0x31, 0x32, 0x5f, 0x31, 0x2f, 0x62, 0x61,
  0x74, 0x63, 0x68, 0x5f, 0x6e, 0x6f, 0x72, 0x6d, 0x61, 0x6c, 0x69, 0x7a,
  0x61, 0x74, 0x69, 0x6f, 0x6e, 0x5f, 0x33, 0x38, 0x5f, 0x31, 0x2f, 0x62,
  0x61, 0x74, 0x63, 0x68, 0x6e, 0x6f, 0x72, 0x6d, 0x2f, 0x6d, 0x75, 0x6c,
  0x5f, 0x31, 0x3b, 0x73, 0x65, 0x71, 0x75, 0x65, 0x6e, 0x74, 0x69, 0x61,
  0x6c, 0x5f, 0x31, 0x32, 0x5f, 0x31, 0x2f, 0x63, 0x6f, 0x6e, 0x76, 0x31,
  0x64, 0x5f, 0x33, 0x38, 0x5f, 0x31, 0x2f, 0x42, 0x69, 0x61, 0x73, 0x41,
  0x64, 0x64, 0x3b, 0x00, 0x03, 0x00, 0x00, 0x00, 0x01, 0x00, 0x00, 0x00,
  0x7d, 0x00, 0x00, 0x00, 0x08, 0x00, 0x00, 0x00, 0xa2, 0xf1, 0xff, 0xff,
  0x00, 0x00, 0x00, 0x01, 0x14, 0x00, 0x00, 0x00, 0x30, 0x00, 0x00, 0x00,
  0x12, 0x00, 0x00, 0x00, 0x00, 0x00, 0x00, 0x09, 0x3c, 0x01, 0x00, 0x00,
  0x8c, 0xf1, 0xff, 0xff, 0x08, 0x00, 0x00, 0x00, 0x10, 0x00, 0x00, 0x00,
  0x01, 0x00, 0x00, 0x00, 0x80, 0xff, 0xff, 0xff, 0xff, 0xff, 0xff, 0xff,
  0x01, 0x00, 0x00, 0x00, 0x2a, 0x76, 0xbe, 0x3d, 0x13, 0x01, 0x00, 0x00,
  0x73, 0x65, 0x71, 0x75, 0x65, 0x6e, 0x74, 0x69, 0x61, 0x6c, 0x5f, 0x31,
  0x32, 0x5f, 0x31, 0x2f, 0x61, 0x63, 0x74, 0x69, 0x76, 0x61, 0x74, 0x69,
  0x6f, 0x6e, 0x5f, 0x33, 0x38, 0x5f, 0x31, 0x2f, 0x52, 0x65, 0x6c, 0x75,
  0x3b, 0x73, 0x65, 0x71, 0x75, 0x65, 0x6e, 0x74, 0x69, 0x61, 0x6c, 0x5f,
  0x31, 0x32, 0x5f, 0x31, 0x2f, 0x62, 0x61, 0x74, 0x63, 0x68, 0x5f, 0x6e,
  0x6f, 0x72, 0x6d, 0x61, 0x6c, 0x69, 0x7a, 0x61, 0x74, 0x69, 0x6f, 0x6e,
  0x5f, 0x33, 0x38, 0x5f, 0x31, 0x2f, 0x62, 0x61, 0x74, 0x63, 0x68, 0x6e,
  0x6f, 0x72, 0x6d, 0x2f, 0x61, 0x64, 0x64, 0x5f, 0x31, 0x3b, 0x73, 0x65,
  0x71, 0x75, 0x65, 0x6e, 0x74, 0x69, 0x61, 0x6c, 0x5f, 0x31, 0x32, 0x5f,
  0x31, 0x2f, 0x63, 0x6f, 0x6e, 0x76, 0x31, 0x64, 0x5f, 0x33, 0x38, 0x5f,
  0x31, 0x2f, 0x63, 0x6f, 0x6e, 0x76, 0x6f, 0x6c, 0x75, 0x74, 0x69, 0x6f,
  0x6e, 0x2f, 0x53, 0x71, 0x75, 0x65, 0x65, 0x7a, 0x65, 0x3b, 0x73, 0x65,
  0x71, 0x75, 0x65, 0x6e, 0x74, 0x69, 0x61, 0x6c, 0x5f, 0x31, 0x32, 0x5f,
  0x31, 0x2f, 0x62, 0x61, 0x74, 0x63, 0x68, 0x5f, 0x6e, 0x6f, 0x72, 0x6d,
  0x61, 0x6c, 0x69, 0x7a, 0x61, 0x74, 0x69, 0x6f, 0x6e, 0x5f, 0x33, 0x38,
  0x5f, 0x31, 0x2f, 0x62, 0x61, 0x74, 0x63, 0x68, 0x6e, 0x6f, 0x72, 0x6d,
  0x2f, 0x6d, 0x75, 0x6c, 0x5f, 0x31, 0x3b, 0x73, 0x65, 0x71, 0x75, 0x65,
  0x6e, 0x74, 0x69, 0x61, 0x6c, 0x5f, 0x31, 0x32, 0x5f, 0x31, 0x2f, 0x63,
  0x6f, 0x6e, 0x76, 0x31, 0x64, 0x5f, 0x33, 0x38, 0x5f, 0x31, 0x2f, 0x42,
  0x69, 0x61, 0x73, 0x41, 0x64, 0x64, 0x3b, 0x3b, 0x73, 0x65, 0x71, 0x75,
  0x65, 0x6e, 0x74, 0x69, 0x61, 0x6c, 0x5f, 0x31, 0x32, 0x5f, 0x31, 0x2f,
  0x63, 0x6f, 0x6e, 0x76, 0x31, 0x64, 0x5f, 0x33, 0x38, 0x5f, 0x31, 0x2f,
  0x63, 0x6f, 0x6e, 0x76, 0x6f, 0x6c, 0x75, 0x74, 0x69, 0x6f, 0x6e, 0x00,
  0x04, 0x00, 0x00, 0x00, 0x01, 0x00, 0x00, 0x00, 0x01, 0x00, 0x00, 0x00,
  0x7d, 0x00, 0x00, 0x00, 0x08, 0x00, 0x00, 0x00, 0x0a, 0xf3, 0xff, 0xff,
  0x00, 0x00, 0x00, 0x01, 0x14, 0x00, 0x00, 0x00, 0x30, 0x00, 0x00, 0x00,
  0x11, 0x00, 0x00, 0x00, 0x00, 0x00, 0x00, 0x09, 0x3c, 0x01, 0x00, 0x00,
  0xf4, 0xf2, 0xff, 0xff, 0x08, 0x00, 0x00, 0x00, 0x10, 0x00, 0x00, 0x00,
  0x01, 0x00, 0x00, 0x00, 0x80, 0xff, 0xff, 0xff, 0xff, 0xff, 0xff, 0xff,
  0x01, 0x00, 0x00, 0x00, 0x6f, 0xd7, 0x8a, 0x3c, 0x13, 0x01, 0x00, 0x00,
  0x73, 0x65, 0x71, 0x75, 0x65, 0x6e, 0x74, 0x69, 0x61, 0x6c, 0x5f, 0x31,
  0x32, 0x5f, 0x31, 0x2f, 0x61, 0x63, 0x74, 0x69, 0x76, 0x61, 0x74, 0x69,
  0x6f, 0x6e, 0x5f, 0x33, 0x37, 0x5f, 0x31, 0x2f, 0x52, 0x65, 0x6c, 0x75,
  0x3b, 0x73, 0x65, 0x71, 0x75, 0x65, 0x6e, 0x74, 0x69, 0x61, 0x6c, 0x5f,
  0x31, 0x32, 0x5f, 0x31, 0x2f, 0x62, 0x61, 0x74, 0x63, 0x68, 0x5f, 0x6e,
  0x6f, 0x72, 0x6d, 0x61, 0x6c, 0x69, 0x7a, 0x61, 0x74, 0x69, 0x6f, 0x6e,
  0x5f, 0x33, 0x37, 0x5f, 0x31, 0x2f, 0x62, 0x61, 0x74, 0x63, 0x68, 0x6e,
  0x6f, 0x72, 0x6d, 0x2f, 0x61, 0x64, 0x64, 0x5f, 0x31, 0x3b, 0x73, 0x65,
  0x71, 0x75, 0x65, 0x6e, 0x74, 0x69, 0x61, 0x6c, 0x5f, 0x31, 0x32, 0x5f,
  0x31, 0x2f, 0x63, 0x6f, 0x6e, 0x76, 0x31, 0x64, 0x5f, 0x33, 0x37, 0x5f,
  0x31, 0x2f, 0x63, 0x6f, 0x6e, 0x76, 0x6f, 0x6c, 0x75, 0x74, 0x69, 0x6f,
  0x6e, 0x2f, 0x53, 0x71, 0x75, 0x65, 0x65, 0x7a, 0x65, 0x3b, 0x73, 0x65,
  0x71, 0x75, 0x65, 0x6e, 0x74, 0x69, 0x61, 0x6c, 0x5f, 0x31, 0x32, 0x5f,
  0x31, 0x2f, 0x62, 0x61, 0x74, 0x63, 0x68, 0x5f, 0x6e, 0x6f, 0x72, 0x6d,
  0x61, 0x6c, 0x69, 0x7a, 0x61, 0x74, 0x69, 0x6f, 0x6e, 0x5f, 0x33, 0x37,
  0x5f, 0x31, 0x2f, 0x62, 0x61, 0x74, 0x63, 0x68, 0x6e, 0x6f, 0x72, 0x6d,
  0x2f, 0x6d, 0x75, 0x6c, 0x5f, 0x31, 0x3b, 0x73, 0x65, 0x71, 0x75, 0x65,
  0x6e, 0x74, 0x69, 0x61, 0x6c, 0x5f, 0x31, 0x32, 0x5f, 0x31, 0x2f, 0x63,
  0x6f, 0x6e, 0x76, 0x31, 0x64, 0x5f, 0x33, 0x37, 0x5f, 0x31, 0x2f, 0x42,
  0x69, 0x61, 0x73, 0x41, 0x64, 0x64, 0x3b, 0x3b, 0x73, 0x65, 0x71, 0x75,
  0x65, 0x6e, 0x74, 0x69, 0x61, 0x6c, 0x5f, 0x31, 0x32, 0x5f, 0x31, 0x2f,
  0x63, 0x6f, 0x6e, 0x76, 0x31, 0x64, 0x5f, 0x33, 0x37, 0x5f, 0x31, 0x2f,
  0x63, 0x6f, 0x6e, 0x76, 0x6f, 0x6c, 0x75, 0x74, 0x69, 0x6f, 0x6e, 0x00,
  0x04, 0x00, 0x00, 0x00, 0x01, 0x00, 0x00, 0x00, 0x01, 0x00, 0x00, 0x00,
  0x7d, 0x00, 0x00, 0x00, 0x0c, 0x00, 0x00, 0x00, 0x72, 0xf4, 0xff, 0xff,
  0x00, 0x00, 0x00, 0x01, 0x14, 0x00, 0x00, 0x00, 0x30, 0x00, 0x00, 0x00,
  0x10, 0x00, 0x00, 0x00, 0x00, 0x00, 0x00, 0x09, 0x3c, 0x01, 0x00, 0x00,
  0x5c, 0xf4, 0xff, 0xff, 0x08, 0x00, 0x00, 0x00, 0x10, 0x00, 0x00, 0x00,
  0x01, 0x00, 0x00, 0x00, 0x80, 0xff, 0xff, 0xff, 0xff, 0xff, 0xff, 0xff,
  0x01, 0x00, 0x00, 0x00, 0x38, 0x0e, 0x22, 0x3d, 0x13, 0x01, 0x00, 0x00,
  0x73, 0x65, 0x71, 0x75, 0x65, 0x6e, 0x74, 0x69, 0x61, 0x6c, 0x5f, 0x31,
  0x32, 0x5f, 0x31, 0x2f, 0x61, 0x63, 0x74, 0x69, 0x76, 0x61, 0x74, 0x69,
  0x6f, 0x6e, 0x5f, 0x33, 0x36, 0x5f, 0x31, 0x2f, 0x52, 0x65, 0x6c, 0x75,
  0x3b, 0x73, 0x65, 0x71, 0x75, 0x65, 0x6e, 0x74, 0x69, 0x61, 0x6c, 0x5f,
  0x31, 0x32, 0x5f, 0x31, 0x2f, 0x62, 0x61, 0x74, 0x63, 0x68, 0x5f, 0x6e,
  0x6f, 0x72, 0x6d, 0x61, 0x6c, 0x69, 0x7a, 0x61, 0x74, 0x69, 0x6f, 0x6e,
  0x5f, 0x33, 0x36, 0x5f, 0x31, 0x2f, 0x62, 0x61, 0x74, 0x63, 0x68, 0x6e,
  0x6f, 0x72, 0x6d, 0x2f, 0x61, 0x64, 0x64, 0x5f, 0x31, 0x3b, 0x73, 0x65,
  0x71, 0x75, 0x65, 0x6e, 0x74, 0x69, 0x61, 0x6c, 0x5f, 0x31, 0x32, 0x5f,
  0x31, 0x2f, 0x63, 0x6f, 0x6e, 0x76, 0x31, 0x64, 0x5f, 0x33, 0x36, 0x5f,
  0x31, 0x2f, 0x63, 0x6f, 0x6e, 0x76, 0x6f, 0x6c, 0x75, 0x74, 0x69, 0x6f,
  0x6e, 0x2f, 0x53, 0x71, 0x75, 0x65, 0x65, 0x7a, 0x65, 0x3b, 0x73, 0x65,
  0x71, 0x75, 0x65, 0x6e, 0x74, 0x69, 0x61, 0x6c, 0x5f, 0x31, 0x32, 0x5f,
  0x31, 0x2f, 0x62, 0x61, 0x74, 0x63, 0x68, 0x5f, 0x6e, 0x6f, 0x72, 0x6d,
  0x61, 0x6c, 0x69, 0x7a, 0x61, 0x74, 0x69, 0x6f, 0x6e, 0x5f, 0x33, 0x36,
  0x5f, 0x31, 0x2f, 0x62, 0x61, 0x74, 0x63, 0x68, 0x6e, 0x6f, 0x72, 0x6d,
  0x2f, 0x6d, 0x75, 0x6c, 0x5f, 0x31, 0x3b, 0x73, 0x65, 0x71, 0x75, 0x65,
  0x6e, 0x74, 0x69, 0x61, 0x6c, 0x5f, 0x31, 0x32, 0x5f, 0x31, 0x2f, 0x63,
  0x6f, 0x6e, 0x76, 0x31, 0x64, 0x5f, 0x33, 0x36, 0x5f, 0x31, 0x2f, 0x42,
  0x69, 0x61, 0x73, 0x41, 0x64, 0x64, 0x3b, 0x3b, 0x73, 0x65, 0x71, 0x75,
  0x65, 0x6e, 0x74, 0x69, 0x61, 0x6c, 0x5f, 0x31, 0x32, 0x5f, 0x31, 0x2f,
  0x63, 0x6f, 0x6e, 0x76, 0x31, 0x64, 0x5f, 0x33, 0x36, 0x5f, 0x31, 0x2f,
  0x63, 0x6f, 0x6e, 0x76, 0x6f, 0x6c, 0x75, 0x74, 0x69, 0x6f, 0x6e, 0x00,
  0x04, 0x00, 0x00, 0x00, 0x01, 0x00, 0x00, 0x00, 0x01, 0x00, 0x00, 0x00,
  0xfa, 0x00, 0x00, 0x00, 0x10, 0x00, 0x00, 0x00, 0xda, 0xf5, 0xff, 0xff,
  0x00, 0x00, 0x00, 0x01, 0x14, 0x00, 0x00, 0x00, 0x30, 0x00, 0x00, 0x00,
  0x0f, 0x00, 0x00, 0x00, 0x00, 0x00, 0x00, 0x09, 0x5c, 0x00, 0x00, 0x00,
  0xc4, 0xf5, 0xff, 0xff, 0x08, 0x00, 0x00, 0x00, 0x10, 0x00, 0x00, 0x00,
  0x01, 0x00, 0x00, 0x00, 0xdd, 0xff, 0xff, 0xff, 0xff, 0xff, 0xff, 0xff,
  0x01, 0x00, 0x00, 0x00, 0xbf, 0x02, 0xdc, 0x3d, 0x33, 0x00, 0x00, 0x00,
  0x73, 0x65, 0x71, 0x75, 0x65, 0x6e, 0x74, 0x69, 0x61, 0x6c, 0x5f, 0x31,
  0x32, 0x5f, 0x31, 0x2f, 0x63, 0x6f, 0x6e, 0x76, 0x31, 0x64, 0x5f, 0x33,
  0x36, 0x5f, 0x31, 0x2f, 0x63, 0x6f, 0x6e, 0x76, 0x6f, 0x6c, 0x75, 0x74,
  0x69, 0x6f, 0x6e, 0x2f, 0x45, 0x78, 0x70, 0x61, 0x6e, 0x64, 0x44, 0x69,
  0x6d, 0x73, 0x31, 0x00, 0x04, 0x00, 0x00, 0x00, 0x01, 0x00, 0x00, 0x00,
  0x01, 0x00, 0x00, 0x00, 0xf4, 0x01, 0x00, 0x00, 0x06, 0x00, 0x00, 0x00,
  0x62, 0xf6, 0xff, 0xff, 0x00, 0x00, 0x00, 0x01, 0x14, 0x00, 0x00, 0x00,
  0xe8, 0x00, 0x00, 0x00, 0x0e, 0x00, 0x00, 0x00, 0x00, 0x00, 0x00, 0x09,
  0xf4, 0x00, 0x00, 0x00, 0x4c, 0xf6, 0xff, 0xff, 0x08, 0x00, 0x00, 0x00,
  0x8c, 0x00, 0x00, 0x00, 0x10, 0x00, 0x00, 0x00, 0x00, 0x00, 0x00, 0x00,
  0x00, 0x00, 0x00, 0x00, 0x00, 0x00, 0x00, 0x00, 0x00, 0x00, 0x00, 0x00,
  0x00, 0x00, 0x00, 0x00, 0x00, 0x00, 0x00, 0x00, 0x00, 0x00, 0x00, 0x00,
  0x00, 0x00, 0x00, 0x00, 0x00, 0x00, 0x00, 0x00, 0x00, 0x00, 0x00, 0x00,
  0x00, 0x00, 0x00, 0x00, 0x00, 0x00, 0x00, 0x00, 0x00, 0x00, 0x00, 0x00,
  0x00, 0x00, 0x00, 0x00, 0x00, 0x00, 0x00, 0x00, 0x00, 0x00, 0x00, 0x00,
  0x00, 0x00, 0x00, 0x00, 0x00, 0x00, 0x00, 0x00, 0x00, 0x00, 0x00, 0x00,
  0x00, 0x00, 0x00, 0x00, 0x00, 0x00, 0x00, 0x00, 0x00, 0x00, 0x00, 0x00,
  0x00, 0x00, 0x00, 0x00, 0x00, 0x00, 0x00, 0x00, 0x00, 0x00, 0x00, 0x00,
  0x00, 0x00, 0x00, 0x00, 0x00, 0x00, 0x00, 0x00, 0x00, 0x00, 0x00, 0x00,
  0x00, 0x00, 0x00, 0x00, 0x00, 0x00, 0x00, 0x00, 0x00, 0x00, 0x00, 0x00,
  0x00, 0x00, 0x00, 0x00, 0x00, 0x00, 0x00, 0x00, 0x10, 0x00, 0x00, 0x00,
  0x37, 0x7c, 0x1a, 0x3b, 0xca, 0xe6, 0x6e, 0x3a, 0x3d, 0x32, 0xbf, 0x3a,
  0x9e, 0x07, 0xb7, 0x3a, 0xa9, 0x0b, 0xa1, 0x3a, 0x04, 0x29, 0x0c, 0x3b,
  0xbe, 0x5d, 0x04, 0x3b, 0xf1, 0x8b, 0x29, 0x3b, 0x44, 0x4d, 0x4c, 0x3b,
  0x1e, 0x32, 0x3f, 0x3b, 0x82, 0xd1, 0xbc, 0x3a, 0xd5, 0x06, 0x16, 0x3b,
  0x45, 0xe9, 0x0c, 0x3b, 0xab, 0xe3, 0x84, 0x3a, 0xe2, 0x5f, 0xdf, 0x3b,
  0xbe, 0x23, 0x0d, 0x3a, 0x12, 0x00, 0x00, 0x00, 0x74, 0x66, 0x6c, 0x2e,
  0x70, 0x73, 0x65, 0x75, 0x64, 0x6f, 0x5f, 0x71, 0x63, 0x6f, 0x6e, 0x73,
  0x74, 0x39, 0x00, 0x00, 0x04, 0x00, 0x00, 0x00, 0x10, 0x00, 0x00, 0x00,
  0x01, 0x00, 0x00, 0x00, 0x07, 0x00, 0x00, 0x00, 0x06, 0x00, 0x00, 0x00,
  0x82, 0xf7, 0xff, 0xff, 0x00, 0x00, 0x00, 0x01, 0x14, 0x00, 0x00, 0x00,
  0xe4, 0x00, 0x00, 0x00, 0x0d, 0x00, 0x00, 0x00, 0x00, 0x00, 0x00, 0x02,
  0xf0, 0x00, 0x00, 0x00, 0x6c, 0xf7, 0xff, 0xff, 0x08, 0x00, 0x00, 0x00,
  0x88, 0x00, 0x00, 0x00, 0x10, 0x00, 0x00, 0x00, 0x00, 0x00, 0x00, 0x00,
  0x00, 0x00, 0x00, 0x00, 0x00, 0x00, 0x00, 0x00, 0x00, 0x00, 0x00, 0x00,
  0x00, 0x00, 0x00, 0x00, 0x00, 0x00, 0x00, 0x00, 0x00, 0x00, 0x00, 0x00,
  0x00, 0x00, 0x00, 0x00, 0x00, 0x00, 0x00, 0x00, 0x00, 0x00, 0x00, 0x00,
  0x00, 0x00, 0x00, 0x00, 0x00, 0x00, 0x00, 0x00, 0x00, 0x00, 0x00, 0x00,
  0x00, 0x00, 0x00, 0x00, 0x00, 0x00, 0x00, 0x00, 0x00, 0x00, 0x00, 0x00,
  0x00, 0x00, 0x00, 0x00, 0x00, 0x00, 0x00, 0x00, 0x00, 0x00, 0x00, 0x00,
  0x00, 0x00, 0x00, 0x00, 0x00, 0x00, 0x00, 0x00, 0x00, 0x00, 0x00, 0x00,
  0x00, 0x00, 0x00, 0x00, 0x00, 0x00, 0x00, 0x00, 0x00, 0x00, 0x00, 0x00,
  0x00, 0x00, 0x00, 0x00, 0x00, 0x00, 0x00, 0x00, 0x00, 0x00, 0x00, 0x00,
  0x00, 0x00, 0x00, 0x00, 0x00, 0x00, 0x00, 0x00, 0x00, 0x00, 0x00, 0x00,
  0x00, 0x00, 0x00, 0x00, 0x10, 0x00, 0x00, 0x00, 0x67, 0xc4, 0x84, 0x39,
  0xe6, 0x50, 0xcd, 0x38, 0x39, 0x51, 0x24, 0x39, 0x82, 0x4c, 0x1d, 0x39,
  0xbf, 0x67, 0x0a, 0x39, 0x81, 0xe9, 0x70, 0x39, 0xf6, 0x83, 0x63, 0x39,
  0x15, 0xb6, 0x91, 0x39, 0x97, 0x94, 0xaf, 0x39, 0x1f, 0x51, 0xa4, 0x39,
  0x12, 0x46, 0x22, 0x39, 0x7b, 0xef, 0x80, 0x39, 0xf5, 0x33, 0x72, 0x39,
  0x28, 0x6a, 0xe4, 0x38, 0xcc, 0xf8, 0x3f, 0x3a, 0x76, 0x98, 0x72, 0x38,
  0x12, 0x00, 0x00, 0x00, 0x74, 0x66, 0x6c, 0x2e, 0x70, 0x73, 0x65, 0x75,
  0x64, 0x6f, 0x5f, 0x71, 0x63, 0x6f, 0x6e, 0x73, 0x74, 0x38, 0x00, 0x00,
  0x01, 0x00, 0x00, 0x00, 0x10, 0x00, 0x00, 0x00, 0x92, 0xf8, 0xff, 0xff,
  0x00, 0x00, 0x00, 0x01, 0x14, 0x00, 0x00, 0x00, 0xb8, 0x00, 0x00, 0x00,
  0x0c, 0x00, 0x00, 0x00, 0x00, 0x00, 0x00, 0x09, 0xc4, 0x00, 0x00, 0x00,
  0x7c, 0xf8, 0xff, 0xff, 0x08, 0x00, 0x00, 0x00, 0x6c, 0x00, 0x00, 0x00,
  0x0c, 0x00, 0x00, 0x00, 0x00, 0x00, 0x00, 0x00, 0x00, 0x00, 0x00, 0x00,
  0x00, 0x00, 0x00, 0x00, 0x00, 0x00, 0x00, 0x00, 0x00, 0x00, 0x00, 0x00,
  0x00, 0x00, 0x00, 0x00, 0x00, 0x00, 0x00, 0x00, 0x00, 0x00, 0x00, 0x00,
  0x00, 0x00, 0x00, 0x00, 0x00, 0x00, 0x00, 0x00, 0x00, 0x00, 0x00, 0x00,
  0x00, 0x00, 0x00, 0x00, 0x00, 0x00, 0x00, 0x00, 0x00, 0x00, 0x00, 0x00,
  0x00, 0x00, 0x00, 0x00, 0x00, 0x00, 0x00, 0x00, 0x00, 0x00, 0x00, 0x00,
  0x00, 0x00, 0x00, 0x00, 0x00, 0x00, 0x00, 0x00, 0x00, 0x00, 0x00, 0x00,
  0x00, 0x00, 0x00, 0x00, 0x00, 0x00, 0x00, 0x00, 0x00, 0x00, 0x00, 0x00,
  0x00, 0x00, 0x00, 0x00, 0x00, 0x00, 0x00, 0x00, 0x0c, 0x00, 0x00, 0x00,
  0xdf, 0x17, 0x06, 0x3b, 0x9b, 0x44, 0x17, 0x3b, 0xbb, 0xf7, 0x34, 0x3b,
  0x5b, 0xf9, 0x34, 0x3b, 0x68, 0x7a, 0x67, 0x3b, 0xd9, 0x51, 0x30, 0x3b,
  0xe0, 0x22, 0x9e, 0x3b, 0xe0, 0x9c, 0x29, 0x3b, 0x44, 0x9e, 0xae, 0x3b,
  0x62, 0x69, 0x7a, 0x3b, 0x94, 0xba, 0xc0, 0x3a, 0x3b, 0x5a, 0x04, 0x3b,
  0x12, 0x00, 0x00, 0x00, 0x74, 0x66, 0x6c, 0x2e, 0x70, 0x73, 0x65, 0x75,
  0x64, 0x6f, 0x5f, 0x71, 0x63, 0x6f, 0x6e, 0x73, 0x74, 0x37, 0x00, 0x00,
  0x04, 0x00, 0x00, 0x00, 0x0c, 0x00, 0x00, 0x00, 0x01, 0x00, 0x00, 0x00,
  0x05, 0x00, 0x00, 0x00, 0x10, 0x00, 0x00, 0x00, 0x82, 0xf9, 0xff, 0xff,
  0x00, 0x00, 0x00, 0x01, 0x14, 0x00, 0x00, 0x00, 0xb4, 0x00, 0x00, 0x00,
  0x0b, 0x00, 0x00, 0x00, 0x00, 0x00, 0x00, 0x02, 0xc0, 0x00, 0x00, 0x00,
  0x6c, 0xf9, 0xff, 0xff, 0x08, 0x00, 0x00, 0x00, 0x68, 0x00, 0x00, 0x00,
  0x0c, 0x00, 0x00, 0x00, 0x00, 0x00, 0x00, 0x00, 0x00, 0x00, 0x00, 0x00,
  0x00, 0x00, 0x00, 0x00, 0x00, 0x00, 0x00, 0x00, 0x00, 0x00, 0x00, 0x00,
  0x00, 0x00, 0x00, 0x00, 0x00, 0x00, 0x00, 0x00, 0x00, 0x00, 0x00, 0x00,
  0x00, 0x00, 0x00, 0x00, 0x00, 0x00, 0x00, 0x00, 0x00, 0x00, 0x00, 0x00,
  0x00, 0x00, 0x00, 0x00, 0x00, 0x00, 0x00, 0x00, 0x00, 0x00, 0x00, 0x00,
  0x00, 0x00, 0x00, 0x00, 0x00, 0x00, 0x00, 0x00, 0x00, 0x00, 0x00, 0x00,
  0x00, 0x00, 0x00, 0x00, 0x00, 0x00, 0x00, 0x00, 0x00, 0x00, 0x00, 0x00,
  0x00, 0x00, 0x00, 0x00, 0x00, 0x00, 0x00, 0x00, 0x00, 0x00, 0x00, 0x00,
  0x00, 0x00, 0x00, 0x00, 0x0c, 0x00, 0x00, 0x00, 0x1c, 0xc5, 0xa9, 0x38,
  0xa2, 0x83, 0xbf, 0x38, 0xa3, 0x1d, 0xe5, 0x38, 0xb2, 0x1f, 0xe5, 0x38,
  0x51, 0x88, 0x12, 0x39, 0x2d, 0x3b, 0xdf, 0x38, 0xb4, 0x35, 0x48, 0x39,
  0x63, 0xbd, 0xd6, 0x38, 0xb4, 0x13, 0x5d, 0x39, 0x99, 0x84, 0x1e, 0x39,
  0x8c, 0x01, 0x74, 0x38, 0xe6, 0x90, 0xa7, 0x38, 0x12, 0x00, 0x00, 0x00,
  0x74, 0x66, 0x6c, 0x2e, 0x70, 0x73, 0x65, 0x75, 0x64, 0x6f, 0x5f, 0x71,
  0x63, 0x6f, 0x6e, 0x73, 0x74, 0x36, 0x00, 0x00, 0x01, 0x00, 0x00, 0x00,
  0x0c, 0x00, 0x00, 0x00, 0x62, 0xfa, 0xff, 0xff, 0x00, 0x00, 0x00, 0x01,
  0x14, 0x00, 0x00, 0x00, 0x88, 0x00, 0x00, 0x00, 0x0a, 0x00, 0x00, 0x00,
  0x00, 0x00, 0x00, 0x09, 0x94, 0x00, 0x00, 0x00, 0x4c, 0xfa, 0xff, 0xff,
  0x08, 0x00, 0x00, 0x00, 0x4c, 0x00, 0x00, 0x00, 0x08, 0x00, 0x00, 0x00,
  0x00, 0x00, 0x00, 0x00, 0x00, 0x00, 0x00, 0x00, 0x00, 0x00, 0x00, 0x00,
  0x00, 0x00, 0x00, 0x00, 0x00, 0x00, 0x00, 0x00, 0x00, 0x00, 0x00, 0x00,
  0x00, 0x00, 0x00, 0x00, 0x00, 0x00, 0x00, 0x00, 0x00, 0x00, 0x00, 0x00,
  0x00, 0x00, 0x00, 0x00, 0x00, 0x00, 0x00, 0x00, 0x00, 0x00, 0x00, 0x00,
  0x00, 0x00, 0x00, 0x00, 0x00, 0x00, 0x00, 0x00, 0x00, 0x00, 0x00, 0x00,
  0x00, 0x00, 0x00, 0x00, 0x00, 0x00, 0x00, 0x00, 0x08, 0x00, 0x00, 0x00,
  0x58, 0x84, 0x7e, 0x3c, 0x87, 0xa0, 0xb3, 0x3c, 0xd4, 0xc7, 0x77, 0x3c,
  0x0a, 0x2f, 0x85, 0x3c, 0xfe, 0x47, 0x87, 0x3c, 0x10, 0xa1, 0xe0, 0x3c,
  0xa3, 0x3a, 0x94, 0x3c, 0x6a, 0xe9, 0x28, 0x3c, 0x12, 0x00, 0x00, 0x00,
  0x74, 0x66, 0x6c, 0x2e, 0x70, 0x73, 0x65, 0x75, 0x64, 0x6f, 0x5f, 0x71,
  0x63, 0x6f, 0x6e, 0x73, 0x74, 0x35, 0x00, 0x00, 0x04, 0x00, 0x00, 0x00,
  0x08, 0x00, 0x00, 0x00, 0x01, 0x00, 0x00, 0x00, 0x03, 0x00, 0x00, 0x00,
  0x0c, 0x00, 0x00, 0x00, 0x22, 0xfb, 0xff, 0xff, 0x00, 0x00, 0x00, 0x01,
  0x14, 0x00, 0x00, 0x00, 0x84, 0x00, 0x00, 0x00, 0x09, 0x00, 0x00, 0x00,
  0x00, 0x00, 0x00, 0x02, 0x90, 0x00, 0x00, 0x00, 0x0c, 0xfb, 0xff, 0xff,
  0x08, 0x00, 0x00, 0x00, 0x48, 0x00, 0x00, 0x00, 0x08, 0x00, 0x00, 0x00,
  0x00, 0x00, 0x00, 0x00, 0x00, 0x00, 0x00, 0x00, 0x00, 0x00, 0x00, 0x00,
  0x00, 0x00, 0x00, 0x00, 0x00, 0x00, 0x00, 0x00, 0x00, 0x00, 0x00, 0x00,
  0x00, 0x00, 0x00, 0x00, 0x00, 0x00, 0x00, 0x00, 0x00, 0x00, 0x00, 0x00,
  0x00, 0x00, 0x00, 0x00, 0x00, 0x00, 0x00, 0x00, 0x00, 0x00, 0x00, 0x00,
  0x00, 0x00, 0x00, 0x00, 0x00, 0x00, 0x00, 0x00, 0x00, 0x00, 0x00, 0x00,
  0x00, 0x00, 0x00, 0x00, 0x08, 0x00, 0x00, 0x00, 0x87, 0x09, 0x8a, 0x39,
  0x65, 0xd7, 0xc2, 0x39, 0x3d, 0x62, 0x86, 0x39, 0xdf, 0x76, 0x90, 0x39,
  0x4e, 0xbd, 0x92, 0x39, 0xb7, 0xa7, 0xf3, 0x39, 0xb3, 0xc8, 0xa0, 0x39,
  0xf1, 0x37, 0x37, 0x39, 0x12, 0x00, 0x00, 0x00, 0x74, 0x66, 0x6c, 0x2e,
  0x70, 0x73, 0x65, 0x75, 0x64, 0x6f, 0x5f, 0x71, 0x63, 0x6f, 0x6e, 0x73,
  0x74, 0x34, 0x00, 0x00, 0x01, 0x00, 0x00, 0x00, 0x08, 0x00, 0x00, 0x00,
  0xd2, 0xfb, 0xff, 0xff, 0x00, 0x00, 0x00, 0x01, 0x14, 0x00, 0x00, 0x00,
  0xe8, 0x00, 0x00, 0x00, 0x08, 0x00, 0x00, 0x00, 0x00, 0x00, 0x00, 0x09,
  0xf4, 0x00, 0x00, 0x00, 0xbc, 0xfb, 0xff, 0xff, 0x08, 0x00, 0x00, 0x00,
  0x8c, 0x00, 0x00, 0x00, 0x10, 0x00, 0x00, 0x00, 0x00, 0x00, 0x00, 0x00,
  0x00, 0x00, 0x00, 0x00, 0x00, 0x00, 0x00, 0x00, 0x00, 0x00, 0x00, 0x00,
  0x00, 0x00, 0x00, 0x00, 0x00, 0x00, 0x00, 0x00, 0x00, 0x00, 0x00, 0x00,
  0x00, 0x00, 0x00, 0x00, 0x00, 0x00, 0x00, 0x00, 0x00, 0x00, 0x00, 0x00,
  0x00, 0x00, 0x00, 0x00, 0x00, 0x00, 0x00, 0x00, 0x00, 0x00, 0x00, 0x00,
  0x00, 0x00, 0x00, 0x00, 0x00, 0x00, 0x00, 0x00, 0x00, 0x00, 0x00, 0x00,
  0x00, 0x00, 0x00, 0x00, 0x00, 0x00, 0x00, 0x00, 0x00, 0x00, 0x00, 0x00,
  0x00, 0x00, 0x00, 0x00, 0x00, 0x00, 0x00, 0x00, 0x00, 0x00, 0x00, 0x00,
  0x00, 0x00, 0x00, 0x00, 0x00, 0x00, 0x00, 0x00, 0x00, 0x00, 0x00, 0x00,
  0x00, 0x00, 0x00, 0x00, 0x00, 0x00, 0x00, 0x00, 0x00, 0x00, 0x00, 0x00,
  0x00, 0x00, 0x00, 0x00, 0x00, 0x00, 0x00, 0x00, 0x00, 0x00, 0x00, 0x00,
  0x00, 0x00, 0x00, 0x00, 0x00, 0x00, 0x00, 0x00, 0x10, 0x00, 0x00, 0x00,
  0x2e, 0xab, 0x11, 0x3c, 0x44, 0x64, 0xfa, 0x3b, 0xe5, 0xa9, 0xf5, 0x3b,
  0xe1, 0x38, 0xbe, 0x3b, 0xdd, 0xe7, 0xfa, 0x3b, 0x7c, 0x4b, 0xe1, 0x3b,
  0x0e, 0x79, 0xa8, 0x3b, 0x12, 0xb9, 0xe8, 0x3b, 0xca, 0x79, 0x12, 0x3c,
  0x76, 0x7a, 0xa4, 0x3b, 0x83, 0x4e, 0x14, 0x3c, 0xc6, 0x25, 0x01, 0x3c,
  0x66, 0x35, 0x04, 0x3c, 0x72, 0xca, 0xe5, 0x3b, 0xc4, 0x16, 0xf0, 0x3b,
  0x98, 0xa3, 0x05, 0x3c, 0x12, 0x00, 0x00, 0x00, 0x74, 0x66, 0x6c, 0x2e,
  0x70, 0x73, 0x65, 0x75, 0x64, 0x6f, 0x5f, 0x71, 0x63, 0x6f, 0x6e, 0x73,
  0x74, 0x33, 0x00, 0x00, 0x02, 0x00, 0x00, 0x00, 0x10, 0x00, 0x00, 0x00,
  0x08, 0x00, 0x00, 0x00, 0xea, 0xfc, 0xff, 0xff, 0x00, 0x00, 0x00, 0x01,
  0x14, 0x00, 0x00, 0x00, 0xe4, 0x00, 0x00, 0x00, 0x07, 0x00, 0x00, 0x00,
  0x00, 0x00, 0x00, 0x02, 0xf0, 0x00, 0x00, 0x00, 0xd4, 0xfc, 0xff, 0xff,
  0x08, 0x00, 0x00, 0x00, 0x88, 0x00, 0x00, 0x00, 0x10, 0x00, 0x00, 0x00,
  0x00, 0x00, 0x00, 0x00, 0x00, 0x00, 0x00, 0x00, 0x00, 0x00, 0x00, 0x00,
  0x00, 0x00, 0x00, 0x00, 0x00, 0x00, 0x00, 0x00, 0x00, 0x00, 0x00, 0x00,
  0x00, 0x00, 0x00, 0x00, 0x00, 0x00, 0x00, 0x00, 0x00, 0x00, 0x00, 0x00,
  0x00, 0x00, 0x00, 0x00, 0x00, 0x00, 0x00, 0x00, 0x00, 0x00, 0x00, 0x00,
  0x00, 0x00, 0x00, 0x00, 0x00, 0x00, 0x00, 0x00, 0x00, 0x00, 0x00, 0x00,
  0x00, 0x00, 0x00, 0x00, 0x00, 0x00, 0x00, 0x00, 0x00, 0x00, 0x00, 0x00,
  0x00, 0x00, 0x00, 0x00, 0x00, 0x00, 0x00, 0x00, 0x00, 0x00, 0x00, 0x00,
  0x00, 0x00, 0x00, 0x00, 0x00, 0x00, 0x00, 0x00, 0x00, 0x00, 0x00, 0x00,
  0x00, 0x00, 0x00, 0x00, 0x00, 0x00, 0x00, 0x00, 0x00, 0x00, 0x00, 0x00,
  0x00, 0x00, 0x00, 0x00, 0x00, 0x00, 0x00, 0x00, 0x00, 0x00, 0x00, 0x00,
  0x00, 0x00, 0x00, 0x00, 0x00, 0x00, 0x00, 0x00, 0x10, 0x00, 0x00, 0x00,
  0xe8, 0xe4, 0x2b, 0x39, 0x49, 0xbc, 0x13, 0x39, 0x25, 0xf2, 0x10, 0x39,
  0x08, 0x78, 0xe0, 0x38, 0xee, 0x09, 0x14, 0x39, 0x8d, 0xed, 0x04, 0x39,
  0xce, 0xcd, 0xc6, 0x38, 0x85, 0x4f, 0x09, 0x39, 0xb6, 0xd8, 0x2c, 0x39,
  0x1c, 0x17, 0xc2, 0x38, 0xd2, 0x01, 0x2f, 0x39, 0x0f, 0x66, 0x18, 0x39,
  0xc3, 0x02, 0x1c, 0x39, 0xa4, 0x94, 0x07, 0x39, 0x1d, 0xa8, 0x0d, 0x39,
  0xe3, 0xb2, 0x1d, 0x39, 0x12, 0x00, 0x00, 0x00, 0x74, 0x66, 0x6c, 0x2e,
  0x70, 0x73, 0x65, 0x75, 0x64, 0x6f, 0x5f, 0x71, 0x63, 0x6f, 0x6e, 0x73,
  0x74, 0x32, 0x00, 0x00, 0x01, 0x00, 0x00, 0x00, 0x10, 0x00, 0x00, 0x00,
  0xfa, 0xfd, 0xff, 0xff, 0x00, 0x00, 0x00, 0x01, 0x14, 0x00, 0x00, 0x00,
  0x78, 0x00, 0x00, 0x00, 0x06, 0x00, 0x00, 0x00, 0x00, 0x00, 0x00, 0x09,
  0x84, 0x00, 0x00, 0x00, 0xe4, 0xfd, 0xff, 0xff, 0x08, 0x00, 0x00, 0x00,
  0x40, 0x00, 0x00, 0x00, 0x07, 0x00, 0x00, 0x00, 0x00, 0x00, 0x00, 0x00,
  0x00, 0x00, 0x00, 0x00, 0x00, 0x00, 0x00, 0x00, 0x00, 0x00, 0x00, 0x00,
  0x00, 0x00, 0x00, 0x00, 0x00, 0x00, 0x00, 0x00, 0x00, 0x00, 0x00, 0x00,
  0x00, 0x00, 0x00, 0x00, 0x00, 0x00, 0x00, 0x00, 0x00, 0x00, 0x00, 0x00,
  0x00, 0x00, 0x00, 0x00, 0x00, 0x00, 0x00, 0x00, 0x00, 0x00, 0x00, 0x00,
  0x00, 0x00, 0x00, 0x00, 0x07, 0x00, 0x00, 0x00, 0xc7, 0x9b, 0x86, 0x3d,
  0xd4, 0xb9, 0x27, 0x3d, 0x96, 0x7b, 0x9c, 0x3d, 0x68, 0xaa, 0x8c, 0x3d,
  0x90, 0x5a, 0x96, 0x3d, 0x53, 0x66, 0x68, 0x3d, 0x61, 0x36, 0x3d, 0x3d,
  0x12, 0x00, 0x00, 0x00, 0x74, 0x66, 0x6c, 0x2e, 0x70, 0x73, 0x65, 0x75,
  0x64, 0x6f, 0x5f, 0x71, 0x63, 0x6f, 0x6e, 0x73, 0x74, 0x31, 0x00, 0x00,
  0x02, 0x00, 0x00, 0x00, 0x07, 0x00, 0x00, 0x00, 0x10, 0x00, 0x00, 0x00,
  0xa2, 0xfe, 0xff, 0xff, 0x00, 0x00, 0x00, 0x01, 0x14, 0x00, 0x00, 0x00,
  0x7c, 0x00, 0x00, 0x00, 0x05, 0x00, 0x00, 0x00, 0x00, 0x00, 0x00, 0x02,
  0x88, 0x00, 0x00, 0x00, 0x8c, 0xfe, 0xff, 0xff, 0x08, 0x00, 0x00, 0x00,
  0x44, 0x00, 0x00, 0x00, 0x07, 0x00, 0x00, 0x00, 0x00, 0x00, 0x00, 0x00,
  0x00, 0x00, 0x00, 0x00, 0x00, 0x00, 0x00, 0x00, 0x00, 0x00, 0x00, 0x00,
  0x00, 0x00, 0x00, 0x00, 0x00, 0x00, 0x00, 0x00, 0x00, 0x00, 0x00, 0x00,
  0x00, 0x00, 0x00, 0x00, 0x00, 0x00, 0x00, 0x00, 0x00, 0x00, 0x00, 0x00,
  0x00, 0x00, 0x00, 0x00, 0x00, 0x00, 0x00, 0x00, 0x00, 0x00, 0x00, 0x00,
  0x00, 0x00, 0x00, 0x00, 0x00, 0x00, 0x00, 0x00, 0x07, 0x00, 0x00, 0x00,
  0xc3, 0x9f, 0x08, 0x3a, 0xc2, 0x3c, 0xaa, 0x39, 0x6b, 0xd3, 0x1e, 0x3a,
  0x9c, 0xc5, 0x0e, 0x3a, 0xe7, 0x9a, 0x18, 0x3a, 0x2a, 0xe1, 0xeb, 0x39,
  0xac, 0x0b, 0xc0, 0x39, 0x11, 0x00, 0x00, 0x00, 0x74, 0x66, 0x6c, 0x2e,
  0x70, 0x73, 0x65, 0x75, 0x64, 0x6f, 0x5f, 0x71, 0x63, 0x6f, 0x6e, 0x73,
  0x74, 0x00, 0x00, 0x00, 0x01, 0x00, 0x00, 0x00, 0x07, 0x00, 0x00, 0x00,
  0x4a, 0xff, 0xff, 0xff, 0x00, 0x00, 0x00, 0x01, 0x14, 0x00, 0x00, 0x00,
  0x14, 0x00, 0x00, 0x00, 0x04, 0x00, 0x00, 0x00, 0x00, 0x00, 0x00, 0x02,
  0x1c, 0x00, 0x00, 0x00, 0x8c, 0xff, 0xff, 0xff, 0x0f, 0x00, 0x00, 0x00,
  0x61, 0x72, 0x69, 0x74, 0x68, 0x2e, 0x63, 0x6f, 0x6e, 0x73, 0x74, 0x61,
  0x6e, 0x74, 0x32, 0x00, 0x00, 0x00, 0x00, 0x00, 0x82, 0xff, 0xff, 0xff,
  0x00, 0x00, 0x00, 0x01, 0x14, 0x00, 0x00, 0x00, 0x14, 0x00, 0x00, 0x00,
  0x03, 0x00, 0x00, 0x00, 0x00, 0x00, 0x00, 0x02, 0x1c, 0x00, 0x00, 0x00,
  0xc4, 0xff, 0xff, 0xff, 0x0f, 0x00, 0x00, 0x00, 0x61, 0x72, 0x69, 0x74,
  0x68, 0x2e, 0x63, 0x6f, 0x6e, 0x73, 0x74, 0x61, 0x6e, 0x74, 0x31, 0x00,
  0x01, 0x00, 0x00, 0x00, 0x03, 0x00, 0x00, 0x00, 0xbe, 0xff, 0xff, 0xff,
  0x00, 0x00, 0x00, 0x01, 0x18, 0x00, 0x00, 0x00, 0x18, 0x00, 0x00, 0x00,
  0x02, 0x00, 0x00, 0x00, 0x00, 0x00, 0x00, 0x02, 0x20, 0x00, 0x00, 0x00,
  0x04, 0x00, 0x04, 0x00, 0x04, 0x00, 0x00, 0x00, 0x0e, 0x00, 0x00, 0x00,
  0x61, 0x72, 0x69, 0x74, 0x68, 0x2e, 0x63, 0x6f, 0x6e, 0x73, 0x74, 0x61,
  0x6e, 0x74, 0x00, 0x00, 0x01, 0x00, 0x00, 0x00, 0x04, 0x00, 0x00, 0x00,
  0x00, 0x00, 0x16, 0x00, 0x1c, 0x00, 0x18, 0x00, 0x17, 0x00, 0x10, 0x00,
  0x0c, 0x00, 0x08, 0x00, 0x00, 0x00, 0x00, 0x00, 0x00, 0x00, 0x07, 0x00,
  0x16, 0x00, 0x00, 0x00, 0x00, 0x00, 0x00, 0x01, 0x20, 0x00, 0x00, 0x00,
  0x40, 0x00, 0x00, 0x00, 0x01, 0x00, 0x00, 0x00, 0x00, 0x00, 0x00, 0x09,
  0x5c, 0x00, 0x00, 0x00, 0x0c, 0x00, 0x0c, 0x00, 0x00, 0x00, 0x00, 0x00,
  0x08, 0x00, 0x04, 0x00, 0x0c, 0x00, 0x00, 0x00, 0x08, 0x00, 0x00, 0x00,
  0x14, 0x00, 0x00, 0x00, 0x01, 0x00, 0x00, 0x00, 0xdd, 0xff, 0xff, 0xff,
  0xff, 0xff, 0xff, 0xff, 0x00, 0x00, 0x00, 0x00, 0x01, 0x00, 0x00, 0x00,
  0xbf, 0x02, 0xdc, 0x3d, 0x22, 0x00, 0x00, 0x00, 0x73, 0x65, 0x72, 0x76,
  0x69, 0x6e, 0x67, 0x5f, 0x64, 0x65, 0x66, 0x61, 0x75, 0x6c, 0x74, 0x5f,
  0x6b, 0x65, 0x72, 0x61, 0x73, 0x5f, 0x74, 0x65, 0x6e, 0x73, 0x6f, 0x72,
  0x5f, 0x31, 0x36, 0x38, 0x3a, 0x30, 0x00, 0x00, 0x03, 0x00, 0x00, 0x00,
  0x01, 0x00, 0x00, 0x00, 0xf4, 0x01, 0x00, 0x00, 0x06, 0x00, 0x00, 0x00,
  0x05, 0x00, 0x00, 0x00, 0x6c, 0x00, 0x00, 0x00, 0x4c, 0x00, 0x00, 0x00,
  0x2c, 0x00, 0x00, 0x00, 0x18, 0x00, 0x00, 0x00, 0x04, 0x00, 0x00, 0x00,
  0xd0, 0xff, 0xff, 0xff, 0x19, 0x00, 0x00, 0x00, 0x02, 0x00, 0x00, 0x00,
  0x00, 0x00, 0x00, 0x19, 0xe0, 0xff, 0xff, 0xff, 0x09, 0x00, 0x00, 0x00,
  0x04, 0x00, 0x00, 0x00, 0x00, 0x00, 0x00, 0x09, 0xf0, 0xff, 0xff, 0xff,
  0x28, 0x00, 0x00, 0x00, 0x02, 0x00, 0x00, 0x00, 0x00, 0x00, 0x00, 0x28,
  0x0c, 0x00, 0x10, 0x00, 0x0f, 0x00, 0x00, 0x00, 0x08, 0x00, 0x04, 0x00,
  0x0c, 0x00, 0x00, 0x00, 0x03, 0x00, 0x00, 0x00, 0x03, 0x00, 0x00, 0x00,
  0x00, 0x00, 0x00, 0x03, 0x0c, 0x00, 0x0c, 0x00, 0x0b, 0x00, 0x00, 0x00,
  0x00, 0x00, 0x04, 0x00, 0x0c, 0x00, 0x00, 0x00, 0x16, 0x00, 0x00, 0x00,
  0x00, 0x00, 0x00, 0x16
};
inline const unsigned int gesture_model_2_tflite_len = 8824;
