#ifndef MODELDATA_H
#define MODELDATA_H
inline const unsigned char gesture_model_0_tflite[] = {
  0x1c, 0x00, 0x00, 0x00, 0x54, 0x46, 0x4c, 0x33, 0x14, 0x00, 0x20, 0x00,
  0x1c, 0x00, 0x18, 0x00, 0x14, 0x00, 0x10, 0x00, 0x0c, 0x00, 0x00, 0x00,
  0x08, 0x00, 0x04, 0x00, 0x14, 0x00, 0x00, 0x00, 0x1c, 0x00, 0x00, 0x00,
  0x98, 0x00, 0x00, 0x00, 0x18, 0x01, 0x00, 0x00, 0x6c, 0x0c, 0x00, 0x00,
  0x7c, 0x0c, 0x00, 0x00, 0xa8, 0x21, 0x00, 0x00, 0x03, 0x00, 0x00, 0x00,
  0x01, 0x00, 0x00, 0x00, 0x10, 0x00, 0x00, 0x00, 0x00, 0x00, 0x0a, 0x00,
  0x10, 0x00, 0x0c, 0x00, 0x08, 0x00, 0x04, 0x00, 0x0a, 0x00, 0x00, 0x00,
  0x0c, 0x00, 0x00, 0x00, 0x1c, 0x00, 0x00, 0x00, 0x3c, 0x00, 0x00, 0x00,
  0x0f, 0x00, 0x00, 0x00, 0x73, 0x65, 0x72, 0x76, 0x69, 0x6e, 0x67, 0x5f,
  0x64, 0x65, 0x66, 0x61, 0x75, 0x6c, 0x74, 0x00, 0x01, 0x00, 0x00, 0x00,
  0x04, 0x00, 0x00, 0x00, 0x68, 0xff, 0xff, 0xff, 0x16, 0x00, 0x00, 0x00,
  0x04, 0x00, 0x00, 0x00, 0x08, 0x00, 0x00, 0x00, 0x6f, 0x75, 0x74, 0x70,
  0x75, 0x74, 0x5f, 0x30, 0x00, 0x00, 0x00, 0x00, 0x01, 0x00, 0x00, 0x00,
  0x04, 0x00, 0x00, 0x00, 0x76, 0xf3, 0xff, 0xff, 0x04, 0x00, 0x00, 0x00,
  0x0f, 0x00, 0x00, 0x00, 0x6b, 0x65, 0x72, 0x61, 0x73, 0x5f, 0x74, 0x65,
  0x6e, 0x73, 0x6f, 0x72, 0x5f, 0x37, 0x30, 0x00, 0x03, 0x00, 0x00, 0x00,
  0x5c, 0x00, 0x00, 0x00, 0x2c, 0x00, 0x00, 0x00, 0x04, 0x00, 0x00, 0x00,
  0xb8, 0xff, 0xff, 0xff, 0x1a, 0x00, 0x00, 0x00, 0x04, 0x00, 0x00, 0x00,
  0x13, 0x00, 0x00, 0x00, 0x43, 0x4f, 0x4e, 0x56, 0x45, 0x52, 0x53, 0x49,
  0x4f, 0x4e, 0x5f, 0x4d, 0x45, 0x54, 0x41, 0x44, 0x41, 0x54, 0x41, 0x00,
  0xdc, 0xff, 0xff, 0xff, 0x19, 0x00, 0x00, 0x00, 0x04, 0x00, 0x00, 0x00,
  0x13, 0x00, 0x00, 0x00, 0x6d, 0x69, 0x6e, 0x5f, 0x72, 0x75, 0x6e, 0x74,
  0x69, 0x6d, 0x65, 0x5f, 0x76, 0x65, 0x72, 0x73, 0x69, 0x6f, 0x6e, 0x00,
  0x08, 0x00, 0x0c, 0x00, 0x08, 0x00, 0x04, 0x00, 0x08, 0x00, 0x00, 0x00,
  0x18, 0x00, 0x00, 0x00, 0x04, 0x00, 0x00, 0x00, 0x13, 0x00, 0x00, 0x00,
  0x6d, 0x69, 0x6e, 0x5f, 0x72, 0x75, 0x6e, 0x74, 0x69, 0x6d, 0x65, 0x5f,
  0x76, 0x65, 0x72, 0x73, 0x69, 0x6f, 0x6e, 0x00, 0x1b, 0x00, 0x00, 0x00,
  0x50, 0x0b, 0x00, 0x00, 0x48, 0x0b, 0x00, 0x00, 0x28, 0x0b, 0x00, 0x00,
  0x0c, 0x0b, 0x00, 0x00, 0xf8, 0x0a, 0x00, 0x00, 0xcc, 0x0a, 0x00, 0x00,
  0x4c, 0x0a, 0x00, 0x00, 0xfc, 0x09, 0x00, 0x00, 0x6c, 0x09, 0x00, 0x00,
  0x3c, 0x09, 0x00, 0x00, 0x0c, 0x08, 0x00, 0x00, 0xcc, 0x07, 0x00, 0x00,
  0xfc, 0x03, 0x00, 0x00, 0xac, 0x03, 0x00, 0x00, 0xfc, 0x00, 0x00, 0x00,
  0xf4, 0x00, 0x00, 0x00, 0xec, 0x00, 0x00, 0x00, 0xe4, 0x00, 0x00, 0x00,
  0xdc, 0x00, 0x00, 0x00, 0xd4, 0x00, 0x00, 0x00, 0xcc, 0x00, 0x00, 0x00,
  0xc4, 0x00, 0x00, 0x00, 0xbc, 0x00, 0x00, 0x00, 0xb4, 0x00, 0x00, 0x00,
  0x94, 0x00, 0x00, 0x00, 0x74, 0x00, 0x00, 0x00, 0x04, 0x00, 0x00, 0x00,
  0x86, 0xf4, 0xff, 0xff, 0x04, 0x00, 0x00, 0x00, 0x60, 0x00, 0x00, 0x00,
  0x0c, 0x00, 0x00, 0x00, 0x08, 0x00, 0x0e, 0x00, 0x08, 0x00, 0x04, 0x00,
  0x08, 0x00, 0x00, 0x00, 0x10, 0x00, 0x00, 0x00, 0x28, 0x00, 0x00, 0x00,
  0x00, 0x00, 0x06, 0x00, 0x08, 0x00, 0x04, 0x00, 0x06, 0x00, 0x00, 0x00,
  0x04, 0x00, 0x00, 0x00, 0x01, 0x00, 0x00, 0x00, 0xeb, 0x03, 0x00, 0x00,
  0x0c, 0x00, 0x18, 0x00, 0x14, 0x00, 0x10, 0x00, 0x0c, 0x00, 0x04, 0x00,
  0x0c, 0x00, 0x00, 0x00, 0x90, 0x23, 0x1c, 0x91, 0xe1, 0x42, 0xe3, 0x7e,
  0x02, 0x00, 0x00, 0x00, 0x02, 0x00, 0x00, 0x00, 0x04, 0x00, 0x00, 0x00,
  0x06, 0x00, 0x00, 0x00, 0x32, 0x2e, 0x31, 0x39, 0x2e, 0x30, 0x00, 0x00,
  0xf2, 0xf4, 0xff, 0xff, 0x04, 0x00, 0x00, 0x00, 0x10, 0x00, 0x00, 0x00,
  0x00, 0x00, 0x00, 0x00, 0x00, 0x00, 0x00, 0x00, 0x00, 0x00, 0x00, 0x00,
  0x00, 0x00, 0x00, 0x00, 0x0e, 0xf5, 0xff, 0xff, 0x04, 0x00, 0x00, 0x00,
  0x10, 0x00, 0x00, 0x00, 0x31, 0x2e, 0x31, 0x34, 0x2e, 0x30, 0x00, 0x00,
  0x00, 0x00, 0x00, 0x00, 0x00, 0x00, 0x00, 0x00, 0x38, 0xe1, 0xff, 0xff,
  0x3c, 0xe1, 0xff, 0xff, 0x40, 0xe1, 0xff, 0xff, 0x44, 0xe1, 0xff, 0xff,
  0x48, 0xe1, 0xff, 0xff, 0x4c, 0xe1, 0xff, 0xff, 0x50, 0xe1, 0xff, 0xff,
  0x54, 0xe1, 0xff, 0xff, 0x58, 0xe1, 0xff, 0xff, 0x4e, 0xf5, 0xff, 0xff,
  0x04, 0x00, 0x00, 0x00, 0xa0, 0x02, 0x00, 0x00, 0xeb, 0xf3, 0xfa, 0xd1,
  0x58, 0x7f, 0xe8, 0xd8, 0xd0, 0xd3, 0x3c, 0x74, 0xf3, 0x12, 0xdd, 0xe5,
  0x41, 0x58, 0x08, 0x04, 0xd6, 0xec, 0x19, 0x5c, 0x19, 0x07, 0xea, 0x0c,
  0x1e, 0x44, 0x26, 0x29, 0xc3, 0x12, 0xfe, 0x56, 0x06, 0x14, 0xd1, 0x1d,
  0xe6, 0x4e, 0x22, 0x7f, 0x2b, 0x07, 0xdc, 0xbc, 0x10, 0x59, 0x13, 0xfe,
  0xfe, 0xc1, 0x29, 0x3b, 0x10, 0x00, 0x12, 0xd3, 0x00, 0x02, 0x0b, 0xeb,
  0x06, 0xe5, 0x03, 0x0a, 0x13, 0x0b, 0x3d, 0xed, 0x10, 0xec, 0x3e, 0x30,
  0x31, 0x0b, 0x07, 0xf2, 0x57, 0x59, 0x44, 0x09, 0x08, 0x1f, 0xfb, 0x13,
  0xf8, 0x27, 0xfb, 0x1b, 0xf9, 0x16, 0x02, 0x2f, 0x00, 0x0d, 0x03, 0xfe,
  0x05, 0x3a, 0xf9, 0xff, 0xfe, 0x04, 0x06, 0x41, 0xe6, 0xfd, 0xf4, 0x14,
  0xfb, 0x58, 0xfc, 0xf3, 0x07, 0x0d, 0x06, 0x66, 0xf4, 0xf7, 0xfe, 0x0d,
  0x05, 0x7f, 0x46, 0x4a, 0x1c, 0xc5, 0x94, 0x3b, 0x25, 0x51, 0x2d, 0xde,
  0xa4, 0x06, 0x49, 0x5b, 0x23, 0xbe, 0xe7, 0x34, 0x33, 0x32, 0x60, 0xde,
  0xe6, 0x41, 0x34, 0x23, 0x62, 0xb5, 0xc8, 0x3a, 0x0d, 0x34, 0x57, 0xcf,
  0xd5, 0x24, 0x27, 0x4d, 0x7f, 0xe8, 0xf0, 0x17, 0x02, 0x54, 0x35, 0x01,
  0x59, 0xf4, 0xf3, 0x4d, 0x18, 0x13, 0x1a, 0x00, 0xff, 0x21, 0x08, 0xfc,
  0xf1, 0xff, 0x11, 0x11, 0x05, 0x05, 0xc9, 0xff, 0x09, 0xf8, 0x04, 0xf2,
  0xa8, 0x04, 0x0a, 0xe2, 0xf9, 0x00, 0x95, 0xf8, 0x0e, 0xc0, 0xfa, 0x03,
  0x81, 0xe2, 0x29, 0x90, 0xe3, 0x40, 0x03, 0x51, 0x06, 0x94, 0xe5, 0x07,
  0x04, 0x2f, 0xf4, 0xac, 0xe4, 0x05, 0x00, 0x09, 0x11, 0xea, 0x0f, 0x10,
  0xf2, 0xef, 0xfd, 0x0c, 0x19, 0xef, 0xf2, 0xb9, 0xe9, 0x51, 0x2d, 0xbd,
  0xfa, 0x9a, 0xf7, 0x72, 0x40, 0xd4, 0x00, 0x81, 0xa7, 0x24, 0x0a, 0x29,
  0xe2, 0xcc, 0xd8, 0x33, 0xee, 0x15, 0x05, 0xc2, 0x0f, 0x2e, 0xe0, 0xf7,
  0xf9, 0xea, 0xf9, 0x3f, 0x00, 0x01, 0x00, 0xfa, 0x14, 0x55, 0xfe, 0x11,
  0x2f, 0xed, 0x3c, 0x54, 0xf0, 0x0d, 0x56, 0x15, 0x58, 0x4f, 0xfe, 0x31,
  0x7f, 0x28, 0x20, 0x35, 0xd8, 0xde, 0x52, 0x81, 0x00, 0x1f, 0xe9, 0xff,
  0x35, 0x9a, 0x0a, 0x2d, 0x05, 0xf3, 0x2f, 0x9e, 0x03, 0x04, 0xff, 0x0f,
  0x01, 0xa8, 0xff, 0x10, 0xeb, 0xeb, 0xfe, 0xc1, 0xf7, 0xf8, 0xef, 0xff,
  0xe2, 0xbe, 0xc3, 0xd7, 0xe7, 0xf5, 0xc4, 0xd9, 0x7f, 0x13, 0x0d, 0x86,
  0xab, 0x2b, 0x46, 0x10, 0x38, 0xce, 0xb5, 0x28, 0x27, 0x31, 0x11, 0xd8,
  0xe4, 0x16, 0x15, 0x48, 0x14, 0xf0, 0xe6, 0x19, 0xfd, 0x4b, 0xff, 0x0a,
  0xfa, 0x2e, 0xbb, 0x3f, 0xf8, 0x54, 0x2a, 0x39, 0xc9, 0x2a, 0xfe, 0x71,
  0x34, 0x3f, 0xb0, 0x7f, 0x1d, 0xec, 0xf7, 0x0a, 0xcd, 0x5f, 0x1c, 0xf9,
  0x00, 0x28, 0xb2, 0x45, 0x0a, 0x01, 0xfe, 0x34, 0xcd, 0x35, 0xf3, 0x10,
  0x15, 0x15, 0xbe, 0x27, 0x12, 0xfb, 0xf8, 0x2c, 0xd1, 0x52, 0x18, 0x0d,
  0xee, 0x45, 0xbc, 0x52, 0x10, 0x31, 0xee, 0x40, 0xbd, 0xf7, 0x6d, 0x3e,
  0x35, 0xe5, 0xbb, 0xd0, 0x7f, 0x4d, 0x14, 0xfc, 0xc4, 0xc2, 0x65, 0x38,
  0x19, 0xe2, 0xbb, 0xb9, 0x36, 0x25, 0x1e, 0xd7, 0xb4, 0xb4, 0x0d, 0x3f,
  0x0e, 0xf8, 0xe0, 0xa3, 0x01, 0x31, 0x0c, 0xd8, 0xde, 0x93, 0xfa, 0x16,
  0xf6, 0xfb, 0x29, 0xcb, 0x74, 0xe0, 0x0d, 0x5d, 0x14, 0xc8, 0x78, 0xd4,
  0x0a, 0x61, 0x05, 0xe6, 0x5f, 0xe0, 0x0c, 0x71, 0xe7, 0xd7, 0x3f, 0xb4,
  0xfb, 0x7b, 0xfc, 0xdd, 0x01, 0xc8, 0xfe, 0x78, 0xfc, 0xf6, 0x19, 0xc5,
  0x02, 0x7f, 0xfd, 0x0a, 0xf5, 0xf3, 0xf9, 0x73, 0x37, 0x09, 0x42, 0xea,
  0xd0, 0xea, 0x29, 0x12, 0x35, 0xdc, 0xd1, 0xf5, 0x11, 0x25, 0x2e, 0xf5,
  0xea, 0x14, 0x3a, 0x25, 0x29, 0xe8, 0xf0, 0x0b, 0x3a, 0x3f, 0x23, 0xff,
  0x0c, 0x13, 0x48, 0x5c, 0x2e, 0x08, 0x21, 0x35, 0x51, 0x7f, 0x31, 0x08,
  0x36, 0x2c, 0x3c, 0x56, 0x02, 0x44, 0xe8, 0xdc, 0x28, 0x1a, 0x07, 0x19,
  0xd1, 0xc3, 0xfd, 0xfd, 0x0d, 0x10, 0xf7, 0xba, 0x02, 0xd2, 0x1c, 0x0c,
  0x06, 0xaf, 0x00, 0xba, 0x0d, 0xf1, 0xf6, 0xaa, 0xff, 0xba, 0x16, 0x14,
  0xf0, 0x89, 0xfc, 0x9a, 0x2f, 0x04, 0xdf, 0x81, 0x5f, 0xda, 0xff, 0x32,
  0x98, 0x7f, 0x7c, 0xe2, 0x2d, 0x35, 0xda, 0x6d, 0x3e, 0xfd, 0x3e, 0x03,
  0xd2, 0x4f, 0x33, 0x07, 0x55, 0x29, 0xef, 0x32, 0x16, 0x29, 0x51, 0xfb,
  0xe4, 0x07, 0x18, 0x22, 0x64, 0x35, 0x11, 0x01, 0x09, 0x28, 0x78, 0x27,
  0x02, 0xd8, 0x32, 0x00, 0xfe, 0xd2, 0x40, 0x3e, 0x31, 0xe2, 0x1f, 0xd0,
  0x45, 0x24, 0x2a, 0xd2, 0x2b, 0xf3, 0x36, 0x02, 0x1a, 0xa4, 0x3f, 0x02,
  0x2b, 0xed, 0x0d, 0x8d, 0x5e, 0xfb, 0x20, 0xfc, 0x40, 0x87, 0x5c, 0xd9,
  0xfd, 0xc0, 0x4a, 0x81, 0x6c, 0xcd, 0xeb, 0xb8, 0xfa, 0xf7, 0xff, 0xff,
  0x04, 0x00, 0x00, 0x00, 0x40, 0x00, 0x00, 0x00, 0x1e, 0x00, 0x00, 0x00,
  0x0b, 0x01, 0x00, 0x00, 0xc6, 0x00, 0x00, 0x00, 0xab, 0xfe, 0xff, 0xff,
  0xce, 0x00, 0x00, 0x00, 0x53, 0x00, 0x00, 0x00, 0x41, 0xff, 0xff, 0xff,
  0x5c, 0xff, 0xff, 0xff, 0x4c, 0xff, 0xff, 0xff, 0x34, 0xfe, 0xff, 0xff,
  0x5c, 0xfe, 0xff, 0xff, 0x94, 0xfd, 0xff, 0xff, 0xcf, 0xfe, 0xff, 0xff,
  0x05, 0x01, 0x00, 0x00, 0xc7, 0xfe, 0xff, 0xff, 0x0c, 0xfe, 0xff, 0xff,
  0x46, 0xf8, 0xff, 0xff, 0x04, 0x00, 0x00, 0x00, 0xc0, 0x03, 0x00, 0x00,
  0x4d, 0xc4, 0x11, 0x2f, 0x07, 0x1e, 0x3d, 0x81, 0x13, 0x0d, 0x27, 0x41,
  0xb8, 0x28, 0x1e, 0x12, 0x41, 0xaa, 0xc0, 0xf5, 0xe9, 0x1f, 0x20, 0x99,
  0x12, 0xfe, 0xf3, 0x10, 0xd7, 0x35, 0xf1, 0x12, 0x34, 0xab, 0xc6, 0xe0,
  0xfe, 0x0e, 0x36, 0xb6, 0xff, 0xeb, 0x03, 0x02, 0xd3, 0x0c, 0xf1, 0xdc,
  0x39, 0xbe, 0xb0, 0xbe, 0x18, 0xce, 0x2b, 0x9d, 0xfa, 0xd1, 0x17, 0xd3,
  0xeb, 0xe9, 0x08, 0xf2, 0xf5, 0xe3, 0xfb, 0x95, 0x08, 0xd6, 0x0c, 0x98,
  0xd7, 0xcb, 0x07, 0xca, 0xeb, 0xf9, 0x3f, 0xc9, 0x06, 0xd2, 0x81, 0xd5,
  0x20, 0x38, 0x9b, 0xd5, 0xf8, 0xd4, 0x76, 0xbb, 0xf8, 0xd4, 0xd5, 0x02,
  0xe7, 0x9f, 0xa1, 0xf6, 0x21, 0x48, 0xbf, 0xeb, 0xf0, 0xe8, 0x53, 0xba,
  0xe7, 0xa3, 0xd7, 0xff, 0xbe, 0x9f, 0x93, 0xf4, 0x43, 0x59, 0xd4, 0x0d,
  0xe3, 0xef, 0x1e, 0xc6, 0xe5, 0xca, 0xd3, 0x0b, 0xc0, 0xb2, 0xbf, 0xee,
  0xfc, 0x57, 0xfe, 0x06, 0xe6, 0xf5, 0x12, 0xb1, 0x06, 0xc6, 0xe7, 0x1b,
  0xb8, 0xea, 0xe2, 0xe1, 0xc4, 0x54, 0x18, 0x14, 0xea, 0x0c, 0x1d, 0xb9,
  0x31, 0xa4, 0xe6, 0x16, 0xfe, 0x8e, 0x0e, 0xb9, 0x25, 0x42, 0xe7, 0xbe,
  0xb0, 0xce, 0x0c, 0x2b, 0xa5, 0x0d, 0x44, 0x17, 0xe3, 0xba, 0xf8, 0xdb,
  0x0f, 0x2b, 0x13, 0xea, 0xb4, 0xec, 0xfe, 0x26, 0xd8, 0x10, 0x2a, 0x0f,
  0xe1, 0xe3, 0x08, 0xe2, 0xf5, 0xfb, 0x34, 0x04, 0x95, 0xd3, 0xd8, 0x23,
  0x0f, 0x2f, 0x20, 0xdb, 0xc4, 0xee, 0xf0, 0xf9, 0xe6, 0xf0, 0x62, 0x2d,
  0xbd, 0xd8, 0xc2, 0x0a, 0x24, 0xfd, 0x17, 0xd1, 0xcd, 0x2b, 0xcc, 0x33,
  0xb6, 0xb4, 0x7f, 0x28, 0xe9, 0xdf, 0xda, 0x06, 0x21, 0x0a, 0x33, 0xa1,
  0xf0, 0xe3, 0xb6, 0x97, 0xb6, 0xa0, 0xec, 0xb8, 0xea, 0x27, 0x7f, 0x18,
  0x29, 0x99, 0x0c, 0xf5, 0xe6, 0xf8, 0xae, 0xd5, 0xcc, 0xc3, 0x10, 0x9a,
  0x0d, 0x0f, 0x3c, 0xf1, 0x4f, 0xbd, 0xe8, 0xf1, 0xe4, 0x0e, 0xc3, 0xea,
  0xc6, 0xd4, 0xfe, 0x9d, 0x16, 0x1e, 0x27, 0xe4, 0x44, 0x09, 0xff, 0xff,
  0xeb, 0x15, 0x9d, 0xfa, 0xc2, 0xf9, 0x04, 0xa4, 0x07, 0x2a, 0x1e, 0xef,
  0x2a, 0xf6, 0xff, 0xed, 0xf9, 0x0e, 0xa3, 0x07, 0xb1, 0xf4, 0xce, 0xb0,
  0xf2, 0x2c, 0x02, 0xff, 0x25, 0x14, 0xf7, 0x04, 0xd6, 0xec, 0xb7, 0xbd,
  0x1d, 0xfb, 0xf5, 0x42, 0x03, 0x1b, 0xfb, 0xb9, 0xae, 0xfe, 0x81, 0xe2,
  0xc5, 0xd1, 0xe7, 0xe7, 0x21, 0xf6, 0xc9, 0x14, 0xfb, 0x34, 0x12, 0xdd,
  0xaa, 0x0c, 0xb7, 0xf1, 0xc8, 0xd0, 0x01, 0x0d, 0xfb, 0xfa, 0xc1, 0x01,
  0x22, 0x49, 0x02, 0x19, 0xdb, 0x22, 0xdb, 0x11, 0x02, 0xdb, 0x2e, 0x02,
  0x06, 0x06, 0xa1, 0x10, 0x2c, 0x31, 0x0b, 0x27, 0x00, 0x1a, 0x13, 0x0f,
  0x09, 0xdb, 0x52, 0x26, 0x02, 0x14, 0x96, 0x0f, 0x49, 0x2a, 0x04, 0x34,
  0x26, 0x2c, 0x7e, 0x1d, 0x81, 0xcc, 0xcb, 0xd2, 0xee, 0x69, 0x0c, 0xc2,
  0x0b, 0x3e, 0xfc, 0xdd, 0x06, 0x1e, 0x3e, 0xca, 0xb0, 0xe9, 0x06, 0xc1,
  0xff, 0x3b, 0xf3, 0xed, 0x06, 0x24, 0xfa, 0x09, 0xf8, 0x26, 0x59, 0xc4,
  0xe7, 0xd7, 0x32, 0xc5, 0xfb, 0x1b, 0x1e, 0x04, 0xcd, 0x01, 0xe1, 0x1b,
  0x0c, 0x0b, 0x37, 0xcd, 0x3b, 0x02, 0x4f, 0xe1, 0xc4, 0xcc, 0x13, 0x08,
  0xb8, 0xcf, 0xcd, 0x15, 0x08, 0xd8, 0xfc, 0xc4, 0x2c, 0x05, 0x58, 0x0d,
  0x96, 0x84, 0x5e, 0x24, 0xbb, 0xe0, 0xb5, 0x37, 0x05, 0xb8, 0xd9, 0xd0,
  0xe1, 0xdb, 0xa5, 0x21, 0x25, 0xaf, 0x36, 0x1d, 0xdd, 0x16, 0xc0, 0xad,
  0xe9, 0xc9, 0xb3, 0xde, 0xf0, 0xec, 0xbc, 0x2b, 0x1e, 0xeb, 0x27, 0xf5,
  0xe9, 0x28, 0x06, 0xdc, 0xf9, 0xed, 0xe7, 0xeb, 0xff, 0xea, 0xd1, 0x10,
  0x1d, 0xf9, 0x03, 0xe6, 0xbe, 0x18, 0x1e, 0xfb, 0x18, 0x03, 0xe1, 0x17,
  0x04, 0x03, 0xea, 0xcd, 0x2f, 0x1f, 0x0c, 0xef, 0xa6, 0xec, 0x3f, 0x07,
  0x08, 0x3a, 0xc7, 0x3b, 0x0f, 0xf2, 0xbd, 0xde, 0x39, 0x5c, 0xe4, 0x11,
  0x9b, 0xea, 0x44, 0x27, 0xf1, 0x7f, 0xa3, 0x4c, 0x0a, 0xfc, 0x2b, 0x14,
  0x14, 0x1e, 0xf6, 0x8e, 0x1e, 0x1f, 0x0f, 0x3b, 0x24, 0xfc, 0x30, 0x35,
  0x03, 0xf6, 0x0e, 0xfa, 0x0d, 0x14, 0x11, 0xb7, 0x06, 0x1e, 0x12, 0x29,
  0x15, 0xe7, 0x04, 0x02, 0xee, 0xe8, 0xf5, 0xf3, 0xeb, 0x02, 0x0b, 0xd3,
  0xfc, 0x02, 0x0d, 0x12, 0x1b, 0xd0, 0x09, 0xf9, 0xe6, 0xf2, 0xd8, 0xec,
  0xe7, 0xec, 0x10, 0xfa, 0x04, 0x04, 0x00, 0xf7, 0x0d, 0xb3, 0xfe, 0xe0,
  0xdc, 0xf3, 0xc7, 0xf6, 0xcd, 0xf0, 0x1e, 0xf8, 0x21, 0xf6, 0x15, 0xdf,
  0x12, 0x81, 0xfc, 0xcb, 0xdb, 0xd7, 0x64, 0x5d, 0x47, 0x1c, 0xb7, 0xbd,
  0x45, 0x09, 0xd0, 0xa6, 0x27, 0x09, 0x22, 0x2b, 0xf8, 0xf7, 0x60, 0x20,
  0x0e, 0x34, 0xbb, 0xda, 0x30, 0x35, 0xdd, 0x92, 0xe5, 0x10, 0x04, 0xfa,
  0x15, 0xf4, 0x56, 0xba, 0x1d, 0x1b, 0xb3, 0x23, 0x0f, 0x3c, 0x10, 0xc6,
  0xcb, 0x24, 0xff, 0x06, 0x49, 0xef, 0x72, 0x92, 0x34, 0x21, 0xcf, 0x23,
  0xe6, 0x22, 0xdb, 0xb3, 0xb4, 0x37, 0xec, 0xf5, 0x22, 0xf7, 0x31, 0x81,
  0x68, 0x14, 0xb9, 0x19, 0x00, 0x31, 0xdd, 0xe9, 0x89, 0x4d, 0xe7, 0xd6,
  0x5d, 0x8b, 0xef, 0xe0, 0x9e, 0x4e, 0xd5, 0xb2, 0x35, 0x1f, 0x70, 0x1c,
  0x34, 0xfa, 0xda, 0x4e, 0x22, 0x99, 0x06, 0xfc, 0xae, 0x39, 0xfa, 0xa8,
  0x42, 0xfe, 0x76, 0x0a, 0x4d, 0xfb, 0x0d, 0x35, 0x00, 0xcc, 0x19, 0xde,
  0xb6, 0x3f, 0x01, 0x9b, 0x04, 0x18, 0x68, 0x0e, 0x1b, 0xf4, 0xfd, 0x20,
  0xd3, 0xc7, 0xed, 0x24, 0xdf, 0x40, 0x07, 0x99, 0x00, 0xec, 0x24, 0xfd,
  0x35, 0xfe, 0xd3, 0xf7, 0xc4, 0x81, 0xc3, 0x4a, 0xf6, 0x60, 0x07, 0x97,
  0xe2, 0xde, 0xf4, 0xf7, 0x17, 0xf3, 0xb0, 0x06, 0x16, 0x48, 0xb2, 0xba,
  0x08, 0x38, 0xd9, 0xfe, 0x81, 0xd2, 0x20, 0xbc, 0x1b, 0x53, 0xaf, 0xef,
  0x12, 0x29, 0xaf, 0xe6, 0x0a, 0x2a, 0xbf, 0xca, 0xb5, 0xd4, 0x13, 0xe5,
  0x34, 0x23, 0xa0, 0xdc, 0x1d, 0x27, 0xba, 0xd9, 0x11, 0xf7, 0xdf, 0xf2,
  0xf9, 0xd6, 0x18, 0x06, 0x2f, 0x14, 0xba, 0xdb, 0x45, 0x2a, 0xc9, 0xfd,
  0x11, 0xfc, 0xf6, 0xc2, 0x1b, 0xe8, 0x10, 0x14, 0x4f, 0xfe, 0xd9, 0xe2,
  0x52, 0x51, 0xc5, 0x2e, 0x26, 0xc2, 0xdd, 0xbb, 0x3a, 0xe5, 0x1c, 0x17,
  0x6a, 0xbb, 0x06, 0xe1, 0x79, 0xd7, 0x39, 0x81, 0x9c, 0x13, 0xe7, 0xfc,
  0xd6, 0xcc, 0x15, 0x27, 0xe7, 0x37, 0x20, 0xef, 0x53, 0xe8, 0x28, 0x8b,
  0xd6, 0x01, 0xec, 0x14, 0xdb, 0xc4, 0x1f, 0x10, 0xe2, 0x27, 0xe8, 0xf7,
  0x0e, 0xf7, 0x13, 0xc6, 0xf0, 0x00, 0xe0, 0x23, 0x06, 0xd0, 0x08, 0x17,
  0xfd, 0x1e, 0xf3, 0xcc, 0xfd, 0xf4, 0x2c, 0xce, 0x02, 0xff, 0xf2, 0x2a,
  0x0f, 0xd2, 0xfe, 0x01, 0x16, 0xef, 0x1b, 0xc6, 0xf8, 0xeb, 0x4f, 0xe9,
  0x2a, 0xe9, 0xf0, 0x1f, 0x39, 0xcd, 0xf6, 0xdd, 0x07, 0xda, 0x36, 0xb3,
  0x12, 0xfc, 0xff, 0xff, 0x04, 0x00, 0x00, 0x00, 0x30, 0x00, 0x00, 0x00,
  0x08, 0x06, 0x00, 0x00, 0x69, 0x12, 0x00, 0x00, 0x82, 0x04, 0x00, 0x00,
  0xe4, 0x0f, 0x00, 0x00, 0xd6, 0x00, 0x00, 0x00, 0xf4, 0x02, 0x00, 0x00,
  0x24, 0x02, 0x00, 0x00, 0x4d, 0x07, 0x00, 0x00, 0x44, 0xf9, 0xff, 0xff,
  0xd8, 0x04, 0x00, 0x00, 0x3b, 0x01, 0x00, 0x00, 0x7b, 0xf9, 0xff, 0xff,
  0x4e, 0xfc, 0xff, 0xff, 0x04, 0x00, 0x00, 0x00, 0x20, 0x01, 0x00, 0x00,
  0x95, 0x0f, 0xe2, 0x81, 0xe0, 0xeb, 0x31, 0xfc, 0x08, 0xea, 0x11, 0x5c,
  0xfb, 0x69, 0x19, 0xc0, 0x1b, 0xe9, 0x26, 0x22, 0x90, 0xe7, 0xec, 0x3f,
  0xd4, 0x2d, 0x0c, 0xdd, 0x26, 0x00, 0x2a, 0x6b, 0x9e, 0x10, 0x18, 0x3b,
  0x01, 0x65, 0x23, 0x18, 0x0e, 0xfe, 0x08, 0xf3, 0xdf, 0xf0, 0x25, 0xb5,
  0xf4, 0x25, 0x10, 0xe8, 0xec, 0x08, 0xd4, 0xff, 0x18, 0xbc, 0x15, 0xee,
  0xb9, 0x03, 0xf6, 0xc9, 0xe2, 0x2e, 0x81, 0x18, 0x33, 0xda, 0xde, 0x26,
  0x28, 0x9f, 0x1f, 0xbf, 0xb4, 0xb5, 0xeb, 0x6e, 0x48, 0x4d, 0xf8, 0x26,
  0x21, 0x9e, 0x33, 0x90, 0xf5, 0xe2, 0xe1, 0x36, 0x0e, 0x14, 0x21, 0x42,
  0x7f, 0xd8, 0x5f, 0xc5, 0xf3, 0x3f, 0x9a, 0xea, 0x06, 0xdb, 0xf5, 0x3f,
  0xc4, 0x33, 0xea, 0x14, 0x19, 0x0a, 0xdb, 0xbf, 0x81, 0x6c, 0x2e, 0xed,
  0xc9, 0x34, 0x27, 0x8c, 0x11, 0x12, 0xb8, 0x06, 0xe1, 0x29, 0x1e, 0x06,
  0xba, 0x20, 0x33, 0x99, 0x39, 0x30, 0xb2, 0x3f, 0x0a, 0xf1, 0x24, 0x3a,
  0x2b, 0xf5, 0x09, 0x0b, 0xbb, 0x96, 0x12, 0xde, 0xf6, 0x4e, 0x15, 0x79,
  0xf5, 0x21, 0x10, 0xb7, 0x81, 0xc3, 0x26, 0xcb, 0x0c, 0x59, 0x27, 0x4f,
  0xb9, 0xfa, 0x04, 0xd7, 0xae, 0x1d, 0x2a, 0xb7, 0x34, 0x1d, 0x0f, 0xd2,
  0xc0, 0x05, 0x38, 0xe3, 0x11, 0xc9, 0xfa, 0xf8, 0x12, 0x28, 0x91, 0xa5,
  0xaf, 0xeb, 0x7a, 0xb5, 0xf9, 0xb3, 0x02, 0xe4, 0x11, 0xed, 0xf8, 0xfb,
  0xf4, 0xed, 0x7f, 0x22, 0xb1, 0xd8, 0xf5, 0xde, 0x4c, 0x34, 0x01, 0x47,
  0x3e, 0x19, 0xfc, 0xfd, 0xb9, 0x81, 0xe9, 0x43, 0x1d, 0x11, 0x75, 0x35,
  0x2d, 0x34, 0xed, 0x94, 0xce, 0xdb, 0xe3, 0x38, 0x1f, 0x37, 0x26, 0xe6,
  0x50, 0x6e, 0x02, 0xf5, 0xc4, 0xdf, 0xe4, 0x66, 0xf6, 0x52, 0x0e, 0xb0,
  0xc7, 0xe9, 0x06, 0x0a, 0xd6, 0xc5, 0xba, 0xd7, 0xc6, 0xcf, 0x08, 0x4d,
  0xbf, 0x24, 0xfc, 0xfc, 0x17, 0x09, 0xc9, 0xc8, 0xd0, 0xe6, 0xe9, 0x29,
  0xeb, 0x61, 0xf5, 0x03, 0xfa, 0x4e, 0x1e, 0xb6, 0x10, 0xdf, 0x81, 0xfc,
  0x7a, 0xfd, 0xff, 0xff, 0x04, 0x00, 0x00, 0x00, 0x20, 0x00, 0x00, 0x00,
  0xd8, 0x00, 0x00, 0x00, 0x50, 0x04, 0x00, 0x00, 0x93, 0x08, 0x00, 0x00,
  0xf5, 0x01, 0x00, 0x00, 0xc8, 0x0d, 0x00, 0x00, 0x0d, 0x0a, 0x00, 0x00,
  0xe8, 0xf8, 0xff, 0xff, 0xda, 0x11, 0x00, 0x00, 0xa6, 0xfd, 0xff, 0xff,
  0x04, 0x00, 0x00, 0x00, 0x80, 0x00, 0x00, 0x00, 0xdc, 0x47, 0x06, 0x81,
  0xe2, 0xfb, 0x6a, 0xec, 0xb6, 0x22, 0x81, 0x1a, 0x43, 0x58, 0xe0, 0x19,
  0xe9, 0x09, 0xf8, 0x08, 0x47, 0x76, 0x16, 0x81, 0x7f, 0xe6, 0xf4, 0xf2,
  0xb6, 0x50, 0x3e, 0x9b, 0x7f, 0xce, 0x9c, 0x31, 0xe0, 0x66, 0xc3, 0xdf,
  0xfc, 0xdf, 0xb0, 0xa4, 0x4f, 0x02, 0xda, 0x7f, 0xe7, 0xca, 0x52, 0xd6,
  0x7f, 0xe8, 0xf3, 0xd7, 0xd9, 0x0b, 0xa2, 0x81, 0x14, 0x69, 0x5d, 0x0a,
  0xd0, 0x1b, 0x7f, 0xe7, 0x21, 0xb1, 0x22, 0xd8, 0x5f, 0x81, 0x3b, 0xda,
  0x10, 0xf1, 0xfc, 0x0b, 0x82, 0x4f, 0x7f, 0xc1, 0x10, 0x95, 0x47, 0x0a,
  0x22, 0x05, 0x0d, 0xfe, 0xc0, 0x81, 0xd9, 0x7a, 0x2c, 0x34, 0x0b, 0xe6,
  0x81, 0x1f, 0x59, 0xd5, 0x7c, 0x81, 0x3e, 0xbd, 0x25, 0xed, 0xfa, 0xfa,
  0x2b, 0x40, 0xbd, 0x23, 0x81, 0x1e, 0xf2, 0x13, 0x4f, 0xdd, 0x3e, 0x25,
  0xc9, 0x81, 0xc0, 0x43, 0x32, 0xfe, 0xff, 0xff, 0x04, 0x00, 0x00, 0x00,
  0x40, 0x00, 0x00, 0x00, 0x6a, 0x05, 0x00, 0x00, 0x43, 0x04, 0x00, 0x00,
  0x15, 0xfd, 0xff, 0xff, 0x35, 0x01, 0x00, 0x00, 0x62, 0x00, 0x00, 0x00,
  0x9b, 0x01, 0x00, 0x00, 0xe1, 0xfe, 0xff, 0xff, 0x37, 0x08, 0x00, 0x00,
  0x88, 0xfb, 0xff, 0xff, 0x69, 0x02, 0x00, 0x00, 0x62, 0x02, 0x00, 0x00,
  0x47, 0x06, 0x00, 0x00, 0x04, 0x01, 0x00, 0x00, 0x39, 0x03, 0x00, 0x00,
  0x08, 0x06, 0x00, 0x00, 0xcb, 0x00, 0x00, 0x00, 0x7e, 0xfe, 0xff, 0xff,
  0x04, 0x00, 0x00, 0x00, 0x70, 0x00, 0x00, 0x00, 0xa2, 0x81, 0x9b, 0x1c,
  0x1a, 0xf1, 0x8a, 0xa9, 0x8c, 0x10, 0x8b, 0x1a, 0x11, 0x10, 0x18, 0x26,
  0xcf, 0xc0, 0x92, 0x81, 0x9a, 0x16, 0x14, 0x8d, 0x15, 0x14, 0x14, 0x15,
  0x8d, 0x16, 0x90, 0x20, 0xcc, 0x17, 0x16, 0x1b, 0x1c, 0x81, 0x9c, 0x00,
  0xac, 0xa4, 0xb7, 0x99, 0x18, 0x9d, 0x17, 0x99, 0xa3, 0x15, 0x15, 0x81,
  0xaf, 0x83, 0x14, 0x91, 0x1e, 0x8a, 0x1b, 0x97, 0xa3, 0x95, 0x97, 0xa1,
  0x2a, 0x81, 0x08, 0x19, 0x89, 0xc8, 0x0f, 0x1a, 0x18, 0x07, 0x14, 0xb5,
  0x12, 0x10, 0xa3, 0xb8, 0xbf, 0x0d, 0x0b, 0x06, 0x11, 0x1c, 0x0b, 0x19,
  0xa8, 0x12, 0x81, 0xd2, 0x9f, 0x16, 0xa6, 0xce, 0x33, 0x09, 0xa0, 0xc8,
  0xab, 0x29, 0x81, 0x24, 0xd6, 0x9a, 0x1a, 0x22, 0x0b, 0x9d, 0x16, 0xf7,
  0xfa, 0xfe, 0xff, 0xff, 0x04, 0x00, 0x00, 0x00, 0x1c, 0x00, 0x00, 0x00,
  0xb4, 0x01, 0x00, 0x00, 0xeb, 0xfe, 0xff, 0xff, 0x64, 0xfd, 0xff, 0xff,
  0xfa, 0x0f, 0x00, 0x00, 0x06, 0xf7, 0xff, 0xff, 0x87, 0xfc, 0xff, 0xff,
  0x74, 0x03, 0x00, 0x00, 0x22, 0xff, 0xff, 0xff, 0x04, 0x00, 0x00, 0x00,
  0x04, 0x00, 0x00, 0x00, 0x01, 0x00, 0x00, 0x00, 0x32, 0xff, 0xff, 0xff,
  0x04, 0x00, 0x00, 0x00, 0x0c, 0x00, 0x00, 0x00, 0x01, 0x00, 0x00, 0x00,
  0x7d, 0x00, 0x00, 0x00, 0x08, 0x00, 0x00, 0x00, 0x4a, 0xff, 0xff, 0xff,
  0x04, 0x00, 0x00, 0x00, 0x10, 0x00, 0x00, 0x00, 0x01, 0x00, 0x00, 0x00,
  0x01, 0x00, 0x00, 0x00, 0xf4, 0x01, 0x00, 0x00, 0x06, 0x00, 0x00, 0x00,
  0x74, 0xeb, 0xff, 0xff, 0x78, 0xeb, 0xff, 0xff, 0x0f, 0x00, 0x00, 0x00,
  0x4d, 0x4c, 0x49, 0x52, 0x20, 0x43, 0x6f, 0x6e, 0x76, 0x65, 0x72, 0x74,
  0x65, 0x64, 0x2e, 0x00, 0x01, 0x00, 0x00, 0x00, 0x14, 0x00, 0x00, 0x00,
  0x00, 0x00, 0x0e, 0x00, 0x18, 0x00, 0x14, 0x00, 0x10, 0x00, 0x0c, 0x00,
  0x08, 0x00, 0x04, 0x00, 0x0e, 0x00, 0x00, 0x00, 0x14, 0x00, 0x00, 0x00,
  0x1c, 0x00, 0x00, 0x00, 0x44, 0x02, 0x00, 0x00, 0x48, 0x02, 0x00, 0x00,
  0x4c, 0x02, 0x00, 0x00, 0x04, 0x00, 0x00, 0x00, 0x6d, 0x61, 0x69, 0x6e,
  0x00, 0x00, 0x00, 0x00, 0x09, 0x00, 0x00, 0x00, 0x08, 0x02, 0x00, 0x00,
  0xac, 0x01, 0x00, 0x00, 0x58, 0x01, 0x00, 0x00, 0x14, 0x01, 0x00, 0x00,
  0xf0, 0x00, 0x00, 0x00, 0xbc, 0x00, 0x00, 0x00, 0x78, 0x00, 0x00, 0x00,
  0x40, 0x00, 0x00, 0x00, 0x04, 0x00, 0x00, 0x00, 0x82, 0xfe, 0xff, 0xff,
  0x1c, 0x00, 0x00, 0x00, 0x00, 0x00, 0x00, 0x09, 0x1c, 0x00, 0x00, 0x00,
  0x20, 0x00, 0x00, 0x00, 0x04, 0x00, 0x00, 0x00, 0x00, 0x00, 0x06, 0x00,
  0x08, 0x00, 0x04, 0x00, 0x06, 0x00, 0x00, 0x00, 0x00, 0x00, 0x80, 0x3f,
  0x01, 0x00, 0x00, 0x00, 0x16, 0x00, 0x00, 0x00, 0x01, 0x00, 0x00, 0x00,
  0x15, 0x00, 0x00, 0x00, 0xba, 0xfe, 0xff, 0xff, 0x14, 0x00, 0x00, 0x00,
  0x00, 0x00, 0x00, 0x08, 0x10, 0x00, 0x00, 0x00, 0x14, 0x00, 0x00, 0x00,
  0x03, 0x00, 0x00, 0x00, 0x44, 0xec, 0xff, 0xff, 0x01, 0x00, 0x00, 0x00,
  0x15, 0x00, 0x00, 0x00, 0x03, 0x00, 0x00, 0x00, 0x14, 0x00, 0x00, 0x00,
  0x05, 0x00, 0x00, 0x00, 0x04, 0x00, 0x00, 0x00, 0xee, 0xfe, 0xff, 0xff,
  0x1c, 0x00, 0x00, 0x00, 0x00, 0x00, 0x00, 0x08, 0x1c, 0x00, 0x00, 0x00,
  0x20, 0x00, 0x00, 0x00, 0x03, 0x00, 0x00, 0x00, 0x00, 0x00, 0x06, 0x00,
  0x08, 0x00, 0x07, 0x00, 0x06, 0x00, 0x00, 0x00, 0x00, 0x00, 0x00, 0x01,
  0x01, 0x00, 0x00, 0x00, 0x14, 0x00, 0x00, 0x00, 0x03, 0x00, 0x00, 0x00,
  0x13, 0x00, 0x00, 0x00, 0x07, 0x00, 0x00, 0x00, 0x06, 0x00, 0x00, 0x00,
  0x2e, 0xff, 0xff, 0xff, 0x14, 0x00, 0x00, 0x00, 0x00, 0x00, 0x00, 0x1b,
  0x10, 0x00, 0x00, 0x00, 0x14, 0x00, 0x00, 0x00, 0x02, 0x00, 0x00, 0x00,
  0xb8, 0xec, 0xff, 0xff, 0x01, 0x00, 0x00, 0x00, 0x13, 0x00, 0x00, 0x00,
  0x02, 0x00, 0x00, 0x00, 0x12, 0x00, 0x00, 0x00, 0x03, 0x00, 0x00, 0x00,
  0x02, 0xff, 0xff, 0xff, 0x08, 0x00, 0x00, 0x00, 0x0c, 0x00, 0x00, 0x00,
  0x01, 0x00, 0x00, 0x00, 0x12, 0x00, 0x00, 0x00, 0x02, 0x00, 0x00, 0x00,
  0x11, 0x00, 0x00, 0x00, 0x02, 0x00, 0x00, 0x00, 0x7e, 0xff, 0xff, 0xff,
  0x14, 0x00, 0x00, 0x00, 0x00, 0x00, 0x00, 0x01, 0x1c, 0x00, 0x00, 0x00,
  0x20, 0x00, 0x00, 0x00, 0x01, 0x00, 0x00, 0x00, 0x70, 0xff, 0xff, 0xff,
  0x00, 0x00, 0x00, 0x01, 0x01, 0x00, 0x00, 0x00, 0x01, 0x00, 0x00, 0x00,
  0x01, 0x00, 0x00, 0x00, 0x11, 0x00, 0x00, 0x00, 0x03, 0x00, 0x00, 0x00,
  0x10, 0x00, 0x00, 0x00, 0x09, 0x00, 0x00, 0x00, 0x08, 0x00, 0x00, 0x00,
  0xbe, 0xff, 0xff, 0xff, 0x14, 0x00, 0x00, 0x00, 0x00, 0x00, 0x00, 0x01,
  0x1c, 0x00, 0x00, 0x00, 0x20, 0x00, 0x00, 0x00, 0x01, 0x00, 0x00, 0x00,
  0xb0, 0xff, 0xff, 0xff, 0x00, 0x00, 0x00, 0x01, 0x01, 0x00, 0x00, 0x00,
  0x02, 0x00, 0x00, 0x00, 0x01, 0x00, 0x00, 0x00, 0x10, 0x00, 0x00, 0x00,
  0x03, 0x00, 0x00, 0x00, 0x0f, 0x00, 0x00, 0x00, 0x0b, 0x00, 0x00, 0x00,
  0x0a, 0x00, 0x00, 0x00, 0x00, 0x00, 0x0e, 0x00, 0x18, 0x00, 0x14, 0x00,
  0x10, 0x00, 0x0c, 0x00, 0x0b, 0x00, 0x04, 0x00, 0x0e, 0x00, 0x00, 0x00,
  0x20, 0x00, 0x00, 0x00, 0x00, 0x00, 0x00, 0x01, 0x28, 0x00, 0x00, 0x00,
  0x2c, 0x00, 0x00, 0x00, 0x01, 0x00, 0x00, 0x00, 0x0c, 0x00, 0x10, 0x00,
  0x00, 0x00, 0x0c, 0x00, 0x08, 0x00, 0x07, 0x00, 0x0c, 0x00, 0x00, 0x00,
  0x00, 0x00, 0x00, 0x01, 0x01, 0x00, 0x00, 0x00, 0x02, 0x00, 0x00, 0x00,
  0x01, 0x00, 0x00, 0x00, 0x0f, 0x00, 0x00, 0x00, 0x03, 0x00, 0x00, 0x00,
  0x0e, 0x00, 0x00, 0x00, 0x0d, 0x00, 0x00, 0x00, 0x0c, 0x00, 0x00, 0x00,
  0x00, 0x00, 0x0a, 0x00, 0x0c, 0x00, 0x00, 0x00, 0x08, 0x00, 0x04, 0x00,
  0x0a, 0x00, 0x00, 0x00, 0x08, 0x00, 0x00, 0x00, 0x0c, 0x00, 0x00, 0x00,
  0x01, 0x00, 0x00, 0x00, 0x0e, 0x00, 0x00, 0x00, 0x02, 0x00, 0x00, 0x00,
  0x00, 0x00, 0x00, 0x00, 0x01, 0x00, 0x00, 0x00, 0x01, 0x00, 0x00, 0x00,
  0x16, 0x00, 0x00, 0x00, 0x01, 0x00, 0x00, 0x00, 0x00, 0x00, 0x00, 0x00,
  0x17, 0x00, 0x00, 0x00, 0x30, 0x12, 0x00, 0x00, 0xd4, 0x11, 0x00, 0x00,
  0x94, 0x11, 0x00, 0x00, 0x58, 0x11, 0x00, 0x00, 0xac, 0x10, 0x00, 0x00,
  0x00, 0x10, 0x00, 0x00, 0xec, 0x0e, 0x00, 0x00, 0xd0, 0x0d, 0x00, 0x00,
  0x1c, 0x0d, 0x00, 0x00, 0x58, 0x0c, 0x00, 0x00, 0x74, 0x0b, 0x00, 0x00,
  0x80, 0x0a, 0x00, 0x00, 0x6c, 0x09, 0x00, 0x00, 0x48, 0x08, 0x00, 0x00,
  0xbc, 0x07, 0x00, 0x00, 0x50, 0x06, 0x00, 0x00, 0xe4, 0x04, 0x00, 0x00,
  0x78, 0x03, 0x00, 0x00, 0x3c, 0x02, 0x00, 0x00, 0xb8, 0x01, 0x00, 0x00,
  0x04, 0x01, 0x00, 0x00, 0x70, 0x00, 0x00, 0x00, 0x04, 0x00, 0x00, 0x00,
  0x42, 0xee, 0xff, 0xff, 0x00, 0x00, 0x00, 0x01, 0x14, 0x00, 0x00, 0x00,
  0x30, 0x00, 0x00, 0x00, 0x17, 0x00, 0x00, 0x00, 0x00, 0x00, 0x00, 0x09,
  0x44, 0x00, 0x00, 0x00, 0x2c, 0xee, 0xff, 0xff, 0x08, 0x00, 0x00, 0x00,
  0x10, 0x00, 0x00, 0x00, 0x01, 0x00, 0x00, 0x00, 0x80, 0xff, 0xff, 0xff,
  0xff, 0xff, 0xff, 0xff, 0x01, 0x00, 0x00, 0x00, 0x00, 0x00, 0x80, 0x3b,
  0x1b, 0x00, 0x00, 0x00, 0x53, 0x74, 0x61, 0x74, 0x65, 0x66, 0x75, 0x6c,
  0x50, 0x61, 0x72, 0x74, 0x69, 0x74, 0x69, 0x6f, 0x6e, 0x65, 0x64, 0x43,
  0x61, 0x6c, 0x6c, 0x5f, 0x31, 0x3a, 0x30, 0x00, 0x02, 0x00, 0x00, 0x00,
  0x01, 0x00, 0x00, 0x00, 0x07, 0x00, 0x00, 0x00, 0xaa, 0xee, 0xff, 0xff,
  0x00, 0x00, 0x00, 0x01, 0x14, 0x00, 0x00, 0x00, 0x30, 0x00, 0x00, 0x00,
  0x16, 0x00, 0x00, 0x00, 0x00, 0x00, 0x00, 0x09, 0x6c, 0x00, 0x00, 0x00,
  0x94, 0xee, 0xff, 0xff, 0x08, 0x00, 0x00, 0x00, 0x10, 0x00, 0x00, 0x00,
  0x01, 0x00, 0x00, 0x00, 0x48, 0x00, 0x00, 0x00, 0x00, 0x00, 0x00, 0x00,
  0x01, 0x00, 0x00, 0x00, 0xe0, 0xed, 0x9e, 0x3e, 0x42, 0x00, 0x00, 0x00,
  0x73, 0x65, 0x71, 0x75, 0x65, 0x6e, 0x74, 0x69, 0x61, 0x6c, 0x5f, 0x35,
  0x5f, 0x31, 0x2f, 0x64, 0x65, 0x6e, 0x73, 0x65, 0x5f, 0x31, 0x31, 0x5f,
  0x31, 0x2f, 0x4d, 0x61, 0x74, 0x4d, 0x75, 0x6c, 0x3b, 0x73, 0x65, 0x71,
  0x75, 0x65, 0x6e, 0x74, 0x69, 0x61, 0x6c, 0x5f, 0x35, 0x5f, 0x31, 0x2f,
  0x64, 0x65, 0x6e, 0x73, 0x65, 0x5f, 0x31, 0x31, 0x5f, 0x31, 0x2f, 0x42,
  0x69, 0x61, 0x73, 0x41, 0x64, 0x64, 0x00, 0x00, 0x02, 0x00, 0x00, 0x00,
  0x01, 0x00, 0x00, 0x00, 0x07, 0x00, 0x00, 0x00, 0x3a, 0xef, 0xff, 0xff,
  0x00, 0x00, 0x00, 0x01, 0x14, 0x00, 0x00, 0x00, 0x30, 0x00, 0x00, 0x00,
  0x15, 0x00, 0x00, 0x00, 0x00, 0x00, 0x00, 0x09, 0x8c, 0x00, 0x00, 0x00,
  0x24, 0xef, 0xff, 0xff, 0x08, 0x00, 0x00, 0x00, 0x10, 0x00, 0x00, 0x00,
  0x01, 0x00, 0x00, 0x00, 0x80, 0xff, 0xff, 0xff, 0xff, 0xff, 0xff, 0xff,
  0x01, 0x00, 0x00, 0x00, 0x21, 0xfc, 0x04, 0x3c, 0x61, 0x00, 0x00, 0x00,
  0x73, 0x65, 0x71, 0x75, 0x65, 0x6e, 0x74, 0x69, 0x61, 0x6c, 0x5f, 0x35,
  0x5f, 0x31, 0x2f, 0x64, 0x65, 0x6e, 0x73, 0x65, 0x5f, 0x31, 0x30, 0x5f,
  0x31, 0x2f, 0x4d, 0x61, 0x74, 0x4d, 0x75, 0x6c, 0x3b, 0x73, 0x65, 0x71,
  0x75, 0x65, 0x6e, 0x74, 0x69, 0x61, 0x6c, 0x5f, 0x35, 0x5f, 0x31, 0x2f,
  0x64, 0x65, 0x6e, 0x73, 0x65, 0x5f, 0x31, 0x30, 0x5f, 0x31, 0x2f, 0x52,
  0x65, 0x6c, 0x75, 0x3b, 0x73, 0x65, 0x71, 0x75, 0x65, 0x6e, 0x74, 0x69,
  0x61, 0x6c, 0x5f, 0x35, 0x5f, 0x31, 0x2f, 0x64, 0x65, 0x6e, 0x73, 0x65,
  0x5f, 0x31, 0x30, 0x5f, 0x31, 0x2f, 0x42, 0x69, 0x61, 0x73, 0x41, 0x64,
  0x64, 0x00, 0x00, 0x00, 0x02, 0x00, 0x00, 0x00, 0x01, 0x00, 0x00, 0x00,
  0x10, 0x00, 0x00, 0x00, 0xea, 0xef, 0xff, 0xff, 0x00, 0x00, 0x00, 0x01,
  0x14, 0x00, 0x00, 0x00, 0x30, 0x00, 0x00, 0x00, 0x14, 0x00, 0x00, 0x00,
  0x00, 0x00, 0x00, 0x09, 0x5c, 0x00, 0x00, 0x00, 0xd4, 0xef, 0xff, 0xff,
  0x08, 0x00, 0x00, 0x00, 0x10, 0x00, 0x00, 0x00, 0x01, 0x00, 0x00, 0x00,
  0x80, 0xff, 0xff, 0xff, 0xff, 0xff, 0xff, 0xff, 0x01, 0x00, 0x00, 0x00,
  0x55, 0x99, 0x7d, 0x3c, 0x30, 0x00, 0x00, 0x00, 0x73, 0x65, 0x71, 0x75,
  0x65, 0x6e, 0x74, 0x69, 0x61, 0x6c, 0x5f, 0x35, 0x5f, 0x31, 0x2f, 0x67,
  0x6c, 0x6f, 0x62, 0x61, 0x6c, 0x5f, 0x61, 0x76, 0x65, 0x72, 0x61, 0x67,
  0x65, 0x5f, 0x70, 0x6f, 0x6f, 0x6c, 0x69, 0x6e, 0x67, 0x31, 0x64, 0x5f,
  0x35, 0x5f, 0x31, 0x2f, 0x4d, 0x65, 0x61, 0x6e, 0x00, 0x00, 0x00, 0x00,
  0x02, 0x00, 0x00, 0x00, 0x01, 0x00, 0x00, 0x00, 0x08, 0x00, 0x00, 0x00,
  0x6a, 0xf0, 0xff, 0xff, 0x00, 0x00, 0x00, 0x01, 0x14, 0x00, 0x00, 0x00,
  0x30, 0x00, 0x00, 0x00, 0x13, 0x00, 0x00, 0x00, 0x00, 0x00, 0x00, 0x09,
  0x10, 0x01, 0x00, 0x00, 0x54, 0xf0, 0xff, 0xff, 0x08, 0x00, 0x00, 0x00,
  0x10, 0x00, 0x00, 0x00, 0x01, 0x00, 0x00, 0x00, 0x80, 0xff, 0xff, 0xff,
  0xff, 0xff, 0xff, 0xff, 0x01, 0x00, 0x00, 0x00, 0x13, 0xe6, 0x8a, 0x3d,
  0xe6, 0x00, 0x00, 0x00, 0x73, 0x65, 0x71, 0x75, 0x65, 0x6e, 0x74, 0x69,
  0x61, 0x6c, 0x5f, 0x35, 0x5f, 0x31, 0x2f, 0x61, 0x63, 0x74, 0x69, 0x76,
  0x61, 0x74, 0x69, 0x6f, 0x6e, 0x5f, 0x31, 0x37, 0x5f, 0x31, 0x2f, 0x52,
  0x65, 0x6c, 0x75, 0x3b, 0x73, 0x65, 0x71, 0x75, 0x65, 0x6e, 0x74, 0x69,
  0x61, 0x6c, 0x5f, 0x35, 0x5f, 0x31, 0x2f, 0x62, 0x61, 0x74, 0x63, 0x68,
  0x5f, 0x6e, 0x6f, 0x72, 0x6d, 0x61, 0x6c, 0x69, 0x7a, 0x61, 0x74, 0x69,
  0x6f, 0x6e, 0x5f, 0x31, 0x37, 0x5f, 0x31, 0x2f, 0x62, 0x61, 0x74, 0x63,
  0x68, 0x6e, 0x6f, 0x72, 0x6d, 0x2f, 0x61, 0x64, 0x64, 0x5f, 0x31, 0x3b,
  0x73, 0x65, 0x71, 0x75, 0x65, 0x6e, 0x74, 0x69, 0x61, 0x6c, 0x5f, 0x35,
  0x5f, 0x31, 0x2f, 0x63, 0x6f, 0x6e, 0x76, 0x31, 0x64, 0x5f, 0x31, 0x37,
  0x5f, 0x31, 0x2f, 0x63, 0x6f, 0x6e, 0x76, 0x6f, 0x6c, 0x75, 0x74, 0x69,
  0x6f, 0x6e, 0x2f, 0x53, 0x71, 0x75, 0x65, 0x65, 0x7a, 0x65, 0x3b, 0x73,
  0x65, 0x71, 0x75, 0x65, 0x6e, 0x74, 0x69, 0x61, 0x6c, 0x5f, 0x35, 0x5f,
  0x31, 0x2f, 0x62, 0x61, 0x74, 0x63, 0x68, 0x5f, 0x6e, 0x6f, 0x72, 0x6d,
  0x61, 0x6c, 0x69, 0x7a, 0x61, 0x74, 0x69, 0x6f, 0x6e, 0x5f, 0x31, 0x37,
  0x5f, 0x31, 0x2f, 0x62, 0x61, 0x74, 0x63, 0x68, 0x6e, 0x6f, 0x72, 0x6d,
  0x2f, 0x6d, 0x75, 0x6c, 0x5f, 0x31, 0x3b, 0x73, 0x65, 0x71, 0x75, 0x65,
  0x6e, 0x74, 0x69, 0x61, 0x6c, 0x5f, 0x35, 0x5f, 0x31, 0x2f, 0x63, 0x6f,
  0x6e, 0x76, 0x31, 0x64, 0x5f, 0x31, 0x37, 0x5f, 0x31, 0x2f, 0x42, 0x69,
  0x61, 0x73, 0x41, 0x64, 0x64, 0x3b, 0x00, 0x00, 0x03, 0x00, 0x00, 0x00,
  0x01, 0x00, 0x00, 0x00, 0x7d, 0x00, 0x00, 0x00, 0x08, 0x00, 0x00, 0x00,
  0xa2, 0xf1, 0xff, 0xff, 0x00, 0x00, 0x00, 0x01, 0x14, 0x00, 0x00, 0x00,
  0x34, 0x00, 0x00, 0x00, 0x12, 0x00, 0x00, 0x00, 0x00, 0x00, 0x00, 0x09,
  0x3c, 0x01, 0x00, 0x00, 0x8c, 0xf1, 0xff, 0xff, 0x08, 0x00, 0x00, 0x00,
  0x14, 0x00, 0x00, 0x00, 0x01, 0x00, 0x00, 0x00, 0x80, 0xff, 0xff, 0xff,
  0xff, 0xff, 0xff, 0xff, 0x00, 0x00, 0x00, 0x00, 0x01, 0x00, 0x00, 0x00,
  0x13, 0xe6, 0x8a, 0x3d, 0x0d, 0x01, 0x00, 0x00, 0x73, 0x65, 0x71, 0x75,
  0x65, 0x6e, 0x74, 0x69, 0x61, 0x6c, 0x5f, 0x35, 0x5f, 0x31, 0x2f, 0x61,
  0x63, 0x74, 0x69, 0x76, 0x61, 0x74, 0x69, 0x6f, 0x6e, 0x5f, 0x31, 0x37,
  0x5f, 0x31, 0x2f, 0x52, 0x65, 0x6c, 0x75, 0x3b, 0x73, 0x65, 0x71, 0x75,
  0x65, 0x6e, 0x74, 0x69, 0x61, 0x6c, 0x5f, 0x35, 0x5f, 0x31, 0x2f, 0x62,
  0x61, 0x74, 0x63, 0x68, 0x5f, 0x6e, 0x6f, 0x72, 0x6d, 0x61, 0x6c, 0x69,
  0x7a, 0x61, 0x74, 0x69, 0x6f, 0x6e, 0x5f, 0x31, 0x37, 0x5f, 0x31, 0x2f,
  0x62, 0x61, 0x74, 0x63, 0x68, 0x6e, 0x6f, 0x72, 0x6d, 0x2f, 0x61, 0x64,
  0x64, 0x5f, 0x31, 0x3b, 0x73, 0x65, 0x71, 0x75, 0x65, 0x6e, 0x74, 0x69,
  0x61, 0x6c, 0x5f, 0x35, 0x5f, 0x31, 0x2f, 0x63, 0x6f, 0x6e, 0x76, 0x31,
  0x64, 0x5f, 0x31, 0x37, 0x5f, 0x31, 0x2f, 0x63, 0x6f, 0x6e, 0x76, 0x6f,
  0x6c, 0x75, 0x74, 0x69, 0x6f, 0x6e, 0x2f, 0x53, 0x71, 0x75, 0x65, 0x65,
  0x7a, 0x65, 0x3b, 0x73, 0x65, 0x71, 0x75, 0x65, 0x6e, 0x74, 0x69, 0x61,
  0x6c, 0x5f, 0x35, 0x5f, 0x31, 0x2f, 0x62, 0x61, 0x74, 0x63, 0x68, 0x5f,
  0x6e, 0x6f, 0x72, 0x6d, 0x61, 0x6c, 0x69, 0x7a, 0x61, 0x74, 0x69, 0x6f,
  0x6e, 0x5f, 0x31, 0x37, 0x5f, 0x31, 0x2f, 0x62, 0x61, 0x74, 0x63, 0x68,
  0x6e, 0x6f, 0x72, 0x6d, 0x2f, 0x6d, 0x75, 0x6c, 0x5f, 0x31, 0x3b, 0x73,
  0x65, 0x71, 0x75, 0x65, 0x6e, 0x74, 0x69, 0x61, 0x6c, 0x5f, 0x35, 0x5f,
  0x31, 0x2f, 0x63, 0x6f, 0x6e, 0x76, 0x31, 0x64, 0x5f, 0x31, 0x37, 0x5f,
  0x31, 0x2f, 0x42, 0x69, 0x61, 0x73, 0x41, 0x64, 0x64, 0x3b, 0x3b, 0x73,
  0x65, 0x71, 0x75, 0x65, 0x6e, 0x74, 0x69, 0x61, 0x6c, 0x5f, 0x35, 0x5f,
  0x31, 0x2f, 0x63, 0x6f, 0x6e, 0x76, 0x31, 0x64, 0x5f, 0x31, 0x37, 0x5f,
  0x31, 0x2f, 0x63, 0x6f, 0x6e, 0x76, 0x6f, 0x6c, 0x75, 0x74, 0x69, 0x6f,
  0x6e, 0x00, 0x00, 0x00, 0x04, 0x00, 0x00, 0x00, 0x01, 0x00, 0x00, 0x00,
  0x01, 0x00, 0x00, 0x00, 0x7d, 0x00, 0x00, 0x00, 0x08, 0x00, 0x00, 0x00,
  0x0a, 0xf3, 0xff, 0xff, 0x00, 0x00, 0x00, 0x01, 0x14, 0x00, 0x00, 0x00,
  0x34, 0x00, 0x00, 0x00, 0x11, 0x00, 0x00, 0x00, 0x00, 0x00, 0x00, 0x09,
  0x3c, 0x01, 0x00, 0x00, 0xf4, 0xf2, 0xff, 0xff, 0x08, 0x00, 0x00, 0x00,
  0x14, 0x00, 0x00, 0x00, 0x01, 0x00, 0x00, 0x00, 0x80, 0xff, 0xff, 0xff,
  0xff, 0xff, 0xff, 0xff, 0x00, 0x00, 0x00, 0x00, 0x01, 0x00, 0x00, 0x00,
  0x8f, 0xa7, 0x14, 0x3d, 0x0d, 0x01, 0x00, 0x00, 0x73, 0x65, 0x71, 0x75,
  0x65, 0x6e, 0x74, 0x69, 0x61, 0x6c, 0x5f, 0x35, 0x5f, 0x31, 0x2f, 0x61,
  0x63, 0x74, 0x69, 0x76, 0x61, 0x74, 0x69, 0x6f, 0x6e, 0x5f, 0x31, 0x36,
  0x5f, 0x31, 0x2f, 0x52, 0x65, 0x6c, 0x75, 0x3b, 0x73, 0x65, 0x71, 0x75,
  0x65, 0x6e, 0x74, 0x69, 0x61, 0x6c, 0x5f, 0x35, 0x5f, 0x31, 0x2f, 0x62,
  0x61, 0x74, 0x63, 0x68, 0x5f, 0x6e, 0x6f, 0x72, 0x6d, 0x61, 0x6c, 0x69,
  0x7a, 0x61, 0x74, 0x69, 0x6f, 0x6e, 0x5f, 0x31, 0x36, 0x5f, 0x31, 0x2f,
  0x62, 0x61, 0x74, 0x63, 0x68, 0x6e, 0x6f, 0x72, 0x6d, 0x2f, 0x61, 0x64,
  0x64, 0x5f, 0x31, 0x3b, 0x73, 0x65, 0x71, 0x75, 0x65, 0x6e, 0x74, 0x69,
  0x61, 0x6c, 0x5f, 0x35, 0x5f, 0x31, 0x2f, 0x63, 0x6f, 0x6e, 0x76, 0x31,
  0x64, 0x5f, 0x31, 0x36, 0x5f, 0x31, 0x2f, 0x63, 0x6f, 0x6e, 0x76, 0x6f,
  0x6c, 0x75, 0x74, 0x69, 0x6f, 0x6e, 0x2f, 0x53, 0x71, 0x75, 0x65, 0x65,
  0x7a, 0x65, 0x3b, 0x73, 0x65, 0x71, 0x75, 0x65, 0x6e, 0x74, 0x69, 0x61,
  0x6c, 0x5f, 0x35, 0x5f, 0x31, 0x2f, 0x62, 0x61, 0x74, 0x63, 0x68, 0x5f,
  0x6e, 0x6f, 0x72, 0x6d, 0x61, 0x6c, 0x69, 0x7a, 0x61, 0x74, 0x69, 0x6f,
  0x6e, 0x5f, 0x31, 0x36, 0x5f, 0x31, 0x2f, 0x62, 0x61, 0x74, 0x63, 0x68,
  0x6e, 0x6f, 0x72, 0x6d, 0x2f, 0x6d, 0x75, 0x6c, 0x5f, 0x31, 0x3b, 0x73,
  0x65, 0x71, 0x75, 0x65, 0x6e, 0x74, 0x69, 0x61, 0x6c, 0x5f, 0x35, 0x5f,
  0x31, 0x2f, 0x63, 0x6f, 0x6e, 0x76, 0x31, 0x64, 0x5f, 0x31, 0x36, 0x5f,
  0x31, 0x2f, 0x42, 0x69, 0x61, 0x73, 0x41, 0x64, 0x64, 0x3b, 0x3b, 0x73,
  0x65, 0x71, 0x75, 0x65, 0x6e, 0x74, 0x69, 0x61, 0x6c, 0x5f, 0x35, 0x5f,
  0x31, 0x2f, 0x63, 0x6f, 0x6e, 0x76, 0x31, 0x64, 0x5f, 0x31, 0x36, 0x5f,
  0x31, 0x2f, 0x63, 0x6f, 0x6e, 0x76, 0x6f, 0x6c, 0x75, 0x74, 0x69, 0x6f,
  0x6e, 0x00, 0x00, 0x00, 0x04, 0x00, 0x00, 0x00, 0x01, 0x00, 0x00, 0x00,
  0x01, 0x00, 0x00, 0x00, 0x7d, 0x00, 0x00, 0x00, 0x0c, 0x00, 0x00, 0x00,
  0x72, 0xf4, 0xff, 0xff, 0x00, 0x00, 0x00, 0x01, 0x14, 0x00, 0x00, 0x00,
  0x34, 0x00, 0x00, 0x00, 0x10, 0x00, 0x00, 0x00, 0x00, 0x00, 0x00, 0x09,
  0x3c, 0x01, 0x00, 0x00, 0x5c, 0xf4, 0xff, 0xff, 0x08, 0x00, 0x00, 0x00,
  0x14, 0x00, 0x00, 0x00, 0x01, 0x00, 0x00, 0x00, 0x80, 0xff, 0xff, 0xff,
  0xff, 0xff, 0xff, 0xff, 0x00, 0x00, 0x00, 0x00, 0x01, 0x00, 0x00, 0x00,
  0x34, 0x33, 0x1a, 0x3e, 0x0d, 0x01, 0x00, 0x00, 0x73, 0x65, 0x71, 0x75,
  0x65, 0x6e, 0x74, 0x69, 0x61, 0x6c, 0x5f, 0x35, 0x5f, 0x31, 0x2f, 0x61,
  0x63, 0x74, 0x69, 0x76, 0x61, 0x74, 0x69, 0x6f, 0x6e, 0x5f, 0x31, 0x35,
  0x5f, 0x31, 0x2f, 0x52, 0x65, 0x6c, 0x75, 0x3b, 0x73, 0x65, 0x71, 0x75,
  0x65, 0x6e, 0x74, 0x69, 0x61, 0x6c, 0x5f, 0x35, 0x5f, 0x31, 0x2f, 0x62,
  0x61, 0x74, 0x63, 0x68, 0x5f, 0x6e, 0x6f, 0x72, 0x6d, 0x61, 0x6c, 0x69,
  0x7a, 0x61, 0x74, 0x69, 0x6f, 0x6e, 0x5f, 0x31, 0x35, 0x5f, 0x31, 0x2f,
  0x62, 0x61, 0x74, 0x63, 0x68, 0x6e, 0x6f, 0x72, 0x6d, 0x2f, 0x61, 0x64,
  0x64, 0x5f, 0x31, 0x3b, 0x73, 0x65, 0x71, 0x75, 0x65, 0x6e, 0x74, 0x69,
  0x61, 0x6c, 0x5f, 0x35, 0x5f, 0x31, 0x2f, 0x63, 0x6f, 0x6e, 0x76, 0x31,
  0x64, 0x5f, 0x31, 0x35, 0x5f, 0x31, 0x2f, 0x63, 0x6f, 0x6e, 0x76, 0x6f,
  0x6c, 0x75, 0x74, 0x69, 0x6f, 0x6e, 0x2f, 0x53, 0x71, 0x75, 0x65, 0x65,
  0x7a, 0x65, 0x3b, 0x73, 0x65, 0x71, 0x75, 0x65, 0x6e, 0x74, 0x69, 0x61,
  0x6c, 0x5f, 0x35, 0x5f, 0x31, 0x2f, 0x62, 0x61, 0x74, 0x63, 0x68, 0x5f,
  0x6e, 0x6f, 0x72, 0x6d, 0x61, 0x6c, 0x69, 0x7a, 0x61, 0x74, 0x69, 0x6f,
  0x6e, 0x5f, 0x31, 0x35, 0x5f, 0x31, 0x2f, 0x62, 0x61, 0x74, 0x63, 0x68,
  0x6e, 0x6f, 0x72, 0x6d, 0x2f, 0x6d, 0x75, 0x6c, 0x5f, 0x31, 0x3b, 0x73,
  0x65, 0x71, 0x75, 0x65, 0x6e, 0x74, 0x69, 0x61, 0x6c, 0x5f, 0x35, 0x5f,
  0x31, 0x2f, 0x63, 0x6f, 0x6e, 0x76, 0x31, 0x64, 0x5f, 0x31, 0x35, 0x5f,
  0x31, 0x2f, 0x42, 0x69, 0x61, 0x73, 0x41, 0x64, 0x64, 0x3b, 0x3b, 0x73,
  0x65, 0x71, 0x75, 0x65, 0x6e, 0x74, 0x69, 0x61, 0x6c, 0x5f, 0x35, 0x5f,
  0x31, 0x2f, 0x63, 0x6f, 0x6e, 0x76, 0x31, 0x64, 0x5f, 0x31, 0x35, 0x5f,
  0x31, 0x2f, 0x63, 0x6f, 0x6e, 0x76, 0x6f, 0x6c, 0x75, 0x74, 0x69, 0x6f,
  0x6e, 0x00, 0x00, 0x00, 0x04, 0x00, 0x00, 0x00, 0x01, 0x00, 0x00, 0x00,
  0x01, 0x00, 0x00, 0x00, 0xfa, 0x00, 0x00, 0x00, 0x10, 0x00, 0x00, 0x00,
  0xda, 0xf5, 0xff, 0xff, 0x00, 0x00, 0x00, 0x01, 0x14, 0x00, 0x00, 0x00,
  0x30, 0x00, 0x00, 0x00, 0x0f, 0x00, 0x00, 0x00, 0x00, 0x00, 0x00, 0x09,
  0x5c, 0x00, 0x00, 0x00, 0xc4, 0xf5, 0xff, 0xff, 0x08, 0x00, 0x00, 0x00,
  0x10, 0x00, 0x00, 0x00, 0x01, 0x00, 0x00, 0x00, 0x94, 0xff, 0xff, 0xff,
  0xff, 0xff, 0xff, 0xff, 0x01, 0x00, 0x00, 0x00, 0xd5, 0x2a, 0xfb, 0x3e,
  0x32, 0x00, 0x00, 0x00, 0x73, 0x65, 0x71, 0x75, 0x65, 0x6e, 0x74, 0x69,
  0x61, 0x6c, 0x5f, 0x35, 0x5f, 0x31, 0x2f, 0x63, 0x6f, 0x6e, 0x76, 0x31,
  0x64, 0x5f, 0x31, 0x35, 0x5f, 0x31, 0x2f, 0x63, 0x6f, 0x6e, 0x76, 0x6f,
  0x6c, 0x75, 0x74, 0x69, 0x6f, 0x6e, 0x2f, 0x45, 0x78, 0x70, 0x61, 0x6e,
  0x64, 0x44, 0x69, 0x6d, 0x73, 0x31, 0x00, 0x00, 0x04, 0x00, 0x00, 0x00,
  0x01, 0x00, 0x00, 0x00, 0x01, 0x00, 0x00, 0x00, 0xf4, 0x01, 0x00, 0x00,
  0x06, 0x00, 0x00, 0x00, 0x62, 0xf6, 0xff, 0xff, 0x00, 0x00, 0x00, 0x01,
  0x14, 0x00, 0x00, 0x00, 0xe8, 0x00, 0x00, 0x00, 0x0e, 0x00, 0x00, 0x00,
  0x00, 0x00, 0x00, 0x09, 0xf4, 0x00, 0x00, 0x00, 0x4c, 0xf6, 0xff, 0xff,
  0x08, 0x00, 0x00, 0x00, 0x8c, 0x00, 0x00, 0x00, 0x10, 0x00, 0x00, 0x00,
  0x00, 0x00, 0x00, 0x00, 0x00, 0x00, 0x00, 0x00, 0x00, 0x00, 0x00, 0x00,
  0x00, 0x00, 0x00, 0x00, 0x00, 0x00, 0x00, 0x00, 0x00, 0x00, 0x00, 0x00,
  0x00, 0x00, 0x00, 0x00, 0x00, 0x00, 0x00, 0x00, 0x00, 0x00, 0x00, 0x00,
  0x00, 0x00, 0x00, 0x00, 0x00, 0x00, 0x00, 0x00, 0x00, 0x00, 0x00, 0x00,
  0x00, 0x00, 0x00, 0x00, 0x00, 0x00, 0x00, 0x00, 0x00, 0x00, 0x00, 0x00,
  0x00, 0x00, 0x00, 0x00, 0x00, 0x00, 0x00, 0x00, 0x00, 0x00, 0x00, 0x00,
  0x00, 0x00, 0x00, 0x00, 0x00, 0x00, 0x00, 0x00, 0x00, 0x00, 0x00, 0x00,
  0x00, 0x00, 0x00, 0x00, 0x00, 0x00, 0x00, 0x00, 0x00, 0x00, 0x00, 0x00,
  0x00, 0x00, 0x00, 0x00, 0x00, 0x00, 0x00, 0x00, 0x00, 0x00, 0x00, 0x00,
  0x00, 0x00, 0x00, 0x00, 0x00, 0x00, 0x00, 0x00, 0x00, 0x00, 0x00, 0x00,
  0x00, 0x00, 0x00, 0x00, 0x00, 0x00, 0x00, 0x00, 0x00, 0x00, 0x00, 0x00,
  0x10, 0x00, 0x00, 0x00, 0x79, 0x54, 0xb8, 0x3a, 0x53, 0xb3, 0xef, 0x3a,
  0x3a, 0xac, 0x45, 0x3b, 0xac, 0xdd, 0xc7, 0x3a, 0x17, 0x38, 0xfe, 0x3a,
  0xc9, 0x89, 0x34, 0x3b, 0xd0, 0x10, 0xf5, 0x3a, 0x5d, 0x55, 0x18, 0x3b,
  0x8d, 0x0a, 0x09, 0x3b, 0x6b, 0x96, 0xae, 0x3a, 0xdd, 0x46, 0x7c, 0x3a,
  0xc5, 0x25, 0x83, 0x3a, 0x47, 0xb1, 0xcf, 0x3a, 0xde, 0xf9, 0xf0, 0x3a,
  0x44, 0x25, 0xb9, 0x3a, 0xdf, 0x28, 0x6c, 0x3a, 0x12, 0x00, 0x00, 0x00,
  0x74, 0x66, 0x6c, 0x2e, 0x70, 0x73, 0x65, 0x75, 0x64, 0x6f, 0x5f, 0x71,
  0x63, 0x6f, 0x6e, 0x73, 0x74, 0x39, 0x00, 0x00, 0x04, 0x00, 0x00, 0x00,
  0x10, 0x00, 0x00, 0x00, 0x01, 0x00, 0x00, 0x00, 0x07, 0x00, 0x00, 0x00,
  0x06, 0x00, 0x00, 0x00, 0x82, 0xf7, 0xff, 0xff, 0x00, 0x00, 0x00, 0x01,
  0x14, 0x00, 0x00, 0x00, 0xe4, 0x00, 0x00, 0x00, 0x0d, 0x00, 0x00, 0x00,
  0x00, 0x00, 0x00, 0x02, 0xf0, 0x00, 0x00, 0x00, 0x6c, 0xf7, 0xff, 0xff,
  0x08, 0x00, 0x00, 0x00, 0x88, 0x00, 0x00, 0x00, 0x10, 0x00, 0x00, 0x00,
  0x00, 0x00, 0x00, 0x00, 0x00, 0x00, 0x00, 0x00, 0x00, 0x00, 0x00, 0x00,
  0x00, 0x00, 0x00, 0x00, 0x00, 0x00, 0x00, 0x00, 0x00, 0x00, 0x00, 0x00,
  0x00, 0x00, 0x00, 0x00, 0x00, 0x00, 0x00, 0x00, 0x00, 0x00, 0x00, 0x00,
  0x00, 0x00, 0x00, 0x00, 0x00, 0x00, 0x00, 0x00, 0x00, 0x00, 0x00, 0x00,
  0x00, 0x00, 0x00, 0x00, 0x00, 0x00, 0x00, 0x00, 0x00, 0x00, 0x00, 0x00,
  0x00, 0x00, 0x00, 0x00, 0x00, 0x00, 0x00, 0x00, 0x00, 0x00, 0x00, 0x00,
  0x00, 0x00, 0x00, 0x00, 0x00, 0x00, 0x00, 0x00, 0x00, 0x00, 0x00, 0x00,
  0x00, 0x00, 0x00, 0x00, 0x00, 0x00, 0x00, 0x00, 0x00, 0x00, 0x00, 0x00,
  0x00, 0x00, 0x00, 0x00, 0x00, 0x00, 0x00, 0x00, 0x00, 0x00, 0x00, 0x00,
  0x00, 0x00, 0x00, 0x00, 0x00, 0x00, 0x00, 0x00, 0x00, 0x00, 0x00, 0x00,
  0x00, 0x00, 0x00, 0x00, 0x00, 0x00, 0x00, 0x00, 0x10, 0x00, 0x00, 0x00,
  0xaa, 0xd9, 0x34, 0x3a, 0xed, 0x2c, 0x6b, 0x3a, 0xf0, 0xf0, 0xc1, 0x3a,
  0xc8, 0x17, 0x44, 0x3a, 0x87, 0x6b, 0x79, 0x3a, 0x4d, 0x21, 0xb1, 0x3a,
  0x7d, 0x70, 0x70, 0x3a, 0x2f, 0x75, 0x95, 0x3a, 0x46, 0x74, 0x86, 0x3a,
  0xb1, 0x4a, 0x2b, 0x3a, 0xb0, 0x83, 0xf7, 0x39, 0xf9, 0xab, 0x00, 0x3a,
  0x91, 0xc5, 0x4b, 0x3a, 0x4e, 0x6d, 0x6c, 0x3a, 0x84, 0xa6, 0x35, 0x3a,
  0x96, 0xb3, 0xe7, 0x39, 0x12, 0x00, 0x00, 0x00, 0x74, 0x66, 0x6c, 0x2e,
  0x70, 0x73, 0x65, 0x75, 0x64, 0x6f, 0x5f, 0x71, 0x63, 0x6f, 0x6e, 0x73,
  0x74, 0x38, 0x00, 0x00, 0x01, 0x00, 0x00, 0x00, 0x10, 0x00, 0x00, 0x00,
  0x92, 0xf8, 0xff, 0xff, 0x00, 0x00, 0x00, 0x01, 0x14, 0x00, 0x00, 0x00,
  0xb8, 0x00, 0x00, 0x00, 0x0c, 0x00, 0x00, 0x00, 0x00, 0x00, 0x00, 0x09,
  0xc4, 0x00, 0x00, 0x00, 0x7c, 0xf8, 0xff, 0xff, 0x08, 0x00, 0x00, 0x00,
  0x6c, 0x00, 0x00, 0x00, 0x0c, 0x00, 0x00, 0x00, 0x00, 0x00, 0x00, 0x00,
  0x00, 0x00, 0x00, 0x00, 0x00, 0x00, 0x00, 0x00, 0x00, 0x00, 0x00, 0x00,
  0x00, 0x00, 0x00, 0x00, 0x00, 0x00, 0x00, 0x00, 0x00, 0x00, 0x00, 0x00,
  0x00, 0x00, 0x00, 0x00, 0x00, 0x00, 0x00, 0x00, 0x00, 0x00, 0x00, 0x00,
  0x00, 0x00, 0x00, 0x00, 0x00, 0x00, 0x00, 0x00, 0x00, 0x00, 0x00, 0x00,
  0x00, 0x00, 0x00, 0x00, 0x00, 0x00, 0x00, 0x00, 0x00, 0x00, 0x00, 0x00,
  0x00, 0x00, 0x00, 0x00, 0x00, 0x00, 0x00, 0x00, 0x00, 0x00, 0x00, 0x00,
  0x00, 0x00, 0x00, 0x00, 0x00, 0x00, 0x00, 0x00, 0x00, 0x00, 0x00, 0x00,
  0x00, 0x00, 0x00, 0x00, 0x00, 0x00, 0x00, 0x00, 0x00, 0x00, 0x00, 0x00,
  0x0c, 0x00, 0x00, 0x00, 0xcf, 0x98, 0x22, 0x3b, 0x50, 0xb9, 0xba, 0x3a,
  0x61, 0x00, 0x09, 0x3b, 0x09, 0x12, 0x1c, 0x3b, 0xd5, 0x35, 0x3d, 0x3b,
  0x7d, 0x06, 0x47, 0x3b, 0xdf, 0xf3, 0x12, 0x3b, 0xe2, 0xd8, 0x61, 0x3b,
  0x30, 0x5a, 0xd0, 0x3a, 0x7a, 0xcd, 0xea, 0x3a, 0x1a, 0x57, 0x11, 0x3b,
  0x0b, 0xde, 0x34, 0x3b, 0x12, 0x00, 0x00, 0x00, 0x74, 0x66, 0x6c, 0x2e,
  0x70, 0x73, 0x65, 0x75, 0x64, 0x6f, 0x5f, 0x71, 0x63, 0x6f, 0x6e, 0x73,
  0x74, 0x37, 0x00, 0x00, 0x04, 0x00, 0x00, 0x00, 0x0c, 0x00, 0x00, 0x00,
  0x01, 0x00, 0x00, 0x00, 0x05, 0x00, 0x00, 0x00, 0x10, 0x00, 0x00, 0x00,
  0x82, 0xf9, 0xff, 0xff, 0x00, 0x00, 0x00, 0x01, 0x14, 0x00, 0x00, 0x00,
  0xb4, 0x00, 0x00, 0x00, 0x0b, 0x00, 0x00, 0x00, 0x00, 0x00, 0x00, 0x02,
  0xc0, 0x00, 0x00, 0x00, 0x6c, 0xf9, 0xff, 0xff, 0x08, 0x00, 0x00, 0x00,
  0x68, 0x00, 0x00, 0x00, 0x0c, 0x00, 0x00, 0x00, 0x00, 0x00, 0x00, 0x00,
  0x00, 0x00, 0x00, 0x00, 0x00, 0x00, 0x00, 0x00, 0x00, 0x00, 0x00, 0x00,
  0x00, 0x00, 0x00, 0x00, 0x00, 0x00, 0x00, 0x00, 0x00, 0x00, 0x00, 0x00,
  0x00, 0x00, 0x00, 0x00, 0x00, 0x00, 0x00, 0x00, 0x00, 0x00, 0x00, 0x00,
  0x00, 0x00, 0x00, 0x00, 0x00, 0x00, 0x00, 0x00, 0x00, 0x00, 0x00, 0x00,
  0x00, 0x00, 0x00, 0x00, 0x00, 0x00, 0x00, 0x00, 0x00, 0x00, 0x00, 0x00,
  0x00, 0x00, 0x00, 0x00, 0x00, 0x00, 0x00, 0x00, 0x00, 0x00, 0x00, 0x00,
  0x00, 0x00, 0x00, 0x00, 0x00, 0x00, 0x00, 0x00, 0x00, 0x00, 0x00, 0x00,
  0x00, 0x00, 0x00, 0x00, 0x00, 0x00, 0x00, 0x00, 0x0c, 0x00, 0x00, 0x00,
  0xe4, 0xe0, 0xc3, 0x39, 0xa6, 0xf1, 0x60, 0x39, 0x43, 0x0b, 0xa5, 0x39,
  0x21, 0x04, 0xbc, 0x39, 0x75, 0xf0, 0xe3, 0x39, 0x6c, 0xc3, 0xef, 0x39,
  0x31, 0x08, 0xb1, 0x39, 0xa4, 0x09, 0x08, 0x3a, 0xda, 0xff, 0x7a, 0x39,
  0x92, 0x6e, 0x8d, 0x39, 0xef, 0x16, 0xaf, 0x39, 0x7f, 0xe3, 0xd9, 0x39,
  0x12, 0x00, 0x00, 0x00, 0x74, 0x66, 0x6c, 0x2e, 0x70, 0x73, 0x65, 0x75,
  0x64, 0x6f, 0x5f, 0x71, 0x63, 0x6f, 0x6e, 0x73, 0x74, 0x36, 0x00, 0x00,
  0x01, 0x00, 0x00, 0x00, 0x0c, 0x00, 0x00, 0x00, 0x62, 0xfa, 0xff, 0xff,
  0x00, 0x00, 0x00, 0x01, 0x14, 0x00, 0x00, 0x00, 0x88, 0x00, 0x00, 0x00,
  0x0a, 0x00, 0x00, 0x00, 0x00, 0x00, 0x00, 0x09, 0x94, 0x00, 0x00, 0x00,
  0x4c, 0xfa, 0xff, 0xff, 0x08, 0x00, 0x00, 0x00, 0x4c, 0x00, 0x00, 0x00,
  0x08, 0x00, 0x00, 0x00, 0x00, 0x00, 0x00, 0x00, 0x00, 0x00, 0x00, 0x00,
  0x00, 0x00, 0x00, 0x00, 0x00, 0x00, 0x00, 0x00, 0x00, 0x00, 0x00, 0x00,
  0x00, 0x00, 0x00, 0x00, 0x00, 0x00, 0x00, 0x00, 0x00, 0x00, 0x00, 0x00,
  0x00, 0x00, 0x00, 0x00, 0x00, 0x00, 0x00, 0x00, 0x00, 0x00, 0x00, 0x00,
  0x00, 0x00, 0x00, 0x00, 0x00, 0x00, 0x00, 0x00, 0x00, 0x00, 0x00, 0x00,
  0x00, 0x00, 0x00, 0x00, 0x00, 0x00, 0x00, 0x00, 0x00, 0x00, 0x00, 0x00,
  0x08, 0x00, 0x00, 0x00, 0x6e, 0x5d, 0x82, 0x3c, 0xd0, 0x67, 0x80, 0x3c,
  0xb8, 0xe0, 0xf6, 0x3b, 0x7b, 0x85, 0x9c, 0x3c, 0xd6, 0x25, 0x47, 0x3c,
  0x25, 0x74, 0x87, 0x3c, 0x67, 0x1f, 0x0e, 0x3c, 0xf9, 0xbe, 0x96, 0x3c,
  0x12, 0x00, 0x00, 0x00, 0x74, 0x66, 0x6c, 0x2e, 0x70, 0x73, 0x65, 0x75,
  0x64, 0x6f, 0x5f, 0x71, 0x63, 0x6f, 0x6e, 0x73, 0x74, 0x35, 0x00, 0x00,
  0x04, 0x00, 0x00, 0x00, 0x08, 0x00, 0x00, 0x00, 0x01, 0x00, 0x00, 0x00,
  0x03, 0x00, 0x00, 0x00, 0x0c, 0x00, 0x00, 0x00, 0x22, 0xfb, 0xff, 0xff,
  0x00, 0x00, 0x00, 0x01, 0x14, 0x00, 0x00, 0x00, 0x84, 0x00, 0x00, 0x00,
  0x09, 0x00, 0x00, 0x00, 0x00, 0x00, 0x00, 0x02, 0x90, 0x00, 0x00, 0x00,
  0x0c, 0xfb, 0xff, 0xff, 0x08, 0x00, 0x00, 0x00, 0x48, 0x00, 0x00, 0x00,
  0x08, 0x00, 0x00, 0x00, 0x00, 0x00, 0x00, 0x00, 0x00, 0x00, 0x00, 0x00,
  0x00, 0x00, 0x00, 0x00, 0x00, 0x00, 0x00, 0x00, 0x00, 0x00, 0x00, 0x00,
  0x00, 0x00, 0x00, 0x00, 0x00, 0x00, 0x00, 0x00, 0x00, 0x00, 0x00, 0x00,
  0x00, 0x00, 0x00, 0x00, 0x00, 0x00, 0x00, 0x00, 0x00, 0x00, 0x00, 0x00,
  0x00, 0x00, 0x00, 0x00, 0x00, 0x00, 0x00, 0x00, 0x00, 0x00, 0x00, 0x00,
  0x00, 0x00, 0x00, 0x00, 0x00, 0x00, 0x00, 0x00, 0x08, 0x00, 0x00, 0x00,
  0xaf, 0x66, 0x17, 0x3a, 0x1f, 0x20, 0x15, 0x3a, 0x81, 0x5b, 0x8f, 0x39,
  0x3b, 0xc7, 0x35, 0x3a, 0x71, 0x48, 0xe7, 0x39, 0x9c, 0x4f, 0x1d, 0x3a,
  0x5b, 0x0e, 0xa5, 0x39, 0x25, 0x12, 0x2f, 0x3a, 0x12, 0x00, 0x00, 0x00,
  0x74, 0x66, 0x6c, 0x2e, 0x70, 0x73, 0x65, 0x75, 0x64, 0x6f, 0x5f, 0x71,
  0x63, 0x6f, 0x6e, 0x73, 0x74, 0x34, 0x00, 0x00, 0x01, 0x00, 0x00, 0x00,
  0x08, 0x00, 0x00, 0x00, 0xd2, 0xfb, 0xff, 0xff, 0x00, 0x00, 0x00, 0x01,
  0x14, 0x00, 0x00, 0x00, 0xe8, 0x00, 0x00, 0x00, 0x08, 0x00, 0x00, 0x00,
  0x00, 0x00, 0x00, 0x09, 0xf4, 0x00, 0x00, 0x00, 0xbc, 0xfb, 0xff, 0xff,
  0x08, 0x00, 0x00, 0x00, 0x8c, 0x00, 0x00, 0x00, 0x10, 0x00, 0x00, 0x00,
  0x00, 0x00, 0x00, 0x00, 0x00, 0x00, 0x00, 0x00, 0x00, 0x00, 0x00, 0x00,
  0x00, 0x00, 0x00, 0x00, 0x00, 0x00, 0x00, 0x00, 0x00, 0x00, 0x00, 0x00,
  0x00, 0x00, 0x00, 0x00, 0x00, 0x00, 0x00, 0x00, 0x00, 0x00, 0x00, 0x00,
  0x00, 0x00, 0x00, 0x00, 0x00, 0x00, 0x00, 0x00, 0x00, 0x00, 0x00, 0x00,
  0x00, 0x00, 0x00, 0x00, 0x00, 0x00, 0x00, 0x00, 0x00, 0x00, 0x00, 0x00,
  0x00, 0x00, 0x00, 0x00, 0x00, 0x00, 0x00, 0x00, 0x00, 0x00, 0x00, 0x00,
  0x00, 0x00, 0x00, 0x00, 0x00, 0x00, 0x00, 0x00, 0x00, 0x00, 0x00, 0x00,
  0x00, 0x00, 0x00, 0x00, 0x00, 0x00, 0x00, 0x00, 0x00, 0x00, 0x00, 0x00,
  0x00, 0x00, 0x00, 0x00, 0x00, 0x00, 0x00, 0x00, 0x00, 0x00, 0x00, 0x00,
  0x00, 0x00, 0x00, 0x00, 0x00, 0x00, 0x00, 0x00, 0x00, 0x00, 0x00, 0x00,
  0x00, 0x00, 0x00, 0x00, 0x00, 0x00, 0x00, 0x00, 0x00, 0x00, 0x00, 0x00,
  0x10, 0x00, 0x00, 0x00, 0x3e, 0xe4, 0x25, 0x3c, 0x0d, 0x19, 0xe6, 0x3b,
  0xb2, 0xe4, 0xb2, 0x3b, 0x56, 0x19, 0xec, 0x3b, 0x52, 0x34, 0xe0, 0x3b,
  0x38, 0x61, 0x01, 0x3c, 0x8d, 0xf8, 0xeb, 0x3b, 0xcd, 0x0e, 0xfa, 0x3b,
  0x2a, 0x5e, 0x12, 0x3c, 0x98, 0x51, 0x0b, 0x3c, 0x72, 0x2c, 0xd8, 0x3b,
  0x37, 0x3b, 0xf2, 0x3b, 0xd0, 0x3b, 0x13, 0x3c, 0xeb, 0xff, 0xdd, 0x3b,
  0x29, 0xd5, 0x0f, 0x3c, 0x3e, 0xb2, 0x04, 0x3c, 0x12, 0x00, 0x00, 0x00,
  0x74, 0x66, 0x6c, 0x2e, 0x70, 0x73, 0x65, 0x75, 0x64, 0x6f, 0x5f, 0x71,
  0x63, 0x6f, 0x6e, 0x73, 0x74, 0x33, 0x00, 0x00, 0x02, 0x00, 0x00, 0x00,
  0x10, 0x00, 0x00, 0x00, 0x08, 0x00, 0x00, 0x00, 0xea, 0xfc, 0xff, 0xff,
  0x00, 0x00, 0x00, 0x01, 0x14, 0x00, 0x00, 0x00, 0xe4, 0x00, 0x00, 0x00,
  0x07, 0x00, 0x00, 0x00, 0x00, 0x00, 0x00, 0x02, 0xf0, 0x00, 0x00, 0x00,
  0xd4, 0xfc, 0xff, 0xff, 0x08, 0x00, 0x00, 0x00, 0x88, 0x00, 0x00, 0x00,
  0x10, 0x00, 0x00, 0x00, 0x00, 0x00, 0x00, 0x00, 0x00, 0x00, 0x00, 0x00,
  0x00, 0x00, 0x00, 0x00, 0x00, 0x00, 0x00, 0x00, 0x00, 0x00, 0x00, 0x00,
  0x00, 0x00, 0x00, 0x00, 0x00, 0x00, 0x00, 0x00, 0x00, 0x00, 0x00, 0x00,
  0x00, 0x00, 0x00, 0x00, 0x00, 0x00, 0x00, 0x00, 0x00, 0x00, 0x00, 0x00,
  0x00, 0x00, 0x00, 0x00, 0x00, 0x00, 0x00, 0x00, 0x00, 0x00, 0x00, 0x00,
  0x00, 0x00, 0x00, 0x00, 0x00, 0x00, 0x00, 0x00, 0x00, 0x00, 0x00, 0x00,
  0x00, 0x00, 0x00, 0x00, 0x00, 0x00, 0x00, 0x00, 0x00, 0x00, 0x00, 0x00,
  0x00, 0x00, 0x00, 0x00, 0x00, 0x00, 0x00, 0x00, 0x00, 0x00, 0x00, 0x00,
  0x00, 0x00, 0x00, 0x00, 0x00, 0x00, 0x00, 0x00, 0x00, 0x00, 0x00, 0x00,
  0x00, 0x00, 0x00, 0x00, 0x00, 0x00, 0x00, 0x00, 0x00, 0x00, 0x00, 0x00,
  0x00, 0x00, 0x00, 0x00, 0x00, 0x00, 0x00, 0x00, 0x00, 0x00, 0x00, 0x00,
  0x10, 0x00, 0x00, 0x00, 0xee, 0x55, 0x24, 0x39, 0x93, 0xf0, 0xe3, 0x38,
  0x2a, 0x37, 0xb1, 0x38, 0x74, 0xe2, 0xe9, 0x38, 0xff, 0x19, 0xde, 0x38,
  0x92, 0x2a, 0x00, 0x39, 0xf9, 0xc1, 0xe9, 0x38, 0x66, 0xb6, 0xf7, 0x38,
  0xba, 0xfe, 0x10, 0x39, 0x15, 0x03, 0x0a, 0x39, 0x67, 0x25, 0xd6, 0x38,
  0x9b, 0xf5, 0xef, 0x38, 0x4c, 0xda, 0x11, 0x39, 0xe3, 0xea, 0xdb, 0x38,
  0xd0, 0x7b, 0x0e, 0x39, 0xa2, 0x73, 0x03, 0x39, 0x12, 0x00, 0x00, 0x00,
  0x74, 0x66, 0x6c, 0x2e, 0x70, 0x73, 0x65, 0x75, 0x64, 0x6f, 0x5f, 0x71,
  0x63, 0x6f, 0x6e, 0x73, 0x74, 0x32, 0x00, 0x00, 0x01, 0x00, 0x00, 0x00,
  0x10, 0x00, 0x00, 0x00, 0xfa, 0xfd, 0xff, 0xff, 0x00, 0x00, 0x00, 0x01,
  0x14, 0x00, 0x00, 0x00, 0x78, 0x00, 0x00, 0x00, 0x06, 0x00, 0x00, 0x00,
  0x00, 0x00, 0x00, 0x09, 0x84, 0x00, 0x00, 0x00, 0xe4, 0xfd, 0xff, 0xff,
  0x08, 0x00, 0x00, 0x00, 0x40, 0x00, 0x00, 0x00, 0x07, 0x00, 0x00, 0x00,
  0x00, 0x00, 0x00, 0x00, 0x00, 0x00, 0x00, 0x00, 0x00, 0x00, 0x00, 0x00,
  0x00, 0x00, 0x00, 0x00, 0x00, 0x00, 0x00, 0x00, 0x00, 0x00, 0x00, 0x00,
  0x00, 0x00, 0x00, 0x00, 0x00, 0x00, 0x00, 0x00, 0x00, 0x00, 0x00, 0x00,
  0x00, 0x00, 0x00, 0x00, 0x00, 0x00, 0x00, 0x00, 0x00, 0x00, 0x00, 0x00,
  0x00, 0x00, 0x00, 0x00, 0x00, 0x00, 0x00, 0x00, 0x07, 0x00, 0x00, 0x00,
  0x2e, 0xa7, 0x3e, 0x3d, 0xdc, 0x92, 0x69, 0x3d, 0x73, 0x2d, 0x8f, 0x3d,
  0x17, 0xd0, 0x73, 0x3d, 0x8b, 0x19, 0x4a, 0x3d, 0xc4, 0x32, 0x6a, 0x3d,
  0x73, 0x59, 0x1f, 0x3d, 0x12, 0x00, 0x00, 0x00, 0x74, 0x66, 0x6c, 0x2e,
  0x70, 0x73, 0x65, 0x75, 0x64, 0x6f, 0x5f, 0x71, 0x63, 0x6f, 0x6e, 0x73,
  0x74, 0x31, 0x00, 0x00, 0x02, 0x00, 0x00, 0x00, 0x07, 0x00, 0x00, 0x00,
  0x10, 0x00, 0x00, 0x00, 0xa2, 0xfe, 0xff, 0xff, 0x00, 0x00, 0x00, 0x01,
  0x14, 0x00, 0x00, 0x00, 0x7c, 0x00, 0x00, 0x00, 0x05, 0x00, 0x00, 0x00,
  0x00, 0x00, 0x00, 0x02, 0x88, 0x00, 0x00, 0x00, 0x8c, 0xfe, 0xff, 0xff,
  0x08, 0x00, 0x00, 0x00, 0x44, 0x00, 0x00, 0x00, 0x07, 0x00, 0x00, 0x00,
  0x00, 0x00, 0x00, 0x00, 0x00, 0x00, 0x00, 0x00, 0x00, 0x00, 0x00, 0x00,
  0x00, 0x00, 0x00, 0x00, 0x00, 0x00, 0x00, 0x00, 0x00, 0x00, 0x00, 0x00,
  0x00, 0x00, 0x00, 0x00, 0x00, 0x00, 0x00, 0x00, 0x00, 0x00, 0x00, 0x00,
  0x00, 0x00, 0x00, 0x00, 0x00, 0x00, 0x00, 0x00, 0x00, 0x00, 0x00, 0x00,
  0x00, 0x00, 0x00, 0x00, 0x00, 0x00, 0x00, 0x00, 0x00, 0x00, 0x00, 0x00,
  0x07, 0x00, 0x00, 0x00, 0xf2, 0x13, 0xc6, 0x39, 0x88, 0xab, 0xf2, 0x39,
  0xe5, 0xc0, 0x14, 0x3a, 0xd8, 0x4e, 0xfd, 0x39, 0x6e, 0xf8, 0xd1, 0x39,
  0xaa, 0x51, 0xf3, 0x39, 0x20, 0x8e, 0xa5, 0x39, 0x11, 0x00, 0x00, 0x00,
  0x74, 0x66, 0x6c, 0x2e, 0x70, 0x73, 0x65, 0x75, 0x64, 0x6f, 0x5f, 0x71,
  0x63, 0x6f, 0x6e, 0x73, 0x74, 0x00, 0x00, 0x00, 0x01, 0x00, 0x00, 0x00,
  0x07, 0x00, 0x00, 0x00, 0x4a, 0xff, 0xff, 0xff, 0x00, 0x00, 0x00, 0x01,
  0x14, 0x00, 0x00, 0x00, 0x14, 0x00, 0x00, 0x00, 0x04, 0x00, 0x00, 0x00,
  0x00, 0x00, 0x00, 0x02, 0x1c, 0x00, 0x00, 0x00, 0x8c, 0xff, 0xff, 0xff,
  0x0f, 0x00, 0x00, 0x00, 0x61, 0x72, 0x69, 0x74, 0x68, 0x2e, 0x63, 0x6f,
  0x6e, 0x73, 0x74, 0x61, 0x6e, 0x74, 0x32, 0x00, 0x00, 0x00, 0x00, 0x00,
  0x82, 0xff, 0xff, 0xff, 0x00, 0x00, 0x00, 0x01, 0x14, 0x00, 0x00, 0x00,
  0x14, 0x00, 0x00, 0x00, 0x03, 0x00, 0x00, 0x00, 0x00, 0x00, 0x00, 0x02,
  0x1c, 0x00, 0x00, 0x00, 0xc4, 0xff, 0xff, 0xff, 0x0f, 0x00, 0x00, 0x00,
  0x61, 0x72, 0x69, 0x74, 0x68, 0x2e, 0x63, 0x6f, 0x6e, 0x73, 0x74, 0x61,
  0x6e, 0x74, 0x31, 0x00, 0x01, 0x00, 0x00, 0x00, 0x03, 0x00, 0x00, 0x00,
  0xbe, 0xff, 0xff, 0xff, 0x00, 0x00, 0x00, 0x01, 0x18, 0x00, 0x00, 0x00,
  0x18, 0x00, 0x00, 0x00, 0x02, 0x00, 0x00, 0x00, 0x00, 0x00, 0x00, 0x02,
  0x20, 0x00, 0x00, 0x00, 0x04, 0x00, 0x04, 0x00, 0x04, 0x00, 0x00, 0x00,
  0x0e, 0x00, 0x00, 0x00, 0x61, 0x72, 0x69, 0x74, 0x68, 0x2e, 0x63, 0x6f,
  0x6e, 0x73, 0x74, 0x61, 0x6e, 0x74, 0x00, 0x00, 0x01, 0x00, 0x00, 0x00,
  0x04, 0x00, 0x00, 0x00, 0x00, 0x00, 0x16, 0x00, 0x1c, 0x00, 0x18, 0x00,
  0x17, 0x00, 0x10, 0x00, 0x0c, 0x00, 0x08, 0x00, 0x00, 0x00, 0x00, 0x00,
  0x00, 0x00, 0x07, 0x00, 0x16, 0x00, 0x00, 0x00, 0x00, 0x00, 0x00, 0x01,
  0x20, 0x00, 0x00, 0x00, 0x40, 0x00, 0x00, 0x00, 0x01, 0x00, 0x00, 0x00,
  0x00, 0x00, 0x00, 0x09, 0x5c, 0x00, 0x00, 0x00, 0x0c, 0x00, 0x0c, 0x00,
  0x00, 0x00, 0x00, 0x00, 0x08, 0x00, 0x04, 0x00, 0x0c, 0x00, 0x00, 0x00,
  0x08, 0x00, 0x00, 0x00, 0x14, 0x00, 0x00, 0x00, 0x01, 0x00, 0x00, 0x00,
  0x94, 0xff, 0xff, 0xff, 0xff, 0xff, 0xff, 0xff, 0x00, 0x00, 0x00, 0x00,
  0x01, 0x00, 0x00, 0x00, 0xd5, 0x2a, 0xfb, 0x3e, 0x21, 0x00, 0x00, 0x00,
  0x73, 0x65, 0x72, 0x76, 0x69, 0x6e, 0x67, 0x5f, 0x64, 0x65, 0x66, 0x61,
  0x75, 0x6c, 0x74, 0x5f, 0x6b, 0x65, 0x72, 0x61, 0x73, 0x5f, 0x74, 0x65,
  0x6e, 0x73, 0x6f, 0x72, 0x5f, 0x37, 0x30, 0x3a, 0x30, 0x00, 0x00, 0x00,
  0x03, 0x00, 0x00, 0x00, 0x01, 0x00, 0x00, 0x00, 0xf4, 0x01, 0x00, 0x00,
  0x06, 0x00, 0x00, 0x00, 0x05, 0x00, 0x00, 0x00, 0x6c, 0x00, 0x00, 0x00,
  0x4c, 0x00, 0x00, 0x00, 0x2c, 0x00, 0x00, 0x00, 0x18, 0x00, 0x00, 0x00,
  0x04, 0x00, 0x00, 0x00, 0xd0, 0xff, 0xff, 0xff, 0x19, 0x00, 0x00, 0x00,
  0x02, 0x00, 0x00, 0x00, 0x00, 0x00, 0x00, 0x19, 0xe0, 0xff, 0xff, 0xff,
  0x09, 0x00, 0x00, 0x00, 0x04, 0x00, 0x00, 0x00, 0x00, 0x00, 0x00, 0x09,
  0xf0, 0xff, 0xff, 0xff, 0x28, 0x00, 0x00, 0x00, 0x02, 0x00, 0x00, 0x00,
  0x00, 0x00, 0x00, 0x28, 0x0c, 0x00, 0x10, 0x00, 0x0f, 0x00, 0x00, 0x00,
  0x08, 0x00, 0x04, 0x00, 0x0c, 0x00, 0x00, 0x00, 0x03, 0x00, 0x00, 0x00,
  0x03, 0x00, 0x00, 0x00, 0x00, 0x00, 0x00, 0x03, 0x0c, 0x00, 0x0c, 0x00,
  0x0b, 0x00, 0x00, 0x00, 0x00, 0x00, 0x04, 0x00, 0x0c, 0x00, 0x00, 0x00,
  0x16, 0x00, 0x00, 0x00, 0x00, 0x00, 0x00, 0x16
};
unsigned int generated_ensemble_gesture_model_0_tflite_len = 8792;

inline const unsigned char gesture_model_1_tflite[] = {
  0x1c, 0x00, 0x00, 0x00, 0x54, 0x46, 0x4c, 0x33, 0x14, 0x00, 0x20, 0x00,
  0x1c, 0x00, 0x18, 0x00, 0x14, 0x00, 0x10, 0x00, 0x0c, 0x00, 0x00, 0x00,
  0x08, 0x00, 0x04, 0x00, 0x14, 0x00, 0x00, 0x00, 0x1c, 0x00, 0x00, 0x00,
  0x98, 0x00, 0x00, 0x00, 0x18, 0x01, 0x00, 0x00, 0x6c, 0x0c, 0x00, 0x00,
  0x7c, 0x0c, 0x00, 0x00, 0xa8, 0x21, 0x00, 0x00, 0x03, 0x00, 0x00, 0x00,
  0x01, 0x00, 0x00, 0x00, 0x10, 0x00, 0x00, 0x00, 0x00, 0x00, 0x0a, 0x00,
  0x10, 0x00, 0x0c, 0x00, 0x08, 0x00, 0x04, 0x00, 0x0a, 0x00, 0x00, 0x00,
  0x0c, 0x00, 0x00, 0x00, 0x1c, 0x00, 0x00, 0x00, 0x3c, 0x00, 0x00, 0x00,
  0x0f, 0x00, 0x00, 0x00, 0x73, 0x65, 0x72, 0x76, 0x69, 0x6e, 0x67, 0x5f,
  0x64, 0x65, 0x66, 0x61, 0x75, 0x6c, 0x74, 0x00, 0x01, 0x00, 0x00, 0x00,
  0x04, 0x00, 0x00, 0x00, 0x68, 0xff, 0xff, 0xff, 0x16, 0x00, 0x00, 0x00,
  0x04, 0x00, 0x00, 0x00, 0x08, 0x00, 0x00, 0x00, 0x6f, 0x75, 0x74, 0x70,
  0x75, 0x74, 0x5f, 0x30, 0x00, 0x00, 0x00, 0x00, 0x01, 0x00, 0x00, 0x00,
  0x04, 0x00, 0x00, 0x00, 0x76, 0xf3, 0xff, 0xff, 0x04, 0x00, 0x00, 0x00,
  0x0f, 0x00, 0x00, 0x00, 0x6b, 0x65, 0x72, 0x61, 0x73, 0x5f, 0x74, 0x65,
  0x6e, 0x73, 0x6f, 0x72, 0x5f, 0x38, 0x34, 0x00, 0x03, 0x00, 0x00, 0x00,
  0x5c, 0x00, 0x00, 0x00, 0x2c, 0x00, 0x00, 0x00, 0x04, 0x00, 0x00, 0x00,
  0xb8, 0xff, 0xff, 0xff, 0x1a, 0x00, 0x00, 0x00, 0x04, 0x00, 0x00, 0x00,
  0x13, 0x00, 0x00, 0x00, 0x43, 0x4f, 0x4e, 0x56, 0x45, 0x52, 0x53, 0x49,
  0x4f, 0x4e, 0x5f, 0x4d, 0x45, 0x54, 0x41, 0x44, 0x41, 0x54, 0x41, 0x00,
  0xdc, 0xff, 0xff, 0xff, 0x19, 0x00, 0x00, 0x00, 0x04, 0x00, 0x00, 0x00,
  0x13, 0x00, 0x00, 0x00, 0x6d, 0x69, 0x6e, 0x5f, 0x72, 0x75, 0x6e, 0x74,
  0x69, 0x6d, 0x65, 0x5f, 0x76, 0x65, 0x72, 0x73, 0x69, 0x6f, 0x6e, 0x00,
  0x08, 0x00, 0x0c, 0x00, 0x08, 0x00, 0x04, 0x00, 0x08, 0x00, 0x00, 0x00,
  0x18, 0x00, 0x00, 0x00, 0x04, 0x00, 0x00, 0x00, 0x13, 0x00, 0x00, 0x00,
  0x6d, 0x69, 0x6e, 0x5f, 0x72, 0x75, 0x6e, 0x74, 0x69, 0x6d, 0x65, 0x5f,
  0x76, 0x65, 0x72, 0x73, 0x69, 0x6f, 0x6e, 0x00, 0x1b, 0x00, 0x00, 0x00,
  0x50, 0x0b, 0x00, 0x00, 0x48, 0x0b, 0x00, 0x00, 0x28, 0x0b, 0x00, 0x00,
  0x0c, 0x0b, 0x00, 0x00, 0xf8, 0x0a, 0x00, 0x00, 0xcc, 0x0a, 0x00, 0x00,
  0x4c, 0x0a, 0x00, 0x00, 0xfc, 0x09, 0x00, 0x00, 0x6c, 0x09, 0x00, 0x00,
  0x3c, 0x09, 0x00, 0x00, 0x0c, 0x08, 0x00, 0x00, 0xcc, 0x07, 0x00, 0x00,
  0xfc, 0x03, 0x00, 0x00, 0xac, 0x03, 0x00, 0x00, 0xfc, 0x00, 0x00, 0x00,
  0xf4, 0x00, 0x00, 0x00, 0xec, 0x00, 0x00, 0x00, 0xe4, 0x00, 0x00, 0x00,
  0xdc, 0x00, 0x00, 0x00, 0xd4, 0x00, 0x00, 0x00, 0xcc, 0x00, 0x00, 0x00,
  0xc4, 0x00, 0x00, 0x00, 0xbc, 0x00, 0x00, 0x00, 0xb4, 0x00, 0x00, 0x00,
  0x94, 0x00, 0x00, 0x00, 0x74, 0x00, 0x00, 0x00, 0x04, 0x00, 0x00, 0x00,
  0x86, 0xf4, 0xff, 0xff, 0x04, 0x00, 0x00, 0x00, 0x60, 0x00, 0x00, 0x00,
  0x0c, 0x00, 0x00, 0x00, 0x08, 0x00, 0x0e, 0x00, 0x08, 0x00, 0x04, 0x00,
  0x08, 0x00, 0x00, 0x00, 0x10, 0x00, 0x00, 0x00, 0x28, 0x00, 0x00, 0x00,
  0x00, 0x00, 0x06, 0x00, 0x08, 0x00, 0x04, 0x00, 0x06, 0x00, 0x00, 0x00,
  0x04, 0x00, 0x00, 0x00, 0x01, 0x00, 0x00, 0x00, 0xeb, 0x03, 0x00, 0x00,
  0x0c, 0x00, 0x18, 0x00, 0x14, 0x00, 0x10, 0x00, 0x0c, 0x00, 0x04, 0x00,
  0x0c, 0x00, 0x00, 0x00, 0x90, 0x23, 0x1c, 0x91, 0xe1, 0x42, 0xe3, 0x7e,
  0x02, 0x00, 0x00, 0x00, 0x02, 0x00, 0x00, 0x00, 0x04, 0x00, 0x00, 0x00,
  0x06, 0x00, 0x00, 0x00, 0x32, 0x2e, 0x31, 0x39, 0x2e, 0x30, 0x00, 0x00,
  0xf2, 0xf4, 0xff, 0xff, 0x04, 0x00, 0x00, 0x00, 0x10, 0x00, 0x00, 0x00,
  0x00, 0x00, 0x00, 0x00, 0x00, 0x00, 0x00, 0x00, 0x00, 0x00, 0x00, 0x00,
  0x00, 0x00, 0x00, 0x00, 0x0e, 0xf5, 0xff, 0xff, 0x04, 0x00, 0x00, 0x00,
  0x10, 0x00, 0x00, 0x00, 0x31, 0x2e, 0x31, 0x34, 0x2e, 0x30, 0x00, 0x00,
  0x00, 0x00, 0x00, 0x00, 0x00, 0x00, 0x00, 0x00, 0x38, 0xe1, 0xff, 0xff,
  0x3c, 0xe1, 0xff, 0xff, 0x40, 0xe1, 0xff, 0xff, 0x44, 0xe1, 0xff, 0xff,
  0x48, 0xe1, 0xff, 0xff, 0x4c, 0xe1, 0xff, 0xff, 0x50, 0xe1, 0xff, 0xff,
  0x54, 0xe1, 0xff, 0xff, 0x58, 0xe1, 0xff, 0xff, 0x4e, 0xf5, 0xff, 0xff,
  0x04, 0x00, 0x00, 0x00, 0xa0, 0x02, 0x00, 0x00, 0x01, 0xcb, 0xe1, 0x1c,
  0x95, 0x1c, 0xf1, 0xdc, 0xec, 0x18, 0xd6, 0x04, 0x10, 0xfa, 0x05, 0x1d,
  0xda, 0xec, 0x0d, 0xe9, 0x10, 0x03, 0x03, 0xdc, 0x18, 0xfc, 0x39, 0x02,
  0x05, 0xb5, 0xfc, 0x29, 0x42, 0xd2, 0x17, 0x96, 0x14, 0x36, 0x33, 0xca,
  0x0e, 0x81, 0xe4, 0x81, 0x06, 0x08, 0xf3, 0x76, 0xe4, 0xb6, 0xeb, 0x01,
  0xfd, 0x52, 0x06, 0xd3, 0xfb, 0x0e, 0x09, 0x2b, 0xf5, 0xee, 0xf7, 0x19,
  0x12, 0x16, 0x1a, 0x04, 0xff, 0xed, 0x0c, 0x18, 0x22, 0x1d, 0x08, 0xf3,
  0x13, 0x0d, 0x1c, 0x24, 0xf5, 0xb8, 0x26, 0xf3, 0xf9, 0x27, 0x18, 0x7f,
  0xcf, 0xf2, 0xf1, 0x1c, 0x29, 0x54, 0xce, 0xfe, 0x04, 0x22, 0x27, 0x3c,
  0xd9, 0x08, 0x3b, 0x35, 0x17, 0x2a, 0xd6, 0xfe, 0x22, 0x38, 0x34, 0x33,
  0xfd, 0x05, 0x23, 0x2f, 0x3a, 0x31, 0x21, 0x0d, 0x31, 0x4f, 0x4f, 0x57,
  0x35, 0x11, 0x06, 0x08, 0x08, 0xe8, 0xb1, 0x20, 0xfe, 0x00, 0x2e, 0xda,
  0xcb, 0x33, 0x0d, 0x05, 0x12, 0xe9, 0xec, 0x36, 0x2d, 0x00, 0x0a, 0xea,
  0x0d, 0x42, 0x29, 0x19, 0x1e, 0xe3, 0x02, 0x3d, 0x35, 0x50, 0x53, 0x06,
  0x25, 0x44, 0x48, 0x63, 0x7f, 0x48, 0x2c, 0x4c, 0xd1, 0x82, 0x9e, 0xc2,
  0xe5, 0xe9, 0xab, 0xaf, 0xdc, 0xe7, 0xd0, 0xe9, 0xbb, 0xb6, 0xfe, 0xda,
  0xe0, 0xd6, 0xdc, 0xea, 0x15, 0xd6, 0xe4, 0xd3, 0xf3, 0xd8, 0x0f, 0xcb,
  0xd3, 0xc6, 0x01, 0xec, 0x33, 0xa4, 0xdc, 0x9f, 0xf8, 0xe6, 0x70, 0x81,
  0xe4, 0x9a, 0xe2, 0x1e, 0x7f, 0xf8, 0xfa, 0xd4, 0xed, 0x08, 0x47, 0xdc,
  0xdc, 0xda, 0xf2, 0x01, 0x33, 0xd7, 0xe6, 0xee, 0xe3, 0xf4, 0x07, 0xfc,
  0xd8, 0xf7, 0xd2, 0x04, 0x18, 0x00, 0xf4, 0x0e, 0xd4, 0x08, 0x0b, 0x2d,
  0x03, 0x1e, 0xbb, 0x21, 0x29, 0x58, 0xf2, 0x2c, 0x0e, 0x09, 0xef, 0x63,
  0x81, 0x25, 0x13, 0x0a, 0x00, 0x56, 0x9c, 0x2e, 0xef, 0xdf, 0x08, 0x22,
  0xb8, 0x23, 0xe8, 0xd2, 0x07, 0x20, 0xe3, 0x31, 0xdd, 0xdf, 0x07, 0xf9,
  0xe1, 0x28, 0xfa, 0xbf, 0x00, 0xf9, 0xf3, 0x24, 0xd1, 0xbe, 0xf1, 0xc4,
  0x00, 0x3e, 0xf7, 0xb4, 0x17, 0x1d, 0x0e, 0x23, 0x11, 0xb7, 0x04, 0x0d,
  0xf5, 0x00, 0x0b, 0xd6, 0x1d, 0x13, 0xf1, 0xfe, 0x03, 0xc8, 0x07, 0x0d,
  0xf0, 0xed, 0xfa, 0xe9, 0x27, 0xea, 0xf2, 0xbf, 0xfd, 0xe7, 0x1b, 0xe4,
  0xe4, 0xa9, 0x1f, 0xf4, 0x34, 0xec, 0xd6, 0x81, 0x54, 0x36, 0x19, 0xdc,
  0x03, 0x28, 0x22, 0x22, 0x1e, 0xcf, 0x03, 0x2f, 0x10, 0x2f, 0x0d, 0xee,
  0x11, 0x1a, 0x23, 0x29, 0x1d, 0xe3, 0x00, 0x20, 0xf9, 0x41, 0x0c, 0x07,
  0xf3, 0x15, 0xe8, 0x4b, 0xfe, 0x1b, 0xf5, 0x3f, 0xd5, 0x7f, 0xfb, 0x17,
  0xdc, 0x41, 0x61, 0x81, 0x50, 0x10, 0xe7, 0x11, 0x66, 0xaa, 0x57, 0x2c,
  0xda, 0x0d, 0x23, 0xab, 0x70, 0x24, 0xed, 0xf3, 0x3e, 0xcf, 0x36, 0x1d,
  0xfa, 0xfe, 0x34, 0xa8, 0x4e, 0x06, 0xfa, 0xf8, 0x28, 0x9f, 0x42, 0x06,
  0x01, 0xe1, 0x28, 0x90, 0x75, 0x04, 0x44, 0xda, 0xcd, 0x7f, 0x22, 0x01,
  0x19, 0x84, 0xeb, 0x47, 0x10, 0xec, 0x27, 0xaf, 0x17, 0x1a, 0x10, 0xe0,
  0x08, 0xc8, 0xff, 0x08, 0x19, 0xe0, 0x2b, 0xcd, 0x32, 0xfd, 0x12, 0x12,
  0x23, 0x03, 0x2b, 0xe4, 0x13, 0x0f, 0x0d, 0x07, 0x26, 0xe0, 0x2b, 0x5e,
  0x09, 0x0f, 0xc6, 0x17, 0xc9, 0xec, 0x22, 0xc1, 0xd9, 0xf5, 0xd7, 0xd0,
  0x14, 0xb7, 0xf9, 0x01, 0xe8, 0xe9, 0x26, 0xbb, 0x09, 0xd4, 0x03, 0xf5,
  0xf3, 0xac, 0x16, 0xf1, 0x20, 0xfb, 0x07, 0xa0, 0x12, 0xdd, 0x15, 0x07,
  0xef, 0x8c, 0x1a, 0xd5, 0x34, 0x1b, 0xd0, 0x81, 0x1e, 0x44, 0x7f, 0xda,
  0xe3, 0xe6, 0x30, 0x43, 0x4f, 0xdf, 0xef, 0xfc, 0x1a, 0x21, 0x2e, 0xe2,
  0xe3, 0xf7, 0x2f, 0x27, 0x18, 0xe0, 0xe2, 0x10, 0x2a, 0x2b, 0x03, 0xf0,
  0xf0, 0x08, 0x37, 0x2f, 0x1f, 0xfd, 0x06, 0x31, 0x3f, 0x34, 0x30, 0x29,
  0xeb, 0x2b, 0x18, 0xf6, 0x25, 0xdf, 0x2b, 0x7d, 0xfb, 0x04, 0x43, 0xed,
  0x0d, 0x7f, 0x1d, 0x04, 0x2b, 0xe5, 0xe8, 0x69, 0x24, 0x10, 0xfd, 0x0c,
  0xe2, 0x5b, 0x05, 0x0c, 0xe8, 0x08, 0xe4, 0x5e, 0xf2, 0x15, 0xb9, 0x04,
  0xfb, 0x5e, 0xd5, 0x24, 0xa6, 0x31, 0xd1, 0x75, 0xf4, 0xe2, 0xf3, 0x50,
  0x60, 0x7f, 0xf8, 0xe0, 0xe3, 0x22, 0x3c, 0x58, 0xef, 0xf1, 0xff, 0x18,
  0x38, 0x61, 0x0a, 0xe1, 0x03, 0x03, 0x44, 0x56, 0xf7, 0xe1, 0xf7, 0x07,
  0x1e, 0x42, 0x01, 0xb9, 0x06, 0xed, 0x3e, 0x36, 0x13, 0xa4, 0xf9, 0xf0,
  0x25, 0x22, 0xe3, 0x98, 0x19, 0xf6, 0x19, 0xf9, 0xc9, 0xc1, 0xfb, 0xe9,
  0x1a, 0x00, 0xe5, 0xde, 0xf1, 0xef, 0x09, 0x0f, 0x0a, 0x0e, 0xee, 0xfc,
  0x06, 0x0c, 0x0c, 0x27, 0xfb, 0x0d, 0xfe, 0x17, 0x14, 0x55, 0xff, 0x03,
  0x07, 0x0b, 0x36, 0x7f, 0x0e, 0x15, 0xf2, 0x27, 0xfa, 0xf7, 0xff, 0xff,
  0x04, 0x00, 0x00, 0x00, 0x40, 0x00, 0x00, 0x00, 0x58, 0xff, 0xff, 0xff,
  0x89, 0xff, 0xff, 0xff, 0xdd, 0xfe, 0xff, 0xff, 0xe3, 0xfe, 0xff, 0xff,
  0x70, 0x02, 0x00, 0x00, 0xfe, 0x00, 0x00, 0x00, 0x48, 0xff, 0xff, 0xff,
  0xaf, 0xff, 0xff, 0xff, 0xc0, 0xff, 0xff, 0xff, 0x8d, 0x00, 0x00, 0x00,
  0xec, 0x00, 0x00, 0x00, 0x64, 0xff, 0xff, 0xff, 0x91, 0xff, 0xff, 0xff,
  0x10, 0xff, 0xff, 0xff, 0xbb, 0xfd, 0xff, 0xff, 0xda, 0xff, 0xff, 0xff,
  0x46, 0xf8, 0xff, 0xff, 0x04, 0x00, 0x00, 0x00, 0xc0, 0x03, 0x00, 0x00,
  0x14, 0xa3, 0x34, 0x06, 0x10, 0x33, 0x06, 0xf3, 0x1f, 0xd6, 0x06, 0x38,
  0xee, 0xfd, 0x18, 0x27, 0x1a, 0xae, 0x16, 0xeb, 0x1c, 0x22, 0x27, 0xdd,
  0x07, 0xeb, 0xfc, 0x2c, 0xc8, 0xfe, 0xe6, 0x2d, 0x12, 0xb5, 0xec, 0xd8,
  0xd9, 0xe8, 0x27, 0xc3, 0xe0, 0xeb, 0x20, 0x0a, 0xd8, 0x2a, 0xf0, 0x23,
  0xec, 0xf4, 0xea, 0xe4, 0xaf, 0xb1, 0x0e, 0x9a, 0xd0, 0xeb, 0xee, 0xdf,
  0xfa, 0x24, 0x0b, 0x05, 0xa9, 0x16, 0xd4, 0xe6, 0xad, 0x81, 0x10, 0x97,
  0xaf, 0xff, 0x3b, 0xad, 0x06, 0xf6, 0x0f, 0xc6, 0xc0, 0x1b, 0x0d, 0xe0,
  0x24, 0x51, 0x83, 0x24, 0x0c, 0x5e, 0x11, 0xfc, 0x4b, 0xae, 0x33, 0xc7,
  0xd2, 0x0e, 0x05, 0xed, 0x1c, 0x12, 0xa3, 0x31, 0x23, 0x47, 0xee, 0xf2,
  0x40, 0xcc, 0x34, 0xff, 0xe5, 0xfa, 0x10, 0xc6, 0x12, 0x39, 0xce, 0x17,
  0x2b, 0x31, 0xe2, 0xec, 0x21, 0x21, 0x16, 0x22, 0xcc, 0x0c, 0x08, 0xfb,
  0xe6, 0x1e, 0xf9, 0x29, 0x24, 0x23, 0xbf, 0xfb, 0xf4, 0x26, 0x06, 0x27,
  0xd2, 0x0c, 0x04, 0xf0, 0xe9, 0xea, 0x2d, 0x02, 0x1e, 0x14, 0xbd, 0xe1,
  0xdc, 0x7f, 0xf4, 0x0d, 0xfe, 0x81, 0xf8, 0x2b, 0xbc, 0xdc, 0x04, 0xf2,
  0x35, 0xf1, 0x74, 0xc4, 0x48, 0xf9, 0x06, 0xd3, 0xf5, 0xbe, 0xd3, 0x0a,
  0xf8, 0x03, 0xfa, 0xe4, 0x2c, 0xe3, 0x31, 0xc2, 0x2d, 0xee, 0x0a, 0x03,
  0xd3, 0xf4, 0xf2, 0x17, 0xe9, 0x13, 0x0b, 0xec, 0x20, 0x04, 0x01, 0xdf,
  0x01, 0x1a, 0x1e, 0x19, 0xbe, 0x1f, 0xf2, 0xdf, 0x06, 0x12, 0x06, 0xeb,
  0xfb, 0x22, 0xee, 0xc7, 0xe0, 0x04, 0x15, 0x03, 0xc8, 0x1c, 0xf0, 0x8f,
  0xfd, 0x19, 0x30, 0x19, 0x9f, 0x4e, 0xb8, 0xc6, 0xc8, 0x12, 0xd3, 0x9d,
  0xfc, 0x3b, 0x1d, 0xf2, 0xc5, 0xfc, 0xc8, 0xf7, 0xa0, 0xf5, 0xa4, 0x81,
  0x3b, 0xa6, 0x19, 0x00, 0xfe, 0x41, 0x22, 0xf8, 0xe3, 0x00, 0xf6, 0xf3,
  0xbe, 0xf2, 0x9c, 0xc4, 0x22, 0xb3, 0x15, 0xd3, 0xfe, 0x15, 0x22, 0xfe,
  0xf0, 0xf9, 0x04, 0xfb, 0xc4, 0x09, 0xdc, 0xc7, 0x08, 0x9f, 0x05, 0xf5,
  0x3b, 0x1f, 0x16, 0x2e, 0xfc, 0x04, 0xec, 0xf8, 0xdf, 0x04, 0x13, 0xe8,
  0x0b, 0xb5, 0x05, 0xe8, 0x53, 0x14, 0x02, 0x4c, 0x21, 0x02, 0xde, 0x45,
  0xf7, 0x13, 0x39, 0x08, 0xff, 0x90, 0xef, 0xf6, 0x3f, 0x6e, 0xf3, 0xdf,
  0xd7, 0xc7, 0x0a, 0x26, 0xb6, 0x17, 0xac, 0xac, 0xbf, 0x78, 0x66, 0x79,
  0x44, 0x60, 0x05, 0xf7, 0xe2, 0x02, 0xfd, 0x20, 0xef, 0x1c, 0xd0, 0xe8,
  0xf4, 0x63, 0x52, 0x14, 0x1e, 0x36, 0x0b, 0xf4, 0xde, 0x21, 0xf3, 0x1e,
  0x0b, 0x0e, 0x13, 0xed, 0x2a, 0x1b, 0x3e, 0x06, 0xf9, 0xee, 0x07, 0xfc,
  0xbf, 0x36, 0xe5, 0x28, 0xfd, 0x06, 0x2b, 0x0d, 0x43, 0x05, 0xee, 0x03,
  0xec, 0xc9, 0x10, 0xf9, 0x91, 0x3b, 0xb0, 0xfb, 0x1b, 0x20, 0x49, 0x15,
  0x7f, 0xd8, 0xab, 0x01, 0x2c, 0x01, 0x00, 0x4a, 0x36, 0xc8, 0xf8, 0x00,
  0x1d, 0xde, 0x8c, 0x0a, 0xe5, 0x16, 0xdb, 0x03, 0x3b, 0xf8, 0xff, 0x0d,
  0x31, 0xbc, 0xfa, 0xfb, 0x09, 0xd8, 0xc6, 0xe7, 0xee, 0xf4, 0xdb, 0xfc,
  0x00, 0x05, 0x05, 0xfc, 0x08, 0x9f, 0xfd, 0xd5, 0xf0, 0xd5, 0xe8, 0xc3,
  0xd2, 0xeb, 0xbc, 0x3f, 0xea, 0xfc, 0x09, 0xfa, 0x00, 0x86, 0x20, 0x9a,
  0xdb, 0xc3, 0x07, 0xb8, 0xbe, 0xc9, 0xec, 0x3e, 0xbc, 0xfa, 0x0d, 0xec,
  0x06, 0x99, 0x1f, 0x81, 0xf3, 0xd1, 0x0f, 0x9e, 0xb4, 0x84, 0xf5, 0x06,
  0xea, 0xb1, 0x0c, 0xca, 0xc1, 0x1d, 0x81, 0xea, 0xf1, 0xd2, 0x2b, 0xf3,
  0x21, 0xfd, 0xae, 0xc7, 0xd6, 0xdd, 0x01, 0xda, 0xcf, 0x01, 0xbc, 0x08,
  0xfb, 0xd1, 0x03, 0xfa, 0xfa, 0x22, 0xc1, 0xd2, 0xf0, 0xf6, 0x05, 0xea,
  0xf0, 0xf7, 0xec, 0x1c, 0xec, 0xd1, 0x01, 0x0b, 0x05, 0x2e, 0xcb, 0xf1,
  0x00, 0x1a, 0x05, 0xea, 0xeb, 0xe1, 0xea, 0x06, 0x08, 0xe7, 0x1e, 0x17,
  0x1b, 0x42, 0xbd, 0x01, 0x05, 0x0b, 0x01, 0x17, 0xce, 0xf2, 0xf8, 0xf9,
  0x39, 0xe2, 0x32, 0x1b, 0x18, 0x3d, 0xc1, 0x49, 0x2f, 0xf6, 0xf9, 0x01,
  0xdc, 0xf9, 0xa9, 0xf3, 0x15, 0xec, 0x81, 0xfb, 0x02, 0xe8, 0x57, 0x00,
  0x29, 0xf9, 0xef, 0xff, 0xd9, 0xfe, 0xce, 0xfd, 0x05, 0x03, 0xc8, 0xf1,
  0xe0, 0xe3, 0x35, 0x0f, 0x14, 0xff, 0xda, 0xfd, 0xd8, 0x08, 0x10, 0x0b,
  0x02, 0xfd, 0xd4, 0xf8, 0xbd, 0xff, 0xfc, 0x20, 0x07, 0xf4, 0xe2, 0x08,
  0xd3, 0xe8, 0x40, 0x0b, 0xf2, 0x0b, 0xfa, 0xf0, 0xc5, 0xee, 0xf5, 0xe6,
  0x10, 0xfa, 0xfa, 0xe5, 0x07, 0xc5, 0x4d, 0x1f, 0xf3, 0xe9, 0x06, 0xda,
  0xdc, 0x17, 0x0d, 0xc3, 0x01, 0x21, 0xfa, 0xee, 0x26, 0xeb, 0x1b, 0x17,
  0xbf, 0x3d, 0xac, 0xcb, 0xe2, 0xda, 0x1f, 0xfe, 0xfe, 0x04, 0xfd, 0xf2,
  0x04, 0xfd, 0x0a, 0x00, 0xdb, 0x2e, 0xe3, 0xd7, 0xdb, 0xdd, 0x13, 0x23,
  0xe9, 0xf6, 0x00, 0x0b, 0x03, 0xfc, 0x04, 0xd6, 0xf0, 0x23, 0xf9, 0xd1,
  0xfb, 0xf9, 0xfc, 0x1d, 0xce, 0x0a, 0x0c, 0x01, 0xf4, 0x00, 0x06, 0xa8,
  0xe6, 0x12, 0x32, 0xc5, 0x11, 0xe8, 0x18, 0x03, 0xa2, 0xf4, 0x1a, 0xe7,
  0xce, 0xe6, 0x06, 0x81, 0x06, 0xfc, 0x1a, 0xb7, 0x16, 0x14, 0x27, 0xfb,
  0x18, 0x31, 0x31, 0xc6, 0x2a, 0xfd, 0xed, 0xcf, 0x35, 0xd7, 0xc1, 0xf4,
  0x00, 0x35, 0xd6, 0x43, 0x31, 0x07, 0x23, 0xe1, 0x1c, 0xeb, 0xf6, 0xcc,
  0x39, 0xd7, 0xb0, 0xfb, 0xdd, 0x05, 0xe9, 0x3b, 0x34, 0xff, 0x24, 0xed,
  0x00, 0xd6, 0xf7, 0xc2, 0x05, 0xd8, 0xc4, 0xfd, 0xf2, 0x07, 0xf5, 0x0a,
  0x3e, 0x08, 0x11, 0x06, 0x01, 0xcf, 0x31, 0xa6, 0x01, 0x0d, 0xd2, 0x01,
  0xd6, 0x18, 0x23, 0xe9, 0x2a, 0x37, 0x0d, 0xfd, 0xbf, 0xb9, 0x5c, 0x86,
  0xe8, 0x28, 0xaf, 0xf5, 0xac, 0x5d, 0x7f, 0xca, 0xe8, 0x81, 0xcf, 0xef,
  0x16, 0xc9, 0xfd, 0xf5, 0x01, 0xbe, 0xf3, 0x42, 0xe0, 0xaa, 0xf7, 0x11,
  0xf0, 0x89, 0xa1, 0xe1, 0x08, 0xc6, 0x00, 0xd9, 0xff, 0xd2, 0xe5, 0x15,
  0xe1, 0xcc, 0xf1, 0x30, 0xec, 0x97, 0xa6, 0xf8, 0x06, 0xae, 0x20, 0xf8,
  0xfd, 0xe2, 0xf2, 0x1f, 0xd6, 0xe3, 0xe7, 0x14, 0xff, 0x94, 0xcd, 0x01,
  0x10, 0xd1, 0x0c, 0xec, 0xe8, 0xeb, 0xc5, 0x30, 0xe4, 0xf3, 0xeb, 0x14,
  0x03, 0xc3, 0x0a, 0x15, 0x02, 0xe4, 0x18, 0xd8, 0xf0, 0xfc, 0xf5, 0x04,
  0x03, 0x05, 0x01, 0x12, 0x0f, 0xb9, 0x06, 0x03, 0xd3, 0x22, 0x28, 0x0a,
  0x22, 0x16, 0x24, 0x0c, 0x50, 0xee, 0xb7, 0xd6, 0xf5, 0xce, 0xe1, 0xed,
  0xf5, 0x15, 0x0a, 0xf1, 0x2a, 0x1d, 0x1a, 0xed, 0x37, 0xdc, 0xf5, 0xcf,
  0xe4, 0xfc, 0xe8, 0xd6, 0xed, 0x05, 0xf9, 0xf8, 0x0c, 0x09, 0x12, 0xe6,
  0x11, 0xec, 0x17, 0xdc, 0xfe, 0x20, 0xe1, 0xb0, 0x04, 0x00, 0xf5, 0xfe,
  0xfa, 0x03, 0xd8, 0xf1, 0xdf, 0xc7, 0x2d, 0xc4, 0x1d, 0x23, 0xcf, 0x81,
  0xff, 0xdf, 0xd2, 0x17, 0xb6, 0x1a, 0xe5, 0xe4, 0xe9, 0xde, 0x44, 0xc4,
  0x12, 0xfc, 0xff, 0xff, 0x04, 0x00, 0x00, 0x00, 0x30, 0x00, 0x00, 0x00,
  0xba, 0x09, 0x00, 0x00, 0xfe, 0xfa, 0xff, 0xff, 0xa6, 0x06, 0x00, 0x00,
  0xb8, 0x0c, 0x00, 0x00, 0xe7, 0xfb, 0xff, 0xff, 0xeb, 0x11, 0x00, 0x00,
  0x85, 0x01, 0x00, 0x00, 0x4a, 0x0d, 0x00, 0x00, 0x3a, 0x0c, 0x00, 0x00,
  0xc4, 0xff, 0xff, 0xff, 0x5c, 0x11, 0x00, 0x00, 0xbd, 0x06, 0x00, 0x00,
  0x4e, 0xfc, 0xff, 0xff, 0x04, 0x00, 0x00, 0x00, 0x20, 0x01, 0x00, 0x00,
  0x0e, 0xc1, 0x02, 0xbf, 0x33, 0x72, 0xbe, 0xe6, 0xb2, 0x07, 0x92, 0x46,
  0x1a, 0xf6, 0xf0, 0xcb, 0x20, 0x36, 0xef, 0xe2, 0xe9, 0x45, 0x9d, 0x17,
  0x18, 0x0e, 0x0f, 0xc4, 0x22, 0x23, 0xf3, 0x43, 0x2a, 0x73, 0x81, 0x45,
  0xf3, 0x26, 0xec, 0x56, 0xff, 0xfa, 0x01, 0xf6, 0xea, 0x03, 0xd7, 0x0e,
  0x22, 0xfb, 0xe4, 0x12, 0xfc, 0xf2, 0xfa, 0xec, 0xc9, 0x34, 0xee, 0x00,
  0x7f, 0xe5, 0xbf, 0x04, 0x0b, 0xfa, 0x03, 0xd1, 0xa9, 0x4c, 0x2f, 0xf8,
  0xcd, 0x26, 0x81, 0xf1, 0x20, 0xf1, 0xfa, 0x03, 0x29, 0x18, 0x0b, 0x08,
  0x0c, 0xf5, 0xcb, 0xd0, 0x03, 0xdc, 0x16, 0x1c, 0xfe, 0x11, 0x11, 0x12,
  0x26, 0xd4, 0x0a, 0xe8, 0xc5, 0xcb, 0x0d, 0x03, 0x2c, 0x2e, 0xea, 0x6f,
  0x4c, 0xf4, 0xdd, 0xe7, 0x13, 0xfa, 0xfb, 0xf9, 0x21, 0xfe, 0x1d, 0xd3,
  0xe6, 0xe6, 0xed, 0xf1, 0x1b, 0xf2, 0xf1, 0x01, 0xfe, 0x1f, 0x1c, 0x0d,
  0x81, 0x29, 0x05, 0xe8, 0x0c, 0xf8, 0xea, 0xe0, 0xe0, 0xfe, 0x23, 0x18,
  0xec, 0x65, 0x15, 0x4d, 0xae, 0xba, 0x02, 0x0e, 0xa7, 0x03, 0xf4, 0xd0,
  0x05, 0x41, 0xdc, 0xfe, 0xbc, 0xe7, 0x29, 0xf0, 0xa4, 0x50, 0x25, 0xe7,
  0x37, 0x36, 0xc9, 0x14, 0xcd, 0xdc, 0xfa, 0xe9, 0x15, 0x7f, 0x4d, 0xe7,
  0xf6, 0x05, 0x02, 0x61, 0x7f, 0x8d, 0x3e, 0xf9, 0xdc, 0xbf, 0xed, 0x16,
  0xf4, 0x03, 0x31, 0x0a, 0x09, 0xc2, 0xf1, 0x3f, 0xa2, 0xc9, 0x13, 0xfd,
  0x1d, 0xea, 0x63, 0xaf, 0xd2, 0xa8, 0xb3, 0x45, 0xc1, 0x3d, 0x16, 0xce,
  0xd1, 0x20, 0x3f, 0x09, 0xe5, 0xf9, 0x31, 0x93, 0x00, 0xcb, 0xda, 0x0b,
  0xf6, 0x13, 0xe1, 0x14, 0xe7, 0x07, 0x0b, 0xe6, 0xe9, 0x1e, 0xcf, 0xce,
  0x00, 0xfe, 0xeb, 0xeb, 0xf8, 0x41, 0x32, 0x7f, 0x2a, 0x2f, 0xe1, 0xc2,
  0xcd, 0xab, 0x52, 0xa9, 0x0e, 0xcc, 0xf6, 0x0e, 0xe6, 0xf1, 0xf1, 0x06,
  0xfd, 0xf9, 0x61, 0xf1, 0xf2, 0xf1, 0x99, 0x00, 0xee, 0x12, 0x15, 0x04,
  0x31, 0xe4, 0x70, 0x3b, 0x1b, 0x12, 0x81, 0x1e, 0xff, 0x17, 0x0f, 0x41,
  0x7a, 0xfd, 0xff, 0xff, 0x04, 0x00, 0x00, 0x00, 0x20, 0x00, 0x00, 0x00,
  0x8b, 0x03, 0x00, 0x00, 0xc5, 0x05, 0x00, 0x00, 0xc2, 0xfd, 0xff, 0xff,
  0x02, 0x05, 0x00, 0x00, 0x6d, 0x08, 0x00, 0x00, 0xb4, 0xfb, 0xff, 0xff,
  0xc6, 0x02, 0x00, 0x00, 0xc8, 0xfb, 0xff, 0xff, 0xa6, 0xfd, 0xff, 0xff,
  0x04, 0x00, 0x00, 0x00, 0x80, 0x00, 0x00, 0x00, 0x81, 0x47, 0x24, 0x5d,
  0x40, 0x01, 0xdf, 0xce, 0x8d, 0xf0, 0xdf, 0x21, 0x7f, 0xf2, 0x70, 0x99,
  0x70, 0x6d, 0x2f, 0x81, 0xd5, 0xe1, 0xeb, 0x28, 0xd7, 0x52, 0x3f, 0x48,
  0xf2, 0x81, 0xcf, 0x40, 0x14, 0x23, 0xdc, 0x81, 0x4e, 0x52, 0x1c, 0xb3,
  0x7f, 0xca, 0xfa, 0x94, 0xb7, 0x0c, 0x5c, 0x07, 0xe8, 0x7f, 0xe9, 0xc1,
  0x31, 0x8e, 0xb2, 0x4d, 0x10, 0x95, 0x30, 0x2d, 0xf4, 0xbe, 0x7f, 0xd2,
  0xbd, 0x81, 0x95, 0x2d, 0x55, 0xf4, 0x4f, 0x05, 0x34, 0x37, 0xdf, 0x81,
  0x3f, 0x41, 0x32, 0xb1, 0x7f, 0xc2, 0x43, 0x8f, 0xb7, 0x2e, 0x71, 0xcb,
  0xfb, 0xfd, 0x7f, 0x0f, 0x18, 0xa7, 0x58, 0xbc, 0xfe, 0x00, 0x7f, 0xff,
  0x17, 0xb8, 0x4c, 0xc7, 0xf5, 0xcf, 0x2e, 0x7f, 0xac, 0x98, 0xcd, 0x47,
  0x3d, 0x7f, 0x3c, 0xd0, 0xc1, 0xef, 0x9c, 0x3b, 0xf6, 0x0b, 0x7f, 0x14,
  0x12, 0xa7, 0x43, 0xc7, 0x32, 0xfe, 0xff, 0xff, 0x04, 0x00, 0x00, 0x00,
  0x40, 0x00, 0x00, 0x00, 0xef, 0xf9, 0xff, 0xff, 0x8e, 0x06, 0x00, 0x00,
  0x5a, 0xff, 0xff, 0xff, 0xe2, 0xfa, 0xff, 0xff, 0x7e, 0x01, 0x00, 0x00,
  0x51, 0x05, 0x00, 0x00, 0xad, 0xfa, 0xff, 0xff, 0xaa, 0x04, 0x00, 0x00,
  0x1d, 0x11, 0x00, 0x00, 0x17, 0xfb, 0xff, 0xff, 0x68, 0xff, 0xff, 0xff,
  0x20, 0xff, 0xff, 0xff, 0x16, 0xff, 0xff, 0xff, 0x8e, 0x09, 0x00, 0x00,
  0xb9, 0xfa, 0xff, 0xff, 0xe3, 0xfd, 0xff, 0xff, 0x7e, 0xfe, 0xff, 0xff,
  0x04, 0x00, 0x00, 0x00, 0x70, 0x00, 0x00, 0x00, 0x19, 0x11, 0x81, 0x10,
  0x9d, 0x90, 0xd5, 0x18, 0x10, 0x89, 0x99, 0x0d, 0x04, 0x14, 0x92, 0x10,
  0xa5, 0x81, 0x17, 0x10, 0x8c, 0x10, 0xce, 0x1b, 0x85, 0xab, 0x17, 0x17,
  0x14, 0x17, 0x18, 0x1a, 0x27, 0x1d, 0x81, 0x9e, 0x17, 0xa4, 0xb6, 0x9f,
  0x18, 0x0a, 0xb0, 0x9b, 0x86, 0x8c, 0x97, 0x8d, 0xbf, 0x85, 0x1c, 0x81,
  0x1b, 0x1b, 0xcc, 0x97, 0x8c, 0x1f, 0x20, 0x9b, 0xa6, 0x94, 0x1f, 0x9a,
  0xb4, 0x14, 0xfb, 0x81, 0x13, 0x0f, 0xbc, 0x21, 0x10, 0x12, 0x14, 0x14,
  0x0e, 0xa8, 0x8a, 0x0f, 0x2b, 0x11, 0x1c, 0x22, 0x1c, 0x81, 0x43, 0xb1,
  0x82, 0x19, 0x9e, 0x1b, 0x13, 0x90, 0x1c, 0x1f, 0xc5, 0xc1, 0x03, 0x1d,
  0xb9, 0xf8, 0x46, 0xc4, 0x10, 0x8c, 0xa7, 0x8e, 0x81, 0x26, 0x07, 0x9b,
  0xfa, 0xfe, 0xff, 0xff, 0x04, 0x00, 0x00, 0x00, 0x1c, 0x00, 0x00, 0x00,
  0xfe, 0x02, 0x00, 0x00, 0xf1, 0xf3, 0xff, 0xff, 0xc9, 0x0c, 0x00, 0x00,
  0x27, 0x00, 0x00, 0x00, 0x0c, 0xfb, 0xff, 0xff, 0xc4, 0xed, 0xff, 0xff,
  0x32, 0x16, 0x00, 0x00, 0x22, 0xff, 0xff, 0xff, 0x04, 0x00, 0x00, 0x00,
  0x04, 0x00, 0x00, 0x00, 0x01, 0x00, 0x00, 0x00, 0x32, 0xff, 0xff, 0xff,
  0x04, 0x00, 0x00, 0x00, 0x0c, 0x00, 0x00, 0x00, 0x01, 0x00, 0x00, 0x00,
  0x7d, 0x00, 0x00, 0x00, 0x08, 0x00, 0x00, 0x00, 0x4a, 0xff, 0xff, 0xff,
  0x04, 0x00, 0x00, 0x00, 0x10, 0x00, 0x00, 0x00, 0x01, 0x00, 0x00, 0x00,
  0x01, 0x00, 0x00, 0x00, 0xf4, 0x01, 0x00, 0x00, 0x06, 0x00, 0x00, 0x00,
  0x74, 0xeb, 0xff, 0xff, 0x78, 0xeb, 0xff, 0xff, 0x0f, 0x00, 0x00, 0x00,
  0x4d, 0x4c, 0x49, 0x52, 0x20, 0x43, 0x6f, 0x6e, 0x76, 0x65, 0x72, 0x74,
  0x65, 0x64, 0x2e, 0x00, 0x01, 0x00, 0x00, 0x00, 0x14, 0x00, 0x00, 0x00,
  0x00, 0x00, 0x0e, 0x00, 0x18, 0x00, 0x14, 0x00, 0x10, 0x00, 0x0c, 0x00,
  0x08, 0x00, 0x04, 0x00, 0x0e, 0x00, 0x00, 0x00, 0x14, 0x00, 0x00, 0x00,
  0x1c, 0x00, 0x00, 0x00, 0x44, 0x02, 0x00, 0x00, 0x48, 0x02, 0x00, 0x00,
  0x4c, 0x02, 0x00, 0x00, 0x04, 0x00, 0x00, 0x00, 0x6d, 0x61, 0x69, 0x6e,
  0x00, 0x00, 0x00, 0x00, 0x09, 0x00, 0x00, 0x00, 0x08, 0x02, 0x00, 0x00,
  0xac, 0x01, 0x00, 0x00, 0x58, 0x01, 0x00, 0x00, 0x14, 0x01, 0x00, 0x00,
  0xf0, 0x00, 0x00, 0x00, 0xbc, 0x00, 0x00, 0x00, 0x78, 0x00, 0x00, 0x00,
  0x40, 0x00, 0x00, 0x00, 0x04, 0x00, 0x00, 0x00, 0x82, 0xfe, 0xff, 0xff,
  0x1c, 0x00, 0x00, 0x00, 0x00, 0x00, 0x00, 0x09, 0x1c, 0x00, 0x00, 0x00,
  0x20, 0x00, 0x00, 0x00, 0x04, 0x00, 0x00, 0x00, 0x00, 0x00, 0x06, 0x00,
  0x08, 0x00, 0x04, 0x00, 0x06, 0x00, 0x00, 0x00, 0x00, 0x00, 0x80, 0x3f,
  0x01, 0x00, 0x00, 0x00, 0x16, 0x00, 0x00, 0x00, 0x01, 0x00, 0x00, 0x00,
  0x15, 0x00, 0x00, 0x00, 0xba, 0xfe, 0xff, 0xff, 0x14, 0x00, 0x00, 0x00,
  0x00, 0x00, 0x00, 0x08, 0x10, 0x00, 0x00, 0x00, 0x14, 0x00, 0x00, 0x00,
  0x03, 0x00, 0x00, 0x00, 0x44, 0xec, 0xff, 0xff, 0x01, 0x00, 0x00, 0x00,
  0x15, 0x00, 0x00, 0x00, 0x03, 0x00, 0x00, 0x00, 0x14, 0x00, 0x00, 0x00,
  0x05, 0x00, 0x00, 0x00, 0x04, 0x00, 0x00, 0x00, 0xee, 0xfe, 0xff, 0xff,
  0x1c, 0x00, 0x00, 0x00, 0x00, 0x00, 0x00, 0x08, 0x1c, 0x00, 0x00, 0x00,
  0x20, 0x00, 0x00, 0x00, 0x03, 0x00, 0x00, 0x00, 0x00, 0x00, 0x06, 0x00,
  0x08, 0x00, 0x07, 0x00, 0x06, 0x00, 0x00, 0x00, 0x00, 0x00, 0x00, 0x01,
  0x01, 0x00, 0x00, 0x00, 0x14, 0x00, 0x00, 0x00, 0x03, 0x00, 0x00, 0x00,
  0x13, 0x00, 0x00, 0x00, 0x07, 0x00, 0x00, 0x00, 0x06, 0x00, 0x00, 0x00,
  0x2e, 0xff, 0xff, 0xff, 0x14, 0x00, 0x00, 0x00, 0x00, 0x00, 0x00, 0x1b,
  0x10, 0x00, 0x00, 0x00, 0x14, 0x00, 0x00, 0x00, 0x02, 0x00, 0x00, 0x00,
  0xb8, 0xec, 0xff, 0xff, 0x01, 0x00, 0x00, 0x00, 0x13, 0x00, 0x00, 0x00,
  0x02, 0x00, 0x00, 0x00, 0x12, 0x00, 0x00, 0x00, 0x03, 0x00, 0x00, 0x00,
  0x02, 0xff, 0xff, 0xff, 0x08, 0x00, 0x00, 0x00, 0x0c, 0x00, 0x00, 0x00,
  0x01, 0x00, 0x00, 0x00, 0x12, 0x00, 0x00, 0x00, 0x02, 0x00, 0x00, 0x00,
  0x11, 0x00, 0x00, 0x00, 0x02, 0x00, 0x00, 0x00, 0x7e, 0xff, 0xff, 0xff,
  0x14, 0x00, 0x00, 0x00, 0x00, 0x00, 0x00, 0x01, 0x1c, 0x00, 0x00, 0x00,
  0x20, 0x00, 0x00, 0x00, 0x01, 0x00, 0x00, 0x00, 0x70, 0xff, 0xff, 0xff,
  0x00, 0x00, 0x00, 0x01, 0x01, 0x00, 0x00, 0x00, 0x01, 0x00, 0x00, 0x00,
  0x01, 0x00, 0x00, 0x00, 0x11, 0x00, 0x00, 0x00, 0x03, 0x00, 0x00, 0x00,
  0x10, 0x00, 0x00, 0x00, 0x09, 0x00, 0x00, 0x00, 0x08, 0x00, 0x00, 0x00,
  0xbe, 0xff, 0xff, 0xff, 0x14, 0x00, 0x00, 0x00, 0x00, 0x00, 0x00, 0x01,
  0x1c, 0x00, 0x00, 0x00, 0x20, 0x00, 0x00, 0x00, 0x01, 0x00, 0x00, 0x00,
  0xb0, 0xff, 0xff, 0xff, 0x00, 0x00, 0x00, 0x01, 0x01, 0x00, 0x00, 0x00,
  0x02, 0x00, 0x00, 0x00, 0x01, 0x00, 0x00, 0x00, 0x10, 0x00, 0x00, 0x00,
  0x03, 0x00, 0x00, 0x00, 0x0f, 0x00, 0x00, 0x00, 0x0b, 0x00, 0x00, 0x00,
  0x0a, 0x00, 0x00, 0x00, 0x00, 0x00, 0x0e, 0x00, 0x18, 0x00, 0x14, 0x00,
  0x10, 0x00, 0x0c, 0x00, 0x0b, 0x00, 0x04, 0x00, 0x0e, 0x00, 0x00, 0x00,
  0x20, 0x00, 0x00, 0x00, 0x00, 0x00, 0x00, 0x01, 0x28, 0x00, 0x00, 0x00,
  0x2c, 0x00, 0x00, 0x00, 0x01, 0x00, 0x00, 0x00, 0x0c, 0x00, 0x10, 0x00,
  0x00, 0x00, 0x0c, 0x00, 0x08, 0x00, 0x07, 0x00, 0x0c, 0x00, 0x00, 0x00,
  0x00, 0x00, 0x00, 0x01, 0x01, 0x00, 0x00, 0x00, 0x02, 0x00, 0x00, 0x00,
  0x01, 0x00, 0x00, 0x00, 0x0f, 0x00, 0x00, 0x00, 0x03, 0x00, 0x00, 0x00,
  0x0e, 0x00, 0x00, 0x00, 0x0d, 0x00, 0x00, 0x00, 0x0c, 0x00, 0x00, 0x00,
  0x00, 0x00, 0x0a, 0x00, 0x0c, 0x00, 0x00, 0x00, 0x08, 0x00, 0x04, 0x00,
  0x0a, 0x00, 0x00, 0x00, 0x08, 0x00, 0x00, 0x00, 0x0c, 0x00, 0x00, 0x00,
  0x01, 0x00, 0x00, 0x00, 0x0e, 0x00, 0x00, 0x00, 0x02, 0x00, 0x00, 0x00,
  0x00, 0x00, 0x00, 0x00, 0x01, 0x00, 0x00, 0x00, 0x01, 0x00, 0x00, 0x00,
  0x16, 0x00, 0x00, 0x00, 0x01, 0x00, 0x00, 0x00, 0x00, 0x00, 0x00, 0x00,
  0x17, 0x00, 0x00, 0x00, 0x30, 0x12, 0x00, 0x00, 0xd4, 0x11, 0x00, 0x00,
  0x94, 0x11, 0x00, 0x00, 0x58, 0x11, 0x00, 0x00, 0xac, 0x10, 0x00, 0x00,
  0x00, 0x10, 0x00, 0x00, 0xec, 0x0e, 0x00, 0x00, 0xd0, 0x0d, 0x00, 0x00,
  0x1c, 0x0d, 0x00, 0x00, 0x58, 0x0c, 0x00, 0x00, 0x74, 0x0b, 0x00, 0x00,
  0x80, 0x0a, 0x00, 0x00, 0x6c, 0x09, 0x00, 0x00, 0x48, 0x08, 0x00, 0x00,
  0xbc, 0x07, 0x00, 0x00, 0x50, 0x06, 0x00, 0x00, 0xe4, 0x04, 0x00, 0x00,
  0x78, 0x03, 0x00, 0x00, 0x3c, 0x02, 0x00, 0x00, 0xb8, 0x01, 0x00, 0x00,
  0x04, 0x01, 0x00, 0x00, 0x70, 0x00, 0x00, 0x00, 0x04, 0x00, 0x00, 0x00,
  0x42, 0xee, 0xff, 0xff, 0x00, 0x00, 0x00, 0x01, 0x14, 0x00, 0x00, 0x00,
  0x30, 0x00, 0x00, 0x00, 0x17, 0x00, 0x00, 0x00, 0x00, 0x00, 0x00, 0x09,
  0x44, 0x00, 0x00, 0x00, 0x2c, 0xee, 0xff, 0xff, 0x08, 0x00, 0x00, 0x00,
  0x10, 0x00, 0x00, 0x00, 0x01, 0x00, 0x00, 0x00, 0x80, 0xff, 0xff, 0xff,
  0xff, 0xff, 0xff, 0xff, 0x01, 0x00, 0x00, 0x00, 0x00, 0x00, 0x80, 0x3b,
  0x1b, 0x00, 0x00, 0x00, 0x53, 0x74, 0x61, 0x74, 0x65, 0x66, 0x75, 0x6c,
  0x50, 0x61, 0x72, 0x74, 0x69, 0x74, 0x69, 0x6f, 0x6e, 0x65, 0x64, 0x43,
  0x61, 0x6c, 0x6c, 0x5f, 0x31, 0x3a, 0x30, 0x00, 0x02, 0x00, 0x00, 0x00,
  0x01, 0x00, 0x00, 0x00, 0x07, 0x00, 0x00, 0x00, 0xaa, 0xee, 0xff, 0xff,
  0x00, 0x00, 0x00, 0x01, 0x14, 0x00, 0x00, 0x00, 0x30, 0x00, 0x00, 0x00,
  0x16, 0x00, 0x00, 0x00, 0x00, 0x00, 0x00, 0x09, 0x6c, 0x00, 0x00, 0x00,
  0x94, 0xee, 0xff, 0xff, 0x08, 0x00, 0x00, 0x00, 0x10, 0x00, 0x00, 0x00,
  0x01, 0x00, 0x00, 0x00, 0x53, 0x00, 0x00, 0x00, 0x00, 0x00, 0x00, 0x00,
  0x01, 0x00, 0x00, 0x00, 0x97, 0xfc, 0xaf, 0x3e, 0x42, 0x00, 0x00, 0x00,
  0x73, 0x65, 0x71, 0x75, 0x65, 0x6e, 0x74, 0x69, 0x61, 0x6c, 0x5f, 0x36,
  0x5f, 0x31, 0x2f, 0x64, 0x65, 0x6e, 0x73, 0x65, 0x5f, 0x31, 0x33, 0x5f,
  0x31, 0x2f, 0x4d, 0x61, 0x74, 0x4d, 0x75, 0x6c, 0x3b, 0x73, 0x65, 0x71,
  0x75, 0x65, 0x6e, 0x74, 0x69, 0x61, 0x6c, 0x5f, 0x36, 0x5f, 0x31, 0x2f,
  0x64, 0x65, 0x6e, 0x73, 0x65, 0x5f, 0x31, 0x33, 0x5f, 0x31, 0x2f, 0x42,
  0x69, 0x61, 0x73, 0x41, 0x64, 0x64, 0x00, 0x00, 0x02, 0x00, 0x00, 0x00,
  0x01, 0x00, 0x00, 0x00, 0x07, 0x00, 0x00, 0x00, 0x3a, 0xef, 0xff, 0xff,
  0x00, 0x00, 0x00, 0x01, 0x14, 0x00, 0x00, 0x00, 0x30, 0x00, 0x00, 0x00,
  0x15, 0x00, 0x00, 0x00, 0x00, 0x00, 0x00, 0x09, 0x8c, 0x00, 0x00, 0x00,
  0x24, 0xef, 0xff, 0xff, 0x08, 0x00, 0x00, 0x00, 0x10, 0x00, 0x00, 0x00,
  0x01, 0x00, 0x00, 0x00, 0x80, 0xff, 0xff, 0xff, 0xff, 0xff, 0xff, 0xff,
  0x01, 0x00, 0x00, 0x00, 0x46, 0x00, 0x32, 0x3c, 0x61, 0x00, 0x00, 0x00,
  0x73, 0x65, 0x71, 0x75, 0x65, 0x6e, 0x74, 0x69, 0x61, 0x6c, 0x5f, 0x36,
  0x5f, 0x31, 0x2f, 0x64, 0x65, 0x6e, 0x73, 0x65, 0x5f, 0x31, 0x32, 0x5f,
  0x31, 0x2f, 0x4d, 0x61, 0x74, 0x4d, 0x75, 0x6c, 0x3b, 0x73, 0x65, 0x71,
  0x75, 0x65, 0x6e, 0x74, 0x69, 0x61, 0x6c, 0x5f, 0x36, 0x5f, 0x31, 0x2f,
  0x64, 0x65, 0x6e, 0x73, 0x65, 0x5f, 0x31, 0x32, 0x5f, 0x31, 0x2f, 0x52,
  0x65, 0x6c, 0x75, 0x3b, 0x73, 0x65, 0x71, 0x75, 0x65, 0x6e, 0x74, 0x69,
  0x61, 0x6c, 0x5f, 0x36, 0x5f, 0x31, 0x2f, 0x64, 0x65, 0x6e, 0x73, 0x65,
  0x5f, 0x31, 0x32, 0x5f, 0x31, 0x2f, 0x42, 0x69, 0x61, 0x73, 0x41, 0x64,
  0x64, 0x00, 0x00, 0x00, 0x02, 0x00, 0x00, 0x00, 0x01, 0x00, 0x00, 0x00,
  0x10, 0x00, 0x00, 0x00, 0xea, 0xef, 0xff, 0xff, 0x00, 0x00, 0x00, 0x01,
  0x14, 0x00, 0x00, 0x00, 0x30, 0x00, 0x00, 0x00, 0x14, 0x00, 0x00, 0x00,
  0x00, 0x00, 0x00, 0x09, 0x5c, 0x00, 0x00, 0x00, 0xd4, 0xef, 0xff, 0xff,
  0x08, 0x00, 0x00, 0x00, 0x10, 0x00, 0x00, 0x00, 0x01, 0x00, 0x00, 0x00,
  0x80, 0xff, 0xff, 0xff, 0xff, 0xff, 0xff, 0xff, 0x01, 0x00, 0x00, 0x00,
  0xbe, 0xb1, 0x86, 0x3c, 0x30, 0x00, 0x00, 0x00, 0x73, 0x65, 0x71, 0x75,
  0x65, 0x6e, 0x74, 0x69, 0x61, 0x6c, 0x5f, 0x36, 0x5f, 0x31, 0x2f, 0x67,
  0x6c, 0x6f, 0x62, 0x61, 0x6c, 0x5f, 0x61, 0x76, 0x65, 0x72, 0x61, 0x67,
  0x65, 0x5f, 0x70, 0x6f, 0x6f, 0x6c, 0x69, 0x6e, 0x67, 0x31, 0x64, 0x5f,
  0x36, 0x5f, 0x31, 0x2f, 0x4d, 0x65, 0x61, 0x6e, 0x00, 0x00, 0x00, 0x00,
  0x02, 0x00, 0x00, 0x00, 0x01, 0x00, 0x00, 0x00, 0x08, 0x00, 0x00, 0x00,
  0x6a, 0xf0, 0xff, 0xff, 0x00, 0x00, 0x00, 0x01, 0x14, 0x00, 0x00, 0x00,
  0x30, 0x00, 0x00, 0x00, 0x13, 0x00, 0x00, 0x00, 0x00, 0x00, 0x00, 0x09,
  0x10, 0x01, 0x00, 0x00, 0x54, 0xf0, 0xff, 0xff, 0x08, 0x00, 0x00, 0x00,
  0x10, 0x00, 0x00, 0x00, 0x01, 0x00, 0x00, 0x00, 0x80, 0xff, 0xff, 0xff,
  0xff, 0xff, 0xff, 0xff, 0x01, 0x00, 0x00, 0x00, 0xf3, 0x6b, 0x92, 0x3d,
  0xe6, 0x00, 0x00, 0x00, 0x73, 0x65, 0x71, 0x75, 0x65, 0x6e, 0x74, 0x69,
  0x61, 0x6c, 0x5f, 0x36, 0x5f, 0x31, 0x2f, 0x61, 0x63, 0x74, 0x69, 0x76,
  0x61, 0x74, 0x69, 0x6f, 0x6e, 0x5f, 0x32, 0x30, 0x5f, 0x31, 0x2f, 0x52,
  0x65, 0x6c, 0x75, 0x3b, 0x73, 0x65, 0x71, 0x75, 0x65, 0x6e, 0x74, 0x69,
  0x61, 0x6c, 0x5f, 0x36, 0x5f, 0x31, 0x2f, 0x62, 0x61, 0x74, 0x63, 0x68,
  0x5f, 0x6e, 0x6f, 0x72, 0x6d, 0x61, 0x6c, 0x69, 0x7a, 0x61, 0x74, 0x69,
  0x6f, 0x6e, 0x5f, 0x32, 0x30, 0x5f, 0x31, 0x2f, 0x62, 0x61, 0x74, 0x63,
  0x68, 0x6e, 0x6f, 0x72, 0x6d, 0x2f, 0x61, 0x64, 0x64, 0x5f, 0x31, 0x3b,
  0x73, 0x65, 0x71, 0x75, 0x65, 0x6e, 0x74, 0x69, 0x61, 0x6c, 0x5f, 0x36,
  0x5f, 0x31, 0x2f, 0x63, 0x6f, 0x6e, 0x76, 0x31, 0x64, 0x5f, 0x32, 0x30,
  0x5f, 0x31, 0x2f, 0x63, 0x6f, 0x6e, 0x76, 0x6f, 0x6c, 0x75, 0x74, 0x69,
  0x6f, 0x6e, 0x2f, 0x53, 0x71, 0x75, 0x65, 0x65, 0x7a, 0x65, 0x3b, 0x73,
  0x65, 0x71, 0x75, 0x65, 0x6e, 0x74, 0x69, 0x61, 0x6c, 0x5f, 0x36, 0x5f,
  0x31, 0x2f, 0x62, 0x61, 0x74, 0x63, 0x68, 0x5f, 0x6e, 0x6f, 0x72, 0x6d,
  0x61, 0x6c, 0x69, 0x7a, 0x61, 0x74, 0x69, 0x6f, 0x6e, 0x5f, 0x32, 0x30,
  0x5f, 0x31, 0x2f, 0x62, 0x61, 0x74, 0x63, 0x68, 0x6e, 0x6f, 0x72, 0x6d,
  0x2f, 0x6d, 0x75, 0x6c, 0x5f, 0x31, 0x3b, 0x73, 0x65, 0x71, 0x75, 0x65,
  0x6e, 0x74, 0x69, 0x61, 0x6c, 0x5f, 0x36, 0x5f, 0x31, 0x2f, 0x63, 0x6f,
  0x6e, 0x76, 0x31, 0x64, 0x5f, 0x32, 0x30, 0x5f, 0x31, 0x2f, 0x42, 0x69,
  0x61, 0x73, 0x41, 0x64, 0x64, 0x3b, 0x00, 0x00, 0x03, 0x00, 0x00, 0x00,
  0x01, 0x00, 0x00, 0x00, 0x7d, 0x00, 0x00, 0x00, 0x08, 0x00, 0x00, 0x00,
  0xa2, 0xf1, 0xff, 0xff, 0x00, 0x00, 0x00, 0x01, 0x14, 0x00, 0x00, 0x00,
  0x34, 0x00, 0x00, 0x00, 0x12, 0x00, 0x00, 0x00, 0x00, 0x00, 0x00, 0x09,
  0x3c, 0x01, 0x00, 0x00, 0x8c, 0xf1, 0xff, 0xff, 0x08, 0x00, 0x00, 0x00,
  0x14, 0x00, 0x00, 0x00, 0x01, 0x00, 0x00, 0x00, 0x80, 0xff, 0xff, 0xff,
  0xff, 0xff, 0xff, 0xff, 0x00, 0x00, 0x00, 0x00, 0x01, 0x00, 0x00, 0x00,
  0xf3, 0x6b, 0x92, 0x3d, 0x0d, 0x01, 0x00, 0x00, 0x73, 0x65, 0x71, 0x75,
  0x65, 0x6e, 0x74, 0x69, 0x61, 0x6c, 0x5f, 0x36, 0x5f, 0x31, 0x2f, 0x61,
  0x63, 0x74, 0x69, 0x76, 0x61, 0x74, 0x69, 0x6f, 0x6e, 0x5f, 0x32, 0x30,
  0x5f, 0x31, 0x2f, 0x52, 0x65, 0x6c, 0x75, 0x3b, 0x73, 0x65, 0x71, 0x75,
  0x65, 0x6e, 0x74, 0x69, 0x61, 0x6c, 0x5f, 0x36, 0x5f, 0x31, 0x2f, 0x62,
  0x61, 0x74, 0x63, 0x68, 0x5f, 0x6e, 0x6f, 0x72, 0x6d, 0x61, 0x6c, 0x69,
  0x7a, 0x61, 0x74, 0x69, 0x6f, 0x6e, 0x5f, 0x32, 0x30, 0x5f, 0x31, 0x2f,
  0x62, 0x61, 0x74, 0x63, 0x68, 0x6e, 0x6f, 0x72, 0x6d, 0x2f, 0x61, 0x64,
  0x64, 0x5f, 0x31, 0x3b, 0x73, 0x65, 0x71, 0x75, 0x65, 0x6e, 0x74, 0x69,
  0x61, 0x6c, 0x5f, 0x36, 0x5f, 0x31, 0x2f, 0x63, 0x6f, 0x6e, 0x76, 0x31,
  0x64, 0x5f, 0x32, 0x30, 0x5f, 0x31, 0x2f, 0x63, 0x6f, 0x6e, 0x76, 0x6f,
  0x6c, 0x75, 0x74, 0x69, 0x6f, 0x6e, 0x2f, 0x53, 0x71, 0x75, 0x65, 0x65,
  0x7a, 0x65, 0x3b, 0x73, 0x65, 0x71, 0x75, 0x65, 0x6e, 0x74, 0x69, 0x61,
  0x6c, 0x5f, 0x36, 0x5f, 0x31, 0x2f, 0x62, 0x61, 0x74, 0x63, 0x68, 0x5f,
  0x6e, 0x6f, 0x72, 0x6d, 0x61, 0x6c, 0x69, 0x7a, 0x61, 0x74, 0x69, 0x6f,
  0x6e, 0x5f, 0x32, 0x30, 0x5f, 0x31, 0x2f, 0x62, 0x61, 0x74, 0x63, 0x68,
  0x6e, 0x6f, 0x72, 0x6d, 0x2f, 0x6d, 0x75, 0x6c, 0x5f, 0x31, 0x3b, 0x73,
  0x65, 0x71, 0x75, 0x65, 0x6e, 0x74, 0x69, 0x61, 0x6c, 0x5f, 0x36, 0x5f,
  0x31, 0x2f, 0x63, 0x6f, 0x6e, 0x76, 0x31, 0x64, 0x5f, 0x32, 0x30, 0x5f,
  0x31, 0x2f, 0x42, 0x69, 0x61, 0x73, 0x41, 0x64, 0x64, 0x3b, 0x3b, 0x73,
  0x65, 0x71, 0x75, 0x65, 0x6e, 0x74, 0x69, 0x61, 0x6c, 0x5f, 0x36, 0x5f,
  0x31, 0x2f, 0x63, 0x6f, 0x6e, 0x76, 0x31, 0x64, 0x5f, 0x32, 0x30, 0x5f,
  0x31, 0x2f, 0x63, 0x6f, 0x6e, 0x76, 0x6f, 0x6c, 0x75, 0x74, 0x69, 0x6f,
  0x6e, 0x00, 0x00, 0x00, 0x04, 0x00, 0x00, 0x00, 0x01, 0x00, 0x00, 0x00,
  0x01, 0x00, 0x00, 0x00, 0x7d, 0x00, 0x00, 0x00, 0x08, 0x00, 0x00, 0x00,
  0x0a, 0xf3, 0xff, 0xff, 0x00, 0x00, 0x00, 0x01, 0x14, 0x00, 0x00, 0x00,
  0x34, 0x00, 0x00, 0x00, 0x11, 0x00, 0x00, 0x00, 0x00, 0x00, 0x00, 0x09,
  0x3c, 0x01, 0x00, 0x00, 0xf4, 0xf2, 0xff, 0xff, 0x08, 0x00, 0x00, 0x00,
  0x14, 0x00, 0x00, 0x00, 0x01, 0x00, 0x00, 0x00, 0x80, 0xff, 0xff, 0xff,
  0xff, 0xff, 0xff, 0xff, 0x00, 0x00, 0x00, 0x00, 0x01, 0x00, 0x00, 0x00,
  0x89, 0x5b, 0x01, 0x3d, 0x0d, 0x01, 0x00, 0x00, 0x73, 0x65, 0x71, 0x75,
  0x65, 0x6e, 0x74, 0x69, 0x61, 0x6c, 0x5f, 0x36, 0x5f, 0x31, 0x2f, 0x61,
  0x63, 0x74, 0x69, 0x76, 0x61, 0x74, 0x69, 0x6f, 0x6e, 0x5f, 0x31, 0x39,
  0x5f, 0x31, 0x2f, 0x52, 0x65, 0x6c, 0x75, 0x3b, 0x73, 0x65, 0x71, 0x75,
  0x65, 0x6e, 0x74, 0x69, 0x61, 0x6c, 0x5f, 0x36, 0x5f, 0x31, 0x2f, 0x62,
  0x61, 0x74, 0x63, 0x68, 0x5f, 0x6e, 0x6f, 0x72, 0x6d, 0x61, 0x6c, 0x69,
  0x7a, 0x61, 0x74, 0x69, 0x6f, 0x6e, 0x5f, 0x31, 0x39, 0x5f, 0x31, 0x2f,
  0x62, 0x61, 0x74, 0x63, 0x68, 0x6e, 0x6f, 0x72, 0x6d, 0x2f, 0x61, 0x64,
  0x64, 0x5f, 0x31, 0x3b, 0x73, 0x65, 0x71, 0x75, 0x65, 0x6e, 0x74, 0x69,
  0x61, 0x6c, 0x5f, 0x36, 0x5f, 0x31, 0x2f, 0x63, 0x6f, 0x6e, 0x76, 0x31,
  0x64, 0x5f, 0x31, 0x39, 0x5f, 0x31, 0x2f, 0x63, 0x6f, 0x6e, 0x76, 0x6f,
  0x6c, 0x75, 0x74, 0x69, 0x6f, 0x6e, 0x2f, 0x53, 0x71, 0x75, 0x65, 0x65,
  0x7a, 0x65, 0x3b, 0x73, 0x65, 0x71, 0x75, 0x65, 0x6e, 0x74, 0x69, 0x61,
  0x6c, 0x5f, 0x36, 0x5f, 0x31, 0x2f, 0x62, 0x61, 0x74, 0x63, 0x68, 0x5f,
  0x6e, 0x6f, 0x72, 0x6d, 0x61, 0x6c, 0x69, 0x7a, 0x61, 0x74, 0x69, 0x6f,
  0x6e, 0x5f, 0x31, 0x39, 0x5f, 0x31, 0x2f, 0x62, 0x61, 0x74, 0x63, 0x68,
  0x6e, 0x6f, 0x72, 0x6d, 0x2f, 0x6d, 0x75, 0x6c, 0x5f, 0x31, 0x3b, 0x73,
  0x65, 0x71, 0x75, 0x65, 0x6e, 0x74, 0x69, 0x61, 0x6c, 0x5f, 0x36, 0x5f,
  0x31, 0x2f, 0x63, 0x6f, 0x6e, 0x76, 0x31, 0x64, 0x5f, 0x31, 0x39, 0x5f,
  0x31, 0x2f, 0x42, 0x69, 0x61, 0x73, 0x41, 0x64, 0x64, 0x3b, 0x3b, 0x73,
  0x65, 0x71, 0x75, 0x65, 0x6e, 0x74, 0x69, 0x61, 0x6c, 0x5f, 0x36, 0x5f,
  0x31, 0x2f, 0x63, 0x6f, 0x6e, 0x76, 0x31, 0x64, 0x5f, 0x31, 0x39, 0x5f,
  0x31, 0x2f, 0x63, 0x6f, 0x6e, 0x76, 0x6f, 0x6c, 0x75, 0x74, 0x69, 0x6f,
  0x6e, 0x00, 0x00, 0x00, 0x04, 0x00, 0x00, 0x00, 0x01, 0x00, 0x00, 0x00,
  0x01, 0x00, 0x00, 0x00, 0x7d, 0x00, 0x00, 0x00, 0x0c, 0x00, 0x00, 0x00,
  0x72, 0xf4, 0xff, 0xff, 0x00, 0x00, 0x00, 0x01, 0x14, 0x00, 0x00, 0x00,
  0x34, 0x00, 0x00, 0x00, 0x10, 0x00, 0x00, 0x00, 0x00, 0x00, 0x00, 0x09,
  0x3c, 0x01, 0x00, 0x00, 0x5c, 0xf4, 0xff, 0xff, 0x08, 0x00, 0x00, 0x00,
  0x14, 0x00, 0x00, 0x00, 0x01, 0x00, 0x00, 0x00, 0x80, 0xff, 0xff, 0xff,
  0xff, 0xff, 0xff, 0xff, 0x00, 0x00, 0x00, 0x00, 0x01, 0x00, 0x00, 0x00,
  0xe7, 0x20, 0xad, 0x3d, 0x0d, 0x01, 0x00, 0x00, 0x73, 0x65, 0x71, 0x75,
  0x65, 0x6e, 0x74, 0x69, 0x61, 0x6c, 0x5f, 0x36, 0x5f, 0x31, 0x2f, 0x61,
  0x63, 0x74, 0x69, 0x76, 0x61, 0x74, 0x69, 0x6f, 0x6e, 0x5f, 0x31, 0x38,
  0x5f, 0x31, 0x2f, 0x52, 0x65, 0x6c, 0x75, 0x3b, 0x73, 0x65, 0x71, 0x75,
  0x65, 0x6e, 0x74, 0x69, 0x61, 0x6c, 0x5f, 0x36, 0x5f, 0x31, 0x2f, 0x62,
  0x61, 0x74, 0x63, 0x68, 0x5f, 0x6e, 0x6f, 0x72, 0x6d, 0x61, 0x6c, 0x69,
  0x7a, 0x61, 0x74, 0x69, 0x6f, 0x6e, 0x5f, 0x31, 0x38, 0x5f, 0x31, 0x2f,
  0x62, 0x61, 0x74, 0x63, 0x68, 0x6e, 0x6f, 0x72, 0x6d, 0x2f, 0x61, 0x64,
  0x64, 0x5f, 0x31, 0x3b, 0x73, 0x65, 0x71, 0x75, 0x65, 0x6e, 0x74, 0x69,
  0x61, 0x6c, 0x5f, 0x36, 0x5f, 0x31, 0x2f, 0x63, 0x6f, 0x6e, 0x76, 0x31,
  0x64, 0x5f, 0x31, 0x38, 0x5f, 0x31, 0x2f, 0x63, 0x6f, 0x6e, 0x76, 0x6f,
  0x6c, 0x75, 0x74, 0x69, 0x6f, 0x6e, 0x2f, 0x53, 0x71, 0x75, 0x65, 0x65,
  0x7a, 0x65, 0x3b, 0x73, 0x65, 0x71, 0x75, 0x65, 0x6e, 0x74, 0x69, 0x61,
  0x6c, 0x5f, 0x36, 0x5f, 0x31, 0x2f, 0x62, 0x61, 0x74, 0x63, 0x68, 0x5f,
  0x6e, 0x6f, 0x72, 0x6d, 0x61, 0x6c, 0x69, 0x7a, 0x61, 0x74, 0x69, 0x6f,
  0x6e, 0x5f, 0x31, 0x38, 0x5f, 0x31, 0x2f, 0x62, 0x61, 0x74, 0x63, 0x68,
  0x6e, 0x6f, 0x72, 0x6d, 0x2f, 0x6d, 0x75, 0x6c, 0x5f, 0x31, 0x3b, 0x73,
  0x65, 0x71, 0x75, 0x65, 0x6e, 0x74, 0x69, 0x61, 0x6c, 0x5f, 0x36, 0x5f,
  0x31, 0x2f, 0x63, 0x6f, 0x6e, 0x76, 0x31, 0x64, 0x5f, 0x31, 0x38, 0x5f,
  0x31, 0x2f, 0x42, 0x69, 0x61, 0x73, 0x41, 0x64, 0x64, 0x3b, 0x3b, 0x73,
  0x65, 0x71, 0x75, 0x65, 0x6e, 0x74, 0x69, 0x61, 0x6c, 0x5f, 0x36, 0x5f,
  0x31, 0x2f, 0x63, 0x6f, 0x6e, 0x76, 0x31, 0x64, 0x5f, 0x31, 0x38, 0x5f,
  0x31, 0x2f, 0x63, 0x6f, 0x6e, 0x76, 0x6f, 0x6c, 0x75, 0x74, 0x69, 0x6f,
  0x6e, 0x00, 0x00, 0x00, 0x04, 0x00, 0x00, 0x00, 0x01, 0x00, 0x00, 0x00,
  0x01, 0x00, 0x00, 0x00, 0xfa, 0x00, 0x00, 0x00, 0x10, 0x00, 0x00, 0x00,
  0xda, 0xf5, 0xff, 0xff, 0x00, 0x00, 0x00, 0x01, 0x14, 0x00, 0x00, 0x00,
  0x30, 0x00, 0x00, 0x00, 0x0f, 0x00, 0x00, 0x00, 0x00, 0x00, 0x00, 0x09,
  0x5c, 0x00, 0x00, 0x00, 0xc4, 0xf5, 0xff, 0xff, 0x08, 0x00, 0x00, 0x00,
  0x10, 0x00, 0x00, 0x00, 0x01, 0x00, 0x00, 0x00, 0x94, 0xff, 0xff, 0xff,
  0xff, 0xff, 0xff, 0xff, 0x01, 0x00, 0x00, 0x00, 0xd5, 0x2a, 0xfb, 0x3e,
  0x32, 0x00, 0x00, 0x00, 0x73, 0x65, 0x71, 0x75, 0x65, 0x6e, 0x74, 0x69,
  0x61, 0x6c, 0x5f, 0x36, 0x5f, 0x31, 0x2f, 0x63, 0x6f, 0x6e, 0x76, 0x31,
  0x64, 0x5f, 0x31, 0x38, 0x5f, 0x31, 0x2f, 0x63, 0x6f, 0x6e, 0x76, 0x6f,
  0x6c, 0x75, 0x74, 0x69, 0x6f, 0x6e, 0x2f, 0x45, 0x78, 0x70, 0x61, 0x6e,
  0x64, 0x44, 0x69, 0x6d, 0x73, 0x31, 0x00, 0x00, 0x04, 0x00, 0x00, 0x00,
  0x01, 0x00, 0x00, 0x00, 0x01, 0x00, 0x00, 0x00, 0xf4, 0x01, 0x00, 0x00,
  0x06, 0x00, 0x00, 0x00, 0x62, 0xf6, 0xff, 0xff, 0x00, 0x00, 0x00, 0x01,
  0x14, 0x00, 0x00, 0x00, 0xe8, 0x00, 0x00, 0x00, 0x0e, 0x00, 0x00, 0x00,
  0x00, 0x00, 0x00, 0x09, 0xf4, 0x00, 0x00, 0x00, 0x4c, 0xf6, 0xff, 0xff,
  0x08, 0x00, 0x00, 0x00, 0x8c, 0x00, 0x00, 0x00, 0x10, 0x00, 0x00, 0x00,
  0x00, 0x00, 0x00, 0x00, 0x00, 0x00, 0x00, 0x00, 0x00, 0x00, 0x00, 0x00,
  0x00, 0x00, 0x00, 0x00, 0x00, 0x00, 0x00, 0x00, 0x00, 0x00, 0x00, 0x00,
  0x00, 0x00, 0x00, 0x00, 0x00, 0x00, 0x00, 0x00, 0x00, 0x00, 0x00, 0x00,
  0x00, 0x00, 0x00, 0x00, 0x00, 0x00, 0x00, 0x00, 0x00, 0x00, 0x00, 0x00,
  0x00, 0x00, 0x00, 0x00, 0x00, 0x00, 0x00, 0x00, 0x00, 0x00, 0x00, 0x00,
  0x00, 0x00, 0x00, 0x00, 0x00, 0x00, 0x00, 0x00, 0x00, 0x00, 0x00, 0x00,
  0x00, 0x00, 0x00, 0x00, 0x00, 0x00, 0x00, 0x00, 0x00, 0x00, 0x00, 0x00,
  0x00, 0x00, 0x00, 0x00, 0x00, 0x00, 0x00, 0x00, 0x00, 0x00, 0x00, 0x00,
  0x00, 0x00, 0x00, 0x00, 0x00, 0x00, 0x00, 0x00, 0x00, 0x00, 0x00, 0x00,
  0x00, 0x00, 0x00, 0x00, 0x00, 0x00, 0x00, 0x00, 0x00, 0x00, 0x00, 0x00,
  0x00, 0x00, 0x00, 0x00, 0x00, 0x00, 0x00, 0x00, 0x00, 0x00, 0x00, 0x00,
  0x10, 0x00, 0x00, 0x00, 0xae, 0x0c, 0x29, 0x3b, 0xc3, 0xef, 0x65, 0x3b,
  0x09, 0x1b, 0x38, 0x3a, 0xf7, 0xa1, 0xe4, 0x3a, 0x7e, 0xe5, 0x5e, 0x3a,
  0xa9, 0xa4, 0xf6, 0x3a, 0x48, 0x47, 0xd9, 0x3a, 0x08, 0x31, 0x43, 0x3b,
  0x74, 0xda, 0xf8, 0x3a, 0x61, 0x1e, 0x5c, 0x3a, 0x3b, 0xfa, 0x52, 0x3b,
  0xe1, 0x53, 0xfd, 0x3a, 0x3e, 0x53, 0x08, 0x3b, 0x8d, 0x07, 0xfb, 0x3a,
  0xd1, 0xd2, 0xbe, 0x3a, 0x47, 0x15, 0xe1, 0x3b, 0x12, 0x00, 0x00, 0x00,
  0x74, 0x66, 0x6c, 0x2e, 0x70, 0x73, 0x65, 0x75, 0x64, 0x6f, 0x5f, 0x71,
  0x63, 0x6f, 0x6e, 0x73, 0x74, 0x39, 0x00, 0x00, 0x04, 0x00, 0x00, 0x00,
  0x10, 0x00, 0x00, 0x00, 0x01, 0x00, 0x00, 0x00, 0x07, 0x00, 0x00, 0x00,
  0x06, 0x00, 0x00, 0x00, 0x82, 0xf7, 0xff, 0xff, 0x00, 0x00, 0x00, 0x01,
  0x14, 0x00, 0x00, 0x00, 0xe4, 0x00, 0x00, 0x00, 0x0d, 0x00, 0x00, 0x00,
  0x00, 0x00, 0x00, 0x02, 0xf0, 0x00, 0x00, 0x00, 0x6c, 0xf7, 0xff, 0xff,
  0x08, 0x00, 0x00, 0x00, 0x88, 0x00, 0x00, 0x00, 0x10, 0x00, 0x00, 0x00,
  0x00, 0x00, 0x00, 0x00, 0x00, 0x00, 0x00, 0x00, 0x00, 0x00, 0x00, 0x00,
  0x00, 0x00, 0x00, 0x00, 0x00, 0x00, 0x00, 0x00, 0x00, 0x00, 0x00, 0x00,
  0x00, 0x00, 0x00, 0x00, 0x00, 0x00, 0x00, 0x00, 0x00, 0x00, 0x00, 0x00,
  0x00, 0x00, 0x00, 0x00, 0x00, 0x00, 0x00, 0x00, 0x00, 0x00, 0x00, 0x00,
  0x00, 0x00, 0x00, 0x00, 0x00, 0x00, 0x00, 0x00, 0x00, 0x00, 0x00, 0x00,
  0x00, 0x00, 0x00, 0x00, 0x00, 0x00, 0x00, 0x00, 0x00, 0x00, 0x00, 0x00,
  0x00, 0x00, 0x00, 0x00, 0x00, 0x00, 0x00, 0x00, 0x00, 0x00, 0x00, 0x00,
  0x00, 0x00, 0x00, 0x00, 0x00, 0x00, 0x00, 0x00, 0x00, 0x00, 0x00, 0x00,
  0x00, 0x00, 0x00, 0x00, 0x00, 0x00, 0x00, 0x00, 0x00, 0x00, 0x00, 0x00,
  0x00, 0x00, 0x00, 0x00, 0x00, 0x00, 0x00, 0x00, 0x00, 0x00, 0x00, 0x00,
  0x00, 0x00, 0x00, 0x00, 0x00, 0x00, 0x00, 0x00, 0x10, 0x00, 0x00, 0x00,
  0xb7, 0xdb, 0xa5, 0x3a, 0x8d, 0x98, 0xe1, 0x3a, 0x4f, 0xa1, 0xb4, 0x39,
  0x0e, 0x51, 0x60, 0x3a, 0x4e, 0xb0, 0xda, 0x39, 0xb6, 0xfc, 0x71, 0x3a,
  0x3e, 0x2d, 0x55, 0x3a, 0xbb, 0x81, 0xbf, 0x3a, 0xd3, 0x27, 0x74, 0x3a,
  0x9d, 0xf6, 0xd7, 0x39, 0xa4, 0xfe, 0xce, 0x3a, 0xa0, 0x8b, 0x78, 0x3a,
  0x6d, 0xc0, 0x85, 0x3a, 0x67, 0x4a, 0x76, 0x3a, 0xa0, 0x38, 0x3b, 0x3a,
  0x85, 0xd5, 0x5c, 0x3b, 0x12, 0x00, 0x00, 0x00, 0x74, 0x66, 0x6c, 0x2e,
  0x70, 0x73, 0x65, 0x75, 0x64, 0x6f, 0x5f, 0x71, 0x63, 0x6f, 0x6e, 0x73,
  0x74, 0x38, 0x00, 0x00, 0x01, 0x00, 0x00, 0x00, 0x10, 0x00, 0x00, 0x00,
  0x92, 0xf8, 0xff, 0xff, 0x00, 0x00, 0x00, 0x01, 0x14, 0x00, 0x00, 0x00,
  0xb8, 0x00, 0x00, 0x00, 0x0c, 0x00, 0x00, 0x00, 0x00, 0x00, 0x00, 0x09,
  0xc4, 0x00, 0x00, 0x00, 0x7c, 0xf8, 0xff, 0xff, 0x08, 0x00, 0x00, 0x00,
  0x6c, 0x00, 0x00, 0x00, 0x0c, 0x00, 0x00, 0x00, 0x00, 0x00, 0x00, 0x00,
  0x00, 0x00, 0x00, 0x00, 0x00, 0x00, 0x00, 0x00, 0x00, 0x00, 0x00, 0x00,
  0x00, 0x00, 0x00, 0x00, 0x00, 0x00, 0x00, 0x00, 0x00, 0x00, 0x00, 0x00,
  0x00, 0x00, 0x00, 0x00, 0x00, 0x00, 0x00, 0x00, 0x00, 0x00, 0x00, 0x00,
  0x00, 0x00, 0x00, 0x00, 0x00, 0x00, 0x00, 0x00, 0x00, 0x00, 0x00, 0x00,
  0x00, 0x00, 0x00, 0x00, 0x00, 0x00, 0x00, 0x00, 0x00, 0x00, 0x00, 0x00,
  0x00, 0x00, 0x00, 0x00, 0x00, 0x00, 0x00, 0x00, 0x00, 0x00, 0x00, 0x00,
  0x00, 0x00, 0x00, 0x00, 0x00, 0x00, 0x00, 0x00, 0x00, 0x00, 0x00, 0x00,
  0x00, 0x00, 0x00, 0x00, 0x00, 0x00, 0x00, 0x00, 0x00, 0x00, 0x00, 0x00,
  0x0c, 0x00, 0x00, 0x00, 0x46, 0x7a, 0x59, 0x3b, 0xfc, 0x06, 0x2b, 0x3b,
  0xd6, 0x72, 0x61, 0x3b, 0x29, 0xa1, 0x3b, 0x3b, 0xa9, 0x11, 0xbb, 0x3a,
  0xed, 0x50, 0x00, 0x3b, 0x9c, 0x05, 0x26, 0x3b, 0xba, 0x41, 0x86, 0x3b,
  0xc3, 0x68, 0x4c, 0x3b, 0x24, 0x32, 0xf6, 0x3a, 0x5d, 0x57, 0xf9, 0x3a,
  0x02, 0x5f, 0x5c, 0x3b, 0x12, 0x00, 0x00, 0x00, 0x74, 0x66, 0x6c, 0x2e,
  0x70, 0x73, 0x65, 0x75, 0x64, 0x6f, 0x5f, 0x71, 0x63, 0x6f, 0x6e, 0x73,
  0x74, 0x37, 0x00, 0x00, 0x04, 0x00, 0x00, 0x00, 0x0c, 0x00, 0x00, 0x00,
  0x01, 0x00, 0x00, 0x00, 0x05, 0x00, 0x00, 0x00, 0x10, 0x00, 0x00, 0x00,
  0x82, 0xf9, 0xff, 0xff, 0x00, 0x00, 0x00, 0x01, 0x14, 0x00, 0x00, 0x00,
  0xb4, 0x00, 0x00, 0x00, 0x0b, 0x00, 0x00, 0x00, 0x00, 0x00, 0x00, 0x02,
  0xc0, 0x00, 0x00, 0x00, 0x6c, 0xf9, 0xff, 0xff, 0x08, 0x00, 0x00, 0x00,
  0x68, 0x00, 0x00, 0x00, 0x0c, 0x00, 0x00, 0x00, 0x00, 0x00, 0x00, 0x00,
  0x00, 0x00, 0x00, 0x00, 0x00, 0x00, 0x00, 0x00, 0x00, 0x00, 0x00, 0x00,
  0x00, 0x00, 0x00, 0x00, 0x00, 0x00, 0x00, 0x00, 0x00, 0x00, 0x00, 0x00,
  0x00, 0x00, 0x00, 0x00, 0x00, 0x00, 0x00, 0x00, 0x00, 0x00, 0x00, 0x00,
  0x00, 0x00, 0x00, 0x00, 0x00, 0x00, 0x00, 0x00, 0x00, 0x00, 0x00, 0x00,
  0x00, 0x00, 0x00, 0x00, 0x00, 0x00, 0x00, 0x00, 0x00, 0x00, 0x00, 0x00,
  0x00, 0x00, 0x00, 0x00, 0x00, 0x00, 0x00, 0x00, 0x00, 0x00, 0x00, 0x00,
  0x00, 0x00, 0x00, 0x00, 0x00, 0x00, 0x00, 0x00, 0x00, 0x00, 0x00, 0x00,
  0x00, 0x00, 0x00, 0x00, 0x00, 0x00, 0x00, 0x00, 0x0c, 0x00, 0x00, 0x00,
  0x95, 0x13, 0x93, 0x39, 0x67, 0x53, 0x67, 0x39, 0x94, 0x77, 0x98, 0x39,
  0x0c, 0xc8, 0x7d, 0x39, 0xf4, 0x05, 0xfd, 0x38, 0x5c, 0x8e, 0x2d, 0x39,
  0x42, 0x8e, 0x60, 0x39, 0x58, 0x97, 0xb5, 0x39, 0x11, 0x3d, 0x8a, 0x39,
  0x87, 0x7f, 0x26, 0x39, 0x16, 0xa0, 0x28, 0x39, 0x87, 0x08, 0x95, 0x39,
  0x12, 0x00, 0x00, 0x00, 0x74, 0x66, 0x6c, 0x2e, 0x70, 0x73, 0x65, 0x75,
  0x64, 0x6f, 0x5f, 0x71, 0x63, 0x6f, 0x6e, 0x73, 0x74, 0x36, 0x00, 0x00,
  0x01, 0x00, 0x00, 0x00, 0x0c, 0x00, 0x00, 0x00, 0x62, 0xfa, 0xff, 0xff,
  0x00, 0x00, 0x00, 0x01, 0x14, 0x00, 0x00, 0x00, 0x88, 0x00, 0x00, 0x00,
  0x0a, 0x00, 0x00, 0x00, 0x00, 0x00, 0x00, 0x09, 0x94, 0x00, 0x00, 0x00,
  0x4c, 0xfa, 0xff, 0xff, 0x08, 0x00, 0x00, 0x00, 0x4c, 0x00, 0x00, 0x00,
  0x08, 0x00, 0x00, 0x00, 0x00, 0x00, 0x00, 0x00, 0x00, 0x00, 0x00, 0x00,
  0x00, 0x00, 0x00, 0x00, 0x00, 0x00, 0x00, 0x00, 0x00, 0x00, 0x00, 0x00,
  0x00, 0x00, 0x00, 0x00, 0x00, 0x00, 0x00, 0x00, 0x00, 0x00, 0x00, 0x00,
  0x00, 0x00, 0x00, 0x00, 0x00, 0x00, 0x00, 0x00, 0x00, 0x00, 0x00, 0x00,
  0x00, 0x00, 0x00, 0x00, 0x00, 0x00, 0x00, 0x00, 0x00, 0x00, 0x00, 0x00,
  0x00, 0x00, 0x00, 0x00, 0x00, 0x00, 0x00, 0x00, 0x00, 0x00, 0x00, 0x00,
  0x08, 0x00, 0x00, 0x00, 0xf0, 0x4a, 0x51, 0x3c, 0x62, 0x00, 0xb8, 0x3c,
  0x1a, 0xeb, 0x91, 0x3c, 0xb3, 0xcb, 0xe1, 0x3c, 0xde, 0xbe, 0x52, 0x3c,
  0x8d, 0x51, 0x74, 0x3c, 0x6a, 0x0e, 0xb9, 0x3c, 0xba, 0xdb, 0x3a, 0x3c,
  0x12, 0x00, 0x00, 0x00, 0x74, 0x66, 0x6c, 0x2e, 0x70, 0x73, 0x65, 0x75,
  0x64, 0x6f, 0x5f, 0x71, 0x63, 0x6f, 0x6e, 0x73, 0x74, 0x35, 0x00, 0x00,
  0x04, 0x00, 0x00, 0x00, 0x08, 0x00, 0x00, 0x00, 0x01, 0x00, 0x00, 0x00,
  0x03, 0x00, 0x00, 0x00, 0x0c, 0x00, 0x00, 0x00, 0x22, 0xfb, 0xff, 0xff,
  0x00, 0x00, 0x00, 0x01, 0x14, 0x00, 0x00, 0x00, 0x84, 0x00, 0x00, 0x00,
  0x09, 0x00, 0x00, 0x00, 0x00, 0x00, 0x00, 0x02, 0x90, 0x00, 0x00, 0x00,
  0x0c, 0xfb, 0xff, 0xff, 0x08, 0x00, 0x00, 0x00, 0x48, 0x00, 0x00, 0x00,
  0x08, 0x00, 0x00, 0x00, 0x00, 0x00, 0x00, 0x00, 0x00, 0x00, 0x00, 0x00,
  0x00, 0x00, 0x00, 0x00, 0x00, 0x00, 0x00, 0x00, 0x00, 0x00, 0x00, 0x00,
  0x00, 0x00, 0x00, 0x00, 0x00, 0x00, 0x00, 0x00, 0x00, 0x00, 0x00, 0x00,
  0x00, 0x00, 0x00, 0x00, 0x00, 0x00, 0x00, 0x00, 0x00, 0x00, 0x00, 0x00,
  0x00, 0x00, 0x00, 0x00, 0x00, 0x00, 0x00, 0x00, 0x00, 0x00, 0x00, 0x00,
  0x00, 0x00, 0x00, 0x00, 0x00, 0x00, 0x00, 0x00, 0x08, 0x00, 0x00, 0x00,
