
inline const unsigned char gesture_model_4_tflite[] = {
  0x1c, 0x00, 0x00, 0x00, 0x54, 0x46, 0x4c, 0x33, 0x14, 0x00, 0x20, 0x00,
  0x1c, 0x00, 0x18, 0x00, 0x14, 0x00, 0x10, 0x00, 0x0c, 0x00, 0x00, 0x00,
  0x08, 0x00, 0x04, 0x00, 0x14, 0x00, 0x00, 0x00, 0x1c, 0x00, 0x00, 0x00,
  0x98, 0x00, 0x00, 0x00, 0x18, 0x01, 0x00, 0x00, 0x6c, 0x0c, 0x00, 0x00,
  0x7c, 0x0c, 0x00, 0x00, 0xa8, 0x21, 0x00, 0x00, 0x03, 0x00, 0x00, 0x00,
  0x01, 0x00, 0x00, 0x00, 0x10, 0x00, 0x00, 0x00, 0x00, 0x00, 0x0a, 0x00,
  0x10, 0x00, 0x0c, 0x00, 0x08, 0x00, 0x04, 0x00, 0x0a, 0x00, 0x00, 0x00,
  0x0c, 0x00, 0x00, 0x00, 0x1c, 0x00, 0x00, 0x00, 0x3c, 0x00, 0x00, 0x00,
  0x0f, 0x00, 0x00, 0x00, 0x73, 0x65, 0x72, 0x76, 0x69, 0x6e, 0x67, 0x5f,
  0x64, 0x65, 0x66, 0x61, 0x75, 0x6c, 0x74, 0x00, 0x01, 0x00, 0x00, 0x00,
  0x04, 0x00, 0x00, 0x00, 0x68, 0xff, 0xff, 0xff, 0x16, 0x00, 0x00, 0x00,
  0x04, 0x00, 0x00, 0x00, 0x08, 0x00, 0x00, 0x00, 0x6f, 0x75, 0x74, 0x70,
  0x75, 0x74, 0x5f, 0x30, 0x00, 0x00, 0x00, 0x00, 0x01, 0x00, 0x00, 0x00,
  0x04, 0x00, 0x00, 0x00, 0x76, 0xf3, 0xff, 0xff, 0x04, 0x00, 0x00, 0x00,
  0x0f, 0x00, 0x00, 0x00, 0x6b, 0x65, 0x72, 0x61, 0x73, 0x5f, 0x74, 0x65,
  0x6e, 0x73, 0x6f, 0x72, 0x5f, 0x35, 0x36, 0x00, 0x03, 0x00, 0x00, 0x00,
  0x5c, 0x00, 0x00, 0x00, 0x2c, 0x00, 0x00, 0x00, 0x04, 0x00, 0x00, 0x00,
  0xb8, 0xff, 0xff, 0xff, 0x1a, 0x00, 0x00, 0x00, 0x04, 0x00, 0x00, 0x00,
  0x13, 0x00, 0x00, 0x00, 0x43, 0x4f, 0x4e, 0x56, 0x45, 0x52, 0x53, 0x49,
  0x4f, 0x4e, 0x5f, 0x4d, 0x45, 0x54, 0x41, 0x44, 0x41, 0x54, 0x41, 0x00,
  0xdc, 0xff, 0xff, 0xff, 0x19, 0x00, 0x00, 0x00, 0x04, 0x00, 0x00, 0x00,
  0x13, 0x00, 0x00, 0x00, 0x6d, 0x69, 0x6e, 0x5f, 0x72, 0x75, 0x6e, 0x74,
  0x69, 0x6d, 0x65, 0x5f, 0x76, 0x65, 0x72, 0x73, 0x69, 0x6f, 0x6e, 0x00,
  0x08, 0x00, 0x0c, 0x00, 0x08, 0x00, 0x04, 0x00, 0x08, 0x00, 0x00, 0x00,
  0x18, 0x00, 0x00, 0x00, 0x04, 0x00, 0x00, 0x00, 0x13, 0x00, 0x00, 0x00,
  0x6d, 0x69, 0x6e, 0x5f, 0x72, 0x75, 0x6e, 0x74, 0x69, 0x6d, 0x65, 0x5f,
  0x76, 0x65, 0x72, 0x73, 0x69, 0x6f, 0x6e, 0x00, 0x1b, 0x00, 0x00, 0x00,
  0x50, 0x0b, 0x00, 0x00, 0x48, 0x0b, 0x00, 0x00, 0x28, 0x0b, 0x00, 0x00,
  0x0c, 0x0b, 0x00, 0x00, 0xf8, 0x0a, 0x00, 0x00, 0xcc, 0x0a, 0x00, 0x00,
  0x4c, 0x0a, 0x00, 0x00, 0xfc, 0x09, 0x00, 0x00, 0x6c, 0x09, 0x00, 0x00,
  0x3c, 0x09, 0x00, 0x00, 0x0c, 0x08, 0x00, 0x00, 0xcc, 0x07, 0x00, 0x00,
  0xfc, 0x03, 0x00, 0x00, 0xac, 0x03, 0x00, 0x00, 0xfc, 0x00, 0x00, 0x00,
  0xf4, 0x00, 0x00, 0x00, 0xec, 0x00, 0x00, 0x00, 0xe4, 0x00, 0x00, 0x00,
  0xdc, 0x00, 0x00, 0x00, 0xd4, 0x00, 0x00, 0x00, 0xcc, 0x00, 0x00, 0x00,
  0xc4, 0x00, 0x00, 0x00, 0xbc, 0x00, 0x00, 0x00, 0xb4, 0x00, 0x00, 0x00,
  0x94, 0x00, 0x00, 0x00, 0x74, 0x00, 0x00, 0x00, 0x04, 0x00, 0x00, 0x00,
  0x86, 0xf4, 0xff, 0xff, 0x04, 0x00, 0x00, 0x00, 0x60, 0x00, 0x00, 0x00,
  0x0c, 0x00, 0x00, 0x00, 0x08, 0x00, 0x0e, 0x00, 0x08, 0x00, 0x04, 0x00,
  0x08, 0x00, 0x00, 0x00, 0x10, 0x00, 0x00, 0x00, 0x28, 0x00, 0x00, 0x00,
  0x00, 0x00, 0x06, 0x00, 0x08, 0x00, 0x04, 0x00, 0x06, 0x00, 0x00, 0x00,
  0x04, 0x00, 0x00, 0x00, 0x01, 0x00, 0x00, 0x00, 0xeb, 0x03, 0x00, 0x00,
  0x0c, 0x00, 0x18, 0x00, 0x14, 0x00, 0x10, 0x00, 0x0c, 0x00, 0x04, 0x00,
  0x0c, 0x00, 0x00, 0x00, 0x90, 0x23, 0x1c, 0x91, 0xe1, 0x42, 0xe3, 0x7e,
  0x02, 0x00, 0x00, 0x00, 0x02, 0x00, 0x00, 0x00, 0x04, 0x00, 0x00, 0x00,
  0x06, 0x00, 0x00, 0x00, 0x32, 0x2e, 0x31, 0x39, 0x2e, 0x30, 0x00, 0x00,
  0xf2, 0xf4, 0xff, 0xff, 0x04, 0x00, 0x00, 0x00, 0x10, 0x00, 0x00, 0x00,
  0x00, 0x00, 0x00, 0x00, 0x00, 0x00, 0x00, 0x00, 0x00, 0x00, 0x00, 0x00,
  0x00, 0x00, 0x00, 0x00, 0x0e, 0xf5, 0xff, 0xff, 0x04, 0x00, 0x00, 0x00,
  0x10, 0x00, 0x00, 0x00, 0x31, 0x2e, 0x31, 0x34, 0x2e, 0x30, 0x00, 0x00,
  0x00, 0x00, 0x00, 0x00, 0x00, 0x00, 0x00, 0x00, 0x38, 0xe1, 0xff, 0xff,
  0x3c, 0xe1, 0xff, 0xff, 0x40, 0xe1, 0xff, 0xff, 0x44, 0xe1, 0xff, 0xff,
  0x48, 0xe1, 0xff, 0xff, 0x4c, 0xe1, 0xff, 0xff, 0x50, 0xe1, 0xff, 0xff,
  0x54, 0xe1, 0xff, 0xff, 0x58, 0xe1, 0xff, 0xff, 0x4e, 0xf5, 0xff, 0xff,
  0x04, 0x00, 0x00, 0x00, 0xa0, 0x02, 0x00, 0x00, 0x0b, 0xa6, 0x0a, 0x1b,
  0x10, 0x7f, 0xf4, 0xbd, 0x09, 0x03, 0x02, 0x58, 0x04, 0xd2, 0x01, 0xf9,
  0x09, 0x49, 0xf2, 0xe0, 0xf1, 0xe7, 0x05, 0x3a, 0x13, 0xf0, 0xec, 0xf8,
  0x0a, 0x16, 0xf0, 0xf1, 0xe9, 0xe6, 0x00, 0x13, 0xef, 0xf2, 0xd5, 0xed,
  0xf2, 0x0a, 0x41, 0xff, 0x30, 0xd2, 0xc8, 0x39, 0x47, 0x0e, 0x0d, 0xc4,
  0xd8, 0x2b, 0x33, 0x1a, 0x0a, 0xe5, 0xd4, 0x3f, 0x07, 0x2b, 0x10, 0xe5,
  0xc9, 0x29, 0x0e, 0x4d, 0x07, 0xf9, 0xcd, 0x1c, 0xf1, 0x5d, 0x05, 0xf6,
  0xeb, 0x32, 0xe6, 0x7f, 0x07, 0x0b, 0x04, 0x34, 0x13, 0x81, 0xdf, 0x09,
  0xf3, 0x2f, 0xf4, 0x9e, 0xeb, 0x05, 0xf0, 0x11, 0x07, 0xda, 0x25, 0x0b,
  0xe9, 0xf8, 0xf7, 0x10, 0x27, 0xf9, 0x08, 0xe6, 0xf5, 0x3a, 0x12, 0x17,
  0x14, 0xe1, 0x15, 0x4d, 0x26, 0xe3, 0xfd, 0xd7, 0xfc, 0x6e, 0x0a, 0xbe,
  0x01, 0xb9, 0xd9, 0x40, 0x35, 0x69, 0x81, 0x4a, 0xf2, 0x14, 0x12, 0x44,
  0xc0, 0x3f, 0x03, 0x35, 0x45, 0x02, 0xb6, 0x36, 0xf6, 0x0e, 0x2f, 0xff,
  0xd8, 0x24, 0x1e, 0x1e, 0x39, 0xf9, 0xd1, 0x10, 0x13, 0x40, 0x54, 0xe0,
  0xee, 0x09, 0x17, 0x47, 0x58, 0xf5, 0xef, 0x00, 0x0b, 0x38, 0xf9, 0xf3,
  0xc1, 0xeb, 0x03, 0x3e, 0xf4, 0x02, 0xa7, 0xde, 0x2e, 0x4a, 0xe1, 0x3e,
  0xab, 0x04, 0x09, 0x2f, 0xf5, 0x5c, 0xd3, 0x27, 0xff, 0x2b, 0xd9, 0x61,
  0xd0, 0x27, 0xe1, 0x1e, 0xe4, 0x58, 0x07, 0x6c, 0xde, 0x11, 0x01, 0x44,
  0x13, 0x7f, 0xe3, 0x56, 0x70, 0xea, 0x1d, 0xb8, 0x19, 0x26, 0x5b, 0xf1,
  0x0b, 0xda, 0x1c, 0x26, 0x2c, 0xeb, 0x14, 0xe9, 0x2f, 0x14, 0x2e, 0xfb,
  0x37, 0xef, 0x32, 0xe8, 0x27, 0x15, 0x2b, 0xda, 0x79, 0xf6, 0x25, 0xfd,
  0x2f, 0xe3, 0x7f, 0xdd, 0x3a, 0x3b, 0x16, 0xde, 0xcc, 0x69, 0xf0, 0xf2,
  0xff, 0x81, 0xea, 0x29, 0xf9, 0xd0, 0x1e, 0x9d, 0xf5, 0x1e, 0xfa, 0xed,
  0x28, 0xab, 0xe3, 0x03, 0xe4, 0xeb, 0x26, 0xcb, 0xef, 0xeb, 0xfd, 0xff,
  0x0f, 0xc6, 0x1a, 0xd5, 0xf6, 0x01, 0x18, 0xe7, 0x0f, 0xd1, 0xf2, 0x27,
  0xfc, 0xf7, 0x1a, 0x37, 0x7f, 0xee, 0xb2, 0xef, 0x0d, 0x36, 0x4c, 0xbd,
  0xdc, 0xee, 0x09, 0x36, 0x47, 0xd6, 0xec, 0x00, 0x16, 0x14, 0x45, 0xda,
  0xde, 0x1c, 0x22, 0x2e, 0x34, 0x03, 0xff, 0x02, 0x25, 0x3e, 0x21, 0x29,
  0x04, 0x1f, 0x2f, 0x64, 0x29, 0x71, 0x07, 0x12, 0x07, 0xf0, 0xdf, 0x04,
  0xef, 0x00, 0xf9, 0xe4, 0xe2, 0x09, 0xff, 0x16, 0x00, 0x00, 0xed, 0x0d,
  0xf9, 0x17, 0x04, 0xf0, 0xf6, 0x0e, 0x15, 0x36, 0x0a, 0x0b, 0x1e, 0x0e,
  0x21, 0x47, 0xfc, 0x00, 0x05, 0xf4, 0x20, 0x6b, 0x05, 0x11, 0x27, 0xf6,
  0x3b, 0x7f, 0x11, 0x14, 0xe6, 0xb7, 0x23, 0x81, 0x0d, 0x17, 0xe5, 0xe4,
  0x1c, 0x84, 0xed, 0x09, 0xf1, 0xe5, 0x01, 0x92, 0x06, 0xf7, 0x17, 0x06,
  0x02, 0x8f, 0x29, 0xc3, 0x08, 0x11, 0xdf, 0x94, 0xec, 0xd7, 0x12, 0x20,
  0xc4, 0x89, 0x01, 0xc3, 0x01, 0x00, 0xa1, 0x81, 0x31, 0x99, 0xd7, 0x35,
  0xe5, 0x1f, 0x22, 0xc1, 0xfe, 0x2d, 0xee, 0xfa, 0x37, 0xc0, 0xfc, 0x2c,
  0xda, 0xd3, 0x04, 0xd3, 0x32, 0xfe, 0xdb, 0xbd, 0x17, 0xd1, 0x37, 0x05,
  0xd5, 0x96, 0x0b, 0xf2, 0x2b, 0xf4, 0xf9, 0x83, 0xdf, 0x0a, 0x44, 0xcf,
  0xfb, 0x81, 0xd7, 0xfc, 0xa1, 0xb9, 0xde, 0xe8, 0xcd, 0xf0, 0xca, 0xc6,
  0xd5, 0xc5, 0xcf, 0xc2, 0xdc, 0xa9, 0xdb, 0xbf, 0xdb, 0xe8, 0xf5, 0xd3,
  0xee, 0xdd, 0xd2, 0xb3, 0x0c, 0xb9, 0xd2, 0xd9, 0xbd, 0x87, 0x28, 0xe2,
  0xec, 0xae, 0xcc, 0x81, 0x60, 0xb7, 0x1d, 0x9f, 0xdc, 0xf0, 0x00, 0xfb,
  0xb0, 0x1b, 0xc2, 0xf2, 0x24, 0xf1, 0xbd, 0x0b, 0xc1, 0xeb, 0x28, 0xf5,
  0xb6, 0xfe, 0xd1, 0xfb, 0x17, 0xf3, 0xd2, 0xd7, 0xc4, 0x02, 0x49, 0x00,
  0xbb, 0xbc, 0xd0, 0x1c, 0x44, 0x15, 0xdd, 0x96, 0xda, 0x33, 0x45, 0x0c,
  0xbf, 0x81, 0x4a, 0xec, 0xf0, 0x1f, 0x81, 0xdb, 0x3c, 0xe6, 0xfe, 0x10,
  0xb2, 0xe0, 0x1a, 0xfe, 0x1d, 0x06, 0xdf, 0xdf, 0xf7, 0xf6, 0x2b, 0xf7,
  0xf6, 0xf0, 0xe0, 0x02, 0x3a, 0xe3, 0x0e, 0x18, 0xd4, 0x05, 0x34, 0xb6,
  0x06, 0x1f, 0xd0, 0xfd, 0x4b, 0xb2, 0x25, 0x11, 0x45, 0xa8, 0xf7, 0xe2,
  0xa5, 0x22, 0x38, 0xc5, 0x02, 0xf3, 0xae, 0x27, 0x2a, 0xb0, 0x13, 0xfc,
  0xd1, 0x16, 0x17, 0xbc, 0x33, 0x17, 0x00, 0x23, 0xf4, 0xcd, 0x50, 0xfb,
  0x07, 0x20, 0xee, 0xde, 0x6a, 0xff, 0x1e, 0x0a, 0xf1, 0xbf, 0x7f, 0xc5,
  0xf8, 0x11, 0xef, 0x0f, 0xd0, 0xdf, 0x21, 0x7f, 0x0e, 0x11, 0xf3, 0xed,
  0x1c, 0x71, 0x05, 0x08, 0xed, 0xe5, 0x0b, 0x79, 0x03, 0x29, 0x0b, 0xfc,
  0x0f, 0x6e, 0x24, 0x2b, 0x10, 0xf5, 0xe6, 0x5f, 0x03, 0x15, 0x1a, 0xf8,
  0xcb, 0x69, 0x2d, 0x2b, 0xff, 0xf1, 0xcc, 0x59, 0xfa, 0xf7, 0xff, 0xff,
  0x04, 0x00, 0x00, 0x00, 0x40, 0x00, 0x00, 0x00, 0x57, 0x01, 0x00, 0x00,
  0xbc, 0xfd, 0xff, 0xff, 0x1e, 0x00, 0x00, 0x00, 0x37, 0xfc, 0xff, 0xff,
  0x28, 0x01, 0x00, 0x00, 0x64, 0x00, 0x00, 0x00, 0x04, 0xff, 0xff, 0xff,
  0x89, 0xfe, 0xff, 0xff, 0xb1, 0xff, 0xff, 0xff, 0x3b, 0xff, 0xff, 0xff,
  0x13, 0xff, 0xff, 0xff, 0xe6, 0xff, 0xff, 0xff, 0xae, 0x01, 0x00, 0x00,
  0x81, 0xfe, 0xff, 0xff, 0xff, 0xfe, 0xff, 0xff, 0x73, 0x00, 0x00, 0x00,
  0x46, 0xf8, 0xff, 0xff, 0x04, 0x00, 0x00, 0x00, 0xc0, 0x03, 0x00, 0x00,
  0xc5, 0x1f, 0x81, 0x92, 0xf8, 0xf5, 0x38, 0x04, 0xde, 0x19, 0xdb, 0x11,
  0xc5, 0xe9, 0x0f, 0xf7, 0xc5, 0x1b, 0xad, 0xdc, 0xe6, 0xcf, 0x25, 0xf4,
  0xfa, 0x0f, 0xfd, 0x20, 0xd6, 0x05, 0x25, 0xe7, 0xcc, 0xfa, 0xfb, 0x09,
  0xf0, 0xcc, 0x01, 0x13, 0x00, 0x08, 0x11, 0x19, 0x02, 0x1c, 0x24, 0x01,
  0xf1, 0xfb, 0x2e, 0x0e, 0xd4, 0xd4, 0xde, 0x21, 0xf4, 0x01, 0x27, 0x12,
  0x0a, 0x1b, 0x3c, 0x18, 0x18, 0xff, 0x4d, 0x1e, 0xe4, 0xff, 0xb4, 0x2a,
  0xf5, 0x14, 0x49, 0x17, 0x19, 0x27, 0x1e, 0x3a, 0x81, 0xce, 0xf6, 0xd8,
  0xec, 0x22, 0x2b, 0x1c, 0xab, 0x01, 0xed, 0x0b, 0x23, 0x4b, 0x0b, 0xf0,
  0xd2, 0xe3, 0xd4, 0xdb, 0xf6, 0x24, 0x0e, 0x1c, 0xd6, 0x08, 0xf0, 0xf3,
  0xfb, 0x1c, 0x20, 0xee, 0xfc, 0xd9, 0xf4, 0xe5, 0xfe, 0x04, 0x0e, 0x30,
  0x08, 0xe7, 0xe9, 0xf7, 0x02, 0xfe, 0x16, 0x1d, 0x29, 0x02, 0x05, 0xe4,
  0x29, 0xf5, 0x1f, 0x1a, 0x1f, 0xfc, 0xe6, 0xda, 0xe2, 0x11, 0x13, 0x18,
  0x2d, 0x14, 0x08, 0xce, 0x4d, 0xfd, 0x03, 0x25, 0x50, 0xf5, 0xd4, 0xcb,
  0xe3, 0x12, 0xee, 0x49, 0xff, 0xff, 0xfe, 0x0f, 0xe2, 0x2f, 0xcc, 0x00,
  0x31, 0xb4, 0xfb, 0xf2, 0x04, 0xea, 0xf1, 0x2e, 0x08, 0xf6, 0xef, 0x14,
  0xde, 0x0d, 0xe7, 0xfb, 0x0d, 0xcb, 0x02, 0xfc, 0xff, 0xf9, 0xf3, 0x28,
  0xf8, 0xef, 0xf1, 0x01, 0xfb, 0x16, 0xef, 0x0b, 0xde, 0xd1, 0x01, 0x0f,
  0x06, 0xf9, 0x17, 0x00, 0x02, 0x04, 0xef, 0xf7, 0x04, 0x04, 0xf9, 0x12,
  0xaf, 0xba, 0xef, 0x10, 0x05, 0xf4, 0x19, 0xff, 0xfd, 0xfe, 0xfc, 0x0c,
  0x15, 0xff, 0x07, 0x19, 0x81, 0x92, 0xe5, 0x1b, 0x06, 0xdb, 0x1f, 0xd7,
  0x4d, 0xc5, 0x4b, 0xfe, 0xc9, 0xbb, 0xf4, 0xc6, 0xe6, 0xc3, 0x24, 0x13,
  0xc5, 0x47, 0x1f, 0xd3, 0x28, 0xea, 0x4b, 0xc4, 0xc5, 0xb8, 0xf8, 0xc9,
  0xbd, 0xbc, 0x05, 0xf5, 0xd4, 0x20, 0x0a, 0xfe, 0x1d, 0xed, 0x19, 0xdd,
  0xdc, 0xd7, 0x0c, 0xd4, 0xf9, 0xb3, 0xff, 0x09, 0xe5, 0x10, 0xdd, 0xfb,
  0xe9, 0xf1, 0xdc, 0x26, 0x49, 0xfc, 0x21, 0x01, 0xf7, 0xc1, 0xf0, 0xde,
  0xdc, 0xf2, 0xfb, 0x2d, 0xdc, 0xf5, 0x92, 0x62, 0x7f, 0x0e, 0x1f, 0x03,
  0x31, 0xc4, 0xe6, 0xc3, 0xf1, 0xfb, 0xf8, 0x26, 0x3a, 0x81, 0x56, 0x01,
  0xff, 0x00, 0xd6, 0x23, 0x32, 0x0a, 0x57, 0xf1, 0x2c, 0x02, 0x16, 0x04,
  0x45, 0xcd, 0x26, 0xef, 0x00, 0x05, 0xf1, 0x44, 0x51, 0x20, 0x27, 0x06,
  0x1e, 0xe5, 0x0f, 0x0b, 0x29, 0xd8, 0x0b, 0xc9, 0xe1, 0x09, 0x1f, 0x56,
  0x4c, 0x12, 0xec, 0x06, 0x22, 0xeb, 0x02, 0x34, 0x11, 0xe8, 0xe4, 0xb1,
  0xf5, 0x2d, 0x26, 0x58, 0x35, 0xe6, 0xd0, 0x15, 0x0e, 0xd3, 0xfd, 0x3a,
  0x1d, 0xcf, 0xa1, 0xc8, 0xf4, 0x02, 0x3c, 0x53, 0x28, 0xdb, 0x98, 0x17,
  0x10, 0xbe, 0xe2, 0x4e, 0x18, 0xfe, 0x55, 0xc2, 0x00, 0xf2, 0x93, 0x35,
  0x18, 0xfb, 0xf1, 0x3e, 0xc7, 0xec, 0xfb, 0x23, 0x0d, 0xff, 0x17, 0xe8,
  0x01, 0xe8, 0xb7, 0x36, 0x06, 0xfa, 0xe8, 0x45, 0xda, 0x0d, 0xde, 0x15,
  0xf1, 0x01, 0x25, 0x1f, 0xf8, 0xc5, 0xc3, 0x09, 0x16, 0xee, 0xee, 0x2d,
  0xbf, 0x2a, 0xfc, 0xe1, 0x0b, 0x0d, 0xd9, 0x28, 0x00, 0xb1, 0xe0, 0x02,
  0x2e, 0xd5, 0xf4, 0x0f, 0x97, 0x3e, 0xf5, 0xf0, 0x20, 0x0b, 0xde, 0x0f,
  0x17, 0x98, 0xd2, 0xe4, 0x50, 0xd4, 0xc8, 0xdb, 0x81, 0x53, 0xfa, 0xcc,
  0xe3, 0xf4, 0x39, 0x27, 0xe9, 0xee, 0x1a, 0xf6, 0x87, 0x3b, 0x49, 0x0d,
  0x1e, 0xeb, 0xbf, 0xb5, 0xf7, 0xd4, 0x3f, 0x2c, 0x11, 0x17, 0x2f, 0x00,
  0xc4, 0x08, 0x1f, 0x08, 0x0a, 0x0a, 0xff, 0xec, 0x1b, 0xcc, 0xfe, 0x30,
  0x2c, 0x0a, 0x31, 0xf5, 0xef, 0xe7, 0xdd, 0xdd, 0xf1, 0x23, 0x08, 0x06,
  0x05, 0xb8, 0xe7, 0x25, 0x00, 0x0e, 0x11, 0xe0, 0xeb, 0xc4, 0xa5, 0xc5,
  0xdb, 0x0b, 0x14, 0x34, 0x2c, 0xd0, 0xa5, 0x08, 0x1d, 0xf8, 0xf3, 0xce,
  0xfc, 0xad, 0x81, 0xb0, 0xc0, 0x06, 0x2c, 0x27, 0x22, 0xdb, 0xe7, 0xf0,
  0x16, 0x43, 0x57, 0x0d, 0xb6, 0x46, 0xbe, 0xe8, 0x10, 0x33, 0x55, 0xd7,
  0x05, 0xeb, 0x04, 0xee, 0x11, 0x25, 0x15, 0xe4, 0xb4, 0x17, 0xea, 0xd4,
  0xfd, 0x25, 0x33, 0xce, 0x08, 0xf4, 0xfc, 0xe9, 0x1b, 0x3b, 0x05, 0x00,
  0xc1, 0x15, 0xef, 0xb2, 0xfe, 0x3c, 0x40, 0xd9, 0x0c, 0x06, 0xeb, 0xd6,
  0x01, 0x3d, 0xde, 0xf2, 0xae, 0x02, 0xff, 0x9d, 0xeb, 0x47, 0x14, 0xc4,
  0xff, 0x09, 0xd0, 0xf8, 0x1b, 0x21, 0xfb, 0x04, 0xa6, 0x04, 0xec, 0x81,
  0x01, 0x4f, 0x13, 0xbb, 0xff, 0xf7, 0xb2, 0x04, 0x20, 0xf0, 0xe1, 0xfe,
  0xd4, 0xba, 0xda, 0xe2, 0x03, 0xc8, 0x00, 0xc1, 0xf0, 0xec, 0xe1, 0xfe,
  0x2b, 0x05, 0xf3, 0xff, 0xe4, 0xc4, 0xf3, 0xfb, 0x16, 0xeb, 0x0d, 0xe8,
  0x09, 0xc8, 0xd9, 0xf0, 0x1d, 0x2b, 0x01, 0xe5, 0xf0, 0xe3, 0x00, 0xf5,
  0x1a, 0xf7, 0x1e, 0xdb, 0xf1, 0xa5, 0xec, 0xe5, 0x16, 0x33, 0x1d, 0xe2,
  0xe3, 0xeb, 0x03, 0xf1, 0x07, 0x05, 0x22, 0xef, 0xf6, 0x81, 0xe4, 0xe9,
  0x13, 0x54, 0x37, 0xf3, 0xdb, 0xed, 0x2a, 0x03, 0x01, 0x04, 0x51, 0xe3,
  0x0f, 0x9b, 0x0e, 0xfe, 0x40, 0x06, 0x85, 0xe8, 0xf6, 0x94, 0xe9, 0x23,
  0xd2, 0xe0, 0x81, 0xbb, 0xd0, 0xbd, 0x2f, 0xf6, 0x29, 0x15, 0x9b, 0xc6,
  0xf6, 0xc9, 0x1b, 0x10, 0xea, 0x02, 0xa5, 0xc8, 0xcf, 0xa9, 0x0d, 0xdf,
  0x06, 0x27, 0xc8, 0xc5, 0xe9, 0xf1, 0x07, 0x19, 0xdd, 0xff, 0x9f, 0x0c,
  0xd7, 0xa8, 0x54, 0xb3, 0x07, 0x2a, 0xf0, 0xc3, 0x1d, 0xfe, 0x0e, 0x0f,
  0xd7, 0xf3, 0x9e, 0x40, 0xdf, 0xa2, 0x5d, 0x84, 0x10, 0x47, 0x11, 0xf4,
  0x31, 0x1b, 0xf5, 0x11, 0xcb, 0xe9, 0xb4, 0x46, 0x7f, 0x5f, 0x1c, 0x13,
  0x42, 0x82, 0x99, 0xba, 0xe5, 0x8e, 0x14, 0xdc, 0xe4, 0x87, 0xf8, 0x2d,
  0x2c, 0x1a, 0x1a, 0xf5, 0x31, 0x8c, 0xa5, 0xe3, 0x07, 0xac, 0x31, 0xd2,
  0x17, 0xba, 0xce, 0x2a, 0x42, 0x04, 0x25, 0xff, 0x02, 0xbf, 0xae, 0xf7,
  0x10, 0xf9, 0x40, 0xe6, 0x06, 0xe5, 0xf4, 0x26, 0x2e, 0xff, 0x2e, 0xfe,
  0xe2, 0xe9, 0xbd, 0xde, 0x2c, 0x1a, 0x7b, 0x22, 0x34, 0xfa, 0xb5, 0x0f,
  0x27, 0x18, 0x79, 0xfd, 0xc3, 0xcc, 0xb8, 0x14, 0x07, 0x58, 0x76, 0x56,
  0x69, 0xc1, 0xda, 0x1b, 0x1e, 0xd1, 0x14, 0xe6, 0xc5, 0xc8, 0x02, 0xab,
  0x13, 0x30, 0x64, 0xfe, 0xe8, 0xb9, 0xd5, 0x87, 0x0d, 0xe6, 0xe5, 0xec,
  0xea, 0xf4, 0xfa, 0x00, 0x2b, 0x0e, 0x49, 0xfd, 0xf8, 0x04, 0xdd, 0xc4,
  0xea, 0x04, 0x05, 0xfc, 0xc5, 0xfc, 0xb4, 0x1b, 0x2e, 0xfa, 0x12, 0xe8,
  0xfa, 0x42, 0xe5, 0xfb, 0xbf, 0x3c, 0xff, 0xeb, 0xf3, 0x21, 0xc7, 0x51,
  0x08, 0xe1, 0x0d, 0xc7, 0xe7, 0x68, 0xd4, 0x18, 0xcc, 0x51, 0xe4, 0xdf,
  0x05, 0x34, 0xde, 0x7f, 0x2b, 0xe6, 0xd6, 0xc3, 0xe0, 0x46, 0xde, 0x2e,
  0x12, 0xfc, 0xff, 0xff, 0x04, 0x00, 0x00, 0x00, 0x30, 0x00, 0x00, 0x00,
  0x0d, 0x01, 0x00, 0x00, 0xff, 0xfe, 0xff, 0xff, 0xb9, 0x03, 0x00, 0x00,
  0x03, 0x02, 0x00, 0x00, 0xad, 0xf7, 0xff, 0xff, 0x82, 0x02, 0x00, 0x00,
  0x6b, 0x03, 0x00, 0x00, 0xef, 0x02, 0x00, 0x00, 0x70, 0x03, 0x00, 0x00,
  0xd0, 0xff, 0xff, 0xff, 0x12, 0xfe, 0xff, 0xff, 0x0f, 0x01, 0x00, 0x00,
  0x4e, 0xfc, 0xff, 0xff, 0x04, 0x00, 0x00, 0x00, 0x20, 0x01, 0x00, 0x00,
  0xda, 0xb9, 0x07, 0xeb, 0xfc, 0xcd, 0x36, 0x89, 0x41, 0xe8, 0x6a, 0x46,
  0xae, 0x36, 0xb5, 0x03, 0x0e, 0xbc, 0x1b, 0xf2, 0x01, 0xf3, 0x2e, 0x10,
  0x81, 0x5d, 0xe6, 0xf8, 0x09, 0xa0, 0x23, 0x22, 0x89, 0x27, 0xea, 0x24,
  0xc4, 0x65, 0x55, 0xa9, 0x8e, 0xbf, 0xd5, 0xf2, 0x03, 0x81, 0xf7, 0xee,
  0x0c, 0xf5, 0x19, 0xcc, 0xb2, 0x14, 0xe3, 0x4c, 0x07, 0xbe, 0x5c, 0x03,
  0x0f, 0x66, 0xc5, 0xe7, 0x18, 0x4e, 0x0c, 0x4b, 0xcc, 0x97, 0x3a, 0xc7,
  0x04, 0xfa, 0xb3, 0xa3, 0xc1, 0xe4, 0x2d, 0x5a, 0xdb, 0xed, 0x1b, 0xf6,
  0xfc, 0xdc, 0xca, 0xa3, 0xd3, 0xe5, 0x32, 0x38, 0xc5, 0xf2, 0x3f, 0x0b,
  0xe1, 0xda, 0x81, 0x86, 0x03, 0x33, 0x46, 0x2a, 0x06, 0x19, 0x3d, 0xf5,
  0xe6, 0x09, 0x0d, 0x5e, 0x43, 0x89, 0x81, 0xe2, 0x21, 0x2f, 0xf0, 0x16,
  0xfe, 0xcc, 0xd0, 0x2e, 0x4c, 0x04, 0xbb, 0xf8, 0xf9, 0x14, 0x00, 0x1d,
  0xcb, 0xd5, 0xa1, 0x37, 0x18, 0x08, 0x51, 0x3c, 0xf0, 0x11, 0xfc, 0x26,
  0x20, 0xf8, 0xd3, 0x08, 0x50, 0xe5, 0x05, 0xdb, 0xed, 0x41, 0xdf, 0x88,
  0x20, 0x11, 0x0a, 0xe3, 0x17, 0xe8, 0xde, 0xbe, 0xf0, 0x17, 0xd9, 0x81,
  0x22, 0x24, 0x16, 0xd4, 0x12, 0xcd, 0xf1, 0x02, 0xad, 0xea, 0xc4, 0x50,
  0x9a, 0xe7, 0xbb, 0xb1, 0x0d, 0xa8, 0x0e, 0xf3, 0xc9, 0xcb, 0x8a, 0xed,
  0x27, 0xdf, 0xe6, 0xfe, 0x09, 0xfa, 0x7f, 0x19, 0xb5, 0xc7, 0xf3, 0x04,
  0x68, 0x98, 0x08, 0x15, 0x09, 0xd2, 0x37, 0x7c, 0x0b, 0xa6, 0x5c, 0xfe,
  0xf5, 0x53, 0xff, 0xfd, 0x00, 0x7b, 0xe1, 0x40, 0x90, 0xfd, 0xf7, 0xa1,
  0xe3, 0x0a, 0x2a, 0xf3, 0x21, 0x19, 0xca, 0x0c, 0x81, 0x03, 0x10, 0xc3,
  0xc8, 0x32, 0x5f, 0x72, 0xe6, 0x00, 0xdb, 0x28, 0xdc, 0xd6, 0xd8, 0xe4,
  0x8a, 0xe8, 0xfa, 0xfd, 0xf4, 0x10, 0x47, 0xf9, 0xd9, 0x26, 0x4f, 0x5d,
  0xc9, 0xe4, 0xfa, 0xba, 0x41, 0xc7, 0xff, 0xec, 0xc6, 0x04, 0xfc, 0x1a,
  0xba, 0x36, 0x7f, 0x0b, 0xf3, 0xc0, 0x4f, 0xd3, 0xb3, 0x31, 0xdc, 0xf4,
  0x7a, 0xfd, 0xff, 0xff, 0x04, 0x00, 0x00, 0x00, 0x20, 0x00, 0x00, 0x00,
  0x3d, 0x01, 0x00, 0x00, 0x01, 0xff, 0xff, 0xff, 0xc6, 0x02, 0x00, 0x00,
  0x33, 0x05, 0x00, 0x00, 0x40, 0x0a, 0x00, 0x00, 0xca, 0x07, 0x00, 0x00,
  0xc0, 0x02, 0x00, 0x00, 0x83, 0x05, 0x00, 0x00, 0xa6, 0xfd, 0xff, 0xff,
  0x04, 0x00, 0x00, 0x00, 0x80, 0x00, 0x00, 0x00, 0xec, 0xec, 0xf0, 0x2c,
  0x94, 0xb9, 0x7f, 0x36, 0xf0, 0xe7, 0x7f, 0x73, 0xc6, 0x10, 0xca, 0x88,
  0x10, 0x81, 0x38, 0x6c, 0xa8, 0xdf, 0x41, 0xe9, 0xc4, 0x81, 0xb6, 0x36,
  0x18, 0x45, 0xf6, 0x2f, 0x55, 0xb7, 0xb1, 0xb5, 0x7f, 0x0c, 0xae, 0x42,
  0x25, 0x7f, 0x2c, 0xe0, 0xee, 0x9f, 0x1e, 0xe4, 0x81, 0x65, 0x37, 0xa4,
  0xb0, 0x65, 0xbe, 0x27, 0xc3, 0x33, 0x5e, 0x58, 0x81, 0xd6, 0x64, 0xc3,
  0x81, 0xf8, 0x45, 0x66, 0x63, 0x26, 0xc5, 0x91, 0xc5, 0x9c, 0x74, 0x5c,
  0x9e, 0x7f, 0xaa, 0x05, 0x41, 0x20, 0x66, 0xef, 0x7f, 0xd8, 0x9f, 0xaa,
  0x8e, 0xc7, 0x81, 0x20, 0xf4, 0xf6, 0x77, 0x6f, 0x81, 0x28, 0xde, 0x33,
  0x27, 0xd5, 0x68, 0xdd, 0x7f, 0x9f, 0xf3, 0x56, 0x54, 0xc1, 0xfa, 0xb7,
  0x81, 0x54, 0x1d, 0xfc, 0x48, 0xd5, 0x39, 0xc0, 0x7f, 0x38, 0xb3, 0x9e,
  0xbc, 0xb6, 0x4b, 0x58, 0x32, 0xfe, 0xff, 0xff, 0x04, 0x00, 0x00, 0x00,
  0x40, 0x00, 0x00, 0x00, 0x54, 0x00, 0x00, 0x00, 0x6d, 0x08, 0x00, 0x00,
  0x56, 0x01, 0x00, 0x00, 0xa8, 0x04, 0x00, 0x00, 0x14, 0x0b, 0x00, 0x00,
  0x81, 0xff, 0xff, 0xff, 0xe7, 0xfe, 0xff, 0xff, 0xc3, 0xf9, 0xff, 0xff,
  0x7b, 0xfb, 0xff, 0xff, 0x8f, 0x00, 0x00, 0x00, 0x92, 0x05, 0x00, 0x00,
  0x33, 0x01, 0x00, 0x00, 0x3b, 0xfb, 0xff, 0xff, 0x48, 0x0d, 0x00, 0x00,
  0x89, 0xf8, 0xff, 0xff, 0xb1, 0x05, 0x00, 0x00, 0x7e, 0xfe, 0xff, 0xff,
  0x04, 0x00, 0x00, 0x00, 0x70, 0x00, 0x00, 0x00, 0x9e, 0x81, 0x92, 0x13,
  0x13, 0xb5, 0xa1, 0x87, 0x1d, 0xa0, 0x12, 0x0d, 0x18, 0x0d, 0x16, 0x9d,
  0x18, 0x16, 0x1f, 0x15, 0x9b, 0x81, 0xaa, 0x11, 0x1b, 0x1a, 0x9a, 0x14,
  0x15, 0x08, 0xf3, 0x94, 0x9f, 0xbd, 0xb1, 0x8d, 0x19, 0x13, 0x9c, 0xaf,
  0xab, 0x9a, 0x1c, 0x81, 0x8c, 0x19, 0xca, 0x1b, 0x18, 0x18, 0x1a, 0x97,
  0xd7, 0x13, 0xa8, 0x15, 0xa3, 0x10, 0x0f, 0x9b, 0x81, 0x12, 0x86, 0x14,
  0x1c, 0xad, 0xae, 0xaa, 0xb8, 0x0f, 0x0d, 0x0f, 0xb5, 0x9a, 0x81, 0x0a,
  0x1a, 0x82, 0x17, 0x12, 0xb1, 0x15, 0xbf, 0xa9, 0x95, 0x03, 0x1c, 0x0e,
  0x1e, 0x14, 0x10, 0x8a, 0xfe, 0x81, 0x14, 0x86, 0xe6, 0xc0, 0xcb, 0x1e,
  0x12, 0x81, 0x24, 0x84, 0xc2, 0x17, 0xa9, 0x11, 0xc0, 0x9a, 0x9d, 0x03,
  0xfa, 0xfe, 0xff, 0xff, 0x04, 0x00, 0x00, 0x00, 0x1c, 0x00, 0x00, 0x00,
  0x4c, 0x00, 0x00, 0x00, 0x9a, 0xf1, 0xff, 0xff, 0xe8, 0x06, 0x00, 0x00,
  0xb4, 0xf4, 0xff, 0xff, 0x58, 0x01, 0x00, 0x00, 0x72, 0x01, 0x00, 0x00,
  0x0e, 0x0e, 0x00, 0x00, 0x22, 0xff, 0xff, 0xff, 0x04, 0x00, 0x00, 0x00,
  0x04, 0x00, 0x00, 0x00, 0x01, 0x00, 0x00, 0x00, 0x32, 0xff, 0xff, 0xff,
  0x04, 0x00, 0x00, 0x00, 0x0c, 0x00, 0x00, 0x00, 0x01, 0x00, 0x00, 0x00,
  0x7d, 0x00, 0x00, 0x00, 0x08, 0x00, 0x00, 0x00, 0x4a, 0xff, 0xff, 0xff,
  0x04, 0x00, 0x00, 0x00, 0x10, 0x00, 0x00, 0x00, 0x01, 0x00, 0x00, 0x00,
  0x01, 0x00, 0x00, 0x00, 0xf4, 0x01, 0x00, 0x00, 0x06, 0x00, 0x00, 0x00,
  0x74, 0xeb, 0xff, 0xff, 0x78, 0xeb, 0xff, 0xff, 0x0f, 0x00, 0x00, 0x00,
  0x4d, 0x4c, 0x49, 0x52, 0x20, 0x43, 0x6f, 0x6e, 0x76, 0x65, 0x72, 0x74,
  0x65, 0x64, 0x2e, 0x00, 0x01, 0x00, 0x00, 0x00, 0x14, 0x00, 0x00, 0x00,
  0x00, 0x00, 0x0e, 0x00, 0x18, 0x00, 0x14, 0x00, 0x10, 0x00, 0x0c, 0x00,
  0x08, 0x00, 0x04, 0x00, 0x0e, 0x00, 0x00, 0x00, 0x14, 0x00, 0x00, 0x00,
  0x1c, 0x00, 0x00, 0x00, 0x44, 0x02, 0x00, 0x00, 0x48, 0x02, 0x00, 0x00,
  0x4c, 0x02, 0x00, 0x00, 0x04, 0x00, 0x00, 0x00, 0x6d, 0x61, 0x69, 0x6e,
  0x00, 0x00, 0x00, 0x00, 0x09, 0x00, 0x00, 0x00, 0x08, 0x02, 0x00, 0x00,
  0xac, 0x01, 0x00, 0x00, 0x58, 0x01, 0x00, 0x00, 0x14, 0x01, 0x00, 0x00,
  0xf0, 0x00, 0x00, 0x00, 0xbc, 0x00, 0x00, 0x00, 0x78, 0x00, 0x00, 0x00,
  0x40, 0x00, 0x00, 0x00, 0x04, 0x00, 0x00, 0x00, 0x82, 0xfe, 0xff, 0xff,
  0x1c, 0x00, 0x00, 0x00, 0x00, 0x00, 0x00, 0x09, 0x1c, 0x00, 0x00, 0x00,
  0x20, 0x00, 0x00, 0x00, 0x04, 0x00, 0x00, 0x00, 0x00, 0x00, 0x06, 0x00,
  0x08, 0x00, 0x04, 0x00, 0x06, 0x00, 0x00, 0x00, 0x00, 0x00, 0x80, 0x3f,
  0x01, 0x00, 0x00, 0x00, 0x16, 0x00, 0x00, 0x00, 0x01, 0x00, 0x00, 0x00,
  0x15, 0x00, 0x00, 0x00, 0xba, 0xfe, 0xff, 0xff, 0x14, 0x00, 0x00, 0x00,
  0x00, 0x00, 0x00, 0x08, 0x10, 0x00, 0x00, 0x00, 0x14, 0x00, 0x00, 0x00,
  0x03, 0x00, 0x00, 0x00, 0x44, 0xec, 0xff, 0xff, 0x01, 0x00, 0x00, 0x00,
  0x15, 0x00, 0x00, 0x00, 0x03, 0x00, 0x00, 0x00, 0x14, 0x00, 0x00, 0x00,
  0x05, 0x00, 0x00, 0x00, 0x04, 0x00, 0x00, 0x00, 0xee, 0xfe, 0xff, 0xff,
  0x1c, 0x00, 0x00, 0x00, 0x00, 0x00, 0x00, 0x08, 0x1c, 0x00, 0x00, 0x00,
  0x20, 0x00, 0x00, 0x00, 0x03, 0x00, 0x00, 0x00, 0x00, 0x00, 0x06, 0x00,
  0x08, 0x00, 0x07, 0x00, 0x06, 0x00, 0x00, 0x00, 0x00, 0x00, 0x00, 0x01,
  0x01, 0x00, 0x00, 0x00, 0x14, 0x00, 0x00, 0x00, 0x03, 0x00, 0x00, 0x00,
  0x13, 0x00, 0x00, 0x00, 0x07, 0x00, 0x00, 0x00, 0x06, 0x00, 0x00, 0x00,
  0x2e, 0xff, 0xff, 0xff, 0x14, 0x00, 0x00, 0x00, 0x00, 0x00, 0x00, 0x1b,
  0x10, 0x00, 0x00, 0x00, 0x14, 0x00, 0x00, 0x00, 0x02, 0x00, 0x00, 0x00,
  0xb8, 0xec, 0xff, 0xff, 0x01, 0x00, 0x00, 0x00, 0x13, 0x00, 0x00, 0x00,
  0x02, 0x00, 0x00, 0x00, 0x12, 0x00, 0x00, 0x00, 0x03, 0x00, 0x00, 0x00,
  0x02, 0xff, 0xff, 0xff, 0x08, 0x00, 0x00, 0x00, 0x0c, 0x00, 0x00, 0x00,
  0x01, 0x00, 0x00, 0x00, 0x12, 0x00, 0x00, 0x00, 0x02, 0x00, 0x00, 0x00,
  0x11, 0x00, 0x00, 0x00, 0x02, 0x00, 0x00, 0x00, 0x7e, 0xff, 0xff, 0xff,
  0x14, 0x00, 0x00, 0x00, 0x00, 0x00, 0x00, 0x01, 0x1c, 0x00, 0x00, 0x00,
  0x20, 0x00, 0x00, 0x00, 0x01, 0x00, 0x00, 0x00, 0x70, 0xff, 0xff, 0xff,
  0x00, 0x00, 0x00, 0x01, 0x01, 0x00, 0x00, 0x00, 0x01, 0x00, 0x00, 0x00,
  0x01, 0x00, 0x00, 0x00, 0x11, 0x00, 0x00, 0x00, 0x03, 0x00, 0x00, 0x00,
  0x10, 0x00, 0x00, 0x00, 0x09, 0x00, 0x00, 0x00, 0x08, 0x00, 0x00, 0x00,
  0xbe, 0xff, 0xff, 0xff, 0x14, 0x00, 0x00, 0x00, 0x00, 0x00, 0x00, 0x01,
  0x1c, 0x00, 0x00, 0x00, 0x20, 0x00, 0x00, 0x00, 0x01, 0x00, 0x00, 0x00,
  0xb0, 0xff, 0xff, 0xff, 0x00, 0x00, 0x00, 0x01, 0x01, 0x00, 0x00, 0x00,
  0x02, 0x00, 0x00, 0x00, 0x01, 0x00, 0x00, 0x00, 0x10, 0x00, 0x00, 0x00,
  0x03, 0x00, 0x00, 0x00, 0x0f, 0x00, 0x00, 0x00, 0x0b, 0x00, 0x00, 0x00,
  0x0a, 0x00, 0x00, 0x00, 0x00, 0x00, 0x0e, 0x00, 0x18, 0x00, 0x14, 0x00,
  0x10, 0x00, 0x0c, 0x00, 0x0b, 0x00, 0x04, 0x00, 0x0e, 0x00, 0x00, 0x00,
  0x20, 0x00, 0x00, 0x00, 0x00, 0x00, 0x00, 0x01, 0x28, 0x00, 0x00, 0x00,
  0x2c, 0x00, 0x00, 0x00, 0x01, 0x00, 0x00, 0x00, 0x0c, 0x00, 0x10, 0x00,
  0x00, 0x00, 0x0c, 0x00, 0x08, 0x00, 0x07, 0x00, 0x0c, 0x00, 0x00, 0x00,
  0x00, 0x00, 0x00, 0x01, 0x01, 0x00, 0x00, 0x00, 0x02, 0x00, 0x00, 0x00,
  0x01, 0x00, 0x00, 0x00, 0x0f, 0x00, 0x00, 0x00, 0x03, 0x00, 0x00, 0x00,
  0x0e, 0x00, 0x00, 0x00, 0x0d, 0x00, 0x00, 0x00, 0x0c, 0x00, 0x00, 0x00,
  0x00, 0x00, 0x0a, 0x00, 0x0c, 0x00, 0x00, 0x00, 0x08, 0x00, 0x04, 0x00,
  0x0a, 0x00, 0x00, 0x00, 0x08, 0x00, 0x00, 0x00, 0x0c, 0x00, 0x00, 0x00,
  0x01, 0x00, 0x00, 0x00, 0x0e, 0x00, 0x00, 0x00, 0x02, 0x00, 0x00, 0x00,
  0x00, 0x00, 0x00, 0x00, 0x01, 0x00, 0x00, 0x00, 0x01, 0x00, 0x00, 0x00,
  0x16, 0x00, 0x00, 0x00, 0x01, 0x00, 0x00, 0x00, 0x00, 0x00, 0x00, 0x00,
  0x17, 0x00, 0x00, 0x00, 0x30, 0x12, 0x00, 0x00, 0xd4, 0x11, 0x00, 0x00,
  0x94, 0x11, 0x00, 0x00, 0x58, 0x11, 0x00, 0x00, 0xac, 0x10, 0x00, 0x00,
  0x00, 0x10, 0x00, 0x00, 0xec, 0x0e, 0x00, 0x00, 0xd0, 0x0d, 0x00, 0x00,
  0x1c, 0x0d, 0x00, 0x00, 0x58, 0x0c, 0x00, 0x00, 0x74, 0x0b, 0x00, 0x00,
  0x80, 0x0a, 0x00, 0x00, 0x6c, 0x09, 0x00, 0x00, 0x48, 0x08, 0x00, 0x00,
  0xbc, 0x07, 0x00, 0x00, 0x50, 0x06, 0x00, 0x00, 0xe4, 0x04, 0x00, 0x00,
  0x78, 0x03, 0x00, 0x00, 0x3c, 0x02, 0x00, 0x00, 0xb8, 0x01, 0x00, 0x00,
  0x04, 0x01, 0x00, 0x00, 0x70, 0x00, 0x00, 0x00, 0x04, 0x00, 0x00, 0x00,
  0x42, 0xee, 0xff, 0xff, 0x00, 0x00, 0x00, 0x01, 0x14, 0x00, 0x00, 0x00,
  0x30, 0x00, 0x00, 0x00, 0x17, 0x00, 0x00, 0x00, 0x00, 0x00, 0x00, 0x09,
  0x44, 0x00, 0x00, 0x00, 0x2c, 0xee, 0xff, 0xff, 0x08, 0x00, 0x00, 0x00,
  0x10, 0x00, 0x00, 0x00, 0x01, 0x00, 0x00, 0x00, 0x80, 0xff, 0xff, 0xff,
  0xff, 0xff, 0xff, 0xff, 0x01, 0x00, 0x00, 0x00, 0x00, 0x00, 0x80, 0x3b,
  0x1b, 0x00, 0x00, 0x00, 0x53, 0x74, 0x61, 0x74, 0x65, 0x66, 0x75, 0x6c,
  0x50, 0x61, 0x72, 0x74, 0x69, 0x74, 0x69, 0x6f, 0x6e, 0x65, 0x64, 0x43,
  0x61, 0x6c, 0x6c, 0x5f, 0x31, 0x3a, 0x30, 0x00, 0x02, 0x00, 0x00, 0x00,
  0x01, 0x00, 0x00, 0x00, 0x07, 0x00, 0x00, 0x00, 0xaa, 0xee, 0xff, 0xff,
  0x00, 0x00, 0x00, 0x01, 0x14, 0x00, 0x00, 0x00, 0x30, 0x00, 0x00, 0x00,
  0x16, 0x00, 0x00, 0x00, 0x00, 0x00, 0x00, 0x09, 0x6c, 0x00, 0x00, 0x00,
  0x94, 0xee, 0xff, 0xff, 0x08, 0x00, 0x00, 0x00, 0x10, 0x00, 0x00, 0x00,
  0x01, 0x00, 0x00, 0x00, 0x49, 0x00, 0x00, 0x00, 0x00, 0x00, 0x00, 0x00,
  0x01, 0x00, 0x00, 0x00, 0x81, 0x97, 0xb0, 0x3e, 0x40, 0x00, 0x00, 0x00,
  0x73, 0x65, 0x71, 0x75, 0x65, 0x6e, 0x74, 0x69, 0x61, 0x6c, 0x5f, 0x34,
  0x5f, 0x31, 0x2f, 0x64, 0x65, 0x6e, 0x73, 0x65, 0x5f, 0x39, 0x5f, 0x31,
  0x2f, 0x4d, 0x61, 0x74, 0x4d, 0x75, 0x6c, 0x3b, 0x73, 0x65, 0x71, 0x75,
  0x65, 0x6e, 0x74, 0x69, 0x61, 0x6c, 0x5f, 0x34, 0x5f, 0x31, 0x2f, 0x64,
  0x65, 0x6e, 0x73, 0x65, 0x5f, 0x39, 0x5f, 0x31, 0x2f, 0x42, 0x69, 0x61,
  0x73, 0x41, 0x64, 0x64, 0x00, 0x00, 0x00, 0x00, 0x02, 0x00, 0x00, 0x00,
  0x01, 0x00, 0x00, 0x00, 0x07, 0x00, 0x00, 0x00, 0x3a, 0xef, 0xff, 0xff,
  0x00, 0x00, 0x00, 0x01, 0x14, 0x00, 0x00, 0x00, 0x34, 0x00, 0x00, 0x00,
  0x15, 0x00, 0x00, 0x00, 0x00, 0x00, 0x00, 0x09, 0x8c, 0x00, 0x00, 0x00,
  0x24, 0xef, 0xff, 0xff, 0x08, 0x00, 0x00, 0x00, 0x14, 0x00, 0x00, 0x00,
  0x01, 0x00, 0x00, 0x00, 0x80, 0xff, 0xff, 0xff, 0xff, 0xff, 0xff, 0xff,
  0x00, 0x00, 0x00, 0x00, 0x01, 0x00, 0x00, 0x00, 0x0d, 0x4a, 0x18, 0x3c,
  0x5e, 0x00, 0x00, 0x00, 0x73, 0x65, 0x71, 0x75, 0x65, 0x6e, 0x74, 0x69,
  0x61, 0x6c, 0x5f, 0x34, 0x5f, 0x31, 0x2f, 0x64, 0x65, 0x6e, 0x73, 0x65,
  0x5f, 0x38, 0x5f, 0x31, 0x2f, 0x4d, 0x61, 0x74, 0x4d, 0x75, 0x6c, 0x3b,
  0x73, 0x65, 0x71, 0x75, 0x65, 0x6e, 0x74, 0x69, 0x61, 0x6c, 0x5f, 0x34,
  0x5f, 0x31, 0x2f, 0x64, 0x65, 0x6e, 0x73, 0x65, 0x5f, 0x38, 0x5f, 0x31,
  0x2f, 0x52, 0x65, 0x6c, 0x75, 0x3b, 0x73, 0x65, 0x71, 0x75, 0x65, 0x6e,
  0x74, 0x69, 0x61, 0x6c, 0x5f, 0x34, 0x5f, 0x31, 0x2f, 0x64, 0x65, 0x6e,
  0x73, 0x65, 0x5f, 0x38, 0x5f, 0x31, 0x2f, 0x42, 0x69, 0x61, 0x73, 0x41,
  0x64, 0x64, 0x00, 0x00, 0x02, 0x00, 0x00, 0x00, 0x01, 0x00, 0x00, 0x00,
  0x10, 0x00, 0x00, 0x00, 0xea, 0xef, 0xff, 0xff, 0x00, 0x00, 0x00, 0x01,
  0x14, 0x00, 0x00, 0x00, 0x30, 0x00, 0x00, 0x00, 0x14, 0x00, 0x00, 0x00,
  0x00, 0x00, 0x00, 0x09, 0x5c, 0x00, 0x00, 0x00, 0xd4, 0xef, 0xff, 0xff,
  0x08, 0x00, 0x00, 0x00, 0x10, 0x00, 0x00, 0x00, 0x01, 0x00, 0x00, 0x00,
  0x80, 0xff, 0xff, 0xff, 0xff, 0xff, 0xff, 0xff, 0x01, 0x00, 0x00, 0x00,
  0x71, 0x9e, 0x7b, 0x3c, 0x30, 0x00, 0x00, 0x00, 0x73, 0x65, 0x71, 0x75,
  0x65, 0x6e, 0x74, 0x69, 0x61, 0x6c, 0x5f, 0x34, 0x5f, 0x31, 0x2f, 0x67,
  0x6c, 0x6f, 0x62, 0x61, 0x6c, 0x5f, 0x61, 0x76, 0x65, 0x72, 0x61, 0x67,
  0x65, 0x5f, 0x70, 0x6f, 0x6f, 0x6c, 0x69, 0x6e, 0x67, 0x31, 0x64, 0x5f,
  0x34, 0x5f, 0x31, 0x2f, 0x4d, 0x65, 0x61, 0x6e, 0x00, 0x00, 0x00, 0x00,
  0x02, 0x00, 0x00, 0x00, 0x01, 0x00, 0x00, 0x00, 0x08, 0x00, 0x00, 0x00,
  0x6a, 0xf0, 0xff, 0xff, 0x00, 0x00, 0x00, 0x01, 0x14, 0x00, 0x00, 0x00,
  0x30, 0x00, 0x00, 0x00, 0x13, 0x00, 0x00, 0x00, 0x00, 0x00, 0x00, 0x09,
  0x10, 0x01, 0x00, 0x00, 0x54, 0xf0, 0xff, 0xff, 0x08, 0x00, 0x00, 0x00,
  0x10, 0x00, 0x00, 0x00, 0x01, 0x00, 0x00, 0x00, 0x80, 0xff, 0xff, 0xff,
  0xff, 0xff, 0xff, 0xff, 0x01, 0x00, 0x00, 0x00, 0x45, 0x0a, 0xd5, 0x3d,
  0xe6, 0x00, 0x00, 0x00, 0x73, 0x65, 0x71, 0x75, 0x65, 0x6e, 0x74, 0x69,
  0x61, 0x6c, 0x5f, 0x34, 0x5f, 0x31, 0x2f, 0x61, 0x63, 0x74, 0x69, 0x76,
  0x61, 0x74, 0x69, 0x6f, 0x6e, 0x5f, 0x31, 0x34, 0x5f, 0x31, 0x2f, 0x52,
  0x65, 0x6c, 0x75, 0x3b, 0x73, 0x65, 0x71, 0x75, 0x65, 0x6e, 0x74, 0x69,
  0x61, 0x6c, 0x5f, 0x34, 0x5f, 0x31, 0x2f, 0x62, 0x61, 0x74, 0x63, 0x68,
  0x5f, 0x6e, 0x6f, 0x72, 0x6d, 0x61, 0x6c, 0x69, 0x7a, 0x61, 0x74, 0x69,
  0x6f, 0x6e, 0x5f, 0x31, 0x34, 0x5f, 0x31, 0x2f, 0x62, 0x61, 0x74, 0x63,
  0x68, 0x6e, 0x6f, 0x72, 0x6d, 0x2f, 0x61, 0x64, 0x64, 0x5f, 0x31, 0x3b,
  0x73, 0x65, 0x71, 0x75, 0x65, 0x6e, 0x74, 0x69, 0x61, 0x6c, 0x5f, 0x34,
  0x5f, 0x31, 0x2f, 0x63, 0x6f, 0x6e, 0x76, 0x31, 0x64, 0x5f, 0x31, 0x34,
  0x5f, 0x31, 0x2f, 0x63, 0x6f, 0x6e, 0x76, 0x6f, 0x6c, 0x75, 0x74, 0x69,
  0x6f, 0x6e, 0x2f, 0x53, 0x71, 0x75, 0x65, 0x65, 0x7a, 0x65, 0x3b, 0x73,
  0x65, 0x71, 0x75, 0x65, 0x6e, 0x74, 0x69, 0x61, 0x6c, 0x5f, 0x34, 0x5f,
  0x31, 0x2f, 0x62, 0x61, 0x74, 0x63, 0x68, 0x5f, 0x6e, 0x6f, 0x72, 0x6d,
  0x61, 0x6c, 0x69, 0x7a, 0x61, 0x74, 0x69, 0x6f, 0x6e, 0x5f, 0x31, 0x34,
  0x5f, 0x31, 0x2f, 0x62, 0x61, 0x74, 0x63, 0x68, 0x6e, 0x6f, 0x72, 0x6d,
  0x2f, 0x6d, 0x75, 0x6c, 0x5f, 0x31, 0x3b, 0x73, 0x65, 0x71, 0x75, 0x65,
  0x6e, 0x74, 0x69, 0x61, 0x6c, 0x5f, 0x34, 0x5f, 0x31, 0x2f, 0x63, 0x6f,
  0x6e, 0x76, 0x31, 0x64, 0x5f, 0x31, 0x34, 0x5f, 0x31, 0x2f, 0x42, 0x69,
  0x61, 0x73, 0x41, 0x64, 0x64, 0x3b, 0x00, 0x00, 0x03, 0x00, 0x00, 0x00,
  0x01, 0x00, 0x00, 0x00, 0x7d, 0x00, 0x00, 0x00, 0x08, 0x00, 0x00, 0x00,
  0xa2, 0xf1, 0xff, 0xff, 0x00, 0x00, 0x00, 0x01, 0x14, 0x00, 0x00, 0x00,
  0x34, 0x00, 0x00, 0x00, 0x12, 0x00, 0x00, 0x00, 0x00, 0x00, 0x00, 0x09,
  0x3c, 0x01, 0x00, 0x00, 0x8c, 0xf1, 0xff, 0xff, 0x08, 0x00, 0x00, 0x00,
  0x14, 0x00, 0x00, 0x00, 0x01, 0x00, 0x00, 0x00, 0x80, 0xff, 0xff, 0xff,
  0xff, 0xff, 0xff, 0xff, 0x00, 0x00, 0x00, 0x00, 0x01, 0x00, 0x00, 0x00,
  0x45, 0x0a, 0xd5, 0x3d, 0x0d, 0x01, 0x00, 0x00, 0x73, 0x65, 0x71, 0x75,
  0x65, 0x6e, 0x74, 0x69, 0x61, 0x6c, 0x5f, 0x34, 0x5f, 0x31, 0x2f, 0x61,
  0x63, 0x74, 0x69, 0x76, 0x61, 0x74, 0x69, 0x6f, 0x6e, 0x5f, 0x31, 0x34,
  0x5f, 0x31, 0x2f, 0x52, 0x65, 0x6c, 0x75, 0x3b, 0x73, 0x65, 0x71, 0x75,
  0x65, 0x6e, 0x74, 0x69, 0x61, 0x6c, 0x5f, 0x34, 0x5f, 0x31, 0x2f, 0x62,
  0x61, 0x74, 0x63, 0x68, 0x5f, 0x6e, 0x6f, 0x72, 0x6d, 0x61, 0x6c, 0x69,
  0x7a, 0x61, 0x74, 0x69, 0x6f, 0x6e, 0x5f, 0x31, 0x34, 0x5f, 0x31, 0x2f,
  0x62, 0x61, 0x74, 0x63, 0x68, 0x6e, 0x6f, 0x72, 0x6d, 0x2f, 0x61, 0x64,
  0x64, 0x5f, 0x31, 0x3b, 0x73, 0x65, 0x71, 0x75, 0x65, 0x6e, 0x74, 0x69,
  0x61, 0x6c, 0x5f, 0x34, 0x5f, 0x31, 0x2f, 0x63, 0x6f, 0x6e, 0x76, 0x31,
  0x64, 0x5f, 0x31, 0x34, 0x5f, 0x31, 0x2f, 0x63, 0x6f, 0x6e, 0x76, 0x6f,
  0x6c, 0x75, 0x74, 0x69, 0x6f, 0x6e, 0x2f, 0x53, 0x71, 0x75, 0x65, 0x65,
  0x7a, 0x65, 0x3b, 0x73, 0x65, 0x71, 0x75, 0x65, 0x6e, 0x74, 0x69, 0x61,
  0x6c, 0x5f, 0x34, 0x5f, 0x31, 0x2f, 0x62, 0x61, 0x74, 0x63, 0x68, 0x5f,
  0x6e, 0x6f, 0x72, 0x6d, 0x61, 0x6c, 0x69, 0x7a, 0x61, 0x74, 0x69, 0x6f,
  0x6e, 0x5f, 0x31, 0x34, 0x5f, 0x31, 0x2f, 0x62, 0x61, 0x74, 0x63, 0x68,
  0x6e, 0x6f, 0x72, 0x6d, 0x2f, 0x6d, 0x75, 0x6c, 0x5f, 0x31, 0x3b, 0x73,
  0x65, 0x71, 0x75, 0x65, 0x6e, 0x74, 0x69, 0x61, 0x6c, 0x5f, 0x34, 0x5f,
  0x31, 0x2f, 0x63, 0x6f, 0x6e, 0x76, 0x31, 0x64, 0x5f, 0x31, 0x34, 0x5f,
  0x31, 0x2f, 0x42, 0x69, 0x61, 0x73, 0x41, 0x64, 0x64, 0x3b, 0x3b, 0x73,
  0x65, 0x71, 0x75, 0x65, 0x6e, 0x74, 0x69, 0x61, 0x6c, 0x5f, 0x34, 0x5f,
  0x31, 0x2f, 0x63, 0x6f, 0x6e, 0x76, 0x31, 0x64, 0x5f, 0x31, 0x34, 0x5f,
  0x31, 0x2f, 0x63, 0x6f, 0x6e, 0x76, 0x6f, 0x6c, 0x75, 0x74, 0x69, 0x6f,
  0x6e, 0x00, 0x00, 0x00, 0x04, 0x00, 0x00, 0x00, 0x01, 0x00, 0x00, 0x00,
  0x01, 0x00, 0x00, 0x00, 0x7d, 0x00, 0x00, 0x00, 0x08, 0x00, 0x00, 0x00,
  0x0a, 0xf3, 0xff, 0xff, 0x00, 0x00, 0x00, 0x01, 0x14, 0x00, 0x00, 0x00,
  0x34, 0x00, 0x00, 0x00, 0x11, 0x00, 0x00, 0x00, 0x00, 0x00, 0x00, 0x09,
  0x3c, 0x01, 0x00, 0x00, 0xf4, 0xf2, 0xff, 0xff, 0x08, 0x00, 0x00, 0x00,
  0x14, 0x00, 0x00, 0x00, 0x01, 0x00, 0x00, 0x00, 0x80, 0xff, 0xff, 0xff,
  0xff, 0xff, 0xff, 0xff, 0x00, 0x00, 0x00, 0x00, 0x01, 0x00, 0x00, 0x00,
  0xb9, 0x8c, 0x44, 0x3d, 0x0d, 0x01, 0x00, 0x00, 0x73, 0x65, 0x71, 0x75,
  0x65, 0x6e, 0x74, 0x69, 0x61, 0x6c, 0x5f, 0x34, 0x5f, 0x31, 0x2f, 0x61,
  0x63, 0x74, 0x69, 0x76, 0x61, 0x74, 0x69, 0x6f, 0x6e, 0x5f, 0x31, 0x33,
  0x5f, 0x31, 0x2f, 0x52, 0x65, 0x6c, 0x75, 0x3b, 0x73, 0x65, 0x71, 0x75,
  0x65, 0x6e, 0x74, 0x69, 0x61, 0x6c, 0x5f, 0x34, 0x5f, 0x31, 0x2f, 0x62,
  0x61, 0x74, 0x63, 0x68, 0x5f, 0x6e, 0x6f, 0x72, 0x6d, 0x61, 0x6c, 0x69,
  0x7a, 0x61, 0x74, 0x69, 0x6f, 0x6e, 0x5f, 0x31, 0x33, 0x5f, 0x31, 0x2f,
  0x62, 0x61, 0x74, 0x63, 0x68, 0x6e, 0x6f, 0x72, 0x6d, 0x2f, 0x61, 0x64,
  0x64, 0x5f, 0x31, 0x3b, 0x73, 0x65, 0x71, 0x75, 0x65, 0x6e, 0x74, 0x69,
  0x61, 0x6c, 0x5f, 0x34, 0x5f, 0x31, 0x2f, 0x63, 0x6f, 0x6e, 0x76, 0x31,
  0x64, 0x5f, 0x31, 0x33, 0x5f, 0x31, 0x2f, 0x63, 0x6f, 0x6e, 0x76, 0x6f,
  0x6c, 0x75, 0x74, 0x69, 0x6f, 0x6e, 0x2f, 0x53, 0x71, 0x75, 0x65, 0x65,
  0x7a, 0x65, 0x3b, 0x73, 0x65, 0x71, 0x75, 0x65, 0x6e, 0x74, 0x69, 0x61,
  0x6c, 0x5f, 0x34, 0x5f, 0x31, 0x2f, 0x62, 0x61, 0x74, 0x63, 0x68, 0x5f,
  0x6e, 0x6f, 0x72, 0x6d, 0x61, 0x6c, 0x69, 0x7a, 0x61, 0x74, 0x69, 0x6f,
  0x6e, 0x5f, 0x31, 0x33, 0x5f, 0x31, 0x2f, 0x62, 0x61, 0x74, 0x63, 0x68,
  0x6e, 0x6f, 0x72, 0x6d, 0x2f, 0x6d, 0x75, 0x6c, 0x5f, 0x31, 0x3b, 0x73,
  0x65, 0x71, 0x75, 0x65, 0x6e, 0x74, 0x69, 0x61, 0x6c, 0x5f, 0x34, 0x5f,
  0x31, 0x2f, 0x63, 0x6f, 0x6e, 0x76, 0x31, 0x64, 0x5f, 0x31, 0x33, 0x5f,
  0x31, 0x2f, 0x42, 0x69, 0x61, 0x73, 0x41, 0x64, 0x64, 0x3b, 0x3b, 0x73,
  0x65, 0x71, 0x75, 0x65, 0x6e, 0x74, 0x69, 0x61, 0x6c, 0x5f, 0x34, 0x5f,
  0x31, 0x2f, 0x63, 0x6f, 0x6e, 0x76, 0x31, 0x64, 0x5f, 0x31, 0x33, 0x5f,
  0x31, 0x2f, 0x63, 0x6f, 0x6e, 0x76, 0x6f, 0x6c, 0x75, 0x74, 0x69, 0x6f,
  0x6e, 0x00, 0x00, 0x00, 0x04, 0x00, 0x00, 0x00, 0x01, 0x00, 0x00, 0x00,
  0x01, 0x00, 0x00, 0x00, 0x7d, 0x00, 0x00, 0x00, 0x0c, 0x00, 0x00, 0x00,
  0x72, 0xf4, 0xff, 0xff, 0x00, 0x00, 0x00, 0x01, 0x14, 0x00, 0x00, 0x00,
  0x34, 0x00, 0x00, 0x00, 0x10, 0x00, 0x00, 0x00, 0x00, 0x00, 0x00, 0x09,
  0x3c, 0x01, 0x00, 0x00, 0x5c, 0xf4, 0xff, 0xff, 0x08, 0x00, 0x00, 0x00,
  0x14, 0x00, 0x00, 0x00, 0x01, 0x00, 0x00, 0x00, 0x80, 0xff, 0xff, 0xff,
  0xff, 0xff, 0xff, 0xff, 0x00, 0x00, 0x00, 0x00, 0x01, 0x00, 0x00, 0x00,
  0x44, 0x79, 0x35, 0x3e, 0x0d, 0x01, 0x00, 0x00, 0x73, 0x65, 0x71, 0x75,
  0x65, 0x6e, 0x74, 0x69, 0x61, 0x6c, 0x5f, 0x34, 0x5f, 0x31, 0x2f, 0x61,
  0x63, 0x74, 0x69, 0x76, 0x61, 0x74, 0x69, 0x6f, 0x6e, 0x5f, 0x31, 0x32,
  0x5f, 0x31, 0x2f, 0x52, 0x65, 0x6c, 0x75, 0x3b, 0x73, 0x65, 0x71, 0x75,
  0x65, 0x6e, 0x74, 0x69, 0x61, 0x6c, 0x5f, 0x34, 0x5f, 0x31, 0x2f, 0x62,
  0x61, 0x74, 0x63, 0x68, 0x5f, 0x6e, 0x6f, 0x72, 0x6d, 0x61, 0x6c, 0x69,
  0x7a, 0x61, 0x74, 0x69, 0x6f, 0x6e, 0x5f, 0x31, 0x32, 0x5f, 0x31, 0x2f,
  0x62, 0x61, 0x74, 0x63, 0x68, 0x6e, 0x6f, 0x72, 0x6d, 0x2f, 0x61, 0x64,
  0x64, 0x5f, 0x31, 0x3b, 0x73, 0x65, 0x71, 0x75, 0x65, 0x6e, 0x74, 0x69,
  0x61, 0x6c, 0x5f, 0x34, 0x5f, 0x31, 0x2f, 0x63, 0x6f, 0x6e, 0x76, 0x31,
  0x64, 0x5f, 0x31, 0x32, 0x5f, 0x31, 0x2f, 0x63, 0x6f, 0x6e, 0x76, 0x6f,
  0x6c, 0x75, 0x74, 0x69, 0x6f, 0x6e, 0x2f, 0x53, 0x71, 0x75, 0x65, 0x65,
  0x7a, 0x65, 0x3b, 0x73, 0x65, 0x71, 0x75, 0x65, 0x6e, 0x74, 0x69, 0x61,
  0x6c, 0x5f, 0x34, 0x5f, 0x31, 0x2f, 0x62, 0x61, 0x74, 0x63, 0x68, 0x5f,
  0x6e, 0x6f, 0x72, 0x6d, 0x61, 0x6c, 0x69, 0x7a, 0x61, 0x74, 0x69, 0x6f,
  0x6e, 0x5f, 0x31, 0x32, 0x5f, 0x31, 0x2f, 0x62, 0x61, 0x74, 0x63, 0x68,
  0x6e, 0x6f, 0x72, 0x6d, 0x2f, 0x6d, 0x75, 0x6c, 0x5f, 0x31, 0x3b, 0x73,
  0x65, 0x71, 0x75, 0x65, 0x6e, 0x74, 0x69, 0x61, 0x6c, 0x5f, 0x34, 0x5f,
  0x31, 0x2f, 0x63, 0x6f, 0x6e, 0x76, 0x31, 0x64, 0x5f, 0x31, 0x32, 0x5f,
  0x31, 0x2f, 0x42, 0x69, 0x61, 0x73, 0x41, 0x64, 0x64, 0x3b, 0x3b, 0x73,
  0x65, 0x71, 0x75, 0x65, 0x6e, 0x74, 0x69, 0x61, 0x6c, 0x5f, 0x34, 0x5f,
  0x31, 0x2f, 0x63, 0x6f, 0x6e, 0x76, 0x31, 0x64, 0x5f, 0x31, 0x32, 0x5f,
  0x31, 0x2f, 0x63, 0x6f, 0x6e, 0x76, 0x6f, 0x6c, 0x75, 0x74, 0x69, 0x6f,
  0x6e, 0x00, 0x00, 0x00, 0x04, 0x00, 0x00, 0x00, 0x01, 0x00, 0x00, 0x00,
  0x01, 0x00, 0x00, 0x00, 0xfa, 0x00, 0x00, 0x00, 0x10, 0x00, 0x00, 0x00,
  0xda, 0xf5, 0xff, 0xff, 0x00, 0x00, 0x00, 0x01, 0x14, 0x00, 0x00, 0x00,
  0x30, 0x00, 0x00, 0x00, 0x0f, 0x00, 0x00, 0x00, 0x00, 0x00, 0x00, 0x09,
  0x5c, 0x00, 0x00, 0x00, 0xc4, 0xf5, 0xff, 0xff, 0x08, 0x00, 0x00, 0x00,
  0x10, 0x00, 0x00, 0x00, 0x01, 0x00, 0x00, 0x00, 0x94, 0xff, 0xff, 0xff,
  0xff, 0xff, 0xff, 0xff, 0x01, 0x00, 0x00, 0x00, 0xd5, 0x2a, 0xfb, 0x3e,
  0x32, 0x00, 0x00, 0x00, 0x73, 0x65, 0x71, 0x75, 0x65, 0x6e, 0x74, 0x69,
  0x61, 0x6c, 0x5f, 0x34, 0x5f, 0x31, 0x2f, 0x63, 0x6f, 0x6e, 0x76, 0x31,
  0x64, 0x5f, 0x31, 0x32, 0x5f, 0x31, 0x2f, 0x63, 0x6f, 0x6e, 0x76, 0x6f,
  0x6c, 0x75, 0x74, 0x69, 0x6f, 0x6e, 0x2f, 0x45, 0x78, 0x70, 0x61, 0x6e,
  0x64, 0x44, 0x69, 0x6d, 0x73, 0x31, 0x00, 0x00, 0x04, 0x00, 0x00, 0x00,
  0x01, 0x00, 0x00, 0x00, 0x01, 0x00, 0x00, 0x00, 0xf4, 0x01, 0x00, 0x00,
  0x06, 0x00, 0x00, 0x00, 0x62, 0xf6, 0xff, 0xff, 0x00, 0x00, 0x00, 0x01,
  0x14, 0x00, 0x00, 0x00, 0xe8, 0x00, 0x00, 0x00, 0x0e, 0x00, 0x00, 0x00,
  0x00, 0x00, 0x00, 0x09, 0xf4, 0x00, 0x00, 0x00, 0x4c, 0xf6, 0xff, 0xff,
  0x08, 0x00, 0x00, 0x00, 0x8c, 0x00, 0x00, 0x00, 0x10, 0x00, 0x00, 0x00,
  0x00, 0x00, 0x00, 0x00, 0x00, 0x00, 0x00, 0x00, 0x00, 0x00, 0x00, 0x00,
  0x00, 0x00, 0x00, 0x00, 0x00, 0x00, 0x00, 0x00, 0x00, 0x00, 0x00, 0x00,
  0x00, 0x00, 0x00, 0x00, 0x00, 0x00, 0x00, 0x00, 0x00, 0x00, 0x00, 0x00,
  0x00, 0x00, 0x00, 0x00, 0x00, 0x00, 0x00, 0x00, 0x00, 0x00, 0x00, 0x00,
  0x00, 0x00, 0x00, 0x00, 0x00, 0x00, 0x00, 0x00, 0x00, 0x00, 0x00, 0x00,
  0x00, 0x00, 0x00, 0x00, 0x00, 0x00, 0x00, 0x00, 0x00, 0x00, 0x00, 0x00,
  0x00, 0x00, 0x00, 0x00, 0x00, 0x00, 0x00, 0x00, 0x00, 0x00, 0x00, 0x00,
  0x00, 0x00, 0x00, 0x00, 0x00, 0x00, 0x00, 0x00, 0x00, 0x00, 0x00, 0x00,
  0x00, 0x00, 0x00, 0x00, 0x00, 0x00, 0x00, 0x00, 0x00, 0x00, 0x00, 0x00,
  0x00, 0x00, 0x00, 0x00, 0x00, 0x00, 0x00, 0x00, 0x00, 0x00, 0x00, 0x00,
  0x00, 0x00, 0x00, 0x00, 0x00, 0x00, 0x00, 0x00, 0x00, 0x00, 0x00, 0x00,
  0x10, 0x00, 0x00, 0x00, 0xff, 0xaa, 0xc0, 0x3a, 0x11, 0x13, 0x0d, 0x3b,
  0xe2, 0x21, 0xe9, 0x3b, 0x7c, 0x39, 0xdc, 0x3a, 0xec, 0x35, 0x5c, 0x3a,
  0x8f, 0xe1, 0xb0, 0x3a, 0x87, 0x41, 0x1f, 0x3b, 0x83, 0xdd, 0xcf, 0x3a,
  0xc1, 0x48, 0x5b, 0x3b, 0xed, 0x65, 0xcb, 0x3a, 0x16, 0x27, 0x0d, 0x3b,
  0xf3, 0x5f, 0x84, 0x3a, 0x1c, 0x4f, 0x66, 0x3a, 0x34, 0xa2, 0x77, 0x3b,
  0x26, 0xc3, 0xb6, 0x3a, 0x77, 0x1e, 0xb6, 0x3a, 0x12, 0x00, 0x00, 0x00,
  0x74, 0x66, 0x6c, 0x2e, 0x70, 0x73, 0x65, 0x75, 0x64, 0x6f, 0x5f, 0x71,
  0x63, 0x6f, 0x6e, 0x73, 0x74, 0x39, 0x00, 0x00, 0x04, 0x00, 0x00, 0x00,
  0x10, 0x00, 0x00, 0x00, 0x01, 0x00, 0x00, 0x00, 0x07, 0x00, 0x00, 0x00,
  0x06, 0x00, 0x00, 0x00, 0x82, 0xf7, 0xff, 0xff, 0x00, 0x00, 0x00, 0x01,
  0x14, 0x00, 0x00, 0x00, 0xe4, 0x00, 0x00, 0x00, 0x0d, 0x00, 0x00, 0x00,
  0x00, 0x00, 0x00, 0x02, 0xf0, 0x00, 0x00, 0x00, 0x6c, 0xf7, 0xff, 0xff,
  0x08, 0x00, 0x00, 0x00, 0x88, 0x00, 0x00, 0x00, 0x10, 0x00, 0x00, 0x00,
  0x00, 0x00, 0x00, 0x00, 0x00, 0x00, 0x00, 0x00, 0x00, 0x00, 0x00, 0x00,
  0x00, 0x00, 0x00, 0x00, 0x00, 0x00, 0x00, 0x00, 0x00, 0x00, 0x00, 0x00,
  0x00, 0x00, 0x00, 0x00, 0x00, 0x00, 0x00, 0x00, 0x00, 0x00, 0x00, 0x00,
  0x00, 0x00, 0x00, 0x00, 0x00, 0x00, 0x00, 0x00, 0x00, 0x00, 0x00, 0x00,
  0x00, 0x00, 0x00, 0x00, 0x00, 0x00, 0x00, 0x00, 0x00, 0x00, 0x00, 0x00,
  0x00, 0x00, 0x00, 0x00, 0x00, 0x00, 0x00, 0x00, 0x00, 0x00, 0x00, 0x00,
  0x00, 0x00, 0x00, 0x00, 0x00, 0x00, 0x00, 0x00, 0x00, 0x00, 0x00, 0x00,
  0x00, 0x00, 0x00, 0x00, 0x00, 0x00, 0x00, 0x00, 0x00, 0x00, 0x00, 0x00,
  0x00, 0x00, 0x00, 0x00, 0x00, 0x00, 0x00, 0x00, 0x00, 0x00, 0x00, 0x00,
  0x00, 0x00, 0x00, 0x00, 0x00, 0x00, 0x00, 0x00, 0x00, 0x00, 0x00, 0x00,
  0x00, 0x00, 0x00, 0x00, 0x00, 0x00, 0x00, 0x00, 0x10, 0x00, 0x00, 0x00,
  0xe4, 0x07, 0x3d, 0x3a, 0x4c, 0x69, 0x8a, 0x3a, 0x3a, 0xbb, 0x64, 0x3b,
  0x35, 0x11, 0x58, 0x3a, 0xb6, 0x0d, 0xd8, 0x39, 0xbf, 0x8a, 0x2d, 0x3a,
  0xe5, 0x3f, 0x9c, 0x3a, 0xf7, 0xf0, 0x4b, 0x3a, 0x06, 0x25, 0xd7, 0x3a,
  0xf7, 0x8e, 0x47, 0x3a, 0xf0, 0x7c, 0x8a, 0x3a, 0x39, 0xe0, 0x01, 0x3a,
  0x19, 0xf6, 0xe1, 0x39, 0x78, 0xf5, 0xf2, 0x3a, 0xea, 0x4f, 0x33, 0x3a,
  0x57, 0xae, 0x32, 0x3a, 0x12, 0x00, 0x00, 0x00, 0x74, 0x66, 0x6c, 0x2e,
  0x70, 0x73, 0x65, 0x75, 0x64, 0x6f, 0x5f, 0x71, 0x63, 0x6f, 0x6e, 0x73,
  0x74, 0x38, 0x00, 0x00, 0x01, 0x00, 0x00, 0x00, 0x10, 0x00, 0x00, 0x00,
  0x92, 0xf8, 0xff, 0xff, 0x00, 0x00, 0x00, 0x01, 0x14, 0x00, 0x00, 0x00,
  0xb8, 0x00, 0x00, 0x00, 0x0c, 0x00, 0x00, 0x00, 0x00, 0x00, 0x00, 0x09,
  0xc4, 0x00, 0x00, 0x00, 0x7c, 0xf8, 0xff, 0xff, 0x08, 0x00, 0x00, 0x00,
  0x6c, 0x00, 0x00, 0x00, 0x0c, 0x00, 0x00, 0x00, 0x00, 0x00, 0x00, 0x00,
  0x00, 0x00, 0x00, 0x00, 0x00, 0x00, 0x00, 0x00, 0x00, 0x00, 0x00, 0x00,
  0x00, 0x00, 0x00, 0x00, 0x00, 0x00, 0x00, 0x00, 0x00, 0x00, 0x00, 0x00,
  0x00, 0x00, 0x00, 0x00, 0x00, 0x00, 0x00, 0x00, 0x00, 0x00, 0x00, 0x00,
  0x00, 0x00, 0x00, 0x00, 0x00, 0x00, 0x00, 0x00, 0x00, 0x00, 0x00, 0x00,
  0x00, 0x00, 0x00, 0x00, 0x00, 0x00, 0x00, 0x00, 0x00, 0x00, 0x00, 0x00,
  0x00, 0x00, 0x00, 0x00, 0x00, 0x00, 0x00, 0x00, 0x00, 0x00, 0x00, 0x00,
  0x00, 0x00, 0x00, 0x00, 0x00, 0x00, 0x00, 0x00, 0x00, 0x00, 0x00, 0x00,
  0x00, 0x00, 0x00, 0x00, 0x00, 0x00, 0x00, 0x00, 0x00, 0x00, 0x00, 0x00,
  0x0c, 0x00, 0x00, 0x00, 0x96, 0x37, 0xa7, 0x3b, 0x9e, 0xf6, 0x7d, 0x3b,
  0x67, 0x6d, 0x84, 0x3b, 0xb6, 0x5a, 0x76, 0x3b, 0x09, 0xc6, 0x01, 0x3b,
  0x0d, 0x60, 0x3a, 0x3b, 0x97, 0x27, 0x80, 0x3b, 0x3c, 0x23, 0x10, 0x3b,
  0x12, 0x1d, 0x5e, 0x3b, 0xad, 0x44, 0x19, 0x3b, 0x9f, 0x07, 0xd6, 0x3a,
  0x09, 0xd5, 0x88, 0x3b, 0x12, 0x00, 0x00, 0x00, 0x74, 0x66, 0x6c, 0x2e,
  0x70, 0x73, 0x65, 0x75, 0x64, 0x6f, 0x5f, 0x71, 0x63, 0x6f, 0x6e, 0x73,
  0x74, 0x37, 0x00, 0x00, 0x04, 0x00, 0x00, 0x00, 0x0c, 0x00, 0x00, 0x00,
  0x01, 0x00, 0x00, 0x00, 0x05, 0x00, 0x00, 0x00, 0x10, 0x00, 0x00, 0x00,
  0x82, 0xf9, 0xff, 0xff, 0x00, 0x00, 0x00, 0x01, 0x14, 0x00, 0x00, 0x00,
  0xb4, 0x00, 0x00, 0x00, 0x0b, 0x00, 0x00, 0x00, 0x00, 0x00, 0x00, 0x02,
  0xc0, 0x00, 0x00, 0x00, 0x6c, 0xf9, 0xff, 0xff, 0x08, 0x00, 0x00, 0x00,
  0x68, 0x00, 0x00, 0x00, 0x0c, 0x00, 0x00, 0x00, 0x00, 0x00, 0x00, 0x00,
  0x00, 0x00, 0x00, 0x00, 0x00, 0x00, 0x00, 0x00, 0x00, 0x00, 0x00, 0x00,
  0x00, 0x00, 0x00, 0x00, 0x00, 0x00, 0x00, 0x00, 0x00, 0x00, 0x00, 0x00,
  0x00, 0x00, 0x00, 0x00, 0x00, 0x00, 0x00, 0x00, 0x00, 0x00, 0x00, 0x00,
  0x00, 0x00, 0x00, 0x00, 0x00, 0x00, 0x00, 0x00, 0x00, 0x00, 0x00, 0x00,
  0x00, 0x00, 0x00, 0x00, 0x00, 0x00, 0x00, 0x00, 0x00, 0x00, 0x00, 0x00,
  0x00, 0x00, 0x00, 0x00, 0x00, 0x00, 0x00, 0x00, 0x00, 0x00, 0x00, 0x00,
  0x00, 0x00, 0x00, 0x00, 0x00, 0x00, 0x00, 0x00, 0x00, 0x00, 0x00, 0x00,
  0x00, 0x00, 0x00, 0x00, 0x00, 0x00, 0x00, 0x00, 0x0c, 0x00, 0x00, 0x00,
  0x05, 0x13, 0x6d, 0x3a, 0xab, 0x07, 0x34, 0x3a, 0x29, 0xc0, 0x3b, 0x3a,
  0xd5, 0xa2, 0x2e, 0x3a, 0xfb, 0xfc, 0xb7, 0x39, 0x32, 0x1e, 0x04, 0x3a,
  0x65, 0xb1, 0x35, 0x3a, 0x61, 0x5a, 0xcc, 0x39, 0xc4, 0x73, 0x1d, 0x3a,
  0x51, 0x4c, 0xd9, 0x39, 0xc6, 0xb8, 0x97, 0x39, 0xe1, 0xfe, 0x41, 0x3a,
  0x12, 0x00, 0x00, 0x00, 0x74, 0x66, 0x6c, 0x2e, 0x70, 0x73, 0x65, 0x75,
  0x64, 0x6f, 0x5f, 0x71, 0x63, 0x6f, 0x6e, 0x73, 0x74, 0x36, 0x00, 0x00,
  0x01, 0x00, 0x00, 0x00, 0x0c, 0x00, 0x00, 0x00, 0x62, 0xfa, 0xff, 0xff,
  0x00, 0x00, 0x00, 0x01, 0x14, 0x00, 0x00, 0x00, 0x88, 0x00, 0x00, 0x00,
  0x0a, 0x00, 0x00, 0x00, 0x00, 0x00, 0x00, 0x09, 0x94, 0x00, 0x00, 0x00,
  0x4c, 0xfa, 0xff, 0xff, 0x08, 0x00, 0x00, 0x00, 0x4c, 0x00, 0x00, 0x00,
  0x08, 0x00, 0x00, 0x00, 0x00, 0x00, 0x00, 0x00, 0x00, 0x00, 0x00, 0x00,
  0x00, 0x00, 0x00, 0x00, 0x00, 0x00, 0x00, 0x00, 0x00, 0x00, 0x00, 0x00,
  0x00, 0x00, 0x00, 0x00, 0x00, 0x00, 0x00, 0x00, 0x00, 0x00, 0x00, 0x00,
  0x00, 0x00, 0x00, 0x00, 0x00, 0x00, 0x00, 0x00, 0x00, 0x00, 0x00, 0x00,
  0x00, 0x00, 0x00, 0x00, 0x00, 0x00, 0x00, 0x00, 0x00, 0x00, 0x00, 0x00,
  0x00, 0x00, 0x00, 0x00, 0x00, 0x00, 0x00, 0x00, 0x00, 0x00, 0x00, 0x00,
  0x08, 0x00, 0x00, 0x00, 0xa6, 0x7c, 0x73, 0x3c, 0xb4, 0xbf, 0x8a, 0x3c,
  0xc2, 0x04, 0x39, 0x3c, 0x79, 0x23, 0x79, 0x3c, 0x15, 0x17, 0x9f, 0x3c,
  0x42, 0x9b, 0x1a, 0x3c, 0xe4, 0x31, 0x41, 0x3c, 0xbb, 0x38, 0x2d, 0x3c,
  0x12, 0x00, 0x00, 0x00, 0x74, 0x66, 0x6c, 0x2e, 0x70, 0x73, 0x65, 0x75,
  0x64, 0x6f, 0x5f, 0x71, 0x63, 0x6f, 0x6e, 0x73, 0x74, 0x35, 0x00, 0x00,
  0x04, 0x00, 0x00, 0x00, 0x08, 0x00, 0x00, 0x00, 0x01, 0x00, 0x00, 0x00,
  0x03, 0x00, 0x00, 0x00, 0x0c, 0x00, 0x00, 0x00, 0x22, 0xfb, 0xff, 0xff,
  0x00, 0x00, 0x00, 0x01, 0x14, 0x00, 0x00, 0x00, 0x84, 0x00, 0x00, 0x00,
  0x09, 0x00, 0x00, 0x00, 0x00, 0x00, 0x00, 0x02, 0x90, 0x00, 0x00, 0x00,
  0x0c, 0xfb, 0xff, 0xff, 0x08, 0x00, 0x00, 0x00, 0x48, 0x00, 0x00, 0x00,
  0x08, 0x00, 0x00, 0x00, 0x00, 0x00, 0x00, 0x00, 0x00, 0x00, 0x00, 0x00,
  0x00, 0x00, 0x00, 0x00, 0x00, 0x00, 0x00, 0x00, 0x00, 0x00, 0x00, 0x00,
  0x00, 0x00, 0x00, 0x00, 0x00, 0x00, 0x00, 0x00, 0x00, 0x00, 0x00, 0x00,
  0x00, 0x00, 0x00, 0x00, 0x00, 0x00, 0x00, 0x00, 0x00, 0x00, 0x00, 0x00,
  0x00, 0x00, 0x00, 0x00, 0x00, 0x00, 0x00, 0x00, 0x00, 0x00, 0x00, 0x00,
  0x00, 0x00, 0x00, 0x00, 0x00, 0x00, 0x00, 0x00, 0x08, 0x00, 0x00, 0x00,
  0x47, 0xf1, 0x3a, 0x3a, 0x16, 0x0e, 0x55, 0x3a, 0x59, 0x0d, 0x0e, 0x3a,
  0x1c, 0x48, 0x3f, 0x3a, 0x3f, 0x4a, 0x74, 0x3a, 0xb6, 0x67, 0xed, 0x39,
  0x65, 0x54, 0x14, 0x3a, 0xa7, 0xfe, 0x04, 0x3a, 0x12, 0x00, 0x00, 0x00,
  0x74, 0x66, 0x6c, 0x2e, 0x70, 0x73, 0x65, 0x75, 0x64, 0x6f, 0x5f, 0x71,
  0x63, 0x6f, 0x6e, 0x73, 0x74, 0x34, 0x00, 0x00, 0x01, 0x00, 0x00, 0x00,
  0x08, 0x00, 0x00, 0x00, 0xd2, 0xfb, 0xff, 0xff, 0x00, 0x00, 0x00, 0x01,
  0x14, 0x00, 0x00, 0x00, 0xe8, 0x00, 0x00, 0x00, 0x08, 0x00, 0x00, 0x00,
  0x00, 0x00, 0x00, 0x09, 0xf4, 0x00, 0x00, 0x00, 0xbc, 0xfb, 0xff, 0xff,
  0x08, 0x00, 0x00, 0x00, 0x8c, 0x00, 0x00, 0x00, 0x10, 0x00, 0x00, 0x00,
  0x00, 0x00, 0x00, 0x00, 0x00, 0x00, 0x00, 0x00, 0x00, 0x00, 0x00, 0x00,
  0x00, 0x00, 0x00, 0x00, 0x00, 0x00, 0x00, 0x00, 0x00, 0x00, 0x00, 0x00,
  0x00, 0x00, 0x00, 0x00, 0x00, 0x00, 0x00, 0x00, 0x00, 0x00, 0x00, 0x00,
  0x00, 0x00, 0x00, 0x00, 0x00, 0x00, 0x00, 0x00, 0x00, 0x00, 0x00, 0x00,
  0x00, 0x00, 0x00, 0x00, 0x00, 0x00, 0x00, 0x00, 0x00, 0x00, 0x00, 0x00,
  0x00, 0x00, 0x00, 0x00, 0x00, 0x00, 0x00, 0x00, 0x00, 0x00, 0x00, 0x00,
  0x00, 0x00, 0x00, 0x00, 0x00, 0x00, 0x00, 0x00, 0x00, 0x00, 0x00, 0x00,
  0x00, 0x00, 0x00, 0x00, 0x00, 0x00, 0x00, 0x00, 0x00, 0x00, 0x00, 0x00,
  0x00, 0x00, 0x00, 0x00, 0x00, 0x00, 0x00, 0x00, 0x00, 0x00, 0x00, 0x00,
  0x00, 0x00, 0x00, 0x00, 0x00, 0x00, 0x00, 0x00, 0x00, 0x00, 0x00, 0x00,
  0x00, 0x00, 0x00, 0x00, 0x00, 0x00, 0x00, 0x00, 0x00, 0x00, 0x00, 0x00,
  0x10, 0x00, 0x00, 0x00, 0x16, 0x0b, 0x07, 0x3c, 0x4f, 0x97, 0xd7, 0x3b,
  0x56, 0x2f, 0xe0, 0x3b, 0x44, 0x21, 0x0c, 0x3c, 0x07, 0xf5, 0xb6, 0x3b,
  0xd3, 0xc7, 0xce, 0x3b, 0x7c, 0x0b, 0xda, 0x3b, 0xdb, 0xd5, 0xb1, 0x3b,
  0xdb, 0xa8, 0xda, 0x3b, 0xf0, 0x16, 0xd0, 0x3b, 0x84, 0x3e, 0xcc, 0x3b,
  0x38, 0x4c, 0xd5, 0x3b, 0x1f, 0x24, 0xf6, 0x3b, 0x2f, 0x55, 0xab, 0x3b,
  0x65, 0x7e, 0x0b, 0x3c, 0x83, 0x24, 0xb4, 0x3b, 0x12, 0x00, 0x00, 0x00,
  0x74, 0x66, 0x6c, 0x2e, 0x70, 0x73, 0x65, 0x75, 0x64, 0x6f, 0x5f, 0x71,
  0x63, 0x6f, 0x6e, 0x73, 0x74, 0x33, 0x00, 0x00, 0x02, 0x00, 0x00, 0x00,
  0x10, 0x00, 0x00, 0x00, 0x08, 0x00, 0x00, 0x00, 0xea, 0xfc, 0xff, 0xff,
  0x00, 0x00, 0x00, 0x01, 0x14, 0x00, 0x00, 0x00, 0xe4, 0x00, 0x00, 0x00,
  0x07, 0x00, 0x00, 0x00, 0x00, 0x00, 0x00, 0x02, 0xf0, 0x00, 0x00, 0x00,
  0xd4, 0xfc, 0xff, 0xff, 0x08, 0x00, 0x00, 0x00, 0x88, 0x00, 0x00, 0x00,
  0x10, 0x00, 0x00, 0x00, 0x00, 0x00, 0x00, 0x00, 0x00, 0x00, 0x00, 0x00,
  0x00, 0x00, 0x00, 0x00, 0x00, 0x00, 0x00, 0x00, 0x00, 0x00, 0x00, 0x00,
  0x00, 0x00, 0x00, 0x00, 0x00, 0x00, 0x00, 0x00, 0x00, 0x00, 0x00, 0x00,
  0x00, 0x00, 0x00, 0x00, 0x00, 0x00, 0x00, 0x00, 0x00, 0x00, 0x00, 0x00,
  0x00, 0x00, 0x00, 0x00, 0x00, 0x00, 0x00, 0x00, 0x00, 0x00, 0x00, 0x00,
  0x00, 0x00, 0x00, 0x00, 0x00, 0x00, 0x00, 0x00, 0x00, 0x00, 0x00, 0x00,
  0x00, 0x00, 0x00, 0x00, 0x00, 0x00, 0x00, 0x00, 0x00, 0x00, 0x00, 0x00,
  0x00, 0x00, 0x00, 0x00, 0x00, 0x00, 0x00, 0x00, 0x00, 0x00, 0x00, 0x00,
  0x00, 0x00, 0x00, 0x00, 0x00, 0x00, 0x00, 0x00, 0x00, 0x00, 0x00, 0x00,
  0x00, 0x00, 0x00, 0x00, 0x00, 0x00, 0x00, 0x00, 0x00, 0x00, 0x00, 0x00,
  0x00, 0x00, 0x00, 0x00, 0x00, 0x00, 0x00, 0x00, 0x00, 0x00, 0x00, 0x00,
  0x10, 0x00, 0x00, 0x00, 0x73, 0xbb, 0x04, 0x39, 0xc9, 0xe6, 0xd3, 0x38,
  0x29, 0x59, 0xdc, 0x38, 0x58, 0xbb, 0x09, 0x39, 0x7a, 0xd3, 0xb3, 0x38,
  0xe6, 0x3d, 0xcb, 0x38, 0x36, 0x50, 0xd6, 0x38, 0xbe, 0xca, 0xae, 0x38,
  0xe3, 0xea, 0xd6, 0x38, 0x47, 0x87, 0xcc, 0x38, 0xb4, 0xbf, 0xc8, 0x38,
  0xbe, 0xa5, 0xd1, 0x38, 0xc1, 0xed, 0xf1, 0x38, 0x8f, 0x66, 0xa8, 0x38,
  0x43, 0x1b, 0x09, 0x39, 0x4a, 0x0f, 0xb1, 0x38, 0x12, 0x00, 0x00, 0x00,
  0x74, 0x66, 0x6c, 0x2e, 0x70, 0x73, 0x65, 0x75, 0x64, 0x6f, 0x5f, 0x71,
  0x63, 0x6f, 0x6e, 0x73, 0x74, 0x32, 0x00, 0x00, 0x01, 0x00, 0x00, 0x00,
  0x10, 0x00, 0x00, 0x00, 0xfa, 0xfd, 0xff, 0xff, 0x00, 0x00, 0x00, 0x01,
  0x14, 0x00, 0x00, 0x00, 0x78, 0x00, 0x00, 0x00, 0x06, 0x00, 0x00, 0x00,
  0x00, 0x00, 0x00, 0x09, 0x84, 0x00, 0x00, 0x00, 0xe4, 0xfd, 0xff, 0xff,
  0x08, 0x00, 0x00, 0x00, 0x40, 0x00, 0x00, 0x00, 0x07, 0x00, 0x00, 0x00,
  0x00, 0x00, 0x00, 0x00, 0x00, 0x00, 0x00, 0x00, 0x00, 0x00, 0x00, 0x00,
  0x00, 0x00, 0x00, 0x00, 0x00, 0x00, 0x00, 0x00, 0x00, 0x00, 0x00, 0x00,
  0x00, 0x00, 0x00, 0x00, 0x00, 0x00, 0x00, 0x00, 0x00, 0x00, 0x00, 0x00,
  0x00, 0x00, 0x00, 0x00, 0x00, 0x00, 0x00, 0x00, 0x00, 0x00, 0x00, 0x00,
  0x00, 0x00, 0x00, 0x00, 0x00, 0x00, 0x00, 0x00, 0x07, 0x00, 0x00, 0x00,
  0x8a, 0xcc, 0x79, 0x3d, 0x9c, 0xac, 0x64, 0x3d, 0x1a, 0xef, 0x8e, 0x3d,
  0xf2, 0x50, 0x9d, 0x3d, 0xb4, 0xaf, 0x7b, 0x3d, 0x62, 0xbf, 0x63, 0x3d,
  0x68, 0x19, 0x4e, 0x3d, 0x12, 0x00, 0x00, 0x00, 0x74, 0x66, 0x6c, 0x2e,
  0x70, 0x73, 0x65, 0x75, 0x64, 0x6f, 0x5f, 0x71, 0x63, 0x6f, 0x6e, 0x73,
  0x74, 0x31, 0x00, 0x00, 0x02, 0x00, 0x00, 0x00, 0x07, 0x00, 0x00, 0x00,
  0x10, 0x00, 0x00, 0x00, 0xa2, 0xfe, 0xff, 0xff, 0x00, 0x00, 0x00, 0x01,
  0x14, 0x00, 0x00, 0x00, 0x7c, 0x00, 0x00, 0x00, 0x05, 0x00, 0x00, 0x00,
  0x00, 0x00, 0x00, 0x02, 0x88, 0x00, 0x00, 0x00, 0x8c, 0xfe, 0xff, 0xff,
  0x08, 0x00, 0x00, 0x00, 0x44, 0x00, 0x00, 0x00, 0x07, 0x00, 0x00, 0x00,
  0x00, 0x00, 0x00, 0x00, 0x00, 0x00, 0x00, 0x00, 0x00, 0x00, 0x00, 0x00,
  0x00, 0x00, 0x00, 0x00, 0x00, 0x00, 0x00, 0x00, 0x00, 0x00, 0x00, 0x00,
  0x00, 0x00, 0x00, 0x00, 0x00, 0x00, 0x00, 0x00, 0x00, 0x00, 0x00, 0x00,
  0x00, 0x00, 0x00, 0x00, 0x00, 0x00, 0x00, 0x00, 0x00, 0x00, 0x00, 0x00,
  0x00, 0x00, 0x00, 0x00, 0x00, 0x00, 0x00, 0x00, 0x00, 0x00, 0x00, 0x00,
  0x07, 0x00, 0x00, 0x00, 0xb4, 0x99, 0x14, 0x3a, 0xa2, 0x08, 0x08, 0x3a,
  0xa0, 0x0e, 0x2a, 0x3a, 0x22, 0x2b, 0x3b, 0x3a, 0x20, 0xb9, 0x15, 0x3a,
  0x83, 0x7b, 0x07, 0x3a, 0x67, 0x35, 0xf5, 0x39, 0x11, 0x00, 0x00, 0x00,
  0x74, 0x66, 0x6c, 0x2e, 0x70, 0x73, 0x65, 0x75, 0x64, 0x6f, 0x5f, 0x71,
  0x63, 0x6f, 0x6e, 0x73, 0x74, 0x00, 0x00, 0x00, 0x01, 0x00, 0x00, 0x00,
  0x07, 0x00, 0x00, 0x00, 0x4a, 0xff, 0xff, 0xff, 0x00, 0x00, 0x00, 0x01,
  0x14, 0x00, 0x00, 0x00, 0x14, 0x00, 0x00, 0x00, 0x04, 0x00, 0x00, 0x00,
  0x00, 0x00, 0x00, 0x02, 0x1c, 0x00, 0x00, 0x00, 0x8c, 0xff, 0xff, 0xff,
  0x0f, 0x00, 0x00, 0x00, 0x61, 0x72, 0x69, 0x74, 0x68, 0x2e, 0x63, 0x6f,
  0x6e, 0x73, 0x74, 0x61, 0x6e, 0x74, 0x32, 0x00, 0x00, 0x00, 0x00, 0x00,
  0x82, 0xff, 0xff, 0xff, 0x00, 0x00, 0x00, 0x01, 0x14, 0x00, 0x00, 0x00,
  0x14, 0x00, 0x00, 0x00, 0x03, 0x00, 0x00, 0x00, 0x00, 0x00, 0x00, 0x02,
  0x1c, 0x00, 0x00, 0x00, 0xc4, 0xff, 0xff, 0xff, 0x0f, 0x00, 0x00, 0x00,
  0x61, 0x72, 0x69, 0x74, 0x68, 0x2e, 0x63, 0x6f, 0x6e, 0x73, 0x74, 0x61,
  0x6e, 0x74, 0x31, 0x00, 0x01, 0x00, 0x00, 0x00, 0x03, 0x00, 0x00, 0x00,
  0xbe, 0xff, 0xff, 0xff, 0x00, 0x00, 0x00, 0x01, 0x18, 0x00, 0x00, 0x00,
  0x18, 0x00, 0x00, 0x00, 0x02, 0x00, 0x00, 0x00, 0x00, 0x00, 0x00, 0x02,
  0x20, 0x00, 0x00, 0x00, 0x04, 0x00, 0x04, 0x00, 0x04, 0x00, 0x00, 0x00,
  0x0e, 0x00, 0x00, 0x00, 0x61, 0x72, 0x69, 0x74, 0x68, 0x2e, 0x63, 0x6f,
  0x6e, 0x73, 0x74, 0x61, 0x6e, 0x74, 0x00, 0x00, 0x01, 0x00, 0x00, 0x00,
  0x04, 0x00, 0x00, 0x00, 0x00, 0x00, 0x16, 0x00, 0x1c, 0x00, 0x18, 0x00,
  0x17, 0x00, 0x10, 0x00, 0x0c, 0x00, 0x08, 0x00, 0x00, 0x00, 0x00, 0x00,
  0x00, 0x00, 0x07, 0x00, 0x16, 0x00, 0x00, 0x00, 0x00, 0x00, 0x00, 0x01,
  0x20, 0x00, 0x00, 0x00, 0x40, 0x00, 0x00, 0x00, 0x01, 0x00, 0x00, 0x00,
  0x00, 0x00, 0x00, 0x09, 0x5c, 0x00, 0x00, 0x00, 0x0c, 0x00, 0x0c, 0x00,
  0x00, 0x00, 0x00, 0x00, 0x08, 0x00, 0x04, 0x00, 0x0c, 0x00, 0x00, 0x00,
  0x08, 0x00, 0x00, 0x00, 0x14, 0x00, 0x00, 0x00, 0x01, 0x00, 0x00, 0x00,
  0x94, 0xff, 0xff, 0xff, 0xff, 0xff, 0xff, 0xff, 0x00, 0x00, 0x00, 0x00,
  0x01, 0x00, 0x00, 0x00, 0xd5, 0x2a, 0xfb, 0x3e, 0x21, 0x00, 0x00, 0x00,
  0x73, 0x65, 0x72, 0x76, 0x69, 0x6e, 0x67, 0x5f, 0x64, 0x65, 0x66, 0x61,
  0x75, 0x6c, 0x74, 0x5f, 0x6b, 0x65, 0x72, 0x61, 0x73, 0x5f, 0x74, 0x65,
  0x6e, 0x73, 0x6f, 0x72, 0x5f, 0x35, 0x36, 0x3a, 0x30, 0x00, 0x00, 0x00,
  0x03, 0x00, 0x00, 0x00, 0x01, 0x00, 0x00, 0x00, 0xf4, 0x01, 0x00, 0x00,
  0x06, 0x00, 0x00, 0x00, 0x05, 0x00, 0x00, 0x00, 0x6c, 0x00, 0x00, 0x00,
  0x4c, 0x00, 0x00, 0x00, 0x2c, 0x00, 0x00, 0x00, 0x18, 0x00, 0x00, 0x00,
  0x04, 0x00, 0x00, 0x00, 0xd0, 0xff, 0xff, 0xff, 0x19, 0x00, 0x00, 0x00,
  0x02, 0x00, 0x00, 0x00, 0x00, 0x00, 0x00, 0x19, 0xe0, 0xff, 0xff, 0xff,
  0x09, 0x00, 0x00, 0x00, 0x04, 0x00, 0x00, 0x00, 0x00, 0x00, 0x00, 0x09,
  0xf0, 0xff, 0xff, 0xff, 0x28, 0x00, 0x00, 0x00, 0x02, 0x00, 0x00, 0x00,
  0x00, 0x00, 0x00, 0x28, 0x0c, 0x00, 0x10, 0x00, 0x0f, 0x00, 0x00, 0x00,
  0x08, 0x00, 0x04, 0x00, 0x0c, 0x00, 0x00, 0x00, 0x03, 0x00, 0x00, 0x00,
  0x03, 0x00, 0x00, 0x00, 0x00, 0x00, 0x00, 0x03, 0x0c, 0x00, 0x0c, 0x00,
  0x0b, 0x00, 0x00, 0x00, 0x00, 0x00, 0x04, 0x00, 0x0c, 0x00, 0x00, 0x00,
  0x16, 0x00, 0x00, 0x00, 0x00, 0x00, 0x00, 0x16
};
inline const unsigned int gesture_model_4_tflite_len = 8792;
