
inline const unsigned char gesture_model_4_tflite[] = {
  0x1c, 0x00, 0x00, 0x00, 0x54, 0x46, 0x4c, 0x33, 0x14, 0x00, 0x20, 0x00,
  0x1c, 0x00, 0x18, 0x00, 0x14, 0x00, 0x10, 0x00, 0x0c, 0x00, 0x00, 0x00,
  0x08, 0x00, 0x04, 0x00, 0x14, 0x00, 0x00, 0x00, 0x1c, 0x00, 0x00, 0x00,
  0x98, 0x00, 0x00, 0x00, 0x18, 0x01, 0x00, 0x00, 0x6c, 0x0c, 0x00, 0x00,
  0x7c, 0x0c, 0x00, 0x00, 0xa8, 0x21, 0x00, 0x00, 0x03, 0x00, 0x00, 0x00,
  0x01, 0x00, 0x00, 0x00, 0x10, 0x00, 0x00, 0x00, 0x00, 0x00, 0x0a, 0x00,
  0x10, 0x00, 0x0c, 0x00, 0x08, 0x00, 0x04, 0x00, 0x0a, 0x00, 0x00, 0x00,
  0x0c, 0x00, 0x00, 0x00, 0x1c, 0x00, 0x00, 0x00, 0x3c, 0x00, 0x00, 0x00,
  0x0f, 0x00, 0x00, 0x00, 0x73, 0x65, 0x72, 0x76, 0x69, 0x6e, 0x67, 0x5f,
  0x64, 0x65, 0x66, 0x61, 0x75, 0x6c, 0x74, 0x00, 0x01, 0x00, 0x00, 0x00,
  0x04, 0x00, 0x00, 0x00, 0x68, 0xff, 0xff, 0xff, 0x16, 0x00, 0x00, 0x00,
  0x04, 0x00, 0x00, 0x00, 0x08, 0x00, 0x00, 0x00, 0x6f, 0x75, 0x74, 0x70,
  0x75, 0x74, 0x5f, 0x30, 0x00, 0x00, 0x00, 0x00, 0x01, 0x00, 0x00, 0x00,
  0x04, 0x00, 0x00, 0x00, 0x76, 0xf3, 0xff, 0xff, 0x04, 0x00, 0x00, 0x00,
  0x0f, 0x00, 0x00, 0x00, 0x6b, 0x65, 0x72, 0x61, 0x73, 0x5f, 0x74, 0x65,
  0x6e, 0x73, 0x6f, 0x72, 0x5f, 0x35, 0x36, 0x00, 0x03, 0x00, 0x00, 0x00,
  0x5c, 0x00, 0x00, 0x00, 0x2c, 0x00, 0x00, 0x00, 0x04, 0x00, 0x00, 0x00,
  0xb8, 0xff, 0xff, 0xff, 0x1a, 0x00, 0x00, 0x00, 0x04, 0x00, 0x00, 0x00,
  0x13, 0x00, 0x00, 0x00, 0x43, 0x4f, 0x4e, 0x56, 0x45, 0x52, 0x53, 0x49,
  0x4f, 0x4e, 0x5f, 0x4d, 0x45, 0x54, 0x41, 0x44, 0x41, 0x54, 0x41, 0x00,
  0xdc, 0xff, 0xff, 0xff, 0x19, 0x00, 0x00, 0x00, 0x04, 0x00, 0x00, 0x00,
  0x13, 0x00, 0x00, 0x00, 0x6d, 0x69, 0x6e, 0x5f, 0x72, 0x75, 0x6e, 0x74,
  0x69, 0x6d, 0x65, 0x5f, 0x76, 0x65, 0x72, 0x73, 0x69, 0x6f, 0x6e, 0x00,
  0x08, 0x00, 0x0c, 0x00, 0x08, 0x00, 0x04, 0x00, 0x08, 0x00, 0x00, 0x00,
  0x18, 0x00, 0x00, 0x00, 0x04, 0x00, 0x00, 0x00, 0x13, 0x00, 0x00, 0x00,
  0x6d, 0x69, 0x6e, 0x5f, 0x72, 0x75, 0x6e, 0x74, 0x69, 0x6d, 0x65, 0x5f,
  0x76, 0x65, 0x72, 0x73, 0x69, 0x6f, 0x6e, 0x00, 0x1b, 0x00, 0x00, 0x00,
  0x50, 0x0b, 0x00, 0x00, 0x48, 0x0b, 0x00, 0x00, 0x28, 0x0b, 0x00, 0x00,
  0x0c, 0x0b, 0x00, 0x00, 0xf8, 0x0a, 0x00, 0x00, 0xcc, 0x0a, 0x00, 0x00,
  0x4c, 0x0a, 0x00, 0x00, 0xfc, 0x09, 0x00, 0x00, 0x6c, 0x09, 0x00, 0x00,
  0x3c, 0x09, 0x00, 0x00, 0x0c, 0x08, 0x00, 0x00, 0xcc, 0x07, 0x00, 0x00,
  0xfc, 0x03, 0x00, 0x00, 0xac, 0x03, 0x00, 0x00, 0xfc, 0x00, 0x00, 0x00,
  0xf4, 0x00, 0x00, 0x00, 0xec, 0x00, 0x00, 0x00, 0xe4, 0x00, 0x00, 0x00,
  0xdc, 0x00, 0x00, 0x00, 0xd4, 0x00, 0x00, 0x00, 0xcc, 0x00, 0x00, 0x00,
  0xc4, 0x00, 0x00, 0x00, 0xbc, 0x00, 0x00, 0x00, 0xb4, 0x00, 0x00, 0x00,
  0x94, 0x00, 0x00, 0x00, 0x74, 0x00, 0x00, 0x00, 0x04, 0x00, 0x00, 0x00,
  0x86, 0xf4, 0xff, 0xff, 0x04, 0x00, 0x00, 0x00, 0x60, 0x00, 0x00, 0x00,
  0x0c, 0x00, 0x00, 0x00, 0x08, 0x00, 0x0e, 0x00, 0x08, 0x00, 0x04, 0x00,
  0x08, 0x00, 0x00, 0x00, 0x10, 0x00, 0x00, 0x00, 0x28, 0x00, 0x00, 0x00,
  0x00, 0x00, 0x06, 0x00, 0x08, 0x00, 0x04, 0x00, 0x06, 0x00, 0x00, 0x00,
  0x04, 0x00, 0x00, 0x00, 0x01, 0x00, 0x00, 0x00, 0xeb, 0x03, 0x00, 0x00,
  0x0c, 0x00, 0x18, 0x00, 0x14, 0x00, 0x10, 0x00, 0x0c, 0x00, 0x04, 0x00,
  0x0c, 0x00, 0x00, 0x00, 0x90, 0x23, 0x1c, 0x91, 0xe1, 0x42, 0xe3, 0x7e,
  0x02, 0x00, 0x00, 0x00, 0x02, 0x00, 0x00, 0x00, 0x04, 0x00, 0x00, 0x00,
  0x06, 0x00, 0x00, 0x00, 0x32, 0x2e, 0x31, 0x39, 0x2e, 0x30, 0x00, 0x00,
  0xf2, 0xf4, 0xff, 0xff, 0x04, 0x00, 0x00, 0x00, 0x10, 0x00, 0x00, 0x00,
  0x00, 0x00, 0x00, 0x00, 0x00, 0x00, 0x00, 0x00, 0x00, 0x00, 0x00, 0x00,
  0x00, 0x00, 0x00, 0x00, 0x0e, 0xf5, 0xff, 0xff, 0x04, 0x00, 0x00, 0x00,
  0x10, 0x00, 0x00, 0x00, 0x31, 0x2e, 0x31, 0x34, 0x2e, 0x30, 0x00, 0x00,
  0x00, 0x00, 0x00, 0x00, 0x00, 0x00, 0x00, 0x00, 0x38, 0xe1, 0xff, 0xff,
  0x3c, 0xe1, 0xff, 0xff, 0x40, 0xe1, 0xff, 0xff, 0x44, 0xe1, 0xff, 0xff,
  0x48, 0xe1, 0xff, 0xff, 0x4c, 0xe1, 0xff, 0xff, 0x50, 0xe1, 0xff, 0xff,
  0x54, 0xe1, 0xff, 0xff, 0x58, 0xe1, 0xff, 0xff, 0x4e, 0xf5, 0xff, 0xff,
  0x04, 0x00, 0x00, 0x00, 0xa0, 0x02, 0x00, 0x00, 0xd7, 0x3c, 0x0d, 0x1e,
  0x27, 0x81, 0xd7, 0x4b, 0x23, 0x0c, 0x1c, 0x90, 0xe0, 0x54, 0x20, 0x01,
  0x31, 0xcb, 0xec, 0x51, 0x03, 0x0a, 0x2b, 0xd0, 0x30, 0x36, 0xfa, 0xfd,
  0x24, 0xfd, 0x22, 0x01, 0x09, 0xcf, 0x2c, 0xfa, 0x5b, 0xea, 0x13, 0xc3,
  0x4d, 0x0b, 0x54, 0xb1, 0x69, 0xe2, 0x63, 0x54, 0x41, 0xdb, 0x43, 0x0b,
  0x5a, 0x46, 0x56, 0xae, 0x48, 0x00, 0x6c, 0x4e, 0x5f, 0xb0, 0x43, 0x05,
  0x6b, 0x1c, 0x37, 0x8e, 0x33, 0x2b, 0x32, 0x16, 0x33, 0x81, 0x07, 0x1b,
  0x31, 0xe2, 0x45, 0xb7, 0x1b, 0x38, 0x42, 0xaf, 0xd3, 0xf3, 0xd0, 0xe7,
  0x20, 0x7f, 0xe8, 0xed, 0xe8, 0xee, 0x09, 0x5a, 0xf4, 0xf5, 0xfc, 0xda,
  0x06, 0x46, 0xf8, 0x05, 0x0d, 0xf1, 0x03, 0x2b, 0x11, 0xf9, 0x0e, 0xff,
  0x00, 0x37, 0x1d, 0x18, 0x06, 0x0a, 0xf1, 0x28, 0x20, 0x1c, 0x02, 0x11,
  0xed, 0x32, 0xb1, 0x09, 0xff, 0xc7, 0xf4, 0xeb, 0xdd, 0x08, 0x0d, 0xd8,
  0x0d, 0x05, 0xdd, 0x0c, 0x0b, 0xd8, 0x17, 0xf8, 0xee, 0x03, 0x01, 0xee,
  0x4e, 0x0f, 0xfd, 0x06, 0x29, 0xea, 0x48, 0x0b, 0x10, 0x11, 0x31, 0xf5,
  0x69, 0x0f, 0x12, 0x0f, 0x32, 0x0c, 0x7f, 0x10, 0x51, 0x3e, 0x50, 0xdb,
  0x14, 0x34, 0x3a, 0x35, 0x3c, 0xb5, 0x14, 0x46, 0x29, 0x41, 0x27, 0xb1,
  0x15, 0x14, 0x05, 0x3b, 0x23, 0xf2, 0x02, 0x18, 0xe9, 0x15, 0x0f, 0xf8,
  0xf1, 0xfe, 0xd9, 0x29, 0xf4, 0x2c, 0xff, 0xe4, 0xb0, 0x38, 0xfe, 0x7f,
  0xcf, 0xd7, 0xcd, 0xd0, 0x1f, 0xf4, 0x0b, 0xbf, 0xd0, 0xcb, 0x21, 0xed,
  0x01, 0xbf, 0xe1, 0xe2, 0x17, 0x06, 0xea, 0xca, 0xdc, 0xe5, 0x16, 0x1a,
  0xe7, 0xb5, 0xe8, 0xf3, 0x12, 0xff, 0xf4, 0x9a, 0xdd, 0xec, 0x0e, 0x0c,
  0xd9, 0x9f, 0xc6, 0x09, 0x10, 0x04, 0xe6, 0x81, 0xfc, 0xc7, 0x03, 0xa7,
  0xf1, 0xe3, 0xf6, 0xf2, 0x12, 0xcd, 0x0c, 0xcb, 0xd7, 0xd9, 0x11, 0xd3,
  0xee, 0xd3, 0xd8, 0xe1, 0x15, 0xc4, 0xe2, 0xd8, 0xe6, 0xfe, 0x27, 0xa5,
  0xe9, 0xb6, 0xd6, 0xe8, 0x09, 0xa2, 0xcd, 0xbd, 0xdc, 0xfd, 0x22, 0x81,
  0xca, 0xb4, 0x13, 0x32, 0x36, 0xca, 0x55, 0xb4, 0x2d, 0x2c, 0x10, 0xe2,
  0x32, 0xc5, 0x28, 0x19, 0xf6, 0xea, 0x1f, 0xe1, 0x18, 0x00, 0xda, 0xf5,
  0x2c, 0x04, 0x10, 0xfe, 0xd5, 0x1b, 0x11, 0x26, 0xed, 0xec, 0xa0, 0x01,
  0x03, 0x43, 0xfc, 0xd8, 0x81, 0x1d, 0x11, 0x4f, 0x25, 0x01, 0x0e, 0x0d,
  0xb7, 0x0d, 0x2b, 0xf5, 0x01, 0xe7, 0xba, 0xfb, 0x0e, 0xfa, 0x05, 0x02,
  0xdc, 0xfc, 0x31, 0xf1, 0x18, 0xfa, 0xcd, 0x16, 0x05, 0x00, 0x46, 0xf9,
  0xfe, 0xe0, 0x0f, 0x21, 0x52, 0xf5, 0x07, 0xd2, 0xf2, 0x38, 0x7f, 0x14,
  0x12, 0xe0, 0x37, 0xf3, 0x02, 0x02, 0x1a, 0x81, 0x0f, 0xff, 0x00, 0xed,
  0x04, 0x90, 0x27, 0x0b, 0x0a, 0x04, 0xff, 0x9e, 0x24, 0xfe, 0x04, 0xe4,
  0xe2, 0xa0, 0x07, 0xe7, 0xed, 0xee, 0x0d, 0x96, 0x10, 0x01, 0x09, 0xf3,
  0x01, 0x8e, 0xd1, 0x06, 0xf0, 0xfd, 0xfd, 0x90, 0x56, 0xba, 0x3d, 0x4e,
  0xb1, 0x03, 0x28, 0xbb, 0x2d, 0x3c, 0xd8, 0x04, 0x37, 0x93, 0x19, 0x1a,
  0xd2, 0xfe, 0x1c, 0x81, 0x29, 0x21, 0xdc, 0xfb, 0x17, 0x91, 0x22, 0x01,
  0xf6, 0xcd, 0x11, 0x90, 0x33, 0xcc, 0xd8, 0xbf, 0x0b, 0xed, 0x3a, 0xce,
  0xf6, 0xba, 0xb7, 0xe2, 0xdb, 0x37, 0x20, 0x20, 0xf3, 0xfa, 0xf8, 0x27,
  0x17, 0x0e, 0x03, 0x11, 0x18, 0x11, 0x24, 0x34, 0x23, 0x18, 0xfe, 0xff,
  0x27, 0x3c, 0x1b, 0xf9, 0xf4, 0xfb, 0x0c, 0x48, 0x35, 0xf9, 0xec, 0xea,
  0x2d, 0x63, 0x3a, 0x27, 0x04, 0xf5, 0x4f, 0x7f, 0xbf, 0x05, 0x7f, 0xfd,
  0xf9, 0xfa, 0xaa, 0x04, 0x59, 0xeb, 0x0c, 0x13, 0xab, 0xe8, 0x4e, 0xd0,
  0xfc, 0x26, 0xb2, 0xed, 0x28, 0xd2, 0x01, 0x0f, 0x9c, 0xe9, 0x0f, 0xcc,
  0xec, 0x1b, 0xc8, 0xf6, 0x01, 0xcd, 0x02, 0x1b, 0xc3, 0xf5, 0xd6, 0xe3,
  0xe7, 0xf8, 0x39, 0x29, 0x0f, 0x1e, 0xfa, 0x38, 0x08, 0x26, 0x00, 0x11,
  0xea, 0x16, 0x16, 0x23, 0xe0, 0x24, 0xd3, 0x24, 0xec, 0x24, 0x0f, 0x22,
  0xb6, 0x29, 0xd7, 0x01, 0xed, 0x0a, 0xa5, 0x61, 0xd1, 0x00, 0x01, 0x18,
  0xb8, 0x79, 0xc5, 0xdf, 0xfe, 0xfe, 0xc2, 0x7f, 0x42, 0x6e, 0x11, 0x17,
  0xec, 0xd4, 0x5a, 0x3e, 0xee, 0x08, 0xbf, 0x0d, 0x2e, 0x3e, 0xe8, 0xf8,
  0xec, 0x22, 0x2f, 0x1e, 0xf5, 0xfa, 0xfd, 0x3a, 0x13, 0xee, 0x1a, 0x15,
  0xeb, 0x69, 0xd3, 0xe8, 0x45, 0xe9, 0x16, 0x7f, 0xc0, 0xc5, 0x01, 0xdf,
  0x22, 0x75, 0xec, 0xf0, 0x84, 0xd4, 0xd3, 0x14, 0x00, 0xf5, 0xa0, 0xea,
  0xcd, 0x00, 0xe8, 0xe4, 0xc0, 0xea, 0xec, 0x06, 0xfe, 0xf8, 0xda, 0xd4,
  0x00, 0xf5, 0xf9, 0xf6, 0xea, 0xdd, 0x10, 0xff, 0xea, 0xec, 0xea, 0xbf,
  0x06, 0xf4, 0xf2, 0xdd, 0xd4, 0x81, 0x07, 0xe4, 0xfa, 0xf7, 0xff, 0xff,
  0x04, 0x00, 0x00, 0x00, 0x40, 0x00, 0x00, 0x00, 0x0b, 0x00, 0x00, 0x00,
  0x1f, 0x00, 0x00, 0x00, 0x32, 0xff, 0xff, 0xff, 0x0a, 0x00, 0x00, 0x00,
  0x21, 0xff, 0xff, 0xff, 0xa9, 0x00, 0x00, 0x00, 0x79, 0xfe, 0xff, 0xff,
  0x71, 0xfe, 0xff, 0xff, 0x55, 0x00, 0x00, 0x00, 0xdb, 0xfe, 0xff, 0xff,
  0x7d, 0x00, 0x00, 0x00, 0x81, 0x01, 0x00, 0x00, 0x13, 0xff, 0xff, 0xff,
  0x47, 0xff, 0xff, 0xff, 0x26, 0x00, 0x00, 0x00, 0x89, 0xfd, 0xff, 0xff,
  0x46, 0xf8, 0xff, 0xff, 0x04, 0x00, 0x00, 0x00, 0xc0, 0x03, 0x00, 0x00,
  0x10, 0xfd, 0x93, 0xed, 0xdb, 0x2f, 0xbd, 0xf5, 0xb9, 0x15, 0xe5, 0x30,
  0x17, 0xe3, 0xe0, 0xe6, 0x04, 0xda, 0xd1, 0xb6, 0xee, 0x0c, 0xb8, 0xff,
  0xe7, 0x15, 0x19, 0x26, 0x18, 0xd6, 0x13, 0xec, 0xd6, 0xd8, 0xe4, 0xb9,
  0xe2, 0xf7, 0xe5, 0xe1, 0xfe, 0xf4, 0xfb, 0xe3, 0x28, 0xc5, 0x2c, 0x18,
  0xf8, 0x02, 0x16, 0xed, 0x04, 0xf2, 0x1d, 0x0d, 0x0d, 0xcb, 0x2a, 0xe9,
  0x39, 0xbc, 0x14, 0x29, 0xd6, 0x13, 0x22, 0x18, 0x1c, 0xd8, 0x3e, 0x09,
  0x53, 0xa4, 0x2f, 0xc4, 0x1e, 0x81, 0xf9, 0x38, 0xc2, 0xe2, 0x03, 0x34,
  0x06, 0x8f, 0xce, 0x13, 0xd3, 0x81, 0xe2, 0x41, 0x2a, 0x0d, 0x2d, 0x29,
  0xde, 0xff, 0x09, 0xfd, 0x1c, 0xc2, 0xda, 0x23, 0xd1, 0xca, 0x11, 0x08,
  0x18, 0x00, 0x1b, 0x26, 0xe9, 0x10, 0xf1, 0x07, 0x06, 0xfd, 0xe4, 0x17,
  0x08, 0x14, 0x06, 0xe5, 0xf8, 0x10, 0x12, 0xf9, 0xf5, 0x0a, 0xc2, 0xfa,
  0xe2, 0x36, 0xf1, 0xf5, 0x1a, 0x31, 0x06, 0xe9, 0xd3, 0x04, 0xee, 0xfd,
  0xf3, 0x06, 0xbb, 0x1e, 0x02, 0x63, 0x04, 0xfb, 0x4b, 0x74, 0x1f, 0xa2,
  0xf8, 0xf3, 0xd7, 0xef, 0x3f, 0x05, 0x16, 0xe4, 0x1e, 0x6f, 0x08, 0xe7,
  0x32, 0x2a, 0xa4, 0xf7, 0x9c, 0x2e, 0x2a, 0x00, 0x08, 0x16, 0x0b, 0x04,
  0x04, 0x3e, 0xeb, 0xfa, 0x08, 0x16, 0xd2, 0x0f, 0xa9, 0x2a, 0xf3, 0xf9,
  0x21, 0x14, 0x25, 0x0d, 0xf9, 0x1c, 0xd6, 0x13, 0xfb, 0x08, 0xc5, 0xe5,
  0xc4, 0x02, 0x2d, 0x10, 0xf5, 0x40, 0x06, 0x14, 0xe8, 0xc2, 0xec, 0x01,
  0xd6, 0xce, 0xa7, 0xc7, 0xb8, 0xff, 0xce, 0xed, 0x04, 0x1a, 0x1a, 0xee,
  0xbe, 0x8c, 0xb3, 0x19, 0x86, 0xd0, 0x81, 0x8e, 0xd2, 0xdb, 0x14, 0x1e,
  0xf5, 0xa8, 0x2e, 0x04, 0x9d, 0x02, 0x00, 0xe5, 0x04, 0x3a, 0xe1, 0xf5,
  0xe6, 0xd0, 0x8f, 0x12, 0x11, 0xc8, 0x02, 0x14, 0x96, 0xf8, 0xca, 0xda,
  0x1b, 0x5b, 0xfa, 0x2d, 0x02, 0xe0, 0xb1, 0x02, 0xfd, 0xd8, 0x15, 0xf2,
  0xd3, 0xfd, 0xb1, 0xf4, 0x09, 0x0f, 0xed, 0x33, 0xcb, 0xee, 0xcb, 0xff,
  0xce, 0xcc, 0x2f, 0xee, 0xf0, 0xbe, 0x9b, 0xb5, 0x2c, 0x28, 0xd9, 0x1a,
  0xde, 0x1e, 0x11, 0x00, 0xcc, 0xdd, 0x47, 0xed, 0x08, 0xad, 0x81, 0xd7,
  0x0e, 0xf6, 0xc7, 0x46, 0xcd, 0x19, 0x37, 0x12, 0xea, 0xf7, 0x81, 0x02,
  0xe8, 0xd9, 0x25, 0x4a, 0x02, 0xbb, 0x0e, 0xd0, 0xce, 0xcf, 0x12, 0xf9,
  0xee, 0xf6, 0xb5, 0xf7, 0xf4, 0x00, 0x29, 0x55, 0xf6, 0xbe, 0x1d, 0xe4,
  0xda, 0x11, 0x04, 0xdb, 0xed, 0xe4, 0xc8, 0xec, 0xfe, 0xe0, 0xf3, 0x1b,
  0x04, 0xe5, 0x05, 0xe2, 0x05, 0x1c, 0x1b, 0xc8, 0xff, 0xd7, 0xe6, 0x12,
  0xe4, 0xcf, 0xcd, 0x01, 0xef, 0xf8, 0xf6, 0xb3, 0x13, 0x20, 0x34, 0xcb,
  0xf7, 0xcb, 0x0f, 0x3b, 0x02, 0xca, 0xd5, 0xb9, 0xf8, 0xf5, 0xba, 0xda,
  0x1d, 0x3b, 0x1c, 0xc3, 0x61, 0x9e, 0xca, 0xe5, 0x11, 0xfa, 0x2d, 0xf5,
  0xdc, 0x38, 0xd9, 0xb7, 0xd9, 0x23, 0x1e, 0xf7, 0x4f, 0xb2, 0xf3, 0xf3,
  0xe8, 0xfa, 0x13, 0xed, 0xc9, 0x16, 0xf1, 0xe4, 0xd5, 0x1d, 0xe3, 0x21,
  0x45, 0xc4, 0x00, 0xf7, 0xe9, 0x08, 0x23, 0xd7, 0x0e, 0x02, 0x04, 0xef,
  0xc4, 0x26, 0x15, 0x09, 0x56, 0xe1, 0x2d, 0x30, 0xed, 0x1e, 0xfa, 0xbb,
  0x19, 0xfa, 0xfc, 0xfd, 0xab, 0x36, 0x2f, 0x23, 0x66, 0xfd, 0x1e, 0x38,
  0xf6, 0x06, 0xb8, 0xab, 0x1e, 0x20, 0xea, 0xf8, 0x81, 0x42, 0x34, 0xff,
  0xef, 0xd7, 0x81, 0xcf, 0xbb, 0x0c, 0xff, 0xbe, 0xf3, 0xa9, 0x22, 0xb1,
  0xde, 0xf7, 0xe8, 0xa0, 0x0e, 0xe5, 0xaf, 0xe7, 0xc2, 0x22, 0x1a, 0xd1,
  0xee, 0xe6, 0x2f, 0xe2, 0xe7, 0x10, 0xc1, 0xd0, 0x11, 0xde, 0xbc, 0xf7,
  0xbb, 0xef, 0x23, 0xf5, 0xe9, 0xda, 0xf6, 0x10, 0xff, 0xf6, 0xe5, 0xdb,
  0x17, 0xde, 0xcb, 0x07, 0xae, 0xef, 0x23, 0x11, 0xe3, 0x11, 0xee, 0x27,
  0xff, 0x01, 0xf0, 0xf6, 0x3f, 0xcc, 0xf7, 0x17, 0xb2, 0xd7, 0x22, 0x3f,
  0xf2, 0x08, 0xba, 0x7d, 0x11, 0x09, 0x2d, 0x03, 0xfa, 0x12, 0x44, 0x14,
  0xe1, 0xf4, 0xce, 0xfb, 0x11, 0x1a, 0x00, 0x08, 0xdd, 0x17, 0x2d, 0xcf,
  0xf6, 0x08, 0x16, 0xf0, 0xe8, 0xcf, 0xec, 0xff, 0x09, 0x30, 0xfc, 0xf8,
  0xe4, 0x12, 0x27, 0xda, 0x0b, 0x1c, 0x20, 0xd0, 0x18, 0xe7, 0xfd, 0xfd,
  0x1a, 0x15, 0xd1, 0xff, 0xf9, 0x16, 0x10, 0xd8, 0xf2, 0x00, 0xed, 0x9a,
  0x23, 0xf2, 0xde, 0x05, 0x2b, 0x0f, 0xda, 0xdf, 0xfb, 0x19, 0xf4, 0xc1,
  0x0d, 0x05, 0xe7, 0x81, 0x58, 0xf9, 0xe9, 0xf9, 0x38, 0xed, 0xe2, 0xe2,
  0x0d, 0x0d, 0xca, 0xab, 0xf7, 0xf1, 0x1b, 0x0d, 0x0e, 0xf4, 0x10, 0xcd,
  0xd9, 0xdd, 0x09, 0x12, 0x1e, 0x37, 0x16, 0x0d, 0x01, 0x00, 0x1d, 0x10,
  0x07, 0xf9, 0xff, 0xe9, 0xee, 0xe8, 0xf9, 0x0a, 0x0e, 0x11, 0x0b, 0x15,
  0x00, 0x08, 0x16, 0x01, 0xf7, 0x06, 0xf6, 0xff, 0x0a, 0xe3, 0xff, 0x0f,
  0x01, 0xe2, 0x05, 0x08, 0x00, 0x0f, 0xf2, 0xf2, 0xf1, 0x1b, 0xf0, 0x15,
  0xfe, 0xe2, 0xff, 0xf6, 0xfe, 0x9b, 0xfc, 0xff, 0xf8, 0x0f, 0xe9, 0xe7,
  0xd7, 0x03, 0xf7, 0x18, 0x01, 0xd8, 0xf7, 0xe7, 0xe6, 0x81, 0xc3, 0xef,
  0x53, 0xf2, 0xe5, 0x05, 0x70, 0x36, 0xe9, 0x11, 0x6d, 0x66, 0xd8, 0xae,
  0xf8, 0x9c, 0x1b, 0x0d, 0x2c, 0x08, 0xfc, 0xe4, 0x41, 0x2d, 0x06, 0xfc,
  0x2f, 0x24, 0x01, 0xe3, 0x13, 0xc4, 0xfb, 0x2a, 0x00, 0x17, 0xfd, 0xcb,
  0x20, 0xfe, 0x0c, 0x00, 0xea, 0x16, 0x0c, 0xea, 0x1c, 0xc9, 0xd0, 0x1e,
  0xe0, 0x27, 0x1e, 0xbb, 0x25, 0xfd, 0x0d, 0xde, 0xc6, 0xe8, 0x3c, 0xcb,
  0x22, 0x09, 0xdb, 0x1c, 0x8c, 0x31, 0x41, 0xb7, 0xf9, 0xe2, 0xfe, 0xe9,
  0x81, 0xce, 0x4c, 0xa6, 0x09, 0x38, 0xf1, 0x1c, 0x4b, 0x19, 0xbd, 0x0f,
  0xd4, 0x0a, 0x17, 0xec, 0xa5, 0xcb, 0x2d, 0x14, 0x24, 0xdd, 0x81, 0xc0,
  0x1e, 0x13, 0xca, 0xfd, 0xde, 0x2a, 0x22, 0xf3, 0xe4, 0xe2, 0x1e, 0x20,
  0x15, 0xfc, 0xb7, 0xeb, 0x1f, 0x37, 0xd3, 0x27, 0xff, 0x0e, 0x02, 0xf9,
  0x0b, 0xf0, 0x27, 0x04, 0x11, 0xf5, 0xcf, 0xed, 0xe5, 0x1f, 0xdf, 0x0f,
  0x11, 0x07, 0xee, 0x0a, 0x2c, 0xd7, 0x26, 0x0d, 0xfb, 0x10, 0xd5, 0xf0,
  0xe5, 0x44, 0x04, 0x15, 0x21, 0x0f, 0xd6, 0x0e, 0x4f, 0xaf, 0x1f, 0x28,
  0xf8, 0x19, 0xa9, 0xff, 0x06, 0x14, 0xec, 0xfc, 0xff, 0x60, 0xee, 0xec,
  0xef, 0x3b, 0x7f, 0x3a, 0x14, 0xa8, 0xa4, 0x13, 0x07, 0x25, 0x1a, 0x24,
  0xfc, 0x63, 0xde, 0xe5, 0xd7, 0x4c, 0x63, 0x3f, 0xe3, 0xa4, 0xe6, 0x0a,
  0xe1, 0x26, 0x23, 0x41, 0x02, 0x24, 0xdc, 0x06, 0xfe, 0x27, 0x14, 0x46,
  0xe1, 0xb7, 0x09, 0x09, 0xf5, 0x1d, 0x25, 0x44, 0xf1, 0x55, 0x0b, 0xfe,
  0xf1, 0x1a, 0x07, 0x40, 0xe1, 0xcb, 0x51, 0xfb, 0xf6, 0x45, 0x1c, 0x59,
  0xf9, 0x43, 0xf6, 0x2d, 0xe4, 0x08, 0xf1, 0x75, 0xf3, 0xe7, 0x3d, 0xe5,
  0x12, 0xfc, 0xff, 0xff, 0x04, 0x00, 0x00, 0x00, 0x30, 0x00, 0x00, 0x00,
  0xea, 0x03, 0x00, 0x00, 0xf0, 0x01, 0x00, 0x00, 0x46, 0x05, 0x00, 0x00,
  0xd9, 0x01, 0x00, 0x00, 0xc9, 0x0a, 0x00, 0x00, 0xef, 0xfa, 0xff, 0xff,
  0xf8, 0x07, 0x00, 0x00, 0x2d, 0xff, 0xff, 0xff, 0x3d, 0x01, 0x00, 0x00,
  0x10, 0x01, 0x00, 0x00, 0x22, 0x00, 0x00, 0x00, 0x2b, 0xf4, 0xff, 0xff,
  0x4e, 0xfc, 0xff, 0xff, 0x04, 0x00, 0x00, 0x00, 0x20, 0x01, 0x00, 0x00,
  0x26, 0xcb, 0xcb, 0x4d, 0xdb, 0xf9, 0x81, 0x3a, 0x5c, 0x09, 0x13, 0x58,
  0x19, 0xa8, 0x70, 0x4d, 0x24, 0xce, 0xbf, 0x43, 0xbf, 0x6d, 0x0a, 0x09,
  0x1b, 0xf5, 0x43, 0x70, 0x3b, 0xa7, 0x1a, 0x03, 0x93, 0x17, 0x65, 0xee,
  0x07, 0x31, 0xc2, 0xfc, 0x9d, 0x81, 0x13, 0xe1, 0x08, 0x14, 0x13, 0xe8,
  0xb6, 0x27, 0x34, 0xfb, 0xbf, 0x13, 0x24, 0x17, 0x4b, 0x47, 0xd9, 0xe7,
  0xa2, 0x58, 0x3c, 0xbc, 0x1c, 0x32, 0x0c, 0x46, 0x2c, 0xb9, 0xc3, 0x0b,
  0xa9, 0xfd, 0xb3, 0x20, 0x54, 0xe0, 0xfa, 0x36, 0x54, 0xf7, 0x9e, 0xe2,
  0xb3, 0x2c, 0xd7, 0x05, 0x08, 0x11, 0xcf, 0xf2, 0x26, 0x55, 0x25, 0xe2,
  0x17, 0xa9, 0xf7, 0x24, 0x16, 0x2a, 0xba, 0x81, 0x7b, 0x44, 0x1d, 0x09,
  0x12, 0x40, 0xae, 0x14, 0x91, 0x00, 0xf1, 0xf9, 0x26, 0xfb, 0x0b, 0x25,
  0xf3, 0x02, 0x08, 0xf9, 0xd0, 0xec, 0xf7, 0x0c, 0xc4, 0x21, 0xe3, 0x05,
  0xc8, 0xf7, 0x22, 0x1b, 0x22, 0xd3, 0x27, 0x09, 0x81, 0x15, 0xd8, 0xfa,
  0xc7, 0x2e, 0x01, 0x28, 0x02, 0xfd, 0x41, 0x08, 0x20, 0xad, 0x34, 0x20,
  0x89, 0x39, 0x15, 0x35, 0x0d, 0xfb, 0x62, 0xf7, 0xfa, 0x03, 0x21, 0xf6,
  0x81, 0x38, 0x0b, 0x2e, 0xd1, 0xdc, 0xe1, 0x38, 0xe4, 0xf9, 0x2c, 0xfb,
  0x07, 0xa0, 0x23, 0xe2, 0xfa, 0x64, 0xdc, 0x26, 0xe8, 0x67, 0x8d, 0x09,
  0xf7, 0x2b, 0x07, 0xf8, 0xb3, 0xfe, 0xf3, 0xdb, 0x04, 0x38, 0xe9, 0x20,
  0x03, 0x6d, 0x11, 0xeb, 0xf4, 0xa4, 0x36, 0x81, 0xd1, 0xf5, 0xe1, 0xe8,
  0x1c, 0x41, 0xfd, 0x15, 0x0b, 0x4f, 0x09, 0xd2, 0xed, 0xee, 0xf5, 0xaa,
  0x0f, 0x12, 0x50, 0x34, 0xd8, 0x31, 0xf7, 0xce, 0xe8, 0x23, 0x38, 0xb4,
  0xf6, 0x4b, 0x50, 0xfd, 0x81, 0xe5, 0xb2, 0xfa, 0xfb, 0xed, 0x0d, 0xc3,
  0xad, 0x50, 0xe9, 0xc3, 0xbd, 0x0d, 0xd9, 0xc9, 0x20, 0x92, 0x41, 0x48,
  0xe9, 0x24, 0xf4, 0xe3, 0xf6, 0xfd, 0x0b, 0x16, 0x25, 0xb9, 0xf6, 0x23,
  0xf7, 0x81, 0x00, 0x0f, 0x40, 0x13, 0x3c, 0x72, 0x1a, 0xb2, 0xdf, 0x07,
  0x7a, 0xfd, 0xff, 0xff, 0x04, 0x00, 0x00, 0x00, 0x20, 0x00, 0x00, 0x00,
  0xa3, 0xfa, 0xff, 0xff, 0x45, 0x01, 0x00, 0x00, 0x0f, 0x01, 0x00, 0x00,
  0x06, 0x04, 0x00, 0x00, 0x35, 0xfd, 0xff, 0xff, 0x2d, 0x02, 0x00, 0x00,
  0xcb, 0x01, 0x00, 0x00, 0x12, 0x03, 0x00, 0x00, 0xa6, 0xfd, 0xff, 0xff,
  0x04, 0x00, 0x00, 0x00, 0x80, 0x00, 0x00, 0x00, 0xaf, 0x03, 0xc7, 0x00,
  0x3d, 0x6b, 0x81, 0x33, 0x53, 0xb8, 0x0e, 0x48, 0x81, 0x0a, 0x20, 0x26,
  0xc3, 0x53, 0x7f, 0x89, 0xc4, 0xdf, 0x19, 0x00, 0x5a, 0xa7, 0x07, 0x4a,
  0x81, 0xfa, 0x3c, 0x26, 0xe1, 0x66, 0x18, 0xcc, 0xa4, 0xe1, 0x7f, 0x09,
  0xff, 0xb4, 0x81, 0xf2, 0x5e, 0x1d, 0x4e, 0x06, 0x95, 0xa1, 0x43, 0x81,
  0x46, 0x25, 0x12, 0x37, 0x1a, 0x3c, 0x0e, 0x36, 0x2f, 0x81, 0xf6, 0x93,
  0xcf, 0x81, 0xfa, 0xa1, 0x2d, 0x29, 0x67, 0x45, 0xcb, 0x68, 0xb9, 0x3a,
  0xc6, 0x61, 0x81, 0x0c, 0x27, 0xa1, 0xfc, 0x3b, 0x33, 0x03, 0x81, 0x13,
  0xe1, 0x81, 0x46, 0x00, 0x27, 0x29, 0x84, 0x3d, 0xfa, 0xf5, 0x81, 0x16,
  0x08, 0x6c, 0xfc, 0x18, 0x7f, 0xc8, 0xb3, 0x59, 0xbb, 0xe9, 0x1c, 0xf9,
  0xff, 0x26, 0x81, 0x41, 0xb7, 0x5d, 0x04, 0x15, 0xe4, 0xfe, 0x0c, 0xf5,
  0x81, 0x57, 0x0f, 0x37, 0x32, 0xfe, 0xff, 0xff, 0x04, 0x00, 0x00, 0x00,
  0x40, 0x00, 0x00, 0x00, 0x8a, 0x0a, 0x00, 0x00, 0x56, 0xfe, 0xff, 0xff,
  0xb7, 0x02, 0x00, 0x00, 0x6d, 0xfe, 0xff, 0xff, 0xfc, 0xf8, 0xff, 0xff,
  0x32, 0x04, 0x00, 0x00, 0xfe, 0x0a, 0x00, 0x00, 0xf7, 0x02, 0x00, 0x00,
  0xc4, 0x07, 0x00, 0x00, 0x86, 0xff, 0xff, 0xff, 0x29, 0x0b, 0x00, 0x00,
  0xf6, 0x11, 0x00, 0x00, 0xfc, 0x02, 0x00, 0x00, 0x63, 0x01, 0x00, 0x00,
  0x56, 0xfc, 0xff, 0xff, 0x48, 0xfe, 0xff, 0xff, 0x7e, 0xfe, 0xff, 0xff,
  0x04, 0x00, 0x00, 0x00, 0x70, 0x00, 0x00, 0x00, 0x25, 0x0d, 0x81, 0xff,
  0x85, 0xa8, 0xb3, 0x8b, 0xb0, 0x33, 0x19, 0x1a, 0x1c, 0x10, 0x20, 0x1b,
  0xc2, 0x13, 0x81, 0x10, 0x86, 0xd2, 0x9d, 0x1e, 0x9e, 0xb2, 0x1f, 0x11,
  0x96, 0x31, 0x9d, 0xb7, 0x18, 0x9c, 0xd1, 0x96, 0x0b, 0x1a, 0x81, 0x18,
  0xc4, 0x24, 0xbb, 0xa5, 0x1f, 0xbc, 0x22, 0xcb, 0x9e, 0x9f, 0x23, 0xa1,
  0x15, 0xc4, 0xb4, 0x1c, 0x9a, 0xc0, 0x9d, 0xa8, 0xaa, 0x9d, 0xb8, 0x81,
  0xa2, 0x0d, 0x27, 0x07, 0x0d, 0xb2, 0x33, 0x8a, 0x1d, 0x81, 0xb2, 0x0b,
  0x9f, 0xc7, 0x96, 0x1d, 0x86, 0x13, 0xd4, 0x11, 0x0f, 0x2a, 0xdc, 0x9e,
  0x1e, 0xa9, 0x81, 0xa0, 0x20, 0x27, 0x22, 0x19, 0x28, 0xaa, 0xf2, 0xa3,
  0x81, 0x34, 0x4c, 0xf1, 0x2a, 0xb0, 0x22, 0x24, 0x0c, 0xb4, 0xb6, 0xb6,
  0xfa, 0xfe, 0xff, 0xff, 0x04, 0x00, 0x00, 0x00, 0x1c, 0x00, 0x00, 0x00,
  0xe6, 0xf5, 0xff, 0xff, 0x5c, 0x08, 0x00, 0x00, 0xcc, 0xfe, 0xff, 0xff,
  0x4d, 0x13, 0x00, 0x00, 0x4d, 0xff, 0xff, 0xff, 0xb5, 0xf3, 0xff, 0xff,
  0x0f, 0xfd, 0xff, 0xff, 0x22, 0xff, 0xff, 0xff, 0x04, 0x00, 0x00, 0x00,
  0x04, 0x00, 0x00, 0x00, 0x01, 0x00, 0x00, 0x00, 0x32, 0xff, 0xff, 0xff,
  0x04, 0x00, 0x00, 0x00, 0x0c, 0x00, 0x00, 0x00, 0x01, 0x00, 0x00, 0x00,
  0x7d, 0x00, 0x00, 0x00, 0x08, 0x00, 0x00, 0x00, 0x4a, 0xff, 0xff, 0xff,
  0x04, 0x00, 0x00, 0x00, 0x10, 0x00, 0x00, 0x00, 0x01, 0x00, 0x00, 0x00,
  0x01, 0x00, 0x00, 0x00, 0xf4, 0x01, 0x00, 0x00, 0x06, 0x00, 0x00, 0x00,
  0x74, 0xeb, 0xff, 0xff, 0x78, 0xeb, 0xff, 0xff, 0x0f, 0x00, 0x00, 0x00,
  0x4d, 0x4c, 0x49, 0x52, 0x20, 0x43, 0x6f, 0x6e, 0x76, 0x65, 0x72, 0x74,
  0x65, 0x64, 0x2e, 0x00, 0x01, 0x00, 0x00, 0x00, 0x14, 0x00, 0x00, 0x00,
  0x00, 0x00, 0x0e, 0x00, 0x18, 0x00, 0x14, 0x00, 0x10, 0x00, 0x0c, 0x00,
  0x08, 0x00, 0x04, 0x00, 0x0e, 0x00, 0x00, 0x00, 0x14, 0x00, 0x00, 0x00,
  0x1c, 0x00, 0x00, 0x00, 0x44, 0x02, 0x00, 0x00, 0x48, 0x02, 0x00, 0x00,
  0x4c, 0x02, 0x00, 0x00, 0x04, 0x00, 0x00, 0x00, 0x6d, 0x61, 0x69, 0x6e,
  0x00, 0x00, 0x00, 0x00, 0x09, 0x00, 0x00, 0x00, 0x08, 0x02, 0x00, 0x00,
  0xac, 0x01, 0x00, 0x00, 0x58, 0x01, 0x00, 0x00, 0x14, 0x01, 0x00, 0x00,
  0xf0, 0x00, 0x00, 0x00, 0xbc, 0x00, 0x00, 0x00, 0x78, 0x00, 0x00, 0x00,
  0x40, 0x00, 0x00, 0x00, 0x04, 0x00, 0x00, 0x00, 0x82, 0xfe, 0xff, 0xff,
  0x1c, 0x00, 0x00, 0x00, 0x00, 0x00, 0x00, 0x09, 0x1c, 0x00, 0x00, 0x00,
  0x20, 0x00, 0x00, 0x00, 0x04, 0x00, 0x00, 0x00, 0x00, 0x00, 0x06, 0x00,
  0x08, 0x00, 0x04, 0x00, 0x06, 0x00, 0x00, 0x00, 0x00, 0x00, 0x80, 0x3f,
  0x01, 0x00, 0x00, 0x00, 0x16, 0x00, 0x00, 0x00, 0x01, 0x00, 0x00, 0x00,
  0x15, 0x00, 0x00, 0x00, 0xba, 0xfe, 0xff, 0xff, 0x14, 0x00, 0x00, 0x00,
  0x00, 0x00, 0x00, 0x08, 0x10, 0x00, 0x00, 0x00, 0x14, 0x00, 0x00, 0x00,
  0x03, 0x00, 0x00, 0x00, 0x44, 0xec, 0xff, 0xff, 0x01, 0x00, 0x00, 0x00,
  0x15, 0x00, 0x00, 0x00, 0x03, 0x00, 0x00, 0x00, 0x14, 0x00, 0x00, 0x00,
  0x05, 0x00, 0x00, 0x00, 0x04, 0x00, 0x00, 0x00, 0xee, 0xfe, 0xff, 0xff,
  0x1c, 0x00, 0x00, 0x00, 0x00, 0x00, 0x00, 0x08, 0x1c, 0x00, 0x00, 0x00,
  0x20, 0x00, 0x00, 0x00, 0x03, 0x00, 0x00, 0x00, 0x00, 0x00, 0x06, 0x00,
  0x08, 0x00, 0x07, 0x00, 0x06, 0x00, 0x00, 0x00, 0x00, 0x00, 0x00, 0x01,
  0x01, 0x00, 0x00, 0x00, 0x14, 0x00, 0x00, 0x00, 0x03, 0x00, 0x00, 0x00,
  0x13, 0x00, 0x00, 0x00, 0x07, 0x00, 0x00, 0x00, 0x06, 0x00, 0x00, 0x00,
  0x2e, 0xff, 0xff, 0xff, 0x14, 0x00, 0x00, 0x00, 0x00, 0x00, 0x00, 0x1b,
  0x10, 0x00, 0x00, 0x00, 0x14, 0x00, 0x00, 0x00, 0x02, 0x00, 0x00, 0x00,
  0xb8, 0xec, 0xff, 0xff, 0x01, 0x00, 0x00, 0x00, 0x13, 0x00, 0x00, 0x00,
  0x02, 0x00, 0x00, 0x00, 0x12, 0x00, 0x00, 0x00, 0x03, 0x00, 0x00, 0x00,
  0x02, 0xff, 0xff, 0xff, 0x08, 0x00, 0x00, 0x00, 0x0c, 0x00, 0x00, 0x00,
  0x01, 0x00, 0x00, 0x00, 0x12, 0x00, 0x00, 0x00, 0x02, 0x00, 0x00, 0x00,
  0x11, 0x00, 0x00, 0x00, 0x02, 0x00, 0x00, 0x00, 0x7e, 0xff, 0xff, 0xff,
  0x14, 0x00, 0x00, 0x00, 0x00, 0x00, 0x00, 0x01, 0x1c, 0x00, 0x00, 0x00,
  0x20, 0x00, 0x00, 0x00, 0x01, 0x00, 0x00, 0x00, 0x70, 0xff, 0xff, 0xff,
  0x00, 0x00, 0x00, 0x01, 0x01, 0x00, 0x00, 0x00, 0x01, 0x00, 0x00, 0x00,
  0x01, 0x00, 0x00, 0x00, 0x11, 0x00, 0x00, 0x00, 0x03, 0x00, 0x00, 0x00,
  0x10, 0x00, 0x00, 0x00, 0x09, 0x00, 0x00, 0x00, 0x08, 0x00, 0x00, 0x00,
  0xbe, 0xff, 0xff, 0xff, 0x14, 0x00, 0x00, 0x00, 0x00, 0x00, 0x00, 0x01,
  0x1c, 0x00, 0x00, 0x00, 0x20, 0x00, 0x00, 0x00, 0x01, 0x00, 0x00, 0x00,
  0xb0, 0xff, 0xff, 0xff, 0x00, 0x00, 0x00, 0x01, 0x01, 0x00, 0x00, 0x00,
  0x02, 0x00, 0x00, 0x00, 0x01, 0x00, 0x00, 0x00, 0x10, 0x00, 0x00, 0x00,
  0x03, 0x00, 0x00, 0x00, 0x0f, 0x00, 0x00, 0x00, 0x0b, 0x00, 0x00, 0x00,
  0x0a, 0x00, 0x00, 0x00, 0x00, 0x00, 0x0e, 0x00, 0x18, 0x00, 0x14, 0x00,
  0x10, 0x00, 0x0c, 0x00, 0x0b, 0x00, 0x04, 0x00, 0x0e, 0x00, 0x00, 0x00,
  0x20, 0x00, 0x00, 0x00, 0x00, 0x00, 0x00, 0x01, 0x28, 0x00, 0x00, 0x00,
  0x2c, 0x00, 0x00, 0x00, 0x01, 0x00, 0x00, 0x00, 0x0c, 0x00, 0x10, 0x00,
  0x00, 0x00, 0x0c, 0x00, 0x08, 0x00, 0x07, 0x00, 0x0c, 0x00, 0x00, 0x00,
  0x00, 0x00, 0x00, 0x01, 0x01, 0x00, 0x00, 0x00, 0x02, 0x00, 0x00, 0x00,
  0x01, 0x00, 0x00, 0x00, 0x0f, 0x00, 0x00, 0x00, 0x03, 0x00, 0x00, 0x00,
  0x0e, 0x00, 0x00, 0x00, 0x0d, 0x00, 0x00, 0x00, 0x0c, 0x00, 0x00, 0x00,
  0x00, 0x00, 0x0a, 0x00, 0x0c, 0x00, 0x00, 0x00, 0x08, 0x00, 0x04, 0x00,
  0x0a, 0x00, 0x00, 0x00, 0x08, 0x00, 0x00, 0x00, 0x0c, 0x00, 0x00, 0x00,
  0x01, 0x00, 0x00, 0x00, 0x0e, 0x00, 0x00, 0x00, 0x02, 0x00, 0x00, 0x00,
  0x00, 0x00, 0x00, 0x00, 0x01, 0x00, 0x00, 0x00, 0x01, 0x00, 0x00, 0x00,
  0x16, 0x00, 0x00, 0x00, 0x01, 0x00, 0x00, 0x00, 0x00, 0x00, 0x00, 0x00,
  0x17, 0x00, 0x00, 0x00, 0x30, 0x12, 0x00, 0x00, 0xd4, 0x11, 0x00, 0x00,
  0x94, 0x11, 0x00, 0x00, 0x58, 0x11, 0x00, 0x00, 0xac, 0x10, 0x00, 0x00,
  0x00, 0x10, 0x00, 0x00, 0xec, 0x0e, 0x00, 0x00, 0xd0, 0x0d, 0x00, 0x00,
  0x1c, 0x0d, 0x00, 0x00, 0x58, 0x0c, 0x00, 0x00, 0x74, 0x0b, 0x00, 0x00,
  0x80, 0x0a, 0x00, 0x00, 0x6c, 0x09, 0x00, 0x00, 0x48, 0x08, 0x00, 0x00,
  0xbc, 0x07, 0x00, 0x00, 0x50, 0x06, 0x00, 0x00, 0xe4, 0x04, 0x00, 0x00,
  0x78, 0x03, 0x00, 0x00, 0x3c, 0x02, 0x00, 0x00, 0xb8, 0x01, 0x00, 0x00,
  0x04, 0x01, 0x00, 0x00, 0x70, 0x00, 0x00, 0x00, 0x04, 0x00, 0x00, 0x00,
  0x42, 0xee, 0xff, 0xff, 0x00, 0x00, 0x00, 0x01, 0x14, 0x00, 0x00, 0x00,
  0x30, 0x00, 0x00, 0x00, 0x17, 0x00, 0x00, 0x00, 0x00, 0x00, 0x00, 0x09,
  0x44, 0x00, 0x00, 0x00, 0x2c, 0xee, 0xff, 0xff, 0x08, 0x00, 0x00, 0x00,
  0x10, 0x00, 0x00, 0x00, 0x01, 0x00, 0x00, 0x00, 0x80, 0xff, 0xff, 0xff,
  0xff, 0xff, 0xff, 0xff, 0x01, 0x00, 0x00, 0x00, 0x00, 0x00, 0x80, 0x3b,
  0x1b, 0x00, 0x00, 0x00, 0x53, 0x74, 0x61, 0x74, 0x65, 0x66, 0x75, 0x6c,
  0x50, 0x61, 0x72, 0x74, 0x69, 0x74, 0x69, 0x6f, 0x6e, 0x65, 0x64, 0x43,
  0x61, 0x6c, 0x6c, 0x5f, 0x31, 0x3a, 0x30, 0x00, 0x02, 0x00, 0x00, 0x00,
  0x01, 0x00, 0x00, 0x00, 0x07, 0x00, 0x00, 0x00, 0xaa, 0xee, 0xff, 0xff,
  0x00, 0x00, 0x00, 0x01, 0x14, 0x00, 0x00, 0x00, 0x30, 0x00, 0x00, 0x00,
  0x16, 0x00, 0x00, 0x00, 0x00, 0x00, 0x00, 0x09, 0x6c, 0x00, 0x00, 0x00,
  0x94, 0xee, 0xff, 0xff, 0x08, 0x00, 0x00, 0x00, 0x10, 0x00, 0x00, 0x00,
  0x01, 0x00, 0x00, 0x00, 0x3f, 0x00, 0x00, 0x00, 0x00, 0x00, 0x00, 0x00,
  0x01, 0x00, 0x00, 0x00, 0x7b, 0x99, 0xbd, 0x3e, 0x40, 0x00, 0x00, 0x00,
  0x73, 0x65, 0x71, 0x75, 0x65, 0x6e, 0x74, 0x69, 0x61, 0x6c, 0x5f, 0x34,
  0x5f, 0x31, 0x2f, 0x64, 0x65, 0x6e, 0x73, 0x65, 0x5f, 0x39, 0x5f, 0x31,
  0x2f, 0x4d, 0x61, 0x74, 0x4d, 0x75, 0x6c, 0x3b, 0x73, 0x65, 0x71, 0x75,
  0x65, 0x6e, 0x74, 0x69, 0x61, 0x6c, 0x5f, 0x34, 0x5f, 0x31, 0x2f, 0x64,
  0x65, 0x6e, 0x73, 0x65, 0x5f, 0x39, 0x5f, 0x31, 0x2f, 0x42, 0x69, 0x61,
  0x73, 0x41, 0x64, 0x64, 0x00, 0x00, 0x00, 0x00, 0x02, 0x00, 0x00, 0x00,
  0x01, 0x00, 0x00, 0x00, 0x07, 0x00, 0x00, 0x00, 0x3a, 0xef, 0xff, 0xff,
  0x00, 0x00, 0x00, 0x01, 0x14, 0x00, 0x00, 0x00, 0x34, 0x00, 0x00, 0x00,
  0x15, 0x00, 0x00, 0x00, 0x00, 0x00, 0x00, 0x09, 0x8c, 0x00, 0x00, 0x00,
  0x24, 0xef, 0xff, 0xff, 0x08, 0x00, 0x00, 0x00, 0x14, 0x00, 0x00, 0x00,
  0x01, 0x00, 0x00, 0x00, 0x80, 0xff, 0xff, 0xff, 0xff, 0xff, 0xff, 0xff,
  0x00, 0x00, 0x00, 0x00, 0x01, 0x00, 0x00, 0x00, 0x73, 0x77, 0x18, 0x3c,
  0x5e, 0x00, 0x00, 0x00, 0x73, 0x65, 0x71, 0x75, 0x65, 0x6e, 0x74, 0x69,
  0x61, 0x6c, 0x5f, 0x34, 0x5f, 0x31, 0x2f, 0x64, 0x65, 0x6e, 0x73, 0x65,
  0x5f, 0x38, 0x5f, 0x31, 0x2f, 0x4d, 0x61, 0x74, 0x4d, 0x75, 0x6c, 0x3b,
  0x73, 0x65, 0x71, 0x75, 0x65, 0x6e, 0x74, 0x69, 0x61, 0x6c, 0x5f, 0x34,
  0x5f, 0x31, 0x2f, 0x64, 0x65, 0x6e, 0x73, 0x65, 0x5f, 0x38, 0x5f, 0x31,
  0x2f, 0x52, 0x65, 0x6c, 0x75, 0x3b, 0x73, 0x65, 0x71, 0x75, 0x65, 0x6e,
  0x74, 0x69, 0x61, 0x6c, 0x5f, 0x34, 0x5f, 0x31, 0x2f, 0x64, 0x65, 0x6e,
  0x73, 0x65, 0x5f, 0x38, 0x5f, 0x31, 0x2f, 0x42, 0x69, 0x61, 0x73, 0x41,
  0x64, 0x64, 0x00, 0x00, 0x02, 0x00, 0x00, 0x00, 0x01, 0x00, 0x00, 0x00,
  0x10, 0x00, 0x00, 0x00, 0xea, 0xef, 0xff, 0xff, 0x00, 0x00, 0x00, 0x01,
  0x14, 0x00, 0x00, 0x00, 0x30, 0x00, 0x00, 0x00, 0x14, 0x00, 0x00, 0x00,
  0x00, 0x00, 0x00, 0x09, 0x5c, 0x00, 0x00, 0x00, 0xd4, 0xef, 0xff, 0xff,
  0x08, 0x00, 0x00, 0x00, 0x10, 0x00, 0x00, 0x00, 0x01, 0x00, 0x00, 0x00,
  0x80, 0xff, 0xff, 0xff, 0xff, 0xff, 0xff, 0xff, 0x01, 0x00, 0x00, 0x00,
  0x9d, 0xc3, 0x6c, 0x3c, 0x30, 0x00, 0x00, 0x00, 0x73, 0x65, 0x71, 0x75,
  0x65, 0x6e, 0x74, 0x69, 0x61, 0x6c, 0x5f, 0x34, 0x5f, 0x31, 0x2f, 0x67,
  0x6c, 0x6f, 0x62, 0x61, 0x6c, 0x5f, 0x61, 0x76, 0x65, 0x72, 0x61, 0x67,
  0x65, 0x5f, 0x70, 0x6f, 0x6f, 0x6c, 0x69, 0x6e, 0x67, 0x31, 0x64, 0x5f,
  0x34, 0x5f, 0x31, 0x2f, 0x4d, 0x65, 0x61, 0x6e, 0x00, 0x00, 0x00, 0x00,
  0x02, 0x00, 0x00, 0x00, 0x01, 0x00, 0x00, 0x00, 0x08, 0x00, 0x00, 0x00,
  0x6a, 0xf0, 0xff, 0xff, 0x00, 0x00, 0x00, 0x01, 0x14, 0x00, 0x00, 0x00,
  0x30, 0x00, 0x00, 0x00, 0x13, 0x00, 0x00, 0x00, 0x00, 0x00, 0x00, 0x09,
  0x10, 0x01, 0x00, 0x00, 0x54, 0xf0, 0xff, 0xff, 0x08, 0x00, 0x00, 0x00,
  0x10, 0x00, 0x00, 0x00, 0x01, 0x00, 0x00, 0x00, 0x80, 0xff, 0xff, 0xff,
  0xff, 0xff, 0xff, 0xff, 0x01, 0x00, 0x00, 0x00, 0x34, 0x97, 0x50, 0x3e,
  0xe6, 0x00, 0x00, 0x00, 0x73, 0x65, 0x71, 0x75, 0x65, 0x6e, 0x74, 0x69,
  0x61, 0x6c, 0x5f, 0x34, 0x5f, 0x31, 0x2f, 0x61, 0x63, 0x74, 0x69, 0x76,
  0x61, 0x74, 0x69, 0x6f, 0x6e, 0x5f, 0x31, 0x34, 0x5f, 0x31, 0x2f, 0x52,
  0x65, 0x6c, 0x75, 0x3b, 0x73, 0x65, 0x71, 0x75, 0x65, 0x6e, 0x74, 0x69,
  0x61, 0x6c, 0x5f, 0x34, 0x5f, 0x31, 0x2f, 0x62, 0x61, 0x74, 0x63, 0x68,
  0x5f, 0x6e, 0x6f, 0x72, 0x6d, 0x61, 0x6c, 0x69, 0x7a, 0x61, 0x74, 0x69,
  0x6f, 0x6e, 0x5f, 0x31, 0x34, 0x5f, 0x31, 0x2f, 0x62, 0x61, 0x74, 0x63,
  0x68, 0x6e, 0x6f, 0x72, 0x6d, 0x2f, 0x61, 0x64, 0x64, 0x5f, 0x31, 0x3b,
  0x73, 0x65, 0x71, 0x75, 0x65, 0x6e, 0x74, 0x69, 0x61, 0x6c, 0x5f, 0x34,
  0x5f, 0x31, 0x2f, 0x63, 0x6f, 0x6e, 0x76, 0x31, 0x64, 0x5f, 0x31, 0x34,
  0x5f, 0x31, 0x2f, 0x63, 0x6f, 0x6e, 0x76, 0x6f, 0x6c, 0x75, 0x74, 0x69,
  0x6f, 0x6e, 0x2f, 0x53, 0x71, 0x75, 0x65, 0x65, 0x7a, 0x65, 0x3b, 0x73,
  0x65, 0x71, 0x75, 0x65, 0x6e, 0x74, 0x69, 0x61, 0x6c, 0x5f, 0x34, 0x5f,
  0x31, 0x2f, 0x62, 0x61, 0x74, 0x63, 0x68, 0x5f, 0x6e, 0x6f, 0x72, 0x6d,
  0x61, 0x6c, 0x69, 0x7a, 0x61, 0x74, 0x69, 0x6f, 0x6e, 0x5f, 0x31, 0x34,
  0x5f, 0x31, 0x2f, 0x62, 0x61, 0x74, 0x63, 0x68, 0x6e, 0x6f, 0x72, 0x6d,
  0x2f, 0x6d, 0x75, 0x6c, 0x5f, 0x31, 0x3b, 0x73, 0x65, 0x71, 0x75, 0x65,
  0x6e, 0x74, 0x69, 0x61, 0x6c, 0x5f, 0x34, 0x5f, 0x31, 0x2f, 0x63, 0x6f,
  0x6e, 0x76, 0x31, 0x64, 0x5f, 0x31, 0x34, 0x5f, 0x31, 0x2f, 0x42, 0x69,
  0x61, 0x73, 0x41, 0x64, 0x64, 0x3b, 0x00, 0x00, 0x03, 0x00, 0x00, 0x00,
  0x01, 0x00, 0x00, 0x00, 0x7d, 0x00, 0x00, 0x00, 0x08, 0x00, 0x00, 0x00,
  0xa2, 0xf1, 0xff, 0xff, 0x00, 0x00, 0x00, 0x01, 0x14, 0x00, 0x00, 0x00,
  0x34, 0x00, 0x00, 0x00, 0x12, 0x00, 0x00, 0x00, 0x00, 0x00, 0x00, 0x09,
  0x3c, 0x01, 0x00, 0x00, 0x8c, 0xf1, 0xff, 0xff, 0x08, 0x00, 0x00, 0x00,
  0x14, 0x00, 0x00, 0x00, 0x01, 0x00, 0x00, 0x00, 0x80, 0xff, 0xff, 0xff,
  0xff, 0xff, 0xff, 0xff, 0x00, 0x00, 0x00, 0x00, 0x01, 0x00, 0x00, 0x00,
  0x34, 0x97, 0x50, 0x3e, 0x0d, 0x01, 0x00, 0x00, 0x73, 0x65, 0x71, 0x75,
  0x65, 0x6e, 0x74, 0x69, 0x61, 0x6c, 0x5f, 0x34, 0x5f, 0x31, 0x2f, 0x61,
  0x63, 0x74, 0x69, 0x76, 0x61, 0x74, 0x69, 0x6f, 0x6e, 0x5f, 0x31, 0x34,
  0x5f, 0x31, 0x2f, 0x52, 0x65, 0x6c, 0x75, 0x3b, 0x73, 0x65, 0x71, 0x75,
  0x65, 0x6e, 0x74, 0x69, 0x61, 0x6c, 0x5f, 0x34, 0x5f, 0x31, 0x2f, 0x62,
  0x61, 0x74, 0x63, 0x68, 0x5f, 0x6e, 0x6f, 0x72, 0x6d, 0x61, 0x6c, 0x69,
  0x7a, 0x61, 0x74, 0x69, 0x6f, 0x6e, 0x5f, 0x31, 0x34, 0x5f, 0x31, 0x2f,
  0x62, 0x61, 0x74, 0x63, 0x68, 0x6e, 0x6f, 0x72, 0x6d, 0x2f, 0x61, 0x64,
  0x64, 0x5f, 0x31, 0x3b, 0x73, 0x65, 0x71, 0x75, 0x65, 0x6e, 0x74, 0x69,
  0x61, 0x6c, 0x5f, 0x34, 0x5f, 0x31, 0x2f, 0x63, 0x6f, 0x6e, 0x76, 0x31,
  0x64, 0x5f, 0x31, 0x34, 0x5f, 0x31, 0x2f, 0x63, 0x6f, 0x6e, 0x76, 0x6f,
  0x6c, 0x75, 0x74, 0x69, 0x6f, 0x6e, 0x2f, 0x53, 0x71, 0x75, 0x65, 0x65,
  0x7a, 0x65, 0x3b, 0x73, 0x65, 0x71, 0x75, 0x65, 0x6e, 0x74, 0x69, 0x61,
  0x6c, 0x5f, 0x34, 0x5f, 0x31, 0x2f, 0x62, 0x61, 0x74, 0x63, 0x68, 0x5f,
  0x6e, 0x6f, 0x72, 0x6d, 0x61, 0x6c, 0x69, 0x7a, 0x61, 0x74, 0x69, 0x6f,
  0x6e, 0x5f, 0x31, 0x34, 0x5f, 0x31, 0x2f, 0x62, 0x61, 0x74, 0x63, 0x68,
  0x6e, 0x6f, 0x72, 0x6d, 0x2f, 0x6d, 0x75, 0x6c, 0x5f, 0x31, 0x3b, 0x73,
  0x65, 0x71, 0x75, 0x65, 0x6e, 0x74, 0x69, 0x61, 0x6c, 0x5f, 0x34, 0x5f,
  0x31, 0x2f, 0x63, 0x6f, 0x6e, 0x76, 0x31, 0x64, 0x5f, 0x31, 0x34, 0x5f,
  0x31, 0x2f, 0x42, 0x69, 0x61, 0x73, 0x41, 0x64, 0x64, 0x3b, 0x3b, 0x73,
  0x65, 0x71, 0x75, 0x65, 0x6e, 0x74, 0x69, 0x61, 0x6c, 0x5f, 0x34, 0x5f,
  0x31, 0x2f, 0x63, 0x6f, 0x6e, 0x76, 0x31, 0x64, 0x5f, 0x31, 0x34, 0x5f,
  0x31, 0x2f, 0x63, 0x6f, 0x6e, 0x76, 0x6f, 0x6c, 0x75, 0x74, 0x69, 0x6f,
  0x6e, 0x00, 0x00, 0x00, 0x04, 0x00, 0x00, 0x00, 0x01, 0x00, 0x00, 0x00,
  0x01, 0x00, 0x00, 0x00, 0x7d, 0x00, 0x00, 0x00, 0x08, 0x00, 0x00, 0x00,
  0x0a, 0xf3, 0xff, 0xff, 0x00, 0x00, 0x00, 0x01, 0x14, 0x00, 0x00, 0x00,
  0x34, 0x00, 0x00, 0x00, 0x11, 0x00, 0x00, 0x00, 0x00, 0x00, 0x00, 0x09,
  0x3c, 0x01, 0x00, 0x00, 0xf4, 0xf2, 0xff, 0xff, 0x08, 0x00, 0x00, 0x00,
  0x14, 0x00, 0x00, 0x00, 0x01, 0x00, 0x00, 0x00, 0x80, 0xff, 0xff, 0xff,
  0xff, 0xff, 0xff, 0xff, 0x00, 0x00, 0x00, 0x00, 0x01, 0x00, 0x00, 0x00,
  0x46, 0x59, 0x9a, 0x3d, 0x0d, 0x01, 0x00, 0x00, 0x73, 0x65, 0x71, 0x75,
  0x65, 0x6e, 0x74, 0x69, 0x61, 0x6c, 0x5f, 0x34, 0x5f, 0x31, 0x2f, 0x61,
  0x63, 0x74, 0x69, 0x76, 0x61, 0x74, 0x69, 0x6f, 0x6e, 0x5f, 0x31, 0x33,
  0x5f, 0x31, 0x2f, 0x52, 0x65, 0x6c, 0x75, 0x3b, 0x73, 0x65, 0x71, 0x75,
  0x65, 0x6e, 0x74, 0x69, 0x61, 0x6c, 0x5f, 0x34, 0x5f, 0x31, 0x2f, 0x62,
  0x61, 0x74, 0x63, 0x68, 0x5f, 0x6e, 0x6f, 0x72, 0x6d, 0x61, 0x6c, 0x69,
  0x7a, 0x61, 0x74, 0x69, 0x6f, 0x6e, 0x5f, 0x31, 0x33, 0x5f, 0x31, 0x2f,
  0x62, 0x61, 0x74, 0x63, 0x68, 0x6e, 0x6f, 0x72, 0x6d, 0x2f, 0x61, 0x64,
  0x64, 0x5f, 0x31, 0x3b, 0x73, 0x65, 0x71, 0x75, 0x65, 0x6e, 0x74, 0x69,
  0x61, 0x6c, 0x5f, 0x34, 0x5f, 0x31, 0x2f, 0x63, 0x6f, 0x6e, 0x76, 0x31,
  0x64, 0x5f, 0x31, 0x33, 0x5f, 0x31, 0x2f, 0x63, 0x6f, 0x6e, 0x76, 0x6f,
  0x6c, 0x75, 0x74, 0x69, 0x6f, 0x6e, 0x2f, 0x53, 0x71, 0x75, 0x65, 0x65,
  0x7a, 0x65, 0x3b, 0x73, 0x65, 0x71, 0x75, 0x65, 0x6e, 0x74, 0x69, 0x61,
  0x6c, 0x5f, 0x34, 0x5f, 0x31, 0x2f, 0x62, 0x61, 0x74, 0x63, 0x68, 0x5f,
  0x6e, 0x6f, 0x72, 0x6d, 0x61, 0x6c, 0x69, 0x7a, 0x61, 0x74, 0x69, 0x6f,
  0x6e, 0x5f, 0x31, 0x33, 0x5f, 0x31, 0x2f, 0x62, 0x61, 0x74, 0x63, 0x68,
  0x6e, 0x6f, 0x72, 0x6d, 0x2f, 0x6d, 0x75, 0x6c, 0x5f, 0x31, 0x3b, 0x73,
  0x65, 0x71, 0x75, 0x65, 0x6e, 0x74, 0x69, 0x61, 0x6c, 0x5f, 0x34, 0x5f,
  0x31, 0x2f, 0x63, 0x6f, 0x6e, 0x76, 0x31, 0x64, 0x5f, 0x31, 0x33, 0x5f,
  0x31, 0x2f, 0x42, 0x69, 0x61, 0x73, 0x41, 0x64, 0x64, 0x3b, 0x3b, 0x73,
  0x65, 0x71, 0x75, 0x65, 0x6e, 0x74, 0x69, 0x61, 0x6c, 0x5f, 0x34, 0x5f,
  0x31, 0x2f, 0x63, 0x6f, 0x6e, 0x76, 0x31, 0x64, 0x5f, 0x31, 0x33, 0x5f,
  0x31, 0x2f, 0x63, 0x6f, 0x6e, 0x76, 0x6f, 0x6c, 0x75, 0x74, 0x69, 0x6f,
  0x6e, 0x00, 0x00, 0x00, 0x04, 0x00, 0x00, 0x00, 0x01, 0x00, 0x00, 0x00,
  0x01, 0x00, 0x00, 0x00, 0x7d, 0x00, 0x00, 0x00, 0x0c, 0x00, 0x00, 0x00,
  0x72, 0xf4, 0xff, 0xff, 0x00, 0x00, 0x00, 0x01, 0x14, 0x00, 0x00, 0x00,
  0x34, 0x00, 0x00, 0x00, 0x10, 0x00, 0x00, 0x00, 0x00, 0x00, 0x00, 0x09,
  0x3c, 0x01, 0x00, 0x00, 0x5c, 0xf4, 0xff, 0xff, 0x08, 0x00, 0x00, 0x00,
  0x14, 0x00, 0x00, 0x00, 0x01, 0x00, 0x00, 0x00, 0x80, 0xff, 0xff, 0xff,
  0xff, 0xff, 0xff, 0xff, 0x00, 0x00, 0x00, 0x00, 0x01, 0x00, 0x00, 0x00,
  0xd4, 0x54, 0x22, 0x3e, 0x0d, 0x01, 0x00, 0x00, 0x73, 0x65, 0x71, 0x75,
  0x65, 0x6e, 0x74, 0x69, 0x61, 0x6c, 0x5f, 0x34, 0x5f, 0x31, 0x2f, 0x61,
  0x63, 0x74, 0x69, 0x76, 0x61, 0x74, 0x69, 0x6f, 0x6e, 0x5f, 0x31, 0x32,
  0x5f, 0x31, 0x2f, 0x52, 0x65, 0x6c, 0x75, 0x3b, 0x73, 0x65, 0x71, 0x75,
  0x65, 0x6e, 0x74, 0x69, 0x61, 0x6c, 0x5f, 0x34, 0x5f, 0x31, 0x2f, 0x62,
  0x61, 0x74, 0x63, 0x68, 0x5f, 0x6e, 0x6f, 0x72, 0x6d, 0x61, 0x6c, 0x69,
  0x7a, 0x61, 0x74, 0x69, 0x6f, 0x6e, 0x5f, 0x31, 0x32, 0x5f, 0x31, 0x2f,
  0x62, 0x61, 0x74, 0x63, 0x68, 0x6e, 0x6f, 0x72, 0x6d, 0x2f, 0x61, 0x64,
  0x64, 0x5f, 0x31, 0x3b, 0x73, 0x65, 0x71, 0x75, 0x65, 0x6e, 0x74, 0x69,
  0x61, 0x6c, 0x5f, 0x34, 0x5f, 0x31, 0x2f, 0x63, 0x6f, 0x6e, 0x76, 0x31,
  0x64, 0x5f, 0x31, 0x32, 0x5f, 0x31, 0x2f, 0x63, 0x6f, 0x6e, 0x76, 0x6f,
  0x6c, 0x75, 0x74, 0x69, 0x6f, 0x6e, 0x2f, 0x53, 0x71, 0x75, 0x65, 0x65,
  0x7a, 0x65, 0x3b, 0x73, 0x65, 0x71, 0x75, 0x65, 0x6e, 0x74, 0x69, 0x61,
  0x6c, 0x5f, 0x34, 0x5f, 0x31, 0x2f, 0x62, 0x61, 0x74, 0x63, 0x68, 0x5f,
  0x6e, 0x6f, 0x72, 0x6d, 0x61, 0x6c, 0x69, 0x7a, 0x61, 0x74, 0x69, 0x6f,
  0x6e, 0x5f, 0x31, 0x32, 0x5f, 0x31, 0x2f, 0x62, 0x61, 0x74, 0x63, 0x68,
  0x6e, 0x6f, 0x72, 0x6d, 0x2f, 0x6d, 0x75, 0x6c, 0x5f, 0x31, 0x3b, 0x73,
  0x65, 0x71, 0x75, 0x65, 0x6e, 0x74, 0x69, 0x61, 0x6c, 0x5f, 0x34, 0x5f,
  0x31, 0x2f, 0x63, 0x6f, 0x6e, 0x76, 0x31, 0x64, 0x5f, 0x31, 0x32, 0x5f,
  0x31, 0x2f, 0x42, 0x69, 0x61, 0x73, 0x41, 0x64, 0x64, 0x3b, 0x3b, 0x73,
  0x65, 0x71, 0x75, 0x65, 0x6e, 0x74, 0x69, 0x61, 0x6c, 0x5f, 0x34, 0x5f,
  0x31, 0x2f, 0x63, 0x6f, 0x6e, 0x76, 0x31, 0x64, 0x5f, 0x31, 0x32, 0x5f,
  0x31, 0x2f, 0x63, 0x6f, 0x6e, 0x76, 0x6f, 0x6c, 0x75, 0x74, 0x69, 0x6f,
  0x6e, 0x00, 0x00, 0x00, 0x04, 0x00, 0x00, 0x00, 0x01, 0x00, 0x00, 0x00,
  0x01, 0x00, 0x00, 0x00, 0xfa, 0x00, 0x00, 0x00, 0x10, 0x00, 0x00, 0x00,
  0xda, 0xf5, 0xff, 0xff, 0x00, 0x00, 0x00, 0x01, 0x14, 0x00, 0x00, 0x00,
  0x30, 0x00, 0x00, 0x00, 0x0f, 0x00, 0x00, 0x00, 0x00, 0x00, 0x00, 0x09,
  0x5c, 0x00, 0x00, 0x00, 0xc4, 0xf5, 0xff, 0xff, 0x08, 0x00, 0x00, 0x00,
  0x10, 0x00, 0x00, 0x00, 0x01, 0x00, 0x00, 0x00, 0x90, 0xff, 0xff, 0xff,
  0xff, 0xff, 0xff, 0xff, 0x01, 0x00, 0x00, 0x00, 0xc1, 0xb9, 0x1c, 0x3f,
  0x32, 0x00, 0x00, 0x00, 0x73, 0x65, 0x71, 0x75, 0x65, 0x6e, 0x74, 0x69,
  0x61, 0x6c, 0x5f, 0x34, 0x5f, 0x31, 0x2f, 0x63, 0x6f, 0x6e, 0x76, 0x31,
  0x64, 0x5f, 0x31, 0x32, 0x5f, 0x31, 0x2f, 0x63, 0x6f, 0x6e, 0x76, 0x6f,
  0x6c, 0x75, 0x74, 0x69, 0x6f, 0x6e, 0x2f, 0x45, 0x78, 0x70, 0x61, 0x6e,
  0x64, 0x44, 0x69, 0x6d, 0x73, 0x31, 0x00, 0x00, 0x04, 0x00, 0x00, 0x00,
  0x01, 0x00, 0x00, 0x00, 0x01, 0x00, 0x00, 0x00, 0xf4, 0x01, 0x00, 0x00,
  0x06, 0x00, 0x00, 0x00, 0x62, 0xf6, 0xff, 0xff, 0x00, 0x00, 0x00, 0x01,
  0x14, 0x00, 0x00, 0x00, 0xe8, 0x00, 0x00, 0x00, 0x0e, 0x00, 0x00, 0x00,
  0x00, 0x00, 0x00, 0x09, 0xf4, 0x00, 0x00, 0x00, 0x4c, 0xf6, 0xff, 0xff,
  0x08, 0x00, 0x00, 0x00, 0x8c, 0x00, 0x00, 0x00, 0x10, 0x00, 0x00, 0x00,
  0x00, 0x00, 0x00, 0x00, 0x00, 0x00, 0x00, 0x00, 0x00, 0x00, 0x00, 0x00,
  0x00, 0x00, 0x00, 0x00, 0x00, 0x00, 0x00, 0x00, 0x00, 0x00, 0x00, 0x00,
  0x00, 0x00, 0x00, 0x00, 0x00, 0x00, 0x00, 0x00, 0x00, 0x00, 0x00, 0x00,
  0x00, 0x00, 0x00, 0x00, 0x00, 0x00, 0x00, 0x00, 0x00, 0x00, 0x00, 0x00,
  0x00, 0x00, 0x00, 0x00, 0x00, 0x00, 0x00, 0x00, 0x00, 0x00, 0x00, 0x00,
  0x00, 0x00, 0x00, 0x00, 0x00, 0x00, 0x00, 0x00, 0x00, 0x00, 0x00, 0x00,
  0x00, 0x00, 0x00, 0x00, 0x00, 0x00, 0x00, 0x00, 0x00, 0x00, 0x00, 0x00,
  0x00, 0x00, 0x00, 0x00, 0x00, 0x00, 0x00, 0x00, 0x00, 0x00, 0x00, 0x00,
  0x00, 0x00, 0x00, 0x00, 0x00, 0x00, 0x00, 0x00, 0x00, 0x00, 0x00, 0x00,
  0x00, 0x00, 0x00, 0x00, 0x00, 0x00, 0x00, 0x00, 0x00, 0x00, 0x00, 0x00,
  0x00, 0x00, 0x00, 0x00, 0x00, 0x00, 0x00, 0x00, 0x00, 0x00, 0x00, 0x00,
  0x10, 0x00, 0x00, 0x00, 0x31, 0x61, 0xba, 0x3a, 0xa8, 0xb2, 0x14, 0x3a,
  0xbd, 0x29, 0x42, 0x3b, 0xb0, 0x6f, 0xcd, 0x3a, 0x21, 0x51, 0x24, 0x3b,
  0x63, 0x2e, 0x0c, 0x3b, 0xb2, 0x38, 0x9d, 0x3a, 0xfb, 0xfd, 0xd6, 0x3a,
  0x45, 0x7e, 0x40, 0x3b, 0x3a, 0xdd, 0x06, 0x3b, 0x01, 0x3c, 0x74, 0x3a,
  0x50, 0x35, 0x08, 0x3b, 0xdb, 0x00, 0xa1, 0x3a, 0x85, 0x05, 0x12, 0x3b,
  0x83, 0xc4, 0x27, 0x3b, 0x4c, 0xe5, 0x62, 0x3a, 0x12, 0x00, 0x00, 0x00,
  0x74, 0x66, 0x6c, 0x2e, 0x70, 0x73, 0x65, 0x75, 0x64, 0x6f, 0x5f, 0x71,
  0x63, 0x6f, 0x6e, 0x73, 0x74, 0x39, 0x00, 0x00, 0x04, 0x00, 0x00, 0x00,
  0x10, 0x00, 0x00, 0x00, 0x01, 0x00, 0x00, 0x00, 0x07, 0x00, 0x00, 0x00,
  0x06, 0x00, 0x00, 0x00, 0x82, 0xf7, 0xff, 0xff, 0x00, 0x00, 0x00, 0x01,
  0x14, 0x00, 0x00, 0x00, 0xe4, 0x00, 0x00, 0x00, 0x0d, 0x00, 0x00, 0x00,
  0x00, 0x00, 0x00, 0x02, 0xf0, 0x00, 0x00, 0x00, 0x6c, 0xf7, 0xff, 0xff,
  0x08, 0x00, 0x00, 0x00, 0x88, 0x00, 0x00, 0x00, 0x10, 0x00, 0x00, 0x00,
  0x00, 0x00, 0x00, 0x00, 0x00, 0x00, 0x00, 0x00, 0x00, 0x00, 0x00, 0x00,
  0x00, 0x00, 0x00, 0x00, 0x00, 0x00, 0x00, 0x00, 0x00, 0x00, 0x00, 0x00,
  0x00, 0x00, 0x00, 0x00, 0x00, 0x00, 0x00, 0x00, 0x00, 0x00, 0x00, 0x00,
  0x00, 0x00, 0x00, 0x00, 0x00, 0x00, 0x00, 0x00, 0x00, 0x00, 0x00, 0x00,
  0x00, 0x00, 0x00, 0x00, 0x00, 0x00, 0x00, 0x00, 0x00, 0x00, 0x00, 0x00,
  0x00, 0x00, 0x00, 0x00, 0x00, 0x00, 0x00, 0x00, 0x00, 0x00, 0x00, 0x00,
  0x00, 0x00, 0x00, 0x00, 0x00, 0x00, 0x00, 0x00, 0x00, 0x00, 0x00, 0x00,
  0x00, 0x00, 0x00, 0x00, 0x00, 0x00, 0x00, 0x00, 0x00, 0x00, 0x00, 0x00,
  0x00, 0x00, 0x00, 0x00, 0x00, 0x00, 0x00, 0x00, 0x00, 0x00, 0x00, 0x00,
  0x00, 0x00, 0x00, 0x00, 0x00, 0x00, 0x00, 0x00, 0x00, 0x00, 0x00, 0x00,
  0x00, 0x00, 0x00, 0x00, 0x00, 0x00, 0x00, 0x00, 0x10, 0x00, 0x00, 0x00,
  0xed, 0x34, 0x64, 0x3a, 0x87, 0x11, 0xb6, 0x39, 0xa3, 0xbc, 0xed, 0x3a,
  0x40, 0x8a, 0x7b, 0x3a, 0x55, 0x31, 0xc9, 0x3a, 0xf7, 0xa3, 0xab, 0x3a,
  0x42, 0x81, 0x40, 0x3a, 0xc5, 0x9e, 0x83, 0x3a, 0x3d, 0xb1, 0xeb, 0x3a,
  0x56, 0x21, 0xa5, 0x3a, 0xc8, 0x85, 0x15, 0x3a, 0xa4, 0xc6, 0xa6, 0x3a,
  0xb1, 0x22, 0x45, 0x3a, 0xa2, 0xca, 0xb2, 0x3a, 0xf7, 0x6a, 0xcd, 0x3a,
  0x5d, 0xe8, 0x0a, 0x3a, 0x12, 0x00, 0x00, 0x00, 0x74, 0x66, 0x6c, 0x2e,
  0x70, 0x73, 0x65, 0x75, 0x64, 0x6f, 0x5f, 0x71, 0x63, 0x6f, 0x6e, 0x73,
  0x74, 0x38, 0x00, 0x00, 0x01, 0x00, 0x00, 0x00, 0x10, 0x00, 0x00, 0x00,
  0x92, 0xf8, 0xff, 0xff, 0x00, 0x00, 0x00, 0x01, 0x14, 0x00, 0x00, 0x00,
  0xb8, 0x00, 0x00, 0x00, 0x0c, 0x00, 0x00, 0x00, 0x00, 0x00, 0x00, 0x09,
  0xc4, 0x00, 0x00, 0x00, 0x7c, 0xf8, 0xff, 0xff, 0x08, 0x00, 0x00, 0x00,
  0x6c, 0x00, 0x00, 0x00, 0x0c, 0x00, 0x00, 0x00, 0x00, 0x00, 0x00, 0x00,
  0x00, 0x00, 0x00, 0x00, 0x00, 0x00, 0x00, 0x00, 0x00, 0x00, 0x00, 0x00,
  0x00, 0x00, 0x00, 0x00, 0x00, 0x00, 0x00, 0x00, 0x00, 0x00, 0x00, 0x00,
  0x00, 0x00, 0x00, 0x00, 0x00, 0x00, 0x00, 0x00, 0x00, 0x00, 0x00, 0x00,
  0x00, 0x00, 0x00, 0x00, 0x00, 0x00, 0x00, 0x00, 0x00, 0x00, 0x00, 0x00,
  0x00, 0x00, 0x00, 0x00, 0x00, 0x00, 0x00, 0x00, 0x00, 0x00, 0x00, 0x00,
  0x00, 0x00, 0x00, 0x00, 0x00, 0x00, 0x00, 0x00, 0x00, 0x00, 0x00, 0x00,
  0x00, 0x00, 0x00, 0x00, 0x00, 0x00, 0x00, 0x00, 0x00, 0x00, 0x00, 0x00,
  0x00, 0x00, 0x00, 0x00, 0x00, 0x00, 0x00, 0x00, 0x00, 0x00, 0x00, 0x00,
  0x0c, 0x00, 0x00, 0x00, 0xa0, 0xd2, 0x8a, 0x3b, 0x2c, 0xaa, 0xd3, 0x3b,
  0x19, 0xef, 0x78, 0x3b, 0xa5, 0xad, 0x5e, 0x3b, 0x3d, 0xa3, 0x67, 0x3b,
  0xd6, 0xba, 0x28, 0x3b, 0x98, 0xdd, 0x37, 0x3b, 0x4e, 0x03, 0x82, 0x3b,
  0x61, 0x02, 0xae, 0x3b, 0x72, 0xfd, 0x25, 0x3b, 0x1c, 0x18, 0x2b, 0x3b,
  0xe0, 0x46, 0x6c, 0x3a, 0x12, 0x00, 0x00, 0x00, 0x74, 0x66, 0x6c, 0x2e,
  0x70, 0x73, 0x65, 0x75, 0x64, 0x6f, 0x5f, 0x71, 0x63, 0x6f, 0x6e, 0x73,
  0x74, 0x37, 0x00, 0x00, 0x04, 0x00, 0x00, 0x00, 0x0c, 0x00, 0x00, 0x00,
  0x01, 0x00, 0x00, 0x00, 0x05, 0x00, 0x00, 0x00, 0x10, 0x00, 0x00, 0x00,
  0x82, 0xf9, 0xff, 0xff, 0x00, 0x00, 0x00, 0x01, 0x14, 0x00, 0x00, 0x00,
  0xb4, 0x00, 0x00, 0x00, 0x0b, 0x00, 0x00, 0x00, 0x00, 0x00, 0x00, 0x02,
  0xc0, 0x00, 0x00, 0x00, 0x6c, 0xf9, 0xff, 0xff, 0x08, 0x00, 0x00, 0x00,
  0x68, 0x00, 0x00, 0x00, 0x0c, 0x00, 0x00, 0x00, 0x00, 0x00, 0x00, 0x00,
  0x00, 0x00, 0x00, 0x00, 0x00, 0x00, 0x00, 0x00, 0x00, 0x00, 0x00, 0x00,
  0x00, 0x00, 0x00, 0x00, 0x00, 0x00, 0x00, 0x00, 0x00, 0x00, 0x00, 0x00,
  0x00, 0x00, 0x00, 0x00, 0x00, 0x00, 0x00, 0x00, 0x00, 0x00, 0x00, 0x00,
  0x00, 0x00, 0x00, 0x00, 0x00, 0x00, 0x00, 0x00, 0x00, 0x00, 0x00, 0x00,
  0x00, 0x00, 0x00, 0x00, 0x00, 0x00, 0x00, 0x00, 0x00, 0x00, 0x00, 0x00,
  0x00, 0x00, 0x00, 0x00, 0x00, 0x00, 0x00, 0x00, 0x00, 0x00, 0x00, 0x00,
  0x00, 0x00, 0x00, 0x00, 0x00, 0x00, 0x00, 0x00, 0x00, 0x00, 0x00, 0x00,
  0x00, 0x00, 0x00, 0x00, 0x00, 0x00, 0x00, 0x00, 0x0c, 0x00, 0x00, 0x00,
  0x93, 0x0e, 0x30, 0x3a, 0xd3, 0x37, 0x86, 0x3a, 0xca, 0xd9, 0x1d, 0x3a,
  0xac, 0x33, 0x0d, 0x3a, 0x0e, 0xe2, 0x12, 0x3a, 0x49, 0xfc, 0xd5, 0x39,
  0x4e, 0x2e, 0xe9, 0x39, 0x58, 0xe2, 0x24, 0x3a, 0x55, 0xae, 0x5c, 0x3a,
  0xc6, 0x82, 0xd2, 0x39, 0xe7, 0xfb, 0xd8, 0x39, 0x25, 0xd3, 0x15, 0x39,
  0x12, 0x00, 0x00, 0x00, 0x74, 0x66, 0x6c, 0x2e, 0x70, 0x73, 0x65, 0x75,
  0x64, 0x6f, 0x5f, 0x71, 0x63, 0x6f, 0x6e, 0x73, 0x74, 0x36, 0x00, 0x00,
  0x01, 0x00, 0x00, 0x00, 0x0c, 0x00, 0x00, 0x00, 0x62, 0xfa, 0xff, 0xff,
  0x00, 0x00, 0x00, 0x01, 0x14, 0x00, 0x00, 0x00, 0x88, 0x00, 0x00, 0x00,
  0x0a, 0x00, 0x00, 0x00, 0x00, 0x00, 0x00, 0x09, 0x94, 0x00, 0x00, 0x00,
  0x4c, 0xfa, 0xff, 0xff, 0x08, 0x00, 0x00, 0x00, 0x4c, 0x00, 0x00, 0x00,
  0x08, 0x00, 0x00, 0x00, 0x00, 0x00, 0x00, 0x00, 0x00, 0x00, 0x00, 0x00,
  0x00, 0x00, 0x00, 0x00, 0x00, 0x00, 0x00, 0x00, 0x00, 0x00, 0x00, 0x00,
  0x00, 0x00, 0x00, 0x00, 0x00, 0x00, 0x00, 0x00, 0x00, 0x00, 0x00, 0x00,
  0x00, 0x00, 0x00, 0x00, 0x00, 0x00, 0x00, 0x00, 0x00, 0x00, 0x00, 0x00,
  0x00, 0x00, 0x00, 0x00, 0x00, 0x00, 0x00, 0x00, 0x00, 0x00, 0x00, 0x00,
  0x00, 0x00, 0x00, 0x00, 0x00, 0x00, 0x00, 0x00, 0x00, 0x00, 0x00, 0x00,
  0x08, 0x00, 0x00, 0x00, 0xf4, 0x50, 0x57, 0x3c, 0x5d, 0x00, 0x83, 0x3c,
  0xd9, 0x15, 0xbd, 0x3c, 0x1f, 0xcc, 0xb7, 0x3c, 0x95, 0x5a, 0x88, 0x3c,
  0xa0, 0xa8, 0x89, 0x3c, 0xce, 0x8b, 0x92, 0x3c, 0xf5, 0x79, 0x4c, 0x3c,
  0x12, 0x00, 0x00, 0x00, 0x74, 0x66, 0x6c, 0x2e, 0x70, 0x73, 0x65, 0x75,
  0x64, 0x6f, 0x5f, 0x71, 0x63, 0x6f, 0x6e, 0x73, 0x74, 0x35, 0x00, 0x00,
  0x04, 0x00, 0x00, 0x00, 0x08, 0x00, 0x00, 0x00, 0x01, 0x00, 0x00, 0x00,
  0x03, 0x00, 0x00, 0x00, 0x0c, 0x00, 0x00, 0x00, 0x22, 0xfb, 0xff, 0xff,
  0x00, 0x00, 0x00, 0x01, 0x14, 0x00, 0x00, 0x00, 0x84, 0x00, 0x00, 0x00,
  0x09, 0x00, 0x00, 0x00, 0x00, 0x00, 0x00, 0x02, 0x90, 0x00, 0x00, 0x00,
  0x0c, 0xfb, 0xff, 0xff, 0x08, 0x00, 0x00, 0x00, 0x48, 0x00, 0x00, 0x00,
  0x08, 0x00, 0x00, 0x00, 0x00, 0x00, 0x00, 0x00, 0x00, 0x00, 0x00, 0x00,
  0x00, 0x00, 0x00, 0x00, 0x00, 0x00, 0x00, 0x00, 0x00, 0x00, 0x00, 0x00,
  0x00, 0x00, 0x00, 0x00, 0x00, 0x00, 0x00, 0x00, 0x00, 0x00, 0x00, 0x00,
  0x00, 0x00, 0x00, 0x00, 0x00, 0x00, 0x00, 0x00, 0x00, 0x00, 0x00, 0x00,
  0x00, 0x00, 0x00, 0x00, 0x00, 0x00, 0x00, 0x00, 0x00, 0x00, 0x00, 0x00,
  0x00, 0x00, 0x00, 0x00, 0x00, 0x00, 0x00, 0x00, 0x08, 0x00, 0x00, 0x00,
  0xc9, 0xd1, 0x81, 0x3a, 0xce, 0xf7, 0x9d, 0x3a, 0x2a, 0x02, 0xe4, 0x3a,
  0xc6, 0xa1, 0xdd, 0x3a, 0x15, 0x6c, 0xa4, 0x3a, 0xe3, 0xfe, 0xa5, 0x3a,
  0x69, 0xb6, 0xb0, 0x3a, 0x57, 0x91, 0x76, 0x3a, 0x12, 0x00, 0x00, 0x00,
  0x74, 0x66, 0x6c, 0x2e, 0x70, 0x73, 0x65, 0x75, 0x64, 0x6f, 0x5f, 0x71,
  0x63, 0x6f, 0x6e, 0x73, 0x74, 0x34, 0x00, 0x00, 0x01, 0x00, 0x00, 0x00,
  0x08, 0x00, 0x00, 0x00, 0xd2, 0xfb, 0xff, 0xff, 0x00, 0x00, 0x00, 0x01,
  0x14, 0x00, 0x00, 0x00, 0xe8, 0x00, 0x00, 0x00, 0x08, 0x00, 0x00, 0x00,
  0x00, 0x00, 0x00, 0x09, 0xf4, 0x00, 0x00, 0x00, 0xbc, 0xfb, 0xff, 0xff,
  0x08, 0x00, 0x00, 0x00, 0x8c, 0x00, 0x00, 0x00, 0x10, 0x00, 0x00, 0x00,
  0x00, 0x00, 0x00, 0x00, 0x00, 0x00, 0x00, 0x00, 0x00, 0x00, 0x00, 0x00,
  0x00, 0x00, 0x00, 0x00, 0x00, 0x00, 0x00, 0x00, 0x00, 0x00, 0x00, 0x00,
  0x00, 0x00, 0x00, 0x00, 0x00, 0x00, 0x00, 0x00, 0x00, 0x00, 0x00, 0x00,
  0x00, 0x00, 0x00, 0x00, 0x00, 0x00, 0x00, 0x00, 0x00, 0x00, 0x00, 0x00,
  0x00, 0x00, 0x00, 0x00, 0x00, 0x00, 0x00, 0x00, 0x00, 0x00, 0x00, 0x00,
  0x00, 0x00, 0x00, 0x00, 0x00, 0x00, 0x00, 0x00, 0x00, 0x00, 0x00, 0x00,
  0x00, 0x00, 0x00, 0x00, 0x00, 0x00, 0x00, 0x00, 0x00, 0x00, 0x00, 0x00,
  0x00, 0x00, 0x00, 0x00, 0x00, 0x00, 0x00, 0x00, 0x00, 0x00, 0x00, 0x00,
  0x00, 0x00, 0x00, 0x00, 0x00, 0x00, 0x00, 0x00, 0x00, 0x00, 0x00, 0x00,
  0x00, 0x00, 0x00, 0x00, 0x00, 0x00, 0x00, 0x00, 0x00, 0x00, 0x00, 0x00,
  0x00, 0x00, 0x00, 0x00, 0x00, 0x00, 0x00, 0x00, 0x00, 0x00, 0x00, 0x00,
  0x10, 0x00, 0x00, 0x00, 0xbc, 0x27, 0x14, 0x3c, 0xa9, 0xc6, 0x11, 0x3c,
  0xed, 0xdc, 0x08, 0x3c, 0xe3, 0x9a, 0x0d, 0x3c, 0x65, 0xdf, 0xf2, 0x3b,
  0xc5, 0xcf, 0x19, 0x3c, 0x1c, 0xa2, 0x08, 0x3c, 0x44, 0x25, 0xfd, 0x3b,
  0x9b, 0x10, 0x1a, 0x3c, 0xb5, 0x48, 0x15, 0x3c, 0xbc, 0x14, 0x1f, 0x3c,
  0x5f, 0xc9, 0x05, 0x3c, 0x6d, 0x8e, 0x33, 0x3c, 0xd1, 0x31, 0x1f, 0x3c,
  0xf3, 0x7d, 0x20, 0x3c, 0xc9, 0x70, 0x41, 0x3c, 0x12, 0x00, 0x00, 0x00,
  0x74, 0x66, 0x6c, 0x2e, 0x70, 0x73, 0x65, 0x75, 0x64, 0x6f, 0x5f, 0x71,
  0x63, 0x6f, 0x6e, 0x73, 0x74, 0x33, 0x00, 0x00, 0x02, 0x00, 0x00, 0x00,
  0x10, 0x00, 0x00, 0x00, 0x08, 0x00, 0x00, 0x00, 0xea, 0xfc, 0xff, 0xff,
  0x00, 0x00, 0x00, 0x01, 0x14, 0x00, 0x00, 0x00, 0xe4, 0x00, 0x00, 0x00,
  0x07, 0x00, 0x00, 0x00, 0x00, 0x00, 0x00, 0x02, 0xf0, 0x00, 0x00, 0x00,
  0xd4, 0xfc, 0xff, 0xff, 0x08, 0x00, 0x00, 0x00, 0x88, 0x00, 0x00, 0x00,
  0x10, 0x00, 0x00, 0x00, 0x00, 0x00, 0x00, 0x00, 0x00, 0x00, 0x00, 0x00,
  0x00, 0x00, 0x00, 0x00, 0x00, 0x00, 0x00, 0x00, 0x00, 0x00, 0x00, 0x00,
  0x00, 0x00, 0x00, 0x00, 0x00, 0x00, 0x00, 0x00, 0x00, 0x00, 0x00, 0x00,
  0x00, 0x00, 0x00, 0x00, 0x00, 0x00, 0x00, 0x00, 0x00, 0x00, 0x00, 0x00,
  0x00, 0x00, 0x00, 0x00, 0x00, 0x00, 0x00, 0x00, 0x00, 0x00, 0x00, 0x00,
  0x00, 0x00, 0x00, 0x00, 0x00, 0x00, 0x00, 0x00, 0x00, 0x00, 0x00, 0x00,
  0x00, 0x00, 0x00, 0x00, 0x00, 0x00, 0x00, 0x00, 0x00, 0x00, 0x00, 0x00,
  0x00, 0x00, 0x00, 0x00, 0x00, 0x00, 0x00, 0x00, 0x00, 0x00, 0x00, 0x00,
  0x00, 0x00, 0x00, 0x00, 0x00, 0x00, 0x00, 0x00, 0x00, 0x00, 0x00, 0x00,
  0x00, 0x00, 0x00, 0x00, 0x00, 0x00, 0x00, 0x00, 0x00, 0x00, 0x00, 0x00,
  0x00, 0x00, 0x00, 0x00, 0x00, 0x00, 0x00, 0x00, 0x00, 0x00, 0x00, 0x00,
  0x10, 0x00, 0x00, 0x00, 0xd6, 0x05, 0x09, 0x39, 0x88, 0xd2, 0x06, 0x39,
  0x7d, 0x28, 0xfd, 0x38, 0xfd, 0xf6, 0x02, 0x39, 0x86, 0x9f, 0xe0, 0x38,
  0x11, 0x41, 0x0e, 0x39, 0xb2, 0xbb, 0xfc, 0x38, 0xc9, 0x1f, 0xea, 0x38,
  0x08, 0x7d, 0x0e, 0x39, 0x19, 0x11, 0x0a, 0x39, 0xac, 0x20, 0x13, 0x39,
  0xbc, 0x77, 0xf7, 0x38, 0x80, 0x10, 0x26, 0x39, 0x91, 0x3b, 0x13, 0x39,
  0xbe, 0x6e, 0x14, 0x39, 0xc9, 0xe7, 0x32, 0x39, 0x12, 0x00, 0x00, 0x00,
  0x74, 0x66, 0x6c, 0x2e, 0x70, 0x73, 0x65, 0x75, 0x64, 0x6f, 0x5f, 0x71,
  0x63, 0x6f, 0x6e, 0x73, 0x74, 0x32, 0x00, 0x00, 0x01, 0x00, 0x00, 0x00,
  0x10, 0x00, 0x00, 0x00, 0xfa, 0xfd, 0xff, 0xff, 0x00, 0x00, 0x00, 0x01,
  0x14, 0x00, 0x00, 0x00, 0x78, 0x00, 0x00, 0x00, 0x06, 0x00, 0x00, 0x00,
  0x00, 0x00, 0x00, 0x09, 0x84, 0x00, 0x00, 0x00, 0xe4, 0xfd, 0xff, 0xff,
  0x08, 0x00, 0x00, 0x00, 0x40, 0x00, 0x00, 0x00, 0x07, 0x00, 0x00, 0x00,
  0x00, 0x00, 0x00, 0x00, 0x00, 0x00, 0x00, 0x00, 0x00, 0x00, 0x00, 0x00,
  0x00, 0x00, 0x00, 0x00, 0x00, 0x00, 0x00, 0x00, 0x00, 0x00, 0x00, 0x00,
  0x00, 0x00, 0x00, 0x00, 0x00, 0x00, 0x00, 0x00, 0x00, 0x00, 0x00, 0x00,
  0x00, 0x00, 0x00, 0x00, 0x00, 0x00, 0x00, 0x00, 0x00, 0x00, 0x00, 0x00,
  0x00, 0x00, 0x00, 0x00, 0x00, 0x00, 0x00, 0x00, 0x07, 0x00, 0x00, 0x00,
  0x2a, 0xd2, 0x3f, 0x3d, 0x46, 0x28, 0x37, 0x3d, 0x50, 0xea, 0x89, 0x3d,
  0xf6, 0xef, 0x8e, 0x3d, 0xba, 0x62, 0x4e, 0x3d, 0x73, 0xe5, 0x42, 0x3d,
  0x3f, 0x40, 0x2d, 0x3d, 0x12, 0x00, 0x00, 0x00, 0x74, 0x66, 0x6c, 0x2e,
  0x70, 0x73, 0x65, 0x75, 0x64, 0x6f, 0x5f, 0x71, 0x63, 0x6f, 0x6e, 0x73,
  0x74, 0x31, 0x00, 0x00, 0x02, 0x00, 0x00, 0x00, 0x07, 0x00, 0x00, 0x00,
  0x10, 0x00, 0x00, 0x00, 0xa2, 0xfe, 0xff, 0xff, 0x00, 0x00, 0x00, 0x01,
  0x14, 0x00, 0x00, 0x00, 0x7c, 0x00, 0x00, 0x00, 0x05, 0x00, 0x00, 0x00,
  0x00, 0x00, 0x00, 0x02, 0x88, 0x00, 0x00, 0x00, 0x8c, 0xfe, 0xff, 0xff,
  0x08, 0x00, 0x00, 0x00, 0x44, 0x00, 0x00, 0x00, 0x07, 0x00, 0x00, 0x00,
  0x00, 0x00, 0x00, 0x00, 0x00, 0x00, 0x00, 0x00, 0x00, 0x00, 0x00, 0x00,
  0x00, 0x00, 0x00, 0x00, 0x00, 0x00, 0x00, 0x00, 0x00, 0x00, 0x00, 0x00,
  0x00, 0x00, 0x00, 0x00, 0x00, 0x00, 0x00, 0x00, 0x00, 0x00, 0x00, 0x00,
  0x00, 0x00, 0x00, 0x00, 0x00, 0x00, 0x00, 0x00, 0x00, 0x00, 0x00, 0x00,
  0x00, 0x00, 0x00, 0x00, 0x00, 0x00, 0x00, 0x00, 0x00, 0x00, 0x00, 0x00,
  0x07, 0x00, 0x00, 0x00, 0x94, 0x7c, 0xe4, 0x39, 0xbf, 0x2a, 0xda, 0x39,
  0xf3, 0x46, 0x24, 0x3a, 0x58, 0x42, 0x2a, 0x3a, 0xd6, 0xd5, 0xf5, 0x39,
  0x59, 0x26, 0xe8, 0x39, 0xf8, 0x5d, 0xce, 0x39, 0x11, 0x00, 0x00, 0x00,
  0x74, 0x66, 0x6c, 0x2e, 0x70, 0x73, 0x65, 0x75, 0x64, 0x6f, 0x5f, 0x71,
  0x63, 0x6f, 0x6e, 0x73, 0x74, 0x00, 0x00, 0x00, 0x01, 0x00, 0x00, 0x00,
  0x07, 0x00, 0x00, 0x00, 0x4a, 0xff, 0xff, 0xff, 0x00, 0x00, 0x00, 0x01,
  0x14, 0x00, 0x00, 0x00, 0x14, 0x00, 0x00, 0x00, 0x04, 0x00, 0x00, 0x00,
  0x00, 0x00, 0x00, 0x02, 0x1c, 0x00, 0x00, 0x00, 0x8c, 0xff, 0xff, 0xff,
  0x0f, 0x00, 0x00, 0x00, 0x61, 0x72, 0x69, 0x74, 0x68, 0x2e, 0x63, 0x6f,
  0x6e, 0x73, 0x74, 0x61, 0x6e, 0x74, 0x32, 0x00, 0x00, 0x00, 0x00, 0x00,
  0x82, 0xff, 0xff, 0xff, 0x00, 0x00, 0x00, 0x01, 0x14, 0x00, 0x00, 0x00,
  0x14, 0x00, 0x00, 0x00, 0x03, 0x00, 0x00, 0x00, 0x00, 0x00, 0x00, 0x02,
  0x1c, 0x00, 0x00, 0x00, 0xc4, 0xff, 0xff, 0xff, 0x0f, 0x00, 0x00, 0x00,
  0x61, 0x72, 0x69, 0x74, 0x68, 0x2e, 0x63, 0x6f, 0x6e, 0x73, 0x74, 0x61,
  0x6e, 0x74, 0x31, 0x00, 0x01, 0x00, 0x00, 0x00, 0x03, 0x00, 0x00, 0x00,
  0xbe, 0xff, 0xff, 0xff, 0x00, 0x00, 0x00, 0x01, 0x18, 0x00, 0x00, 0x00,
  0x18, 0x00, 0x00, 0x00, 0x02, 0x00, 0x00, 0x00, 0x00, 0x00, 0x00, 0x02,
  0x20, 0x00, 0x00, 0x00, 0x04, 0x00, 0x04, 0x00, 0x04, 0x00, 0x00, 0x00,
  0x0e, 0x00, 0x00, 0x00, 0x61, 0x72, 0x69, 0x74, 0x68, 0x2e, 0x63, 0x6f,
  0x6e, 0x73, 0x74, 0x61, 0x6e, 0x74, 0x00, 0x00, 0x01, 0x00, 0x00, 0x00,
  0x04, 0x00, 0x00, 0x00, 0x00, 0x00, 0x16, 0x00, 0x1c, 0x00, 0x18, 0x00,
  0x17, 0x00, 0x10, 0x00, 0x0c, 0x00, 0x08, 0x00, 0x00, 0x00, 0x00, 0x00,
  0x00, 0x00, 0x07, 0x00, 0x16, 0x00, 0x00, 0x00, 0x00, 0x00, 0x00, 0x01,
  0x20, 0x00, 0x00, 0x00, 0x40, 0x00, 0x00, 0x00, 0x01, 0x00, 0x00, 0x00,
  0x00, 0x00, 0x00, 0x09, 0x5c, 0x00, 0x00, 0x00, 0x0c, 0x00, 0x0c, 0x00,
  0x00, 0x00, 0x00, 0x00, 0x08, 0x00, 0x04, 0x00, 0x0c, 0x00, 0x00, 0x00,
  0x08, 0x00, 0x00, 0x00, 0x14, 0x00, 0x00, 0x00, 0x01, 0x00, 0x00, 0x00,
  0x90, 0xff, 0xff, 0xff, 0xff, 0xff, 0xff, 0xff, 0x00, 0x00, 0x00, 0x00,
  0x01, 0x00, 0x00, 0x00, 0xc1, 0xb9, 0x1c, 0x3f, 0x21, 0x00, 0x00, 0x00,
  0x73, 0x65, 0x72, 0x76, 0x69, 0x6e, 0x67, 0x5f, 0x64, 0x65, 0x66, 0x61,
  0x75, 0x6c, 0x74, 0x5f, 0x6b, 0x65, 0x72, 0x61, 0x73, 0x5f, 0x74, 0x65,
  0x6e, 0x73, 0x6f, 0x72, 0x5f, 0x35, 0x36, 0x3a, 0x30, 0x00, 0x00, 0x00,
  0x03, 0x00, 0x00, 0x00, 0x01, 0x00, 0x00, 0x00, 0xf4, 0x01, 0x00, 0x00,
  0x06, 0x00, 0x00, 0x00, 0x05, 0x00, 0x00, 0x00, 0x6c, 0x00, 0x00, 0x00,
  0x4c, 0x00, 0x00, 0x00, 0x2c, 0x00, 0x00, 0x00, 0x18, 0x00, 0x00, 0x00,
  0x04, 0x00, 0x00, 0x00, 0xd0, 0xff, 0xff, 0xff, 0x19, 0x00, 0x00, 0x00,
  0x02, 0x00, 0x00, 0x00, 0x00, 0x00, 0x00, 0x19, 0xe0, 0xff, 0xff, 0xff,
  0x09, 0x00, 0x00, 0x00, 0x04, 0x00, 0x00, 0x00, 0x00, 0x00, 0x00, 0x09,
  0xf0, 0xff, 0xff, 0xff, 0x28, 0x00, 0x00, 0x00, 0x02, 0x00, 0x00, 0x00,
  0x00, 0x00, 0x00, 0x28, 0x0c, 0x00, 0x10, 0x00, 0x0f, 0x00, 0x00, 0x00,
  0x08, 0x00, 0x04, 0x00, 0x0c, 0x00, 0x00, 0x00, 0x03, 0x00, 0x00, 0x00,
  0x03, 0x00, 0x00, 0x00, 0x00, 0x00, 0x00, 0x03, 0x0c, 0x00, 0x0c, 0x00,
  0x0b, 0x00, 0x00, 0x00, 0x00, 0x00, 0x04, 0x00, 0x0c, 0x00, 0x00, 0x00,
  0x16, 0x00, 0x00, 0x00, 0x00, 0x00, 0x00, 0x16
};
inline const unsigned int gesture_model_4_tflite_len = 8792;
