
inline const unsigned char gesture_model_0_tflite[] = {
  0x1c, 0x00, 0x00, 0x00, 0x54, 0x46, 0x4c, 0x33, 0x14, 0x00, 0x20, 0x00,
  0x1c, 0x00, 0x18, 0x00, 0x14, 0x00, 0x10, 0x00, 0x0c, 0x00, 0x00, 0x00,
  0x08, 0x00, 0x04, 0x00, 0x14, 0x00, 0x00, 0x00, 0x1c, 0x00, 0x00, 0x00,
  0x98, 0x00, 0x00, 0x00, 0x18, 0x01, 0x00, 0x00, 0x6c, 0x0c, 0x00, 0x00,
  0x7c, 0x0c, 0x00, 0x00, 0x30, 0x21, 0x00, 0x00, 0x03, 0x00, 0x00, 0x00,
  0x01, 0x00, 0x00, 0x00, 0x10, 0x00, 0x00, 0x00, 0x00, 0x00, 0x0a, 0x00,
  0x10, 0x00, 0x0c, 0x00, 0x08, 0x00, 0x04, 0x00, 0x0a, 0x00, 0x00, 0x00,
  0x0c, 0x00, 0x00, 0x00, 0x1c, 0x00, 0x00, 0x00, 0x3c, 0x00, 0x00, 0x00,
  0x0f, 0x00, 0x00, 0x00, 0x73, 0x65, 0x72, 0x76, 0x69, 0x6e, 0x67, 0x5f,
  0x64, 0x65, 0x66, 0x61, 0x75, 0x6c, 0x74, 0x00, 0x01, 0x00, 0x00, 0x00,
  0x04, 0x00, 0x00, 0x00, 0x68, 0xff, 0xff, 0xff, 0x16, 0x00, 0x00, 0x00,
  0x04, 0x00, 0x00, 0x00, 0x08, 0x00, 0x00, 0x00, 0x6f, 0x75, 0x74, 0x70,
  0x75, 0x74, 0x5f, 0x30, 0x00, 0x00, 0x00, 0x00, 0x01, 0x00, 0x00, 0x00,
  0x04, 0x00, 0x00, 0x00, 0x76, 0xf3, 0xff, 0xff, 0x04, 0x00, 0x00, 0x00,
  0x0c, 0x00, 0x00, 0x00, 0x6b, 0x65, 0x72, 0x61, 0x73, 0x5f, 0x74, 0x65,
  0x6e, 0x73, 0x6f, 0x72, 0x00, 0x00, 0x00, 0x00, 0x03, 0x00, 0x00, 0x00,
  0x5c, 0x00, 0x00, 0x00, 0x2c, 0x00, 0x00, 0x00, 0x04, 0x00, 0x00, 0x00,
  0xb8, 0xff, 0xff, 0xff, 0x1a, 0x00, 0x00, 0x00, 0x04, 0x00, 0x00, 0x00,
  0x13, 0x00, 0x00, 0x00, 0x43, 0x4f, 0x4e, 0x56, 0x45, 0x52, 0x53, 0x49,
  0x4f, 0x4e, 0x5f, 0x4d, 0x45, 0x54, 0x41, 0x44, 0x41, 0x54, 0x41, 0x00,
  0xdc, 0xff, 0xff, 0xff, 0x19, 0x00, 0x00, 0x00, 0x04, 0x00, 0x00, 0x00,
  0x13, 0x00, 0x00, 0x00, 0x6d, 0x69, 0x6e, 0x5f, 0x72, 0x75, 0x6e, 0x74,
  0x69, 0x6d, 0x65, 0x5f, 0x76, 0x65, 0x72, 0x73, 0x69, 0x6f, 0x6e, 0x00,
  0x08, 0x00, 0x0c, 0x00, 0x08, 0x00, 0x04, 0x00, 0x08, 0x00, 0x00, 0x00,
  0x18, 0x00, 0x00, 0x00, 0x04, 0x00, 0x00, 0x00, 0x13, 0x00, 0x00, 0x00,
  0x6d, 0x69, 0x6e, 0x5f, 0x72, 0x75, 0x6e, 0x74, 0x69, 0x6d, 0x65, 0x5f,
  0x76, 0x65, 0x72, 0x73, 0x69, 0x6f, 0x6e, 0x00, 0x1b, 0x00, 0x00, 0x00,
  0x50, 0x0b, 0x00, 0x00, 0x48, 0x0b, 0x00, 0x00, 0x28, 0x0b, 0x00, 0x00,
  0x0c, 0x0b, 0x00, 0x00, 0xf8, 0x0a, 0x00, 0x00, 0xcc, 0x0a, 0x00, 0x00,
  0x4c, 0x0a, 0x00, 0x00, 0xfc, 0x09, 0x00, 0x00, 0x6c, 0x09, 0x00, 0x00,
  0x3c, 0x09, 0x00, 0x00, 0x0c, 0x08, 0x00, 0x00, 0xcc, 0x07, 0x00, 0x00,
  0xfc, 0x03, 0x00, 0x00, 0xac, 0x03, 0x00, 0x00, 0xfc, 0x00, 0x00, 0x00,
  0xf4, 0x00, 0x00, 0x00, 0xec, 0x00, 0x00, 0x00, 0xe4, 0x00, 0x00, 0x00,
  0xdc, 0x00, 0x00, 0x00, 0xd4, 0x00, 0x00, 0x00, 0xcc, 0x00, 0x00, 0x00,
  0xc4, 0x00, 0x00, 0x00, 0xbc, 0x00, 0x00, 0x00, 0xb4, 0x00, 0x00, 0x00,
  0x94, 0x00, 0x00, 0x00, 0x74, 0x00, 0x00, 0x00, 0x04, 0x00, 0x00, 0x00,
  0x86, 0xf4, 0xff, 0xff, 0x04, 0x00, 0x00, 0x00, 0x60, 0x00, 0x00, 0x00,
  0x0c, 0x00, 0x00, 0x00, 0x08, 0x00, 0x0e, 0x00, 0x08, 0x00, 0x04, 0x00,
  0x08, 0x00, 0x00, 0x00, 0x10, 0x00, 0x00, 0x00, 0x28, 0x00, 0x00, 0x00,
  0x00, 0x00, 0x06, 0x00, 0x08, 0x00, 0x04, 0x00, 0x06, 0x00, 0x00, 0x00,
  0x04, 0x00, 0x00, 0x00, 0x01, 0x00, 0x00, 0x00, 0xeb, 0x03, 0x00, 0x00,
  0x0c, 0x00, 0x18, 0x00, 0x14, 0x00, 0x10, 0x00, 0x0c, 0x00, 0x04, 0x00,
  0x0c, 0x00, 0x00, 0x00, 0x90, 0x23, 0x1c, 0x91, 0xe1, 0x42, 0xe3, 0x7e,
  0x02, 0x00, 0x00, 0x00, 0x02, 0x00, 0x00, 0x00, 0x04, 0x00, 0x00, 0x00,
  0x06, 0x00, 0x00, 0x00, 0x32, 0x2e, 0x31, 0x39, 0x2e, 0x30, 0x00, 0x00,
  0xf2, 0xf4, 0xff, 0xff, 0x04, 0x00, 0x00, 0x00, 0x10, 0x00, 0x00, 0x00,
  0x00, 0x00, 0x00, 0x00, 0x00, 0x00, 0x00, 0x00, 0x00, 0x00, 0x00, 0x00,
  0x00, 0x00, 0x00, 0x00, 0x0e, 0xf5, 0xff, 0xff, 0x04, 0x00, 0x00, 0x00,
  0x10, 0x00, 0x00, 0x00, 0x31, 0x2e, 0x31, 0x34, 0x2e, 0x30, 0x00, 0x00,
  0x00, 0x00, 0x00, 0x00, 0x00, 0x00, 0x00, 0x00, 0xa8, 0xe1, 0xff, 0xff,
  0xac, 0xe1, 0xff, 0xff, 0xb0, 0xe1, 0xff, 0xff, 0xb4, 0xe1, 0xff, 0xff,
  0xb8, 0xe1, 0xff, 0xff, 0xbc, 0xe1, 0xff, 0xff, 0xc0, 0xe1, 0xff, 0xff,
  0xc4, 0xe1, 0xff, 0xff, 0xc8, 0xe1, 0xff, 0xff, 0x4e, 0xf5, 0xff, 0xff,
  0x04, 0x00, 0x00, 0x00, 0xa0, 0x02, 0x00, 0x00, 0x7f, 0x3e, 0x28, 0xfc,
  0x02, 0x07, 0x68, 0x25, 0x17, 0xf8, 0xf5, 0x2e, 0x44, 0x30, 0x04, 0xe6,
  0x0d, 0x10, 0x3d, 0x22, 0x07, 0xf6, 0xf7, 0x26, 0x13, 0x1e, 0x02, 0x10,
  0xec, 0x1e, 0x01, 0x2f, 0x06, 0x2a, 0xed, 0x1b, 0xcf, 0x35, 0x2d, 0x79,
  0xeb, 0x1c, 0x00, 0xef, 0xcc, 0x03, 0xea, 0x7f, 0xfa, 0xfc, 0xed, 0x07,
  0xe4, 0x78, 0x00, 0xfe, 0xe7, 0x18, 0xe0, 0x59, 0x0c, 0x14, 0x15, 0x18,
  0xe5, 0x46, 0xee, 0xfc, 0x07, 0x07, 0xc9, 0x1d, 0xff, 0xfd, 0x05, 0xf3,
  0xde, 0x20, 0xe8, 0x17, 0x1d, 0xed, 0xf9, 0xf7, 0x8a, 0xc9, 0x1f, 0xf6,
  0x29, 0xfe, 0xae, 0xd7, 0x03, 0xf1, 0x3a, 0xf6, 0xd6, 0x03, 0xee, 0xe1,
  0x23, 0x12, 0x04, 0x22, 0xe3, 0x05, 0xfa, 0x17, 0x15, 0x18, 0xde, 0xf9,
  0xed, 0x18, 0x4e, 0x48, 0x18, 0x14, 0xf7, 0x17, 0x7f, 0x5a, 0x49, 0x19,
  0x0c, 0x27, 0x03, 0xee, 0xf3, 0xef, 0x09, 0x39, 0x06, 0x13, 0x0b, 0xf3,
  0xff, 0x38, 0x0d, 0x05, 0x17, 0x02, 0x10, 0x42, 0x1d, 0x0e, 0x12, 0x02,
  0xff, 0x52, 0x13, 0x06, 0x13, 0x00, 0x01, 0x50, 0x09, 0xf8, 0xff, 0x03,
  0x05, 0x6a, 0x0c, 0xed, 0x0e, 0xf8, 0x0a, 0x7f, 0x03, 0xaa, 0x7f, 0xfc,
  0xe1, 0xda, 0x00, 0xc4, 0x5c, 0xfd, 0xf4, 0xdd, 0x02, 0xf3, 0x24, 0xfb,
  0x1e, 0xe5, 0x2b, 0x1d, 0x21, 0xf9, 0x2b, 0x0d, 0x00, 0x0f, 0xfd, 0x00,
  0x4c, 0xf9, 0xfb, 0x46, 0xef, 0xf9, 0x75, 0x25, 0xff, 0x4d, 0xd2, 0xdf,
  0x65, 0x10, 0xef, 0x25, 0x15, 0xd5, 0x24, 0x3c, 0xf0, 0x1f, 0x2f, 0xe0,
  0x27, 0x2a, 0xfd, 0xf3, 0x28, 0xce, 0x29, 0x3a, 0xf0, 0xcc, 0x25, 0xd5,
  0x4a, 0x50, 0xf2, 0xba, 0x3e, 0xc1, 0x4c, 0x4d, 0xfb, 0x94, 0x43, 0xe8,
  0x2e, 0x25, 0xe8, 0x81, 0x42, 0xe3, 0x45, 0x2e, 0xcb, 0x54, 0x22, 0x37,
  0x33, 0x81, 0xb6, 0x5e, 0x2b, 0x23, 0x20, 0xa7, 0xcb, 0x2a, 0x47, 0x3b,
  0x1c, 0x9c, 0xdf, 0x4c, 0x4b, 0x28, 0x11, 0xa8, 0xcf, 0x48, 0x21, 0x31,
  0x1c, 0xac, 0xd0, 0x2c, 0x49, 0x12, 0x47, 0xa5, 0x02, 0x26, 0x3a, 0xd0,
  0x3d, 0xbc, 0xd6, 0x81, 0x57, 0xaa, 0xfc, 0xf8, 0xcc, 0x9d, 0x79, 0xd7,
  0xe0, 0xd4, 0xbc, 0xa2, 0x20, 0xe0, 0x05, 0xde, 0xd0, 0xdb, 0x05, 0xec,
  0xf0, 0xf4, 0x98, 0xda, 0xfb, 0xba, 0xd5, 0xd0, 0xcf, 0xc8, 0xd1, 0xb7,
  0xb1, 0xbd, 0xb6, 0xde, 0x92, 0xa1, 0x90, 0xe0, 0xe5, 0xf9, 0xf3, 0xdf,
  0x09, 0x81, 0xf0, 0xf9, 0xec, 0xee, 0x06, 0xa0, 0xe9, 0xf4, 0x17, 0xf3,
  0x0f, 0xb5, 0xf7, 0x01, 0x0d, 0x18, 0xf1, 0xba, 0x0b, 0x06, 0xf3, 0x0d,
  0x00, 0xcf, 0x1e, 0x0a, 0x0b, 0x0a, 0xf3, 0xcb, 0x0e, 0xfd, 0xf5, 0x09,
  0xf6, 0xe5, 0x0f, 0x19, 0xd8, 0xab, 0x81, 0xbf, 0xfe, 0x02, 0xf7, 0xdc,
  0x8b, 0x8e, 0x01, 0xe5, 0xb4, 0xbe, 0x9f, 0xa1, 0xd1, 0xb9, 0xd8, 0xb4,
  0xcd, 0xa2, 0xcc, 0xad, 0x09, 0xb4, 0xe1, 0xb7, 0xe8, 0xc9, 0xf6, 0xcf,
  0xf6, 0xaa, 0xcc, 0xcd, 0xef, 0x9c, 0x0c, 0x9e, 0x1e, 0xd1, 0xfa, 0x2c,
  0x82, 0x0d, 0x28, 0xf1, 0xf9, 0x20, 0x84, 0xf3, 0x1b, 0xe0, 0x0b, 0x1f,
  0x81, 0xff, 0xf8, 0x04, 0x1b, 0x05, 0x89, 0xd6, 0xfc, 0x1e, 0x2c, 0x10,
  0xa9, 0xd7, 0xd7, 0x30, 0x0c, 0x2f, 0x91, 0xa9, 0xd9, 0x56, 0xf8, 0x5c,
  0xb7, 0xc0, 0x41, 0xcc, 0x1e, 0x41, 0x25, 0x21, 0x28, 0xd6, 0x0e, 0x2e,
  0x10, 0x0e, 0x16, 0xd9, 0x0a, 0x17, 0xfe, 0x19, 0xfb, 0x03, 0x12, 0x1e,
  0xfa, 0xfb, 0xf2, 0x01, 0x03, 0x01, 0x00, 0xde, 0xea, 0x1d, 0x14, 0xd1,
  0xde, 0xab, 0xce, 0x11, 0xc9, 0xad, 0xf3, 0x81, 0x05, 0x6c, 0x35, 0x7f,
  0xcf, 0x04, 0xf6, 0x4e, 0xec, 0x2e, 0xd6, 0x24, 0x0a, 0x1d, 0xe6, 0x11,
  0xcd, 0x22, 0xfe, 0x23, 0xd2, 0x04, 0xdb, 0x46, 0x03, 0xf9, 0xeb, 0x01,
  0xcc, 0x64, 0xef, 0xd3, 0xbc, 0xfe, 0xd9, 0x49, 0xf7, 0xd5, 0xb9, 0x07,
  0xba, 0x55, 0x4b, 0x7f, 0x48, 0xbd, 0x54, 0xf7, 0x51, 0x5a, 0x3c, 0xe4,
  0x2f, 0xe6, 0x27, 0x18, 0x4b, 0xc4, 0x2d, 0x1b, 0xf2, 0x2c, 0x20, 0xe7,
  0xd9, 0xff, 0xce, 0x23, 0xfc, 0x03, 0xdd, 0x12, 0xa8, 0x12, 0x09, 0x3d,
  0xbe, 0x40, 0xbc, 0xf1, 0xf5, 0x68, 0xba, 0x1c, 0x57, 0xa6, 0x4c, 0x04,
  0xd7, 0xe1, 0x7f, 0xb2, 0x3d, 0xeb, 0xcc, 0xe9, 0x4f, 0xb8, 0x1e, 0x05,
  0xcb, 0xf7, 0x28, 0xb5, 0x34, 0x11, 0xce, 0xd2, 0x34, 0xbf, 0x3b, 0x1c,
  0xdf, 0xf2, 0x25, 0xd4, 0x49, 0x1c, 0xe9, 0xf4, 0x35, 0xe0, 0x55, 0x1d,
  0xd8, 0xef, 0x09, 0x3b, 0x07, 0xca, 0x44, 0x81, 0xff, 0x51, 0x39, 0xc8,
  0x2c, 0x90, 0x01, 0x62, 0x0d, 0xe0, 0x2e, 0x9b, 0x2e, 0x6f, 0x1e, 0xf5,
  0x0d, 0xc8, 0x3c, 0x6d, 0x44, 0x2a, 0x0f, 0xf4, 0x3d, 0x56, 0x31, 0x03,
  0x0a, 0xea, 0x41, 0x4c, 0x14, 0x1b, 0x11, 0x02, 0xfa, 0xf7, 0xff, 0xff,
  0x04, 0x00, 0x00, 0x00, 0x40, 0x00, 0x00, 0x00, 0x72, 0xff, 0xff, 0xff,
  0xa3, 0xff, 0xff, 0xff, 0x44, 0xff, 0xff, 0xff, 0xeb, 0xff, 0xff, 0xff,
  0xd6, 0xfe, 0xff, 0xff, 0xd2, 0xff, 0xff, 0xff, 0x43, 0xff, 0xff, 0xff,
  0x38, 0x02, 0x00, 0x00, 0x4f, 0xff, 0xff, 0xff, 0x54, 0xfd, 0xff, 0xff,
  0x7b, 0x03, 0x00, 0x00, 0x80, 0xff, 0xff, 0xff, 0xf7, 0xfd, 0xff, 0xff,
  0x9f, 0xff, 0xff, 0xff, 0x3c, 0xfe, 0xff, 0xff, 0x9a, 0xfe, 0xff, 0xff,
  0x46, 0xf8, 0xff, 0xff, 0x04, 0x00, 0x00, 0x00, 0xc0, 0x03, 0x00, 0x00,
  0xe0, 0xed, 0x12, 0xf4, 0xef, 0xdb, 0xbb, 0xe3, 0x8d, 0xea, 0xf3, 0xef,
  0x1c, 0x13, 0x38, 0xe8, 0xd5, 0xf5, 0x05, 0x19, 0x0b, 0xf1, 0xd3, 0x05,
  0xa6, 0x00, 0xea, 0x0a, 0x14, 0x23, 0x19, 0xd5, 0xc2, 0xe5, 0x02, 0x10,
  0xfd, 0xe9, 0xf0, 0xfd, 0x06, 0x04, 0x1d, 0xfe, 0xf2, 0x13, 0xeb, 0xf8,
  0xe8, 0xdd, 0x01, 0x17, 0x08, 0xf0, 0x06, 0x09, 0x3b, 0x00, 0x1d, 0x21,
  0xfe, 0xf1, 0xf5, 0xff, 0x22, 0xf3, 0x06, 0x1e, 0x28, 0x1b, 0x1a, 0x10,
  0x7f, 0xff, 0x4b, 0x1d, 0xf9, 0xe4, 0xd9, 0x0c, 0x3c, 0x1d, 0xc5, 0x1c,
  0xa9, 0xe2, 0xda, 0x31, 0x81, 0xdd, 0xe1, 0xc3, 0x30, 0x1b, 0x10, 0xf8,
  0x10, 0xfc, 0xb7, 0xf9, 0xd3, 0xf5, 0x11, 0x1f, 0xa1, 0xe7, 0xd9, 0xee,
  0x1e, 0x23, 0x01, 0xf3, 0xf4, 0xf8, 0xe7, 0x09, 0xde, 0xe5, 0x11, 0x14,
  0xf5, 0xfd, 0xdb, 0x01, 0x09, 0xf7, 0xca, 0xef, 0xd3, 0xd6, 0x03, 0x0a,
  0xf0, 0xfb, 0x25, 0x36, 0x31, 0xea, 0xdb, 0x29, 0xd2, 0xf8, 0xd9, 0xe0,
  0x98, 0xdb, 0x24, 0x07, 0xc5, 0x26, 0x09, 0x0f, 0x52, 0xeb, 0xe0, 0x59,
  0xb0, 0xd4, 0xc0, 0xd3, 0xb9, 0xa9, 0x17, 0xd5, 0x49, 0x81, 0x0e, 0x36,
  0x22, 0xf6, 0x39, 0x22, 0xda, 0xd0, 0x30, 0x01, 0xe3, 0xb0, 0x32, 0x04,
  0x1a, 0xb4, 0xe0, 0x2b, 0xf2, 0xec, 0x13, 0x16, 0xf2, 0xeb, 0xf0, 0x01,
  0x08, 0xc8, 0x13, 0x18, 0x07, 0xe6, 0xcc, 0xfe, 0xfc, 0xe3, 0x26, 0x15,
  0xfc, 0x09, 0xd0, 0xf6, 0x09, 0xc6, 0x18, 0x50, 0xf4, 0x1e, 0xcc, 0x16,
  0xe3, 0xf5, 0xf4, 0x0c, 0xf6, 0xe6, 0xba, 0xfa, 0x1f, 0xc3, 0x41, 0x56,
  0xd0, 0x2e, 0xbe, 0x10, 0xe6, 0xe8, 0xf5, 0xde, 0xec, 0x01, 0xdf, 0xe5,
  0x27, 0x9f, 0x20, 0xe3, 0xef, 0xee, 0xfc, 0xca, 0x81, 0xfa, 0x14, 0xfa,
  0x25, 0x06, 0xfd, 0x12, 0xef, 0xe3, 0x24, 0xec, 0xff, 0xf3, 0x09, 0xfa,
  0xb2, 0x05, 0x11, 0xfd, 0xf3, 0xd4, 0xfb, 0xfe, 0xe6, 0xdf, 0x02, 0xe6,
  0xfe, 0xfc, 0x12, 0xf0, 0xd2, 0x21, 0x2b, 0xe4, 0xfc, 0xd5, 0x17, 0x13,
  0xdb, 0xe2, 0xcf, 0xe1, 0x29, 0x0e, 0x27, 0x00, 0xe7, 0x1f, 0x28, 0xe8,
  0xe3, 0xd2, 0x03, 0x0a, 0xd0, 0xca, 0xc7, 0xad, 0x30, 0x0e, 0x32, 0x29,
  0xd3, 0x66, 0x50, 0xd0, 0xce, 0xb8, 0x21, 0x20, 0xe5, 0x23, 0xf2, 0xc5,
  0x59, 0xd9, 0xfb, 0x00, 0x81, 0xcd, 0xd1, 0x1a, 0x10, 0xb6, 0xf4, 0xc3,
  0xd0, 0x27, 0x1b, 0xe3, 0x47, 0xc6, 0xfe, 0xd2, 0xd0, 0x87, 0xe8, 0x16,
  0xed, 0xba, 0xec, 0xe4, 0xf6, 0x23, 0x60, 0x05, 0xfd, 0xc3, 0x05, 0xb6,
  0x0d, 0x96, 0xf7, 0x3b, 0x10, 0xbd, 0xe5, 0xfb, 0xe4, 0x01, 0x14, 0x23,
  0xfe, 0xf2, 0x02, 0xcc, 0x26, 0x94, 0xf0, 0x14, 0x05, 0xdd, 0xe2, 0xf6,
  0xec, 0x0e, 0x08, 0x1a, 0xd9, 0x10, 0x14, 0xca, 0x3f, 0xb3, 0x09, 0xe3,
  0xf2, 0xf7, 0xd4, 0xe4, 0xdc, 0x37, 0xfa, 0xfa, 0xa7, 0xb9, 0x2b, 0xe1,
  0x75, 0xdd, 0x06, 0xd7, 0x81, 0x14, 0xc4, 0x23, 0xe1, 0x0e, 0xe8, 0xf4,
  0xa9, 0xe1, 0x04, 0x0a, 0x30, 0xf6, 0x01, 0x12, 0xad, 0x0e, 0xed, 0x10,
  0xfc, 0x09, 0x01, 0xf7, 0xe4, 0x09, 0xf7, 0x11, 0x11, 0xdd, 0x10, 0xfe,
  0xb8, 0x03, 0x19, 0x03, 0x03, 0xf9, 0x01, 0x1a, 0x19, 0x23, 0xdc, 0x36,
  0x01, 0x17, 0xf3, 0x0d, 0xf8, 0xfb, 0x4c, 0xf0, 0x30, 0x18, 0x48, 0x25,
  0x41, 0x38, 0xcc, 0x37, 0xd4, 0x07, 0x00, 0x07, 0xf0, 0xf8, 0x65, 0xd0,
  0xbd, 0xcc, 0xd9, 0xd7, 0xfd, 0x0b, 0x2e, 0x01, 0x5c, 0x07, 0x0d, 0x52,
  0xfa, 0xda, 0x38, 0xf0, 0x04, 0xe3, 0xe2, 0xe5, 0x1a, 0x00, 0x35, 0xe2,
  0x32, 0xde, 0x10, 0x01, 0x01, 0xe3, 0xf8, 0x00, 0x04, 0xe4, 0xe4, 0xea,
  0x08, 0x04, 0x36, 0xfe, 0x13, 0xfe, 0xf5, 0xea, 0x0a, 0x25, 0xf0, 0x00,
  0xfc, 0x17, 0xff, 0xc6, 0xe6, 0xf9, 0xfd, 0xfc, 0xbe, 0xfd, 0xca, 0xb3,
  0x10, 0x15, 0xcd, 0xeb, 0xf5, 0x23, 0x21, 0xa1, 0xfa, 0x0f, 0xb1, 0xf5,
  0x81, 0x05, 0xa6, 0x87, 0x31, 0x0b, 0xc6, 0xfc, 0x0e, 0x21, 0xbd, 0x13,
  0x24, 0x2b, 0x2f, 0xaa, 0x0b, 0xa0, 0x37, 0x3d, 0x52, 0xb3, 0x81, 0x4c,
  0x0e, 0x47, 0xe8, 0x10, 0x3b, 0x22, 0x3a, 0xda, 0xfb, 0x14, 0x1f, 0x0b,
  0x3d, 0xc2, 0xa1, 0x2a, 0xe9, 0x09, 0xeb, 0xf8, 0x32, 0x32, 0x20, 0xda,
  0xe8, 0x2e, 0xea, 0xcd, 0xfa, 0xa9, 0xb1, 0x00, 0xea, 0xfd, 0x91, 0x01,
  0x3f, 0x0a, 0x0d, 0xdc, 0x08, 0x20, 0xfc, 0x92, 0xb3, 0xaa, 0xeb, 0xd9,
  0xfb, 0xb4, 0xcf, 0xd9, 0x37, 0xe0, 0x08, 0x87, 0x30, 0x00, 0xe6, 0x8d,
  0x83, 0xd0, 0x09, 0xd7, 0x10, 0xd8, 0xef, 0xa9, 0x1c, 0xf9, 0x2d, 0x02,
  0x95, 0xe4, 0x40, 0xe9, 0x18, 0x32, 0x13, 0x0d, 0x29, 0x03, 0x14, 0xe5,
  0x15, 0xf0, 0x1b, 0x11, 0x9b, 0xfd, 0x1f, 0xef, 0x0f, 0x13, 0x18, 0x18,
  0x01, 0x00, 0xe9, 0xef, 0x1b, 0x0a, 0x0c, 0x25, 0xb6, 0xfb, 0x19, 0xef,
  0x0b, 0xfc, 0x19, 0x17, 0xfb, 0x1b, 0xe2, 0xf6, 0x0d, 0x1b, 0x01, 0x0f,
  0xc0, 0xe2, 0x14, 0xba, 0xf0, 0x04, 0x01, 0x19, 0x00, 0x10, 0xf1, 0x00,
  0x12, 0x1f, 0xfd, 0x20, 0xc5, 0xc2, 0x0f, 0x81, 0xef, 0xf1, 0x02, 0x35,
  0x02, 0xec, 0xd7, 0xae, 0xf9, 0x81, 0xe9, 0xfd, 0x2c, 0x3e, 0x07, 0x0f,
  0x43, 0x03, 0xcc, 0x1b, 0xe3, 0x0d, 0xdd, 0xf9, 0xe8, 0xa9, 0xe0, 0xec,
  0x15, 0x24, 0xfe, 0xe9, 0x10, 0x0a, 0xdf, 0x06, 0xe2, 0x0f, 0xeb, 0x0c,
  0xee, 0xe0, 0xf2, 0xce, 0xf3, 0x20, 0xff, 0xea, 0xf8, 0x0e, 0xe9, 0xf6,
  0xca, 0x23, 0x0f, 0x24, 0xf7, 0x2a, 0x08, 0xc7, 0x0e, 0xf4, 0xe8, 0xef,
  0xd9, 0x06, 0xf1, 0xed, 0xbe, 0x05, 0x17, 0x3b, 0x03, 0x46, 0x37, 0xe6,
  0xf2, 0xf0, 0xe3, 0x26, 0xbe, 0xf6, 0xfe, 0x0a, 0x04, 0x6f, 0xf4, 0x39,
  0x18, 0x04, 0xb6, 0xe6, 0xe9, 0xb2, 0xc4, 0xf4, 0x22, 0x05, 0x3d, 0xda,
  0x04, 0x55, 0xcf, 0x28, 0x18, 0x15, 0xe0, 0xd6, 0x0a, 0xdc, 0x09, 0x22,
  0x01, 0x1e, 0x0b, 0xfe, 0x1e, 0x16, 0xd1, 0xda, 0x0a, 0xe8, 0x00, 0x04,
  0x16, 0xf8, 0x15, 0x0c, 0xe4, 0x2a, 0x00, 0x24, 0x29, 0xec, 0xb3, 0xb7,
  0x01, 0xde, 0x0c, 0xf4, 0xf8, 0x01, 0x46, 0x15, 0xb8, 0x16, 0xea, 0x0b,
  0x1c, 0xa7, 0x9c, 0x97, 0xf2, 0xd7, 0x04, 0x25, 0xf2, 0x39, 0x68, 0x02,
  0x81, 0x39, 0xdd, 0x44, 0x27, 0x81, 0xd9, 0xcb, 0xf5, 0xff, 0xff, 0x19,
  0xf0, 0x1e, 0x2d, 0xc9, 0xcb, 0x30, 0x47, 0x37, 0xfd, 0xa2, 0xf4, 0xd8,
  0xea, 0xdf, 0xfa, 0x27, 0xe1, 0x0f, 0x0a, 0xfa, 0xca, 0x26, 0x16, 0x29,
  0x0b, 0xca, 0xec, 0xfc, 0xd5, 0xdd, 0xf5, 0xf7, 0xfb, 0xee, 0x17, 0x0f,
  0xfd, 0x30, 0xfb, 0x4a, 0xec, 0xf9, 0xec, 0x0d, 0xe6, 0xca, 0xe6, 0xeb,
  0xf1, 0xfb, 0xfa, 0x17, 0x07, 0x33, 0x03, 0x32, 0xde, 0x23, 0xf0, 0x27,
  0xde, 0xd1, 0xdd, 0x04, 0x04, 0xfc, 0x01, 0x00, 0x29, 0x07, 0x00, 0x36,
  0x12, 0xfc, 0xff, 0xff, 0x04, 0x00, 0x00, 0x00, 0x30, 0x00, 0x00, 0x00,
  0x8d, 0xff, 0xff, 0xff, 0xf6, 0x02, 0x00, 0x00, 0xc2, 0x01, 0x00, 0x00,
  0x62, 0x05, 0x00, 0x00, 0x0a, 0x03, 0x00, 0x00, 0xf7, 0xfb, 0xff, 0xff,
  0x9a, 0x02, 0x00, 0x00, 0xbd, 0x01, 0x00, 0x00, 0x30, 0x02, 0x00, 0x00,
  0x91, 0x00, 0x00, 0x00, 0xf7, 0xfe, 0xff, 0xff, 0xd3, 0x01, 0x00, 0x00,
  0x4e, 0xfc, 0xff, 0xff, 0x04, 0x00, 0x00, 0x00, 0x20, 0x01, 0x00, 0x00,
  0x53, 0xe6, 0x11, 0x3c, 0x1f, 0xca, 0x68, 0x17, 0x14, 0x04, 0x2d, 0x9c,
  0x68, 0x02, 0xfa, 0x2b, 0x31, 0x02, 0xfd, 0xfe, 0x05, 0x05, 0x4a, 0xa2,
  0xf1, 0xf2, 0xa9, 0xeb, 0x1b, 0x2b, 0x1c, 0xf1, 0x17, 0xef, 0x7f, 0xbe,
  0x03, 0x9e, 0x54, 0x0a, 0x81, 0x19, 0x2c, 0x19, 0x63, 0x45, 0x06, 0x46,
  0xd9, 0x0d, 0x16, 0xbb, 0x2a, 0xdf, 0xc5, 0xe2, 0x21, 0xdd, 0x1d, 0x25,
  0x05, 0x7e, 0xc1, 0x84, 0x1d, 0xf9, 0xe0, 0xa5, 0xd8, 0x47, 0xba, 0xcb,
  0x2b, 0xc2, 0x10, 0x01, 0x81, 0xec, 0xe3, 0x24, 0x0d, 0x27, 0xd5, 0x41,
  0x49, 0xe4, 0x0e, 0xed, 0xb8, 0xfb, 0x0e, 0x04, 0xe5, 0x6e, 0xd7, 0x1d,
  0x63, 0x25, 0x2f, 0xfd, 0xc2, 0xcd, 0x17, 0x18, 0xd6, 0x29, 0xd9, 0xd8,
  0x65, 0x0d, 0x50, 0xae, 0xf3, 0x06, 0x1f, 0xd3, 0xfd, 0xe8, 0x25, 0xee,
  0xe7, 0xe2, 0x2a, 0x96, 0xa1, 0xec, 0x3c, 0xad, 0xf6, 0x00, 0x2a, 0xc9,
  0x81, 0xbd, 0x27, 0x08, 0x99, 0xf1, 0x48, 0xaf, 0xd7, 0x2d, 0x54, 0xd3,
  0xf9, 0x7f, 0xab, 0x51, 0x55, 0x02, 0x1a, 0x2b, 0xc5, 0xd5, 0x2f, 0x20,
  0x01, 0xee, 0x16, 0xe4, 0xfa, 0xd5, 0x66, 0xac, 0xa3, 0xe1, 0x0d, 0x30,
  0x67, 0xe6, 0xc5, 0xac, 0x5a, 0x13, 0xae, 0x95, 0x83, 0xfb, 0x15, 0x06,
  0x21, 0x69, 0xf5, 0x15, 0x13, 0xe7, 0xf8, 0x66, 0xcd, 0x21, 0x00, 0xdf,
  0x2b, 0x07, 0xda, 0xec, 0x1a, 0xdb, 0x5e, 0x27, 0xbe, 0x1a, 0xf6, 0x41,
  0x18, 0xf0, 0xb0, 0x9a, 0xfe, 0xc6, 0x7f, 0x5b, 0xdb, 0xdf, 0x2a, 0x1e,
  0xf7, 0x26, 0xf8, 0xe7, 0xe9, 0x70, 0x4e, 0xf1, 0xd5, 0x39, 0xf6, 0x0c,
  0x12, 0xe6, 0x1a, 0xda, 0x15, 0x04, 0x00, 0xf0, 0xef, 0xfb, 0xf3, 0xfd,
  0x18, 0xda, 0x1d, 0x26, 0x44, 0xfe, 0x81, 0xe4, 0xea, 0xdc, 0x0a, 0xf0,
  0x58, 0x31, 0xa2, 0xf7, 0xfa, 0x10, 0xf2, 0x06, 0x24, 0x32, 0x56, 0x65,
  0x7b, 0x4b, 0xd5, 0xd0, 0xe9, 0x00, 0x37, 0x20, 0x30, 0x0a, 0xf1, 0xfd,
  0x09, 0x37, 0xcf, 0x81, 0x39, 0xcb, 0xc5, 0x31, 0x37, 0x37, 0xd8, 0xf8,
  0x7a, 0xfd, 0xff, 0xff, 0x04, 0x00, 0x00, 0x00, 0x20, 0x00, 0x00, 0x00,
  0x86, 0xfd, 0xff, 0xff, 0x9e, 0x01, 0x00, 0x00, 0x3b, 0xff, 0xff, 0xff,
  0x1d, 0x05, 0x00, 0x00, 0x51, 0x01, 0x00, 0x00, 0x2f, 0xff, 0xff, 0xff,
  0x94, 0x01, 0x00, 0x00, 0x60, 0xfe, 0xff, 0xff, 0xa6, 0xfd, 0xff, 0xff,
  0x04, 0x00, 0x00, 0x00, 0x80, 0x00, 0x00, 0x00, 0x36, 0xcc, 0x9f, 0xef,
  0x00, 0xfd, 0x7f, 0xa1, 0x31, 0xe2, 0x42, 0x81, 0xba, 0x32, 0xdb, 0x13,
  0xd6, 0x45, 0x7f, 0x27, 0xd5, 0xdb, 0xc7, 0xe3, 0xa1, 0xa4, 0xf4, 0x13,
  0x7f, 0x3b, 0x00, 0x0d, 0xdb, 0x7f, 0xdb, 0x9d, 0x07, 0x85, 0x7b, 0x0b,
  0x25, 0xdd, 0x9f, 0xf8, 0x09, 0xf3, 0x7f, 0x9e, 0x7f, 0xa3, 0xcc, 0xac,
  0xb4, 0x23, 0x18, 0xdf, 0x66, 0xf6, 0x26, 0x27, 0xe6, 0x00, 0xd6, 0x81,
  0x3c, 0x20, 0xdc, 0x6b, 0x1a, 0x02, 0x81, 0xf9, 0xcf, 0xf0, 0xf7, 0x7f,
  0x53, 0x9a, 0x4b, 0xa6, 0xb4, 0xb2, 0xf5, 0x48, 0x7f, 0x2b, 0xe5, 0x0f,
  0xed, 0x60, 0x9f, 0x95, 0x59, 0xca, 0xe3, 0x7f, 0x2b, 0xd6, 0x81, 0xe6,
  0x4e, 0x08, 0xfd, 0x26, 0x81, 0x66, 0x6c, 0xb9, 0xd6, 0xff, 0x0c, 0x15,
  0xfb, 0x1f, 0x3c, 0x7f, 0xfd, 0xaa, 0xfd, 0x93, 0x14, 0x81, 0x4f, 0x5a,
  0x28, 0x4b, 0xbe, 0xc1, 0x32, 0xfe, 0xff, 0xff, 0x04, 0x00, 0x00, 0x00,
  0x40, 0x00, 0x00, 0x00, 0x1b, 0x13, 0x00, 0x00, 0x97, 0x0e, 0x00, 0x00,
  0x1c, 0xff, 0xff, 0xff, 0xe4, 0xfc, 0xff, 0xff, 0xcc, 0x07, 0x00, 0x00,
  0xe4, 0x10, 0x00, 0x00, 0xc4, 0x12, 0x00, 0x00, 0x11, 0x08, 0x00, 0x00,
  0x9c, 0xf5, 0xff, 0xff, 0xfb, 0xff, 0xff, 0xff, 0xd1, 0xf9, 0xff, 0xff,
  0x08, 0xfe, 0xff, 0xff, 0x0b, 0x07, 0x00, 0x00, 0xca, 0x00, 0x00, 0x00,
  0x82, 0xfa, 0xff, 0xff, 0x7b, 0xfb, 0xff, 0xff, 0x7e, 0xfe, 0xff, 0xff,
  0x04, 0x00, 0x00, 0x00, 0x70, 0x00, 0x00, 0x00, 0x11, 0xa3, 0x09, 0x84,
  0x1b, 0x12, 0xc0, 0xfd, 0xc1, 0x1d, 0x9f, 0x8a, 0x81, 0x0a, 0x1b, 0xb9,
  0x1a, 0xae, 0x90, 0x20, 0x1d, 0x19, 0xf5, 0x81, 0x8d, 0x17, 0x12, 0x1c,
  0x15, 0xd9, 0xdc, 0x9a, 0xb0, 0xac, 0x23, 0x98, 0x81, 0xa4, 0xaa, 0x33,
  0x2d, 0x24, 0x14, 0xb9, 0x9e, 0xaa, 0x33, 0x2b, 0xa1, 0xb9, 0x9e, 0x16,
  0xa8, 0xa4, 0xb4, 0xcd, 0x1a, 0xb0, 0x1a, 0x20, 0x17, 0x81, 0xb5, 0x07,
  0xb7, 0x0f, 0x0a, 0x9e, 0x0f, 0xbc, 0xd9, 0xaf, 0xb6, 0xc4, 0x81, 0x12,
  0xb1, 0x14, 0xb0, 0x96, 0x92, 0x1e, 0x0d, 0x22, 0xa9, 0x8e, 0xb7, 0xb3,
  0x87, 0xaa, 0x14, 0xb4, 0x81, 0x1a, 0x97, 0x1c, 0x25, 0x28, 0x9b, 0xcb,
  0xe9, 0x19, 0x7f, 0x3c, 0xfe, 0xc8, 0xb8, 0xa3, 0x1e, 0xad, 0xbd, 0x14,
  0xfa, 0xfe, 0xff, 0xff, 0x04, 0x00, 0x00, 0x00, 0x1c, 0x00, 0x00, 0x00,
  0x7d, 0xff, 0xff, 0xff, 0x49, 0xfb, 0xff, 0xff, 0x8f, 0xf3, 0xff, 0xff,
  0x9d, 0xfd, 0xff, 0xff, 0xe8, 0x07, 0x00, 0x00, 0x13, 0x07, 0x00, 0x00,
  0x63, 0xf9, 0xff, 0xff, 0x22, 0xff, 0xff, 0xff, 0x04, 0x00, 0x00, 0x00,
  0x04, 0x00, 0x00, 0x00, 0x01, 0x00, 0x00, 0x00, 0x32, 0xff, 0xff, 0xff,
  0x04, 0x00, 0x00, 0x00, 0x0c, 0x00, 0x00, 0x00, 0x01, 0x00, 0x00, 0x00,
  0x7d, 0x00, 0x00, 0x00, 0x08, 0x00, 0x00, 0x00, 0x4a, 0xff, 0xff, 0xff,
  0x04, 0x00, 0x00, 0x00, 0x10, 0x00, 0x00, 0x00, 0x01, 0x00, 0x00, 0x00,
  0x01, 0x00, 0x00, 0x00, 0xf4, 0x01, 0x00, 0x00, 0x06, 0x00, 0x00, 0x00,
  0xe4, 0xeb, 0xff, 0xff, 0xe8, 0xeb, 0xff, 0xff, 0x0f, 0x00, 0x00, 0x00,
  0x4d, 0x4c, 0x49, 0x52, 0x20, 0x43, 0x6f, 0x6e, 0x76, 0x65, 0x72, 0x74,
  0x65, 0x64, 0x2e, 0x00, 0x01, 0x00, 0x00, 0x00, 0x14, 0x00, 0x00, 0x00,
  0x00, 0x00, 0x0e, 0x00, 0x18, 0x00, 0x14, 0x00, 0x10, 0x00, 0x0c, 0x00,
  0x08, 0x00, 0x04, 0x00, 0x0e, 0x00, 0x00, 0x00, 0x14, 0x00, 0x00, 0x00,
  0x1c, 0x00, 0x00, 0x00, 0x44, 0x02, 0x00, 0x00, 0x48, 0x02, 0x00, 0x00,
  0x4c, 0x02, 0x00, 0x00, 0x04, 0x00, 0x00, 0x00, 0x6d, 0x61, 0x69, 0x6e,
  0x00, 0x00, 0x00, 0x00, 0x09, 0x00, 0x00, 0x00, 0x08, 0x02, 0x00, 0x00,
  0xac, 0x01, 0x00, 0x00, 0x58, 0x01, 0x00, 0x00, 0x14, 0x01, 0x00, 0x00,
  0xf0, 0x00, 0x00, 0x00, 0xbc, 0x00, 0x00, 0x00, 0x78, 0x00, 0x00, 0x00,
  0x40, 0x00, 0x00, 0x00, 0x04, 0x00, 0x00, 0x00, 0x82, 0xfe, 0xff, 0xff,
  0x1c, 0x00, 0x00, 0x00, 0x00, 0x00, 0x00, 0x09, 0x1c, 0x00, 0x00, 0x00,
  0x20, 0x00, 0x00, 0x00, 0x04, 0x00, 0x00, 0x00, 0x00, 0x00, 0x06, 0x00,
  0x08, 0x00, 0x04, 0x00, 0x06, 0x00, 0x00, 0x00, 0x00, 0x00, 0x80, 0x3f,
  0x01, 0x00, 0x00, 0x00, 0x16, 0x00, 0x00, 0x00, 0x01, 0x00, 0x00, 0x00,
  0x15, 0x00, 0x00, 0x00, 0xba, 0xfe, 0xff, 0xff, 0x14, 0x00, 0x00, 0x00,
  0x00, 0x00, 0x00, 0x08, 0x10, 0x00, 0x00, 0x00, 0x14, 0x00, 0x00, 0x00,
  0x03, 0x00, 0x00, 0x00, 0xb4, 0xec, 0xff, 0xff, 0x01, 0x00, 0x00, 0x00,
  0x15, 0x00, 0x00, 0x00, 0x03, 0x00, 0x00, 0x00, 0x14, 0x00, 0x00, 0x00,
  0x05, 0x00, 0x00, 0x00, 0x04, 0x00, 0x00, 0x00, 0xee, 0xfe, 0xff, 0xff,
  0x1c, 0x00, 0x00, 0x00, 0x00, 0x00, 0x00, 0x08, 0x1c, 0x00, 0x00, 0x00,
  0x20, 0x00, 0x00, 0x00, 0x03, 0x00, 0x00, 0x00, 0x00, 0x00, 0x06, 0x00,
  0x08, 0x00, 0x07, 0x00, 0x06, 0x00, 0x00, 0x00, 0x00, 0x00, 0x00, 0x01,
  0x01, 0x00, 0x00, 0x00, 0x14, 0x00, 0x00, 0x00, 0x03, 0x00, 0x00, 0x00,
  0x13, 0x00, 0x00, 0x00, 0x07, 0x00, 0x00, 0x00, 0x06, 0x00, 0x00, 0x00,
  0x2e, 0xff, 0xff, 0xff, 0x14, 0x00, 0x00, 0x00, 0x00, 0x00, 0x00, 0x1b,
  0x10, 0x00, 0x00, 0x00, 0x14, 0x00, 0x00, 0x00, 0x02, 0x00, 0x00, 0x00,
  0x28, 0xed, 0xff, 0xff, 0x01, 0x00, 0x00, 0x00, 0x13, 0x00, 0x00, 0x00,
  0x02, 0x00, 0x00, 0x00, 0x12, 0x00, 0x00, 0x00, 0x03, 0x00, 0x00, 0x00,
  0x02, 0xff, 0xff, 0xff, 0x08, 0x00, 0x00, 0x00, 0x0c, 0x00, 0x00, 0x00,
  0x01, 0x00, 0x00, 0x00, 0x12, 0x00, 0x00, 0x00, 0x02, 0x00, 0x00, 0x00,
  0x11, 0x00, 0x00, 0x00, 0x02, 0x00, 0x00, 0x00, 0x7e, 0xff, 0xff, 0xff,
  0x14, 0x00, 0x00, 0x00, 0x00, 0x00, 0x00, 0x01, 0x1c, 0x00, 0x00, 0x00,
  0x20, 0x00, 0x00, 0x00, 0x01, 0x00, 0x00, 0x00, 0x70, 0xff, 0xff, 0xff,
  0x00, 0x00, 0x00, 0x01, 0x01, 0x00, 0x00, 0x00, 0x01, 0x00, 0x00, 0x00,
  0x01, 0x00, 0x00, 0x00, 0x11, 0x00, 0x00, 0x00, 0x03, 0x00, 0x00, 0x00,
  0x10, 0x00, 0x00, 0x00, 0x09, 0x00, 0x00, 0x00, 0x08, 0x00, 0x00, 0x00,
  0xbe, 0xff, 0xff, 0xff, 0x14, 0x00, 0x00, 0x00, 0x00, 0x00, 0x00, 0x01,
  0x1c, 0x00, 0x00, 0x00, 0x20, 0x00, 0x00, 0x00, 0x01, 0x00, 0x00, 0x00,
  0xb0, 0xff, 0xff, 0xff, 0x00, 0x00, 0x00, 0x01, 0x01, 0x00, 0x00, 0x00,
  0x02, 0x00, 0x00, 0x00, 0x01, 0x00, 0x00, 0x00, 0x10, 0x00, 0x00, 0x00,
  0x03, 0x00, 0x00, 0x00, 0x0f, 0x00, 0x00, 0x00, 0x0b, 0x00, 0x00, 0x00,
  0x0a, 0x00, 0x00, 0x00, 0x00, 0x00, 0x0e, 0x00, 0x18, 0x00, 0x14, 0x00,
  0x10, 0x00, 0x0c, 0x00, 0x0b, 0x00, 0x04, 0x00, 0x0e, 0x00, 0x00, 0x00,
  0x20, 0x00, 0x00, 0x00, 0x00, 0x00, 0x00, 0x01, 0x28, 0x00, 0x00, 0x00,
  0x2c, 0x00, 0x00, 0x00, 0x01, 0x00, 0x00, 0x00, 0x0c, 0x00, 0x10, 0x00,
  0x00, 0x00, 0x0c, 0x00, 0x08, 0x00, 0x07, 0x00, 0x0c, 0x00, 0x00, 0x00,
  0x00, 0x00, 0x00, 0x01, 0x01, 0x00, 0x00, 0x00, 0x02, 0x00, 0x00, 0x00,
  0x01, 0x00, 0x00, 0x00, 0x0f, 0x00, 0x00, 0x00, 0x03, 0x00, 0x00, 0x00,
  0x0e, 0x00, 0x00, 0x00, 0x0d, 0x00, 0x00, 0x00, 0x0c, 0x00, 0x00, 0x00,
  0x00, 0x00, 0x0a, 0x00, 0x0c, 0x00, 0x00, 0x00, 0x08, 0x00, 0x04, 0x00,
  0x0a, 0x00, 0x00, 0x00, 0x08, 0x00, 0x00, 0x00, 0x0c, 0x00, 0x00, 0x00,
  0x01, 0x00, 0x00, 0x00, 0x0e, 0x00, 0x00, 0x00, 0x02, 0x00, 0x00, 0x00,
  0x00, 0x00, 0x00, 0x00, 0x01, 0x00, 0x00, 0x00, 0x01, 0x00, 0x00, 0x00,
  0x16, 0x00, 0x00, 0x00, 0x01, 0x00, 0x00, 0x00, 0x00, 0x00, 0x00, 0x00,
  0x17, 0x00, 0x00, 0x00, 0xc0, 0x11, 0x00, 0x00, 0x64, 0x11, 0x00, 0x00,
  0x24, 0x11, 0x00, 0x00, 0xe8, 0x10, 0x00, 0x00, 0x3c, 0x10, 0x00, 0x00,
  0x90, 0x0f, 0x00, 0x00, 0x7c, 0x0e, 0x00, 0x00, 0x60, 0x0d, 0x00, 0x00,
  0xac, 0x0c, 0x00, 0x00, 0xe8, 0x0b, 0x00, 0x00, 0x04, 0x0b, 0x00, 0x00,
  0x10, 0x0a, 0x00, 0x00, 0xfc, 0x08, 0x00, 0x00, 0xd8, 0x07, 0x00, 0x00,
  0x4c, 0x07, 0x00, 0x00, 0x00, 0x06, 0x00, 0x00, 0xac, 0x04, 0x00, 0x00,
  0x58, 0x03, 0x00, 0x00, 0x2c, 0x02, 0x00, 0x00, 0xa8, 0x01, 0x00, 0x00,
  0x04, 0x01, 0x00, 0x00, 0x70, 0x00, 0x00, 0x00, 0x04, 0x00, 0x00, 0x00,
  0xb2, 0xee, 0xff, 0xff, 0x00, 0x00, 0x00, 0x01, 0x14, 0x00, 0x00, 0x00,
  0x30, 0x00, 0x00, 0x00, 0x17, 0x00, 0x00, 0x00, 0x00, 0x00, 0x00, 0x09,
  0x44, 0x00, 0x00, 0x00, 0x9c, 0xee, 0xff, 0xff, 0x08, 0x00, 0x00, 0x00,
  0x10, 0x00, 0x00, 0x00, 0x01, 0x00, 0x00, 0x00, 0x80, 0xff, 0xff, 0xff,
  0xff, 0xff, 0xff, 0xff, 0x01, 0x00, 0x00, 0x00, 0x00, 0x00, 0x80, 0x3b,
  0x1b, 0x00, 0x00, 0x00, 0x53, 0x74, 0x61, 0x74, 0x65, 0x66, 0x75, 0x6c,
  0x50, 0x61, 0x72, 0x74, 0x69, 0x74, 0x69, 0x6f, 0x6e, 0x65, 0x64, 0x43,
  0x61, 0x6c, 0x6c, 0x5f, 0x31, 0x3a, 0x30, 0x00, 0x02, 0x00, 0x00, 0x00,
  0x01, 0x00, 0x00, 0x00, 0x07, 0x00, 0x00, 0x00, 0x1a, 0xef, 0xff, 0xff,
  0x00, 0x00, 0x00, 0x01, 0x14, 0x00, 0x00, 0x00, 0x34, 0x00, 0x00, 0x00,
  0x16, 0x00, 0x00, 0x00, 0x00, 0x00, 0x00, 0x09, 0x6c, 0x00, 0x00, 0x00,
  0x04, 0xef, 0xff, 0xff, 0x08, 0x00, 0x00, 0x00, 0x14, 0x00, 0x00, 0x00,
  0x01, 0x00, 0x00, 0x00, 0x42, 0x00, 0x00, 0x00, 0x00, 0x00, 0x00, 0x00,
  0x00, 0x00, 0x00, 0x00, 0x01, 0x00, 0x00, 0x00, 0xd8, 0xf9, 0xbc, 0x3e,
  0x3c, 0x00, 0x00, 0x00, 0x73, 0x65, 0x71, 0x75, 0x65, 0x6e, 0x74, 0x69,
  0x61, 0x6c, 0x5f, 0x31, 0x2f, 0x64, 0x65, 0x6e, 0x73, 0x65, 0x5f, 0x31,
  0x5f, 0x32, 0x2f, 0x4d, 0x61, 0x74, 0x4d, 0x75, 0x6c, 0x3b, 0x73, 0x65,
  0x71, 0x75, 0x65, 0x6e, 0x74, 0x69, 0x61, 0x6c, 0x5f, 0x31, 0x2f, 0x64,
  0x65, 0x6e, 0x73, 0x65, 0x5f, 0x31, 0x5f, 0x32, 0x2f, 0x42, 0x69, 0x61,
  0x73, 0x41, 0x64, 0x64, 0x00, 0x00, 0x00, 0x00, 0x02, 0x00, 0x00, 0x00,
  0x01, 0x00, 0x00, 0x00, 0x07, 0x00, 0x00, 0x00, 0xaa, 0xef, 0xff, 0xff,
  0x00, 0x00, 0x00, 0x01, 0x14, 0x00, 0x00, 0x00, 0x30, 0x00, 0x00, 0x00,
  0x15, 0x00, 0x00, 0x00, 0x00, 0x00, 0x00, 0x09, 0x7c, 0x00, 0x00, 0x00,
  0x94, 0xef, 0xff, 0xff, 0x08, 0x00, 0x00, 0x00, 0x10, 0x00, 0x00, 0x00,
  0x01, 0x00, 0x00, 0x00, 0x80, 0xff, 0xff, 0xff, 0xff, 0xff, 0xff, 0xff,
  0x01, 0x00, 0x00, 0x00, 0xec, 0xfa, 0x42, 0x3c, 0x52, 0x00, 0x00, 0x00,
  0x73, 0x65, 0x71, 0x75, 0x65, 0x6e, 0x74, 0x69, 0x61, 0x6c, 0x5f, 0x31,
  0x2f, 0x64, 0x65, 0x6e, 0x73, 0x65, 0x5f, 0x31, 0x2f, 0x4d, 0x61, 0x74,
  0x4d, 0x75, 0x6c, 0x3b, 0x73, 0x65, 0x71, 0x75, 0x65, 0x6e, 0x74, 0x69,
  0x61, 0x6c, 0x5f, 0x31, 0x2f, 0x64, 0x65, 0x6e, 0x73, 0x65, 0x5f, 0x31,
  0x2f, 0x52, 0x65, 0x6c, 0x75, 0x3b, 0x73, 0x65, 0x71, 0x75, 0x65, 0x6e,
  0x74, 0x69, 0x61, 0x6c, 0x5f, 0x31, 0x2f, 0x64, 0x65, 0x6e, 0x73, 0x65,
  0x5f, 0x31, 0x2f, 0x42, 0x69, 0x61, 0x73, 0x41, 0x64, 0x64, 0x00, 0x00,
  0x02, 0x00, 0x00, 0x00, 0x01, 0x00, 0x00, 0x00, 0x10, 0x00, 0x00, 0x00,
  0x4a, 0xf0, 0xff, 0xff, 0x00, 0x00, 0x00, 0x01, 0x14, 0x00, 0x00, 0x00,
  0x34, 0x00, 0x00, 0x00, 0x14, 0x00, 0x00, 0x00, 0x00, 0x00, 0x00, 0x09,
  0x5c, 0x00, 0x00, 0x00, 0x34, 0xf0, 0xff, 0xff, 0x08, 0x00, 0x00, 0x00,
  0x14, 0x00, 0x00, 0x00, 0x01, 0x00, 0x00, 0x00, 0x80, 0xff, 0xff, 0xff,
  0xff, 0xff, 0xff, 0xff, 0x00, 0x00, 0x00, 0x00, 0x01, 0x00, 0x00, 0x00,
  0x3f, 0xe1, 0x85, 0x3c, 0x2c, 0x00, 0x00, 0x00, 0x73, 0x65, 0x71, 0x75,
  0x65, 0x6e, 0x74, 0x69, 0x61, 0x6c, 0x5f, 0x31, 0x2f, 0x67, 0x6c, 0x6f,
  0x62, 0x61, 0x6c, 0x5f, 0x61, 0x76, 0x65, 0x72, 0x61, 0x67, 0x65, 0x5f,
  0x70, 0x6f, 0x6f, 0x6c, 0x69, 0x6e, 0x67, 0x31, 0x64, 0x5f, 0x31, 0x2f,
  0x4d, 0x65, 0x61, 0x6e, 0x00, 0x00, 0x00, 0x00, 0x02, 0x00, 0x00, 0x00,
  0x01, 0x00, 0x00, 0x00, 0x08, 0x00, 0x00, 0x00, 0xca, 0xf0, 0xff, 0xff,
  0x00, 0x00, 0x00, 0x01, 0x14, 0x00, 0x00, 0x00, 0x30, 0x00, 0x00, 0x00,
  0x13, 0x00, 0x00, 0x00, 0x00, 0x00, 0x00, 0x09, 0x00, 0x01, 0x00, 0x00,
  0xb4, 0xf0, 0xff, 0xff, 0x08, 0x00, 0x00, 0x00, 0x10, 0x00, 0x00, 0x00,
  0x01, 0x00, 0x00, 0x00, 0x80, 0xff, 0xff, 0xff, 0xff, 0xff, 0xff, 0xff,
  0x01, 0x00, 0x00, 0x00, 0x00, 0x51, 0x56, 0x3e, 0xd7, 0x00, 0x00, 0x00,
  0x73, 0x65, 0x71, 0x75, 0x65, 0x6e, 0x74, 0x69, 0x61, 0x6c, 0x5f, 0x31,
  0x2f, 0x61, 0x63, 0x74, 0x69, 0x76, 0x61, 0x74, 0x69, 0x6f, 0x6e, 0x5f,
  0x32, 0x5f, 0x31, 0x2f, 0x52, 0x65, 0x6c, 0x75, 0x3b, 0x73, 0x65, 0x71,
  0x75, 0x65, 0x6e, 0x74, 0x69, 0x61, 0x6c, 0x5f, 0x31, 0x2f, 0x62, 0x61,
  0x74, 0x63, 0x68, 0x5f, 0x6e, 0x6f, 0x72, 0x6d, 0x61, 0x6c, 0x69, 0x7a,
  0x61, 0x74, 0x69, 0x6f, 0x6e, 0x5f, 0x32, 0x5f, 0x31, 0x2f, 0x62, 0x61,
  0x74, 0x63, 0x68, 0x6e, 0x6f, 0x72, 0x6d, 0x2f, 0x61, 0x64, 0x64, 0x5f,
  0x31, 0x3b, 0x73, 0x65, 0x71, 0x75, 0x65, 0x6e, 0x74, 0x69, 0x61, 0x6c,
  0x5f, 0x31, 0x2f, 0x63, 0x6f, 0x6e, 0x76, 0x31, 0x64, 0x5f, 0x32, 0x5f,
  0x31, 0x2f, 0x63, 0x6f, 0x6e, 0x76, 0x6f, 0x6c, 0x75, 0x74, 0x69, 0x6f,
  0x6e, 0x2f, 0x53, 0x71, 0x75, 0x65, 0x65, 0x7a, 0x65, 0x3b, 0x73, 0x65,
  0x71, 0x75, 0x65, 0x6e, 0x74, 0x69, 0x61, 0x6c, 0x5f, 0x31, 0x2f, 0x62,
  0x61, 0x74, 0x63, 0x68, 0x5f, 0x6e, 0x6f, 0x72, 0x6d, 0x61, 0x6c, 0x69,
  0x7a, 0x61, 0x74, 0x69, 0x6f, 0x6e, 0x5f, 0x32, 0x5f, 0x31, 0x2f, 0x62,
  0x61, 0x74, 0x63, 0x68, 0x6e, 0x6f, 0x72, 0x6d, 0x2f, 0x6d, 0x75, 0x6c,
  0x5f, 0x31, 0x3b, 0x73, 0x65, 0x71, 0x75, 0x65, 0x6e, 0x74, 0x69, 0x61,
  0x6c, 0x5f, 0x31, 0x2f, 0x63, 0x6f, 0x6e, 0x76, 0x31, 0x64, 0x5f, 0x32,
  0x5f, 0x31, 0x2f, 0x42, 0x69, 0x61, 0x73, 0x41, 0x64, 0x64, 0x3b, 0x00,
  0x03, 0x00, 0x00, 0x00, 0x01, 0x00, 0x00, 0x00, 0x7d, 0x00, 0x00, 0x00,
  0x08, 0x00, 0x00, 0x00, 0xf2, 0xf1, 0xff, 0xff, 0x00, 0x00, 0x00, 0x01,
  0x14, 0x00, 0x00, 0x00, 0x30, 0x00, 0x00, 0x00, 0x12, 0x00, 0x00, 0x00,
  0x00, 0x00, 0x00, 0x09, 0x24, 0x01, 0x00, 0x00, 0xdc, 0xf1, 0xff, 0xff,
  0x08, 0x00, 0x00, 0x00, 0x10, 0x00, 0x00, 0x00, 0x01, 0x00, 0x00, 0x00,
  0x80, 0xff, 0xff, 0xff, 0xff, 0xff, 0xff, 0xff, 0x01, 0x00, 0x00, 0x00,
  0x00, 0x51, 0x56, 0x3e, 0xfb, 0x00, 0x00, 0x00, 0x73, 0x65, 0x71, 0x75,
  0x65, 0x6e, 0x74, 0x69, 0x61, 0x6c, 0x5f, 0x31, 0x2f, 0x61, 0x63, 0x74,
  0x69, 0x76, 0x61, 0x74, 0x69, 0x6f, 0x6e, 0x5f, 0x32, 0x5f, 0x31, 0x2f,
  0x52, 0x65, 0x6c, 0x75, 0x3b, 0x73, 0x65, 0x71, 0x75, 0x65, 0x6e, 0x74,
  0x69, 0x61, 0x6c, 0x5f, 0x31, 0x2f, 0x62, 0x61, 0x74, 0x63, 0x68, 0x5f,
  0x6e, 0x6f, 0x72, 0x6d, 0x61, 0x6c, 0x69, 0x7a, 0x61, 0x74, 0x69, 0x6f,
  0x6e, 0x5f, 0x32, 0x5f, 0x31, 0x2f, 0x62, 0x61, 0x74, 0x63, 0x68, 0x6e,
  0x6f, 0x72, 0x6d, 0x2f, 0x61, 0x64, 0x64, 0x5f, 0x31, 0x3b, 0x73, 0x65,
  0x71, 0x75, 0x65, 0x6e, 0x74, 0x69, 0x61, 0x6c, 0x5f, 0x31, 0x2f, 0x63,
  0x6f, 0x6e, 0x76, 0x31, 0x64, 0x5f, 0x32, 0x5f, 0x31, 0x2f, 0x63, 0x6f,
  0x6e, 0x76, 0x6f, 0x6c, 0x75, 0x74, 0x69, 0x6f, 0x6e, 0x2f, 0x53, 0x71,
  0x75, 0x65, 0x65, 0x7a, 0x65, 0x3b, 0x73, 0x65, 0x71, 0x75, 0x65, 0x6e,
  0x74, 0x69, 0x61, 0x6c, 0x5f, 0x31, 0x2f, 0x62, 0x61, 0x74, 0x63, 0x68,
  0x5f, 0x6e, 0x6f, 0x72, 0x6d, 0x61, 0x6c, 0x69, 0x7a, 0x61, 0x74, 0x69,
  0x6f, 0x6e, 0x5f, 0x32, 0x5f, 0x31, 0x2f, 0x62, 0x61, 0x74, 0x63, 0x68,
  0x6e, 0x6f, 0x72, 0x6d, 0x2f, 0x6d, 0x75, 0x6c, 0x5f, 0x31, 0x3b, 0x73,
  0x65, 0x71, 0x75, 0x65, 0x6e, 0x74, 0x69, 0x61, 0x6c, 0x5f, 0x31, 0x2f,
  0x63, 0x6f, 0x6e, 0x76, 0x31, 0x64, 0x5f, 0x32, 0x5f, 0x31, 0x2f, 0x42,
  0x69, 0x61, 0x73, 0x41, 0x64, 0x64, 0x3b, 0x3b, 0x73, 0x65, 0x71, 0x75,
  0x65, 0x6e, 0x74, 0x69, 0x61, 0x6c, 0x5f, 0x31, 0x2f, 0x63, 0x6f, 0x6e,
  0x76, 0x31, 0x64, 0x5f, 0x32, 0x5f, 0x31, 0x2f, 0x63, 0x6f, 0x6e, 0x76,
  0x6f, 0x6c, 0x75, 0x74, 0x69, 0x6f, 0x6e, 0x00, 0x04, 0x00, 0x00, 0x00,
  0x01, 0x00, 0x00, 0x00, 0x01, 0x00, 0x00, 0x00, 0x7d, 0x00, 0x00, 0x00,
  0x08, 0x00, 0x00, 0x00, 0x42, 0xf3, 0xff, 0xff, 0x00, 0x00, 0x00, 0x01,
  0x14, 0x00, 0x00, 0x00, 0x30, 0x00, 0x00, 0x00, 0x11, 0x00, 0x00, 0x00,
  0x00, 0x00, 0x00, 0x09, 0x24, 0x01, 0x00, 0x00, 0x2c, 0xf3, 0xff, 0xff,
  0x08, 0x00, 0x00, 0x00, 0x10, 0x00, 0x00, 0x00, 0x01, 0x00, 0x00, 0x00,
  0x80, 0xff, 0xff, 0xff, 0xff, 0xff, 0xff, 0xff, 0x01, 0x00, 0x00, 0x00,
  0xa9, 0x63, 0xb3, 0x3d, 0xfb, 0x00, 0x00, 0x00, 0x73, 0x65, 0x71, 0x75,
  0x65, 0x6e, 0x74, 0x69, 0x61, 0x6c, 0x5f, 0x31, 0x2f, 0x61, 0x63, 0x74,
  0x69, 0x76, 0x61, 0x74, 0x69, 0x6f, 0x6e, 0x5f, 0x31, 0x5f, 0x32, 0x2f,
  0x52, 0x65, 0x6c, 0x75, 0x3b, 0x73, 0x65, 0x71, 0x75, 0x65, 0x6e, 0x74,
  0x69, 0x61, 0x6c, 0x5f, 0x31, 0x2f, 0x62, 0x61, 0x74, 0x63, 0x68, 0x5f,
  0x6e, 0x6f, 0x72, 0x6d, 0x61, 0x6c, 0x69, 0x7a, 0x61, 0x74, 0x69, 0x6f,
  0x6e, 0x5f, 0x31, 0x5f, 0x32, 0x2f, 0x62, 0x61, 0x74, 0x63, 0x68, 0x6e,
  0x6f, 0x72, 0x6d, 0x2f, 0x61, 0x64, 0x64, 0x5f, 0x31, 0x3b, 0x73, 0x65,
  0x71, 0x75, 0x65, 0x6e, 0x74, 0x69, 0x61, 0x6c, 0x5f, 0x31, 0x2f, 0x63,
  0x6f, 0x6e, 0x76, 0x31, 0x64, 0x5f, 0x31, 0x5f, 0x32, 0x2f, 0x63, 0x6f,
  0x6e, 0x76, 0x6f, 0x6c, 0x75, 0x74, 0x69, 0x6f, 0x6e, 0x2f, 0x53, 0x71,
  0x75, 0x65, 0x65, 0x7a, 0x65, 0x3b, 0x73, 0x65, 0x71, 0x75, 0x65, 0x6e,
  0x74, 0x69, 0x61, 0x6c, 0x5f, 0x31, 0x2f, 0x62, 0x61, 0x74, 0x63, 0x68,
  0x5f, 0x6e, 0x6f, 0x72, 0x6d, 0x61, 0x6c, 0x69, 0x7a, 0x61, 0x74, 0x69,
  0x6f, 0x6e, 0x5f, 0x31, 0x5f, 0x32, 0x2f, 0x62, 0x61, 0x74, 0x63, 0x68,
  0x6e, 0x6f, 0x72, 0x6d, 0x2f, 0x6d, 0x75, 0x6c, 0x5f, 0x31, 0x3b, 0x73,
  0x65, 0x71, 0x75, 0x65, 0x6e, 0x74, 0x69, 0x61, 0x6c, 0x5f, 0x31, 0x2f,
  0x63, 0x6f, 0x6e, 0x76, 0x31, 0x64, 0x5f, 0x31, 0x5f, 0x32, 0x2f, 0x42,
  0x69, 0x61, 0x73, 0x41, 0x64, 0x64, 0x3b, 0x3b, 0x73, 0x65, 0x71, 0x75,
  0x65, 0x6e, 0x74, 0x69, 0x61, 0x6c, 0x5f, 0x31, 0x2f, 0x63, 0x6f, 0x6e,
  0x76, 0x31, 0x64, 0x5f, 0x31, 0x5f, 0x32, 0x2f, 0x63, 0x6f, 0x6e, 0x76,
  0x6f, 0x6c, 0x75, 0x74, 0x69, 0x6f, 0x6e, 0x00, 0x04, 0x00, 0x00, 0x00,
  0x01, 0x00, 0x00, 0x00, 0x01, 0x00, 0x00, 0x00, 0x7d, 0x00, 0x00, 0x00,
  0x0c, 0x00, 0x00, 0x00, 0x92, 0xf4, 0xff, 0xff, 0x00, 0x00, 0x00, 0x01,
  0x14, 0x00, 0x00, 0x00, 0x34, 0x00, 0x00, 0x00, 0x10, 0x00, 0x00, 0x00,
  0x00, 0x00, 0x00, 0x09, 0x1c, 0x01, 0x00, 0x00, 0x7c, 0xf4, 0xff, 0xff,
  0x08, 0x00, 0x00, 0x00, 0x14, 0x00, 0x00, 0x00, 0x01, 0x00, 0x00, 0x00,
  0x80, 0xff, 0xff, 0xff, 0xff, 0xff, 0xff, 0xff, 0x00, 0x00, 0x00, 0x00,
  0x01, 0x00, 0x00, 0x00, 0x5f, 0xa5, 0x7a, 0x3e, 0xef, 0x00, 0x00, 0x00,
  0x73, 0x65, 0x71, 0x75, 0x65, 0x6e, 0x74, 0x69, 0x61, 0x6c, 0x5f, 0x31,
  0x2f, 0x61, 0x63, 0x74, 0x69, 0x76, 0x61, 0x74, 0x69, 0x6f, 0x6e, 0x5f,
  0x31, 0x2f, 0x52, 0x65, 0x6c, 0x75, 0x3b, 0x73, 0x65, 0x71, 0x75, 0x65,
  0x6e, 0x74, 0x69, 0x61, 0x6c, 0x5f, 0x31, 0x2f, 0x62, 0x61, 0x74, 0x63,
  0x68, 0x5f, 0x6e, 0x6f, 0x72, 0x6d, 0x61, 0x6c, 0x69, 0x7a, 0x61, 0x74,
  0x69, 0x6f, 0x6e, 0x5f, 0x31, 0x2f, 0x62, 0x61, 0x74, 0x63, 0x68, 0x6e,
  0x6f, 0x72, 0x6d, 0x2f, 0x61, 0x64, 0x64, 0x5f, 0x31, 0x3b, 0x73, 0x65,
  0x71, 0x75, 0x65, 0x6e, 0x74, 0x69, 0x61, 0x6c, 0x5f, 0x31, 0x2f, 0x63,
  0x6f, 0x6e, 0x76, 0x31, 0x64, 0x5f, 0x31, 0x2f, 0x63, 0x6f, 0x6e, 0x76,
  0x6f, 0x6c, 0x75, 0x74, 0x69, 0x6f, 0x6e, 0x2f, 0x53, 0x71, 0x75, 0x65,
  0x65, 0x7a, 0x65, 0x3b, 0x73, 0x65, 0x71, 0x75, 0x65, 0x6e, 0x74, 0x69,
  0x61, 0x6c, 0x5f, 0x31, 0x2f, 0x62, 0x61, 0x74, 0x63, 0x68, 0x5f, 0x6e,
  0x6f, 0x72, 0x6d, 0x61, 0x6c, 0x69, 0x7a, 0x61, 0x74, 0x69, 0x6f, 0x6e,
  0x5f, 0x31, 0x2f, 0x62, 0x61, 0x74, 0x63, 0x68, 0x6e, 0x6f, 0x72, 0x6d,
  0x2f, 0x6d, 0x75, 0x6c, 0x5f, 0x31, 0x3b, 0x73, 0x65, 0x71, 0x75, 0x65,
  0x6e, 0x74, 0x69, 0x61, 0x6c, 0x5f, 0x31, 0x2f, 0x63, 0x6f, 0x6e, 0x76,
  0x31, 0x64, 0x5f, 0x31, 0x2f, 0x42, 0x69, 0x61, 0x73, 0x41, 0x64, 0x64,
  0x3b, 0x3b, 0x73, 0x65, 0x71, 0x75, 0x65, 0x6e, 0x74, 0x69, 0x61, 0x6c,
  0x5f, 0x31, 0x2f, 0x63, 0x6f, 0x6e, 0x76, 0x31, 0x64, 0x5f, 0x31, 0x2f,
  0x63, 0x6f, 0x6e, 0x76, 0x6f, 0x6c, 0x75, 0x74, 0x69, 0x6f, 0x6e, 0x00,
  0x04, 0x00, 0x00, 0x00, 0x01, 0x00, 0x00, 0x00, 0x01, 0x00, 0x00, 0x00,
  0xfa, 0x00, 0x00, 0x00, 0x10, 0x00, 0x00, 0x00, 0xda, 0xf5, 0xff, 0xff,
  0x00, 0x00, 0x00, 0x01, 0x14, 0x00, 0x00, 0x00, 0x34, 0x00, 0x00, 0x00,
  0x0f, 0x00, 0x00, 0x00, 0x00, 0x00, 0x00, 0x09, 0x5c, 0x00, 0x00, 0x00,
  0xc4, 0xf5, 0xff, 0xff, 0x08, 0x00, 0x00, 0x00, 0x14, 0x00, 0x00, 0x00,
  0x01, 0x00, 0x00, 0x00, 0x90, 0xff, 0xff, 0xff, 0xff, 0xff, 0xff, 0xff,
  0x00, 0x00, 0x00, 0x00, 0x01, 0x00, 0x00, 0x00, 0xc1, 0xb9, 0x1c, 0x3f,
  0x2d, 0x00, 0x00, 0x00, 0x73, 0x65, 0x71, 0x75, 0x65, 0x6e, 0x74, 0x69,
  0x61, 0x6c, 0x5f, 0x31, 0x2f, 0x63, 0x6f, 0x6e, 0x76, 0x31, 0x64, 0x5f,
  0x31, 0x2f, 0x63, 0x6f, 0x6e, 0x76, 0x6f, 0x6c, 0x75, 0x74, 0x69, 0x6f,
  0x6e, 0x2f, 0x45, 0x78, 0x70, 0x61, 0x6e, 0x64, 0x44, 0x69, 0x6d, 0x73,
  0x31, 0x00, 0x00, 0x00, 0x04, 0x00, 0x00, 0x00, 0x01, 0x00, 0x00, 0x00,
  0x01, 0x00, 0x00, 0x00, 0xf4, 0x01, 0x00, 0x00, 0x06, 0x00, 0x00, 0x00,
  0x62, 0xf6, 0xff, 0xff, 0x00, 0x00, 0x00, 0x01, 0x14, 0x00, 0x00, 0x00,
  0xe8, 0x00, 0x00, 0x00, 0x0e, 0x00, 0x00, 0x00, 0x00, 0x00, 0x00, 0x09,
  0xf4, 0x00, 0x00, 0x00, 0x4c, 0xf6, 0xff, 0xff, 0x08, 0x00, 0x00, 0x00,
  0x8c, 0x00, 0x00, 0x00, 0x10, 0x00, 0x00, 0x00, 0x00, 0x00, 0x00, 0x00,
  0x00, 0x00, 0x00, 0x00, 0x00, 0x00, 0x00, 0x00, 0x00, 0x00, 0x00, 0x00,
  0x00, 0x00, 0x00, 0x00, 0x00, 0x00, 0x00, 0x00, 0x00, 0x00, 0x00, 0x00,
  0x00, 0x00, 0x00, 0x00, 0x00, 0x00, 0x00, 0x00, 0x00, 0x00, 0x00, 0x00,
  0x00, 0x00, 0x00, 0x00, 0x00, 0x00, 0x00, 0x00, 0x00, 0x00, 0x00, 0x00,
  0x00, 0x00, 0x00, 0x00, 0x00, 0x00, 0x00, 0x00, 0x00, 0x00, 0x00, 0x00,
  0x00, 0x00, 0x00, 0x00, 0x00, 0x00, 0x00, 0x00, 0x00, 0x00, 0x00, 0x00,
  0x00, 0x00, 0x00, 0x00, 0x00, 0x00, 0x00, 0x00, 0x00, 0x00, 0x00, 0x00,
  0x00, 0x00, 0x00, 0x00, 0x00, 0x00, 0x00, 0x00, 0x00, 0x00, 0x00, 0x00,
  0x00, 0x00, 0x00, 0x00, 0x00, 0x00, 0x00, 0x00, 0x00, 0x00, 0x00, 0x00,
  0x00, 0x00, 0x00, 0x00, 0x00, 0x00, 0x00, 0x00, 0x00, 0x00, 0x00, 0x00,
  0x00, 0x00, 0x00, 0x00, 0x00, 0x00, 0x00, 0x00, 0x10, 0x00, 0x00, 0x00,
  0xbf, 0xfe, 0xb1, 0x3a, 0x9b, 0x42, 0x3b, 0x3b, 0x55, 0x57, 0x91, 0x3b,
  0x71, 0xd9, 0xeb, 0x3a, 0x7a, 0xaf, 0x21, 0x3b, 0xae, 0x95, 0xaa, 0x3a,
  0x6a, 0x20, 0x3e, 0x3a, 0xe1, 0x33, 0x23, 0x3a, 0x0f, 0xc8, 0x96, 0x3b,
  0x52, 0x14, 0x3c, 0x3a, 0xba, 0x35, 0x2e, 0x3a, 0x6e, 0xb0, 0xa1, 0x3b,
  0xab, 0xc9, 0xed, 0x3a, 0x14, 0xf8, 0x13, 0x3b, 0xde, 0x74, 0xd2, 0x3a,
  0x7e, 0x85, 0x60, 0x3a, 0x12, 0x00, 0x00, 0x00, 0x74, 0x66, 0x6c, 0x2e,
  0x70, 0x73, 0x65, 0x75, 0x64, 0x6f, 0x5f, 0x71, 0x63, 0x6f, 0x6e, 0x73,
  0x74, 0x39, 0x00, 0x00, 0x04, 0x00, 0x00, 0x00, 0x10, 0x00, 0x00, 0x00,
  0x01, 0x00, 0x00, 0x00, 0x07, 0x00, 0x00, 0x00, 0x06, 0x00, 0x00, 0x00,
  0x82, 0xf7, 0xff, 0xff, 0x00, 0x00, 0x00, 0x01, 0x14, 0x00, 0x00, 0x00,
  0xe4, 0x00, 0x00, 0x00, 0x0d, 0x00, 0x00, 0x00, 0x00, 0x00, 0x00, 0x02,
  0xf0, 0x00, 0x00, 0x00, 0x6c, 0xf7, 0xff, 0xff, 0x08, 0x00, 0x00, 0x00,
  0x88, 0x00, 0x00, 0x00, 0x10, 0x00, 0x00, 0x00, 0x00, 0x00, 0x00, 0x00,
  0x00, 0x00, 0x00, 0x00, 0x00, 0x00, 0x00, 0x00, 0x00, 0x00, 0x00, 0x00,
  0x00, 0x00, 0x00, 0x00, 0x00, 0x00, 0x00, 0x00, 0x00, 0x00, 0x00, 0x00,
  0x00, 0x00, 0x00, 0x00, 0x00, 0x00, 0x00, 0x00, 0x00, 0x00, 0x00, 0x00,
  0x00, 0x00, 0x00, 0x00, 0x00, 0x00, 0x00, 0x00, 0x00, 0x00, 0x00, 0x00,
  0x00, 0x00, 0x00, 0x00, 0x00, 0x00, 0x00, 0x00, 0x00, 0x00, 0x00, 0x00,
  0x00, 0x00, 0x00, 0x00, 0x00, 0x00, 0x00, 0x00, 0x00, 0x00, 0x00, 0x00,
  0x00, 0x00, 0x00, 0x00, 0x00, 0x00, 0x00, 0x00, 0x00, 0x00, 0x00, 0x00,
  0x00, 0x00, 0x00, 0x00, 0x00, 0x00, 0x00, 0x00, 0x00, 0x00, 0x00, 0x00,
  0x00, 0x00, 0x00, 0x00, 0x00, 0x00, 0x00, 0x00, 0x00, 0x00, 0x00, 0x00,
  0x00, 0x00, 0x00, 0x00, 0x00, 0x00, 0x00, 0x00, 0x00, 0x00, 0x00, 0x00,
  0x00, 0x00, 0x00, 0x00, 0x10, 0x00, 0x00, 0x00, 0xc7, 0xf0, 0x59, 0x3a,
  0xee, 0x48, 0xe5, 0x3a, 0x5b, 0xf5, 0x31, 0x3b, 0xa3, 0x63, 0x90, 0x3a,
  0x80, 0xf8, 0xc5, 0x3a, 0xfa, 0xdd, 0x50, 0x3a, 0x6b, 0xcb, 0xe8, 0x39,
  0x11, 0xd4, 0xc7, 0x39, 0xa3, 0x9e, 0x38, 0x3b, 0xb5, 0x49, 0xe6, 0x39,
  0x4b, 0x4e, 0xd5, 0x39, 0xab, 0xf9, 0x45, 0x3b, 0x6e, 0x93, 0x91, 0x3a,
  0x14, 0x2d, 0xb5, 0x3a, 0xec, 0xd7, 0x80, 0x3a, 0x43, 0x74, 0x09, 0x3a,
  0x12, 0x00, 0x00, 0x00, 0x74, 0x66, 0x6c, 0x2e, 0x70, 0x73, 0x65, 0x75,
  0x64, 0x6f, 0x5f, 0x71, 0x63, 0x6f, 0x6e, 0x73, 0x74, 0x38, 0x00, 0x00,
  0x01, 0x00, 0x00, 0x00, 0x10, 0x00, 0x00, 0x00, 0x92, 0xf8, 0xff, 0xff,
  0x00, 0x00, 0x00, 0x01, 0x14, 0x00, 0x00, 0x00, 0xb8, 0x00, 0x00, 0x00,
  0x0c, 0x00, 0x00, 0x00, 0x00, 0x00, 0x00, 0x09, 0xc4, 0x00, 0x00, 0x00,
  0x7c, 0xf8, 0xff, 0xff, 0x08, 0x00, 0x00, 0x00, 0x6c, 0x00, 0x00, 0x00,
  0x0c, 0x00, 0x00, 0x00, 0x00, 0x00, 0x00, 0x00, 0x00, 0x00, 0x00, 0x00,
  0x00, 0x00, 0x00, 0x00, 0x00, 0x00, 0x00, 0x00, 0x00, 0x00, 0x00, 0x00,
  0x00, 0x00, 0x00, 0x00, 0x00, 0x00, 0x00, 0x00, 0x00, 0x00, 0x00, 0x00,
  0x00, 0x00, 0x00, 0x00, 0x00, 0x00, 0x00, 0x00, 0x00, 0x00, 0x00, 0x00,
  0x00, 0x00, 0x00, 0x00, 0x00, 0x00, 0x00, 0x00, 0x00, 0x00, 0x00, 0x00,
  0x00, 0x00, 0x00, 0x00, 0x00, 0x00, 0x00, 0x00, 0x00, 0x00, 0x00, 0x00,
  0x00, 0x00, 0x00, 0x00, 0x00, 0x00, 0x00, 0x00, 0x00, 0x00, 0x00, 0x00,
  0x00, 0x00, 0x00, 0x00, 0x00, 0x00, 0x00, 0x00, 0x00, 0x00, 0x00, 0x00,
  0x00, 0x00, 0x00, 0x00, 0x00, 0x00, 0x00, 0x00, 0x0c, 0x00, 0x00, 0x00,
  0x1a, 0x24, 0xe5, 0x3b, 0x05, 0xf4, 0x71, 0x3b, 0x77, 0xdf, 0x6e, 0x3b,
  0x9c, 0x1c, 0x32, 0x3b, 0x6e, 0xa6, 0x74, 0x3b, 0x51, 0x32, 0x4c, 0x3b,
  0xe4, 0xec, 0xa3, 0x3b, 0x4e, 0x6e, 0x5e, 0x3b, 0x79, 0xb8, 0xfc, 0x3a,
  0x38, 0x96, 0x90, 0x3b, 0x62, 0xa8, 0x86, 0x3b, 0xa0, 0x94, 0x3d, 0x3b,
  0x12, 0x00, 0x00, 0x00, 0x74, 0x66, 0x6c, 0x2e, 0x70, 0x73, 0x65, 0x75,
  0x64, 0x6f, 0x5f, 0x71, 0x63, 0x6f, 0x6e, 0x73, 0x74, 0x37, 0x00, 0x00,
  0x04, 0x00, 0x00, 0x00, 0x0c, 0x00, 0x00, 0x00, 0x01, 0x00, 0x00, 0x00,
  0x05, 0x00, 0x00, 0x00, 0x10, 0x00, 0x00, 0x00, 0x82, 0xf9, 0xff, 0xff,
  0x00, 0x00, 0x00, 0x01, 0x14, 0x00, 0x00, 0x00, 0xb4, 0x00, 0x00, 0x00,
  0x0b, 0x00, 0x00, 0x00, 0x00, 0x00, 0x00, 0x02, 0xc0, 0x00, 0x00, 0x00,
  0x6c, 0xf9, 0xff, 0xff, 0x08, 0x00, 0x00, 0x00, 0x68, 0x00, 0x00, 0x00,
  0x0c, 0x00, 0x00, 0x00, 0x00, 0x00, 0x00, 0x00, 0x00, 0x00, 0x00, 0x00,
  0x00, 0x00, 0x00, 0x00, 0x00, 0x00, 0x00, 0x00, 0x00, 0x00, 0x00, 0x00,
  0x00, 0x00, 0x00, 0x00, 0x00, 0x00, 0x00, 0x00, 0x00, 0x00, 0x00, 0x00,
  0x00, 0x00, 0x00, 0x00, 0x00, 0x00, 0x00, 0x00, 0x00, 0x00, 0x00, 0x00,
  0x00, 0x00, 0x00, 0x00, 0x00, 0x00, 0x00, 0x00, 0x00, 0x00, 0x00, 0x00,
  0x00, 0x00, 0x00, 0x00, 0x00, 0x00, 0x00, 0x00, 0x00, 0x00, 0x00, 0x00,
  0x00, 0x00, 0x00, 0x00, 0x00, 0x00, 0x00, 0x00, 0x00, 0x00, 0x00, 0x00,
  0x00, 0x00, 0x00, 0x00, 0x00, 0x00, 0x00, 0x00, 0x00, 0x00, 0x00, 0x00,
  0x00, 0x00, 0x00, 0x00, 0x0c, 0x00, 0x00, 0x00, 0x47, 0x59, 0xe0, 0x3a,
  0x99, 0xe4, 0x6c, 0x3a, 0x89, 0xe0, 0x69, 0x3a, 0xff, 0x62, 0x2e, 0x3a,
  0x91, 0x88, 0x6f, 0x3a, 0x0b, 0xed, 0x47, 0x3a, 0x3b, 0x7f, 0xa0, 0x3a,
  0x68, 0xc7, 0x59, 0x3a, 0x67, 0x6f, 0xf7, 0x39, 0x19, 0x90, 0x8d, 0x3a,
  0x6c, 0xd7, 0x83, 0x3a, 0x9b, 0x9d, 0x39, 0x3a, 0x12, 0x00, 0x00, 0x00,
  0x74, 0x66, 0x6c, 0x2e, 0x70, 0x73, 0x65, 0x75, 0x64, 0x6f, 0x5f, 0x71,
  0x63, 0x6f, 0x6e, 0x73, 0x74, 0x36, 0x00, 0x00, 0x01, 0x00, 0x00, 0x00,
  0x0c, 0x00, 0x00, 0x00, 0x62, 0xfa, 0xff, 0xff, 0x00, 0x00, 0x00, 0x01,
  0x14, 0x00, 0x00, 0x00, 0x88, 0x00, 0x00, 0x00, 0x0a, 0x00, 0x00, 0x00,
  0x00, 0x00, 0x00, 0x09, 0x94, 0x00, 0x00, 0x00, 0x4c, 0xfa, 0xff, 0xff,
  0x08, 0x00, 0x00, 0x00, 0x4c, 0x00, 0x00, 0x00, 0x08, 0x00, 0x00, 0x00,
  0x00, 0x00, 0x00, 0x00, 0x00, 0x00, 0x00, 0x00, 0x00, 0x00, 0x00, 0x00,
  0x00, 0x00, 0x00, 0x00, 0x00, 0x00, 0x00, 0x00, 0x00, 0x00, 0x00, 0x00,
  0x00, 0x00, 0x00, 0x00, 0x00, 0x00, 0x00, 0x00, 0x00, 0x00, 0x00, 0x00,
  0x00, 0x00, 0x00, 0x00, 0x00, 0x00, 0x00, 0x00, 0x00, 0x00, 0x00, 0x00,
  0x00, 0x00, 0x00, 0x00, 0x00, 0x00, 0x00, 0x00, 0x00, 0x00, 0x00, 0x00,
  0x00, 0x00, 0x00, 0x00, 0x00, 0x00, 0x00, 0x00, 0x08, 0x00, 0x00, 0x00,
  0x33, 0x09, 0x73, 0x3c, 0x73, 0x19, 0xb9, 0x3c, 0x5c, 0x2d, 0x96, 0x3c,
  0x78, 0x97, 0x72, 0x3c, 0x3e, 0xb2, 0x77, 0x3c, 0x5b, 0x3f, 0x38, 0x3c,
  0xcc, 0x3e, 0xd3, 0x3c, 0x56, 0x92, 0x4f, 0x3c, 0x12, 0x00, 0x00, 0x00,
  0x74, 0x66, 0x6c, 0x2e, 0x70, 0x73, 0x65, 0x75, 0x64, 0x6f, 0x5f, 0x71,
  0x63, 0x6f, 0x6e, 0x73, 0x74, 0x35, 0x00, 0x00, 0x04, 0x00, 0x00, 0x00,
  0x08, 0x00, 0x00, 0x00, 0x01, 0x00, 0x00, 0x00, 0x03, 0x00, 0x00, 0x00,
  0x0c, 0x00, 0x00, 0x00, 0x22, 0xfb, 0xff, 0xff, 0x00, 0x00, 0x00, 0x01,
  0x14, 0x00, 0x00, 0x00, 0x84, 0x00, 0x00, 0x00, 0x09, 0x00, 0x00, 0x00,
  0x00, 0x00, 0x00, 0x02, 0x90, 0x00, 0x00, 0x00, 0x0c, 0xfb, 0xff, 0xff,
  0x08, 0x00, 0x00, 0x00, 0x48, 0x00, 0x00, 0x00, 0x08, 0x00, 0x00, 0x00,
  0x00, 0x00, 0x00, 0x00, 0x00, 0x00, 0x00, 0x00, 0x00, 0x00, 0x00, 0x00,
  0x00, 0x00, 0x00, 0x00, 0x00, 0x00, 0x00, 0x00, 0x00, 0x00, 0x00, 0x00,
  0x00, 0x00, 0x00, 0x00, 0x00, 0x00, 0x00, 0x00, 0x00, 0x00, 0x00, 0x00,
  0x00, 0x00, 0x00, 0x00, 0x00, 0x00, 0x00, 0x00, 0x00, 0x00, 0x00, 0x00,
  0x00, 0x00, 0x00, 0x00, 0x00, 0x00, 0x00, 0x00, 0x00, 0x00, 0x00, 0x00,
  0x00, 0x00, 0x00, 0x00, 0x08, 0x00, 0x00, 0x00, 0x0c, 0x4e, 0xaa, 0x3a,
  0xda, 0xb4, 0x01, 0x3b, 0x5c, 0x78, 0xd2, 0x3a, 0x5a, 0xfe, 0xa9, 0x3a,
  0x0f, 0x92, 0xad, 0x3a, 0x07, 0x1c, 0x81, 0x3a, 0x25, 0x07, 0x14, 0x3b,
  0x21, 0x74, 0x91, 0x3a, 0x12, 0x00, 0x00, 0x00, 0x74, 0x66, 0x6c, 0x2e,
  0x70, 0x73, 0x65, 0x75, 0x64, 0x6f, 0x5f, 0x71, 0x63, 0x6f, 0x6e, 0x73,
  0x74, 0x34, 0x00, 0x00, 0x01, 0x00, 0x00, 0x00, 0x08, 0x00, 0x00, 0x00,
  0xd2, 0xfb, 0xff, 0xff, 0x00, 0x00, 0x00, 0x01, 0x14, 0x00, 0x00, 0x00,
  0xe8, 0x00, 0x00, 0x00, 0x08, 0x00, 0x00, 0x00, 0x00, 0x00, 0x00, 0x09,
  0xf4, 0x00, 0x00, 0x00, 0xbc, 0xfb, 0xff, 0xff, 0x08, 0x00, 0x00, 0x00,
  0x8c, 0x00, 0x00, 0x00, 0x10, 0x00, 0x00, 0x00, 0x00, 0x00, 0x00, 0x00,
  0x00, 0x00, 0x00, 0x00, 0x00, 0x00, 0x00, 0x00, 0x00, 0x00, 0x00, 0x00,
  0x00, 0x00, 0x00, 0x00, 0x00, 0x00, 0x00, 0x00, 0x00, 0x00, 0x00, 0x00,
  0x00, 0x00, 0x00, 0x00, 0x00, 0x00, 0x00, 0x00, 0x00, 0x00, 0x00, 0x00,
  0x00, 0x00, 0x00, 0x00, 0x00, 0x00, 0x00, 0x00, 0x00, 0x00, 0x00, 0x00,
  0x00, 0x00, 0x00, 0x00, 0x00, 0x00, 0x00, 0x00, 0x00, 0x00, 0x00, 0x00,
  0x00, 0x00, 0x00, 0x00, 0x00, 0x00, 0x00, 0x00, 0x00, 0x00, 0x00, 0x00,
  0x00, 0x00, 0x00, 0x00, 0x00, 0x00, 0x00, 0x00, 0x00, 0x00, 0x00, 0x00,
  0x00, 0x00, 0x00, 0x00, 0x00, 0x00, 0x00, 0x00, 0x00, 0x00, 0x00, 0x00,
  0x00, 0x00, 0x00, 0x00, 0x00, 0x00, 0x00, 0x00, 0x00, 0x00, 0x00, 0x00,
  0x00, 0x00, 0x00, 0x00, 0x00, 0x00, 0x00, 0x00, 0x00, 0x00, 0x00, 0x00,
  0x00, 0x00, 0x00, 0x00, 0x00, 0x00, 0x00, 0x00, 0x10, 0x00, 0x00, 0x00,
  0x18, 0x41, 0x07, 0x3c, 0x12, 0xab, 0x08, 0x3c, 0xad, 0xa0, 0x10, 0x3c,
  0x1a, 0x50, 0x38, 0x3c, 0x37, 0x91, 0xf4, 0x3b, 0xa1, 0xb4, 0x13, 0x3c,
  0xe7, 0x55, 0xe0, 0x3b, 0xad, 0x1b, 0x11, 0x3c, 0x07, 0x92, 0xc9, 0x3b,
  0xc7, 0x20, 0xfe, 0x3b, 0xea, 0x9d, 0x23, 0x3c, 0x79, 0xff, 0x01, 0x3c,
  0xac, 0x77, 0x25, 0x3c, 0xc5, 0x26, 0x08, 0x3c, 0xb2, 0xc2, 0x0b, 0x3c,
  0x16, 0xb2, 0xed, 0x3b, 0x12, 0x00, 0x00, 0x00, 0x74, 0x66, 0x6c, 0x2e,
  0x70, 0x73, 0x65, 0x75, 0x64, 0x6f, 0x5f, 0x71, 0x63, 0x6f, 0x6e, 0x73,
  0x74, 0x33, 0x00, 0x00, 0x02, 0x00, 0x00, 0x00, 0x10, 0x00, 0x00, 0x00,
  0x08, 0x00, 0x00, 0x00, 0xea, 0xfc, 0xff, 0xff, 0x00, 0x00, 0x00, 0x01,
  0x14, 0x00, 0x00, 0x00, 0xe4, 0x00, 0x00, 0x00, 0x07, 0x00, 0x00, 0x00,
  0x00, 0x00, 0x00, 0x02, 0xf0, 0x00, 0x00, 0x00, 0xd4, 0xfc, 0xff, 0xff,
  0x08, 0x00, 0x00, 0x00, 0x88, 0x00, 0x00, 0x00, 0x10, 0x00, 0x00, 0x00,
  0x00, 0x00, 0x00, 0x00, 0x00, 0x00, 0x00, 0x00, 0x00, 0x00, 0x00, 0x00,
  0x00, 0x00, 0x00, 0x00, 0x00, 0x00, 0x00, 0x00, 0x00, 0x00, 0x00, 0x00,
  0x00, 0x00, 0x00, 0x00, 0x00, 0x00, 0x00, 0x00, 0x00, 0x00, 0x00, 0x00,
  0x00, 0x00, 0x00, 0x00, 0x00, 0x00, 0x00, 0x00, 0x00, 0x00, 0x00, 0x00,
  0x00, 0x00, 0x00, 0x00, 0x00, 0x00, 0x00, 0x00, 0x00, 0x00, 0x00, 0x00,
  0x00, 0x00, 0x00, 0x00, 0x00, 0x00, 0x00, 0x00, 0x00, 0x00, 0x00, 0x00,
  0x00, 0x00, 0x00, 0x00, 0x00, 0x00, 0x00, 0x00, 0x00, 0x00, 0x00, 0x00,
  0x00, 0x00, 0x00, 0x00, 0x00, 0x00, 0x00, 0x00, 0x00, 0x00, 0x00, 0x00,
  0x00, 0x00, 0x00, 0x00, 0x00, 0x00, 0x00, 0x00, 0x00, 0x00, 0x00, 0x00,
  0x00, 0x00, 0x00, 0x00, 0x00, 0x00, 0x00, 0x00, 0x00, 0x00, 0x00, 0x00,
  0x00, 0x00, 0x00, 0x00, 0x00, 0x00, 0x00, 0x00, 0x10, 0x00, 0x00, 0x00,
  0xa6, 0x77, 0x0d, 0x39, 0x41, 0xf2, 0x0e, 0x39, 0x75, 0x45, 0x17, 0x39,
  0x93, 0xc7, 0x40, 0x39, 0x43, 0xcd, 0xff, 0x38, 0x9b, 0x7d, 0x1a, 0x39,
  0x07, 0xa4, 0xea, 0x38, 0x1c, 0xc6, 0x17, 0x39, 0x71, 0xd4, 0xd2, 0x38,
  0xa1, 0xe6, 0x04, 0x39, 0x01, 0x22, 0x2b, 0x39, 0x37, 0xf8, 0x07, 0x39,
  0x87, 0x11, 0x2d, 0x39, 0xe0, 0x67, 0x0e, 0x39, 0x3e, 0x2e, 0x12, 0x39,
  0x53, 0x9d, 0xf8, 0x38, 0x12, 0x00, 0x00, 0x00, 0x74, 0x66, 0x6c, 0x2e,
  0x70, 0x73, 0x65, 0x75, 0x64, 0x6f, 0x5f, 0x71, 0x63, 0x6f, 0x6e, 0x73,
  0x74, 0x32, 0x00, 0x00, 0x01, 0x00, 0x00, 0x00, 0x10, 0x00, 0x00, 0x00,
  0xfa, 0xfd, 0xff, 0xff, 0x00, 0x00, 0x00, 0x01, 0x14, 0x00, 0x00, 0x00,
  0x78, 0x00, 0x00, 0x00, 0x06, 0x00, 0x00, 0x00, 0x00, 0x00, 0x00, 0x09,
  0x84, 0x00, 0x00, 0x00, 0xe4, 0xfd, 0xff, 0xff, 0x08, 0x00, 0x00, 0x00,
  0x40, 0x00, 0x00, 0x00, 0x07, 0x00, 0x00, 0x00, 0x00, 0x00, 0x00, 0x00,
  0x00, 0x00, 0x00, 0x00, 0x00, 0x00, 0x00, 0x00, 0x00, 0x00, 0x00, 0x00,
  0x00, 0x00, 0x00, 0x00, 0x00, 0x00, 0x00, 0x00, 0x00, 0x00, 0x00, 0x00,
  0x00, 0x00, 0x00, 0x00, 0x00, 0x00, 0x00, 0x00, 0x00, 0x00, 0x00, 0x00,
  0x00, 0x00, 0x00, 0x00, 0x00, 0x00, 0x00, 0x00, 0x00, 0x00, 0x00, 0x00,
  0x00, 0x00, 0x00, 0x00, 0x07, 0x00, 0x00, 0x00, 0xa7, 0x05, 0x73, 0x3d,
  0xcd, 0x6f, 0x56, 0x3d, 0x71, 0xe4, 0x3b, 0x3d, 0x39, 0x65, 0xa6, 0x3d,
  0xcc, 0x9c, 0x9d, 0x3d, 0xd8, 0x1c, 0x1e, 0x3d, 0x9b, 0x41, 0x1a, 0x3d,
  0x12, 0x00, 0x00, 0x00, 0x74, 0x66, 0x6c, 0x2e, 0x70, 0x73, 0x65, 0x75,
  0x64, 0x6f, 0x5f, 0x71, 0x63, 0x6f, 0x6e, 0x73, 0x74, 0x31, 0x00, 0x00,
  0x02, 0x00, 0x00, 0x00, 0x07, 0x00, 0x00, 0x00, 0x10, 0x00, 0x00, 0x00,
  0xa2, 0xfe, 0xff, 0xff, 0x00, 0x00, 0x00, 0x01, 0x14, 0x00, 0x00, 0x00,
  0x7c, 0x00, 0x00, 0x00, 0x05, 0x00, 0x00, 0x00, 0x00, 0x00, 0x00, 0x02,
  0x88, 0x00, 0x00, 0x00, 0x8c, 0xfe, 0xff, 0xff, 0x08, 0x00, 0x00, 0x00,
  0x44, 0x00, 0x00, 0x00, 0x07, 0x00, 0x00, 0x00, 0x00, 0x00, 0x00, 0x00,
  0x00, 0x00, 0x00, 0x00, 0x00, 0x00, 0x00, 0x00, 0x00, 0x00, 0x00, 0x00,
  0x00, 0x00, 0x00, 0x00, 0x00, 0x00, 0x00, 0x00, 0x00, 0x00, 0x00, 0x00,
  0x00, 0x00, 0x00, 0x00, 0x00, 0x00, 0x00, 0x00, 0x00, 0x00, 0x00, 0x00,
  0x00, 0x00, 0x00, 0x00, 0x00, 0x00, 0x00, 0x00, 0x00, 0x00, 0x00, 0x00,
  0x00, 0x00, 0x00, 0x00, 0x00, 0x00, 0x00, 0x00, 0x07, 0x00, 0x00, 0x00,
  0x7c, 0x18, 0x39, 0x3a, 0xe8, 0x52, 0x23, 0x3a, 0x48, 0x1b, 0x0f, 0x3a,
  0x9b, 0x77, 0x7d, 0x3a, 0x9e, 0x16, 0x70, 0x3a, 0xab, 0xd9, 0xf0, 0x39,
  0xd3, 0xf9, 0xea, 0x39, 0x11, 0x00, 0x00, 0x00, 0x74, 0x66, 0x6c, 0x2e,
  0x70, 0x73, 0x65, 0x75, 0x64, 0x6f, 0x5f, 0x71, 0x63, 0x6f, 0x6e, 0x73,
  0x74, 0x00, 0x00, 0x00, 0x01, 0x00, 0x00, 0x00, 0x07, 0x00, 0x00, 0x00,
  0x4a, 0xff, 0xff, 0xff, 0x00, 0x00, 0x00, 0x01, 0x14, 0x00, 0x00, 0x00,
  0x14, 0x00, 0x00, 0x00, 0x04, 0x00, 0x00, 0x00, 0x00, 0x00, 0x00, 0x02,
  0x1c, 0x00, 0x00, 0x00, 0x8c, 0xff, 0xff, 0xff, 0x0f, 0x00, 0x00, 0x00,
  0x61, 0x72, 0x69, 0x74, 0x68, 0x2e, 0x63, 0x6f, 0x6e, 0x73, 0x74, 0x61,
  0x6e, 0x74, 0x32, 0x00, 0x00, 0x00, 0x00, 0x00, 0x82, 0xff, 0xff, 0xff,
  0x00, 0x00, 0x00, 0x01, 0x14, 0x00, 0x00, 0x00, 0x14, 0x00, 0x00, 0x00,
  0x03, 0x00, 0x00, 0x00, 0x00, 0x00, 0x00, 0x02, 0x1c, 0x00, 0x00, 0x00,
  0xc4, 0xff, 0xff, 0xff, 0x0f, 0x00, 0x00, 0x00, 0x61, 0x72, 0x69, 0x74,
  0x68, 0x2e, 0x63, 0x6f, 0x6e, 0x73, 0x74, 0x61, 0x6e, 0x74, 0x31, 0x00,
  0x01, 0x00, 0x00, 0x00, 0x03, 0x00, 0x00, 0x00, 0xbe, 0xff, 0xff, 0xff,
  0x00, 0x00, 0x00, 0x01, 0x18, 0x00, 0x00, 0x00, 0x18, 0x00, 0x00, 0x00,
  0x02, 0x00, 0x00, 0x00, 0x00, 0x00, 0x00, 0x02, 0x20, 0x00, 0x00, 0x00,
  0x04, 0x00, 0x04, 0x00, 0x04, 0x00, 0x00, 0x00, 0x0e, 0x00, 0x00, 0x00,
  0x61, 0x72, 0x69, 0x74, 0x68, 0x2e, 0x63, 0x6f, 0x6e, 0x73, 0x74, 0x61,
  0x6e, 0x74, 0x00, 0x00, 0x01, 0x00, 0x00, 0x00, 0x04, 0x00, 0x00, 0x00,
  0x00, 0x00, 0x16, 0x00, 0x1c, 0x00, 0x18, 0x00, 0x17, 0x00, 0x10, 0x00,
  0x0c, 0x00, 0x08, 0x00, 0x00, 0x00, 0x00, 0x00, 0x00, 0x00, 0x07, 0x00,
  0x16, 0x00, 0x00, 0x00, 0x00, 0x00, 0x00, 0x01, 0x20, 0x00, 0x00, 0x00,
  0x3c, 0x00, 0x00, 0x00, 0x01, 0x00, 0x00, 0x00, 0x00, 0x00, 0x00, 0x09,
  0x54, 0x00, 0x00, 0x00, 0x0c, 0x00, 0x0c, 0x00, 0x00, 0x00, 0x00, 0x00,
  0x08, 0x00, 0x04, 0x00, 0x0c, 0x00, 0x00, 0x00, 0x08, 0x00, 0x00, 0x00,
  0x10, 0x00, 0x00, 0x00, 0x01, 0x00, 0x00, 0x00, 0x90, 0xff, 0xff, 0xff,
  0xff, 0xff, 0xff, 0xff, 0x01, 0x00, 0x00, 0x00, 0xc1, 0xb9, 0x1c, 0x3f,
  0x1e, 0x00, 0x00, 0x00, 0x73, 0x65, 0x72, 0x76, 0x69, 0x6e, 0x67, 0x5f,
  0x64, 0x65, 0x66, 0x61, 0x75, 0x6c, 0x74, 0x5f, 0x6b, 0x65, 0x72, 0x61,
  0x73, 0x5f, 0x74, 0x65, 0x6e, 0x73, 0x6f, 0x72, 0x3a, 0x30, 0x00, 0x00,
  0x03, 0x00, 0x00, 0x00, 0x01, 0x00, 0x00, 0x00, 0xf4, 0x01, 0x00, 0x00,
  0x06, 0x00, 0x00, 0x00, 0x05, 0x00, 0x00, 0x00, 0x6c, 0x00, 0x00, 0x00,
  0x4c, 0x00, 0x00, 0x00, 0x2c, 0x00, 0x00, 0x00, 0x18, 0x00, 0x00, 0x00,
  0x04, 0x00, 0x00, 0x00, 0xd0, 0xff, 0xff, 0xff, 0x19, 0x00, 0x00, 0x00,
  0x02, 0x00, 0x00, 0x00, 0x00, 0x00, 0x00, 0x19, 0xe0, 0xff, 0xff, 0xff,
  0x09, 0x00, 0x00, 0x00, 0x04, 0x00, 0x00, 0x00, 0x00, 0x00, 0x00, 0x09,
  0xf0, 0xff, 0xff, 0xff, 0x28, 0x00, 0x00, 0x00, 0x02, 0x00, 0x00, 0x00,
  0x00, 0x00, 0x00, 0x28, 0x0c, 0x00, 0x10, 0x00, 0x0f, 0x00, 0x00, 0x00,
  0x08, 0x00, 0x04, 0x00, 0x0c, 0x00, 0x00, 0x00, 0x03, 0x00, 0x00, 0x00,
  0x03, 0x00, 0x00, 0x00, 0x00, 0x00, 0x00, 0x03, 0x0c, 0x00, 0x0c, 0x00,
  0x0b, 0x00, 0x00, 0x00, 0x00, 0x00, 0x04, 0x00, 0x0c, 0x00, 0x00, 0x00,
  0x16, 0x00, 0x00, 0x00, 0x00, 0x00, 0x00, 0x16
};
inline const unsigned int gesture_model_0_tflite_len = 8672;
