
inline const unsigned char gesture_model_1_tflite[] = {
  0x1c, 0x00, 0x00, 0x00, 0x54, 0x46, 0x4c, 0x33, 0x14, 0x00, 0x20, 0x00,
  0x1c, 0x00, 0x18, 0x00, 0x14, 0x00, 0x10, 0x00, 0x0c, 0x00, 0x00, 0x00,
  0x08, 0x00, 0x04, 0x00, 0x14, 0x00, 0x00, 0x00, 0x1c, 0x00, 0x00, 0x00,
  0x98, 0x00, 0x00, 0x00, 0x18, 0x01, 0x00, 0x00, 0x6c, 0x0c, 0x00, 0x00,
  0x7c, 0x0c, 0x00, 0x00, 0x90, 0x21, 0x00, 0x00, 0x03, 0x00, 0x00, 0x00,
  0x01, 0x00, 0x00, 0x00, 0x10, 0x00, 0x00, 0x00, 0x00, 0x00, 0x0a, 0x00,
  0x10, 0x00, 0x0c, 0x00, 0x08, 0x00, 0x04, 0x00, 0x0a, 0x00, 0x00, 0x00,
  0x0c, 0x00, 0x00, 0x00, 0x1c, 0x00, 0x00, 0x00, 0x3c, 0x00, 0x00, 0x00,
  0x0f, 0x00, 0x00, 0x00, 0x73, 0x65, 0x72, 0x76, 0x69, 0x6e, 0x67, 0x5f,
  0x64, 0x65, 0x66, 0x61, 0x75, 0x6c, 0x74, 0x00, 0x01, 0x00, 0x00, 0x00,
  0x04, 0x00, 0x00, 0x00, 0x68, 0xff, 0xff, 0xff, 0x16, 0x00, 0x00, 0x00,
  0x04, 0x00, 0x00, 0x00, 0x08, 0x00, 0x00, 0x00, 0x6f, 0x75, 0x74, 0x70,
  0x75, 0x74, 0x5f, 0x30, 0x00, 0x00, 0x00, 0x00, 0x01, 0x00, 0x00, 0x00,
  0x04, 0x00, 0x00, 0x00, 0x76, 0xf3, 0xff, 0xff, 0x04, 0x00, 0x00, 0x00,
  0x0f, 0x00, 0x00, 0x00, 0x6b, 0x65, 0x72, 0x61, 0x73, 0x5f, 0x74, 0x65,
  0x6e, 0x73, 0x6f, 0x72, 0x5f, 0x31, 0x34, 0x00, 0x03, 0x00, 0x00, 0x00,
  0x5c, 0x00, 0x00, 0x00, 0x2c, 0x00, 0x00, 0x00, 0x04, 0x00, 0x00, 0x00,
  0xb8, 0xff, 0xff, 0xff, 0x1a, 0x00, 0x00, 0x00, 0x04, 0x00, 0x00, 0x00,
  0x13, 0x00, 0x00, 0x00, 0x43, 0x4f, 0x4e, 0x56, 0x45, 0x52, 0x53, 0x49,
  0x4f, 0x4e, 0x5f, 0x4d, 0x45, 0x54, 0x41, 0x44, 0x41, 0x54, 0x41, 0x00,
  0xdc, 0xff, 0xff, 0xff, 0x19, 0x00, 0x00, 0x00, 0x04, 0x00, 0x00, 0x00,
  0x13, 0x00, 0x00, 0x00, 0x6d, 0x69, 0x6e, 0x5f, 0x72, 0x75, 0x6e, 0x74,
  0x69, 0x6d, 0x65, 0x5f, 0x76, 0x65, 0x72, 0x73, 0x69, 0x6f, 0x6e, 0x00,
  0x08, 0x00, 0x0c, 0x00, 0x08, 0x00, 0x04, 0x00, 0x08, 0x00, 0x00, 0x00,
  0x18, 0x00, 0x00, 0x00, 0x04, 0x00, 0x00, 0x00, 0x13, 0x00, 0x00, 0x00,
  0x6d, 0x69, 0x6e, 0x5f, 0x72, 0x75, 0x6e, 0x74, 0x69, 0x6d, 0x65, 0x5f,
  0x76, 0x65, 0x72, 0x73, 0x69, 0x6f, 0x6e, 0x00, 0x1b, 0x00, 0x00, 0x00,
  0x50, 0x0b, 0x00, 0x00, 0x48, 0x0b, 0x00, 0x00, 0x28, 0x0b, 0x00, 0x00,
  0x0c, 0x0b, 0x00, 0x00, 0xf8, 0x0a, 0x00, 0x00, 0xcc, 0x0a, 0x00, 0x00,
  0x4c, 0x0a, 0x00, 0x00, 0xfc, 0x09, 0x00, 0x00, 0x6c, 0x09, 0x00, 0x00,
  0x3c, 0x09, 0x00, 0x00, 0x0c, 0x08, 0x00, 0x00, 0xcc, 0x07, 0x00, 0x00,
  0xfc, 0x03, 0x00, 0x00, 0xac, 0x03, 0x00, 0x00, 0xfc, 0x00, 0x00, 0x00,
  0xf4, 0x00, 0x00, 0x00, 0xec, 0x00, 0x00, 0x00, 0xe4, 0x00, 0x00, 0x00,
  0xdc, 0x00, 0x00, 0x00, 0xd4, 0x00, 0x00, 0x00, 0xcc, 0x00, 0x00, 0x00,
  0xc4, 0x00, 0x00, 0x00, 0xbc, 0x00, 0x00, 0x00, 0xb4, 0x00, 0x00, 0x00,
  0x94, 0x00, 0x00, 0x00, 0x74, 0x00, 0x00, 0x00, 0x04, 0x00, 0x00, 0x00,
  0x86, 0xf4, 0xff, 0xff, 0x04, 0x00, 0x00, 0x00, 0x60, 0x00, 0x00, 0x00,
  0x0c, 0x00, 0x00, 0x00, 0x08, 0x00, 0x0e, 0x00, 0x08, 0x00, 0x04, 0x00,
  0x08, 0x00, 0x00, 0x00, 0x10, 0x00, 0x00, 0x00, 0x28, 0x00, 0x00, 0x00,
  0x00, 0x00, 0x06, 0x00, 0x08, 0x00, 0x04, 0x00, 0x06, 0x00, 0x00, 0x00,
  0x04, 0x00, 0x00, 0x00, 0x01, 0x00, 0x00, 0x00, 0xeb, 0x03, 0x00, 0x00,
  0x0c, 0x00, 0x18, 0x00, 0x14, 0x00, 0x10, 0x00, 0x0c, 0x00, 0x04, 0x00,
  0x0c, 0x00, 0x00, 0x00, 0x90, 0x23, 0x1c, 0x91, 0xe1, 0x42, 0xe3, 0x7e,
  0x02, 0x00, 0x00, 0x00, 0x02, 0x00, 0x00, 0x00, 0x04, 0x00, 0x00, 0x00,
  0x06, 0x00, 0x00, 0x00, 0x32, 0x2e, 0x31, 0x39, 0x2e, 0x30, 0x00, 0x00,
  0xf2, 0xf4, 0xff, 0xff, 0x04, 0x00, 0x00, 0x00, 0x10, 0x00, 0x00, 0x00,
  0x00, 0x00, 0x00, 0x00, 0x00, 0x00, 0x00, 0x00, 0x00, 0x00, 0x00, 0x00,
  0x00, 0x00, 0x00, 0x00, 0x0e, 0xf5, 0xff, 0xff, 0x04, 0x00, 0x00, 0x00,
  0x10, 0x00, 0x00, 0x00, 0x31, 0x2e, 0x31, 0x34, 0x2e, 0x30, 0x00, 0x00,
  0x00, 0x00, 0x00, 0x00, 0x00, 0x00, 0x00, 0x00, 0x50, 0xe1, 0xff, 0xff,
  0x54, 0xe1, 0xff, 0xff, 0x58, 0xe1, 0xff, 0xff, 0x5c, 0xe1, 0xff, 0xff,
  0x60, 0xe1, 0xff, 0xff, 0x64, 0xe1, 0xff, 0xff, 0x68, 0xe1, 0xff, 0xff,
  0x6c, 0xe1, 0xff, 0xff, 0x70, 0xe1, 0xff, 0xff, 0x4e, 0xf5, 0xff, 0xff,
  0x04, 0x00, 0x00, 0x00, 0xa0, 0x02, 0x00, 0x00, 0xb8, 0x0c, 0x66, 0xd8,
  0xd7, 0x62, 0xe7, 0xee, 0x39, 0xdd, 0xc5, 0x5d, 0x0a, 0xf4, 0x42, 0xf9,
  0xd3, 0x22, 0x40, 0xdd, 0x24, 0x0b, 0x13, 0x31, 0x72, 0xe7, 0x2a, 0x1e,
  0x0c, 0x1f, 0x7b, 0xf2, 0x00, 0x14, 0x32, 0xf4, 0x6d, 0xd4, 0xf3, 0x34,
  0x7f, 0xef, 0x3a, 0x4d, 0xfa, 0x25, 0x0f, 0xb4, 0x23, 0x0e, 0xe7, 0x05,
  0xf7, 0xe7, 0x1c, 0x04, 0xeb, 0x0a, 0xe6, 0xfe, 0x05, 0xff, 0x0d, 0x02,
  0xc9, 0x10, 0xda, 0x05, 0x01, 0x1d, 0xd8, 0x4a, 0xc5, 0xe7, 0x17, 0x26,
  0xcc, 0x72, 0xad, 0xf9, 0x3b, 0x1b, 0xd7, 0x7f, 0xfe, 0x0f, 0x01, 0x36,
  0x07, 0x81, 0x0d, 0x33, 0x1e, 0x1e, 0x07, 0x95, 0x1d, 0x21, 0x26, 0x13,
  0x1e, 0xa7, 0x3b, 0x20, 0x29, 0x01, 0x25, 0xbe, 0x0a, 0xf4, 0x09, 0xf4,
  0x11, 0xf1, 0x07, 0x05, 0xfc, 0xdd, 0x01, 0x02, 0x0e, 0xfc, 0x01, 0xc7,
  0x19, 0x19, 0xc7, 0x49, 0x2f, 0xc9, 0x17, 0xba, 0xbb, 0x2a, 0x14, 0xa1,
  0x3b, 0xc2, 0xfc, 0x44, 0x21, 0xdf, 0x38, 0xf1, 0xee, 0x24, 0x1d, 0xe1,
  0x5d, 0xe9, 0x1d, 0x43, 0x27, 0xef, 0x36, 0xd1, 0x21, 0x1d, 0x26, 0x23,
  0x4a, 0xf7, 0x2e, 0x39, 0x42, 0x25, 0x7f, 0xf1, 0x0a, 0xee, 0x21, 0x00,
  0x08, 0x53, 0xfa, 0xe5, 0x09, 0x03, 0x0e, 0x2e, 0xe9, 0xe1, 0xfb, 0xdf,
  0x02, 0x05, 0x01, 0xfa, 0x0f, 0xe6, 0xfb, 0xe8, 0xec, 0xe3, 0xef, 0xf0,
  0x03, 0xdf, 0xea, 0xef, 0xf2, 0xd4, 0xee, 0xac, 0xd2, 0xf7, 0x06, 0xcc,
  0xdf, 0x81, 0x7f, 0x41, 0x45, 0x06, 0x02, 0xfc, 0x7c, 0xf3, 0x64, 0x18,
  0xc7, 0x0e, 0x6d, 0xdb, 0x37, 0xf4, 0xd6, 0xe0, 0x2d, 0xc7, 0x33, 0xe0,
  0xa4, 0x06, 0xf7, 0xdc, 0x46, 0xf9, 0xbf, 0x3e, 0xbe, 0xf6, 0x79, 0x1b,
  0x9d, 0x15, 0x94, 0xe3, 0x5a, 0x49, 0x9d, 0x39, 0x69, 0x01, 0xce, 0xd7,
  0xe5, 0x18, 0x7f, 0x0b, 0x03, 0xc3, 0xf4, 0xf3, 0x65, 0xef, 0x03, 0xbb,
  0xfc, 0x0d, 0x29, 0x07, 0x32, 0xea, 0xd2, 0xde, 0xe8, 0x3f, 0x3e, 0x27,
  0xff, 0xdb, 0xbe, 0x45, 0x70, 0x2f, 0xb0, 0xe8, 0xc7, 0x11, 0x43, 0x35,
  0xaa, 0xa6, 0x1c, 0x64, 0x11, 0xc0, 0x09, 0x9a, 0x37, 0x3c, 0x20, 0xdb,
  0x3b, 0x92, 0x3c, 0x24, 0x11, 0xc2, 0x1d, 0xb2, 0x3c, 0x10, 0xfd, 0xb0,
  0x3d, 0xa0, 0x25, 0x22, 0x1c, 0xda, 0x0f, 0xd6, 0x2a, 0xfc, 0xe0, 0xc0,
  0x4d, 0xf2, 0x32, 0xd8, 0xa3, 0x81, 0x5c, 0xe6, 0x09, 0x04, 0xb5, 0xf4,
  0xfb, 0x7f, 0xec, 0x00, 0xcf, 0x00, 0x09, 0x62, 0x01, 0x0a, 0xdd, 0x0f,
  0xf2, 0x54, 0x14, 0x03, 0xdd, 0xf4, 0x08, 0x4a, 0x0c, 0x19, 0x21, 0xf3,
  0xff, 0x5a, 0x02, 0xfa, 0x3d, 0x14, 0x13, 0x6b, 0xea, 0xda, 0x1c, 0xe7,
  0x2c, 0x75, 0xc7, 0xe6, 0x2d, 0x1f, 0x31, 0x93, 0xf9, 0xf4, 0x27, 0xf3,
  0x35, 0x9e, 0xf2, 0x00, 0x01, 0xfb, 0x3a, 0x87, 0xfb, 0x0c, 0x02, 0xf8,
  0x1a, 0x81, 0x0f, 0xf0, 0xec, 0xf7, 0xf7, 0x9c, 0x14, 0x05, 0xde, 0xc9,
  0xc2, 0xa4, 0xfd, 0xe4, 0xec, 0xbe, 0xc1, 0xd7, 0x38, 0x67, 0x50, 0x9b,
  0xf3, 0xe6, 0x1b, 0x44, 0x1c, 0xb0, 0xfc, 0xff, 0x1d, 0x42, 0x0c, 0xd9,
  0x1a, 0xfa, 0xfe, 0x53, 0xfd, 0xf2, 0x13, 0xf2, 0x08, 0x6d, 0x3e, 0x0a,
  0xe3, 0x2e, 0xe4, 0x6d, 0x4e, 0x54, 0xef, 0x0c, 0xd9, 0x7e, 0x3c, 0x7f,
  0xc3, 0x34, 0xd2, 0xcc, 0x64, 0x41, 0xf3, 0xf9, 0xfc, 0xdd, 0x3f, 0x23,
  0xf9, 0xe2, 0xf0, 0xcd, 0x3d, 0x18, 0x07, 0x07, 0x14, 0xcc, 0x2d, 0x11,
  0x0c, 0xfd, 0xfe, 0xe3, 0x32, 0xf2, 0x41, 0x18, 0x1c, 0xd9, 0x38, 0x1a,
  0x4f, 0x15, 0x28, 0xe1, 0x22, 0xfe, 0x7f, 0x2a, 0x46, 0x07, 0xb7, 0x44,
  0x95, 0xa4, 0x7f, 0xe6, 0xf4, 0x3b, 0xd3, 0xd2, 0x65, 0xd7, 0x32, 0x28,
  0xcb, 0xbb, 0x30, 0xd0, 0x2c, 0xea, 0xe7, 0xdb, 0x20, 0xd0, 0x3a, 0xf3,
  0xf4, 0xc5, 0x23, 0x9e, 0x47, 0xf4, 0xe9, 0xd4, 0x20, 0x91, 0x74, 0xd8,
  0x01, 0xb4, 0xf6, 0xdf, 0x81, 0xd3, 0xb5, 0xc6, 0x0c, 0xe7, 0xb4, 0xf2,
  0xd6, 0xb9, 0xfd, 0xf1, 0xc1, 0xfd, 0xdf, 0xc6, 0x12, 0xf2, 0xf3, 0x1b,
  0xcb, 0xe6, 0xf9, 0xfe, 0x10, 0x11, 0xf3, 0xd7, 0x07, 0xf9, 0x2f, 0x03,
  0xec, 0xe9, 0x27, 0xff, 0x0d, 0x05, 0xcb, 0xe2, 0x0b, 0x42, 0x6c, 0x2c,
  0x39, 0x17, 0x0c, 0x1d, 0x4a, 0x06, 0x1c, 0x42, 0x35, 0x2a, 0x56, 0x02,
  0xf9, 0x35, 0x39, 0x5c, 0x31, 0xd6, 0xc9, 0x1d, 0x67, 0x79, 0x1e, 0xdc,
  0xc2, 0x6a, 0x60, 0x47, 0x52, 0xff, 0xd8, 0x56, 0x7d, 0x4f, 0x3d, 0x1b,
  0xca, 0x7f, 0xd9, 0xf3, 0x0a, 0x55, 0xfc, 0x6e, 0xde, 0xd8, 0xe5, 0x3c,
  0x1c, 0x54, 0xd5, 0xf2, 0xf7, 0x21, 0x07, 0x45, 0xd5, 0x0b, 0xfd, 0x02,
  0x2b, 0x40, 0xe3, 0x08, 0x03, 0xd2, 0x39, 0x57, 0x09, 0xf6, 0xfa, 0xd2,
  0x29, 0x64, 0x14, 0xfb, 0xde, 0xb4, 0x54, 0x7f, 0xfa, 0xf7, 0xff, 0xff,
  0x04, 0x00, 0x00, 0x00, 0x40, 0x00, 0x00, 0x00, 0xdc, 0xfe, 0xff, 0xff,
  0x4c, 0xff, 0xff, 0xff, 0xb9, 0xfe, 0xff, 0xff, 0x68, 0xff, 0xff, 0xff,
  0x1b, 0x00, 0x00, 0x00, 0xe1, 0xfe, 0xff, 0xff, 0x1c, 0x00, 0x00, 0x00,
  0xe3, 0xff, 0xff, 0xff, 0xd3, 0xfe, 0xff, 0xff, 0xde, 0x00, 0x00, 0x00,
  0x4b, 0xff, 0xff, 0xff, 0xef, 0xfe, 0xff, 0xff, 0xc0, 0xfd, 0xff, 0xff,
  0xe7, 0xfd, 0xff, 0xff, 0xed, 0xfe, 0xff, 0xff, 0x09, 0xfe, 0xff, 0xff,
  0x46, 0xf8, 0xff, 0xff, 0x04, 0x00, 0x00, 0x00, 0xc0, 0x03, 0x00, 0x00,
  0xb5, 0x07, 0x3c, 0xc9, 0xf6, 0xcb, 0x2b, 0x0f, 0xe4, 0xb5, 0xf6, 0xc4,
  0x46, 0x2f, 0xe9, 0xe6, 0xb4, 0xfa, 0x09, 0xe3, 0x04, 0xe9, 0x18, 0x07,
  0xf3, 0xad, 0xd2, 0xe9, 0x49, 0xf7, 0xc3, 0xef, 0xc2, 0xd1, 0x20, 0xcc,
  0xdb, 0xd8, 0x07, 0xce, 0x18, 0xbb, 0xef, 0xcb, 0x32, 0xf8, 0xf5, 0xfd,
  0xc0, 0xff, 0x24, 0x13, 0xa1, 0xd2, 0x3f, 0xf5, 0x0e, 0xe4, 0xee, 0xdd,
  0x0b, 0xdd, 0x18, 0x0d, 0x99, 0x03, 0x0a, 0x06, 0x81, 0xed, 0x1b, 0xb9,
  0x20, 0xb6, 0xea, 0xe1, 0x0b, 0xec, 0x17, 0x3a, 0x2f, 0x90, 0xd6, 0x4e,
  0x1e, 0x11, 0x42, 0x60, 0x9e, 0xef, 0x21, 0x71, 0x1a, 0xd9, 0xfd, 0x09,
  0x12, 0xbc, 0xde, 0x20, 0x07, 0x27, 0x06, 0x73, 0xa2, 0xec, 0x0a, 0x3e,
  0xfa, 0xf2, 0x19, 0xfe, 0x16, 0xe0, 0xf3, 0x1c, 0x0e, 0x01, 0xea, 0x26,
  0xca, 0x07, 0x30, 0x20, 0xe5, 0x03, 0xf0, 0x02, 0x03, 0xf8, 0xf5, 0x02,
  0xfd, 0x01, 0x07, 0xf8, 0x0d, 0xe1, 0x0c, 0xd7, 0xf1, 0x27, 0x26, 0xfa,
  0x03, 0x23, 0x00, 0xc5, 0xba, 0xfc, 0x8a, 0x81, 0x42, 0x98, 0x44, 0xc3,
  0xef, 0x0c, 0x1d, 0xf1, 0xa6, 0x31, 0xcf, 0xa4, 0x1c, 0xf4, 0xea, 0xf9,
  0xcd, 0x0d, 0xe9, 0xe8, 0x03, 0xdc, 0xca, 0xab, 0xb4, 0xff, 0xb9, 0xc7,
  0x14, 0xff, 0xed, 0xf8, 0xd6, 0x1c, 0xec, 0xe5, 0x18, 0xfc, 0xe7, 0xd1,
  0xd2, 0xd9, 0xeb, 0xde, 0x16, 0x09, 0x28, 0x0a, 0xed, 0xe7, 0xec, 0xd7,
  0x0d, 0xf8, 0x19, 0xf7, 0x2b, 0x99, 0x16, 0xf8, 0xf4, 0xee, 0x0a, 0xed,
  0xdc, 0x06, 0x01, 0xd1, 0xf6, 0x02, 0x1d, 0x00, 0x73, 0x81, 0x1b, 0x2f,
  0xd0, 0xc4, 0xfb, 0x16, 0xed, 0xee, 0xe8, 0xdc, 0xb2, 0x09, 0x0e, 0x04,
  0xd3, 0x17, 0x2c, 0x39, 0x26, 0x0e, 0x30, 0x00, 0xc4, 0x4a, 0xdb, 0x13,
  0xbf, 0x17, 0xd5, 0x0d, 0xcd, 0x07, 0x11, 0x12, 0x0d, 0x14, 0x20, 0xed,
  0xc3, 0x3c, 0xfc, 0xf5, 0xdc, 0x19, 0xdc, 0xfe, 0xea, 0x02, 0x1a, 0x07,
  0xe9, 0xf8, 0x21, 0x0d, 0xe5, 0x1e, 0xfb, 0xe9, 0xdd, 0x04, 0x00, 0xfd,
  0x03, 0x03, 0xe8, 0xf2, 0xa7, 0xf2, 0xb6, 0x0d, 0xff, 0xe8, 0x0b, 0xf4,
  0xd5, 0xe3, 0x20, 0xfb, 0x1d, 0x1e, 0xd0, 0xe5, 0x81, 0x07, 0xb4, 0x2d,
  0xff, 0xcb, 0xe8, 0xfb, 0xf3, 0xf5, 0x43, 0x07, 0xff, 0xb7, 0x5c, 0xc3,
  0x01, 0xe4, 0x4c, 0x40, 0xd7, 0x7f, 0x76, 0x04, 0x01, 0xe5, 0xb9, 0xf9,
  0x0b, 0xe5, 0x1b, 0xd3, 0x14, 0x18, 0x0a, 0x04, 0xd6, 0x56, 0x3c, 0x11,
  0xfe, 0xd7, 0xd8, 0xef, 0x0d, 0x34, 0xcf, 0xa4, 0xef, 0xf4, 0xdf, 0x06,
  0xf9, 0x16, 0x21, 0x11, 0x04, 0xd6, 0xd7, 0xfd, 0x4b, 0x2f, 0x8c, 0xb3,
  0xe9, 0x28, 0xfe, 0xc4, 0x2f, 0x11, 0xfc, 0x17, 0x48, 0xb9, 0xfd, 0x13,
  0x79, 0x68, 0x8e, 0xa1, 0xd1, 0x00, 0x19, 0xbb, 0x16, 0xe4, 0xb5, 0xfe,
  0x68, 0xba, 0x00, 0x5a, 0xc6, 0x9b, 0xc4, 0x09, 0x25, 0xf4, 0xbe, 0xd8,
  0xf3, 0x1e, 0xe1, 0x19, 0xf6, 0xfa, 0xce, 0x16, 0xe1, 0xc1, 0xbd, 0x02,
  0x0f, 0xf0, 0xa0, 0xe5, 0x08, 0x21, 0xea, 0xe3, 0x11, 0x0e, 0xea, 0x0a,
  0x03, 0xe9, 0xbb, 0x3c, 0x1c, 0xfb, 0xec, 0x06, 0x0e, 0x24, 0xf8, 0xeb,
  0x0c, 0xee, 0x32, 0xf9, 0x11, 0x06, 0xe3, 0x25, 0xfa, 0x07, 0x0a, 0x02,
  0x3d, 0x1c, 0x07, 0xd0, 0x18, 0x10, 0x54, 0x03, 0x34, 0xf2, 0x1f, 0x2d,
  0xcf, 0x1b, 0x48, 0x03, 0x35, 0x38, 0xea, 0x87, 0x2d, 0x1a, 0x7f, 0x08,
  0x26, 0xfa, 0xd5, 0x0d, 0x1c, 0x0b, 0x30, 0xd8, 0xf9, 0xee, 0x02, 0x81,
  0xcd, 0x32, 0x21, 0xb1, 0x10, 0x02, 0xca, 0x10, 0x23, 0xf1, 0x26, 0xdb,
  0x02, 0x03, 0xfb, 0x9a, 0xe5, 0x29, 0x16, 0xb5, 0xf7, 0x08, 0xde, 0x0e,
  0xfa, 0xd8, 0x17, 0xbe, 0x1b, 0xf9, 0x01, 0xa3, 0x00, 0x11, 0x0f, 0xdc,
  0xda, 0xf4, 0x25, 0x20, 0xdd, 0xbf, 0xdd, 0xee, 0x0e, 0x20, 0x0e, 0xd1,
  0xf1, 0x10, 0x0b, 0xfe, 0xca, 0xde, 0x38, 0x12, 0xcf, 0x9d, 0xbd, 0xe6,
  0x41, 0x16, 0xe3, 0xfc, 0xf5, 0x14, 0xf1, 0x1f, 0x0d, 0xe6, 0x35, 0xf0,
  0xca, 0x11, 0x38, 0xe6, 0x81, 0xea, 0x0b, 0x06, 0xfc, 0xfb, 0xc0, 0xfe,
  0x04, 0xe6, 0x1a, 0xf3, 0xdc, 0x1c, 0x03, 0xf0, 0xb5, 0xf8, 0xef, 0xf9,
  0xea, 0xfc, 0xe3, 0x05, 0x11, 0xde, 0xed, 0x17, 0xff, 0xe8, 0xd1, 0x08,
  0x09, 0xf1, 0xd4, 0xf3, 0xd9, 0xf9, 0xeb, 0x12, 0x2b, 0x1a, 0xf4, 0x17,
  0x14, 0xbf, 0xb7, 0x0e, 0x14, 0xf1, 0xe8, 0xe1, 0xc6, 0x07, 0x01, 0x20,
  0x32, 0x39, 0xdd, 0x38, 0x39, 0xea, 0xcf, 0x11, 0x5f, 0x08, 0xe4, 0x07,
  0xc4, 0x1a, 0x31, 0x22, 0xf8, 0x22, 0xa8, 0x19, 0x0a, 0x34, 0xc9, 0xc5,
  0xfc, 0x9f, 0x15, 0x27, 0xaa, 0xa1, 0x2a, 0xf5, 0x1c, 0x25, 0xb4, 0x12,
  0x0f, 0xfc, 0xe5, 0xec, 0xe8, 0xe2, 0x19, 0x0b, 0xee, 0xd5, 0xf9, 0x15,
  0x22, 0xfd, 0xc4, 0x05, 0xe4, 0xbb, 0xee, 0x07, 0xe4, 0x06, 0x10, 0x0b,
  0xdb, 0xdf, 0xe2, 0x17, 0x15, 0xd4, 0xf4, 0xf3, 0x08, 0x88, 0x22, 0x20,
  0xa6, 0x26, 0xf4, 0x10, 0xdf, 0xfd, 0xf3, 0x16, 0x0d, 0xc4, 0x32, 0x16,
  0xf3, 0x81, 0x47, 0x70, 0xba, 0x3d, 0xf4, 0x04, 0xcb, 0x12, 0x02, 0x0e,
  0x10, 0xd2, 0x11, 0x02, 0x17, 0x19, 0x04, 0x01, 0x65, 0x37, 0x37, 0xe4,
  0xdf, 0x05, 0x44, 0x3c, 0x10, 0xf6, 0xfd, 0x18, 0xf4, 0x0f, 0x25, 0xff,
  0x2f, 0xf8, 0x2d, 0xfc, 0xff, 0x0c, 0x12, 0x1e, 0x10, 0x09, 0xbd, 0x1c,
  0x10, 0xf4, 0xf8, 0xe9, 0x03, 0xde, 0xf6, 0xed, 0xfb, 0xdb, 0x0c, 0xf4,
  0xe5, 0x34, 0xf3, 0x0b, 0xfb, 0x01, 0xfb, 0x0b, 0xca, 0xd8, 0xe2, 0x13,
  0x13, 0xf0, 0xe8, 0xb9, 0xe6, 0x2b, 0x06, 0x1b, 0x02, 0xeb, 0xfb, 0xe4,
  0x9a, 0xf8, 0x92, 0xf6, 0x14, 0xd5, 0xc0, 0x81, 0x55, 0xfd, 0x83, 0x0f,
  0xad, 0x06, 0xa6, 0xea, 0x9b, 0x83, 0xe2, 0xff, 0x40, 0x81, 0x07, 0x1f,
  0x3f, 0x0b, 0xba, 0x0b, 0xd3, 0xe0, 0x19, 0xe5, 0xce, 0xb5, 0xdf, 0x21,
  0x32, 0xdb, 0xde, 0x18, 0x29, 0x08, 0xcd, 0x1b, 0xfa, 0x06, 0x32, 0xf1,
  0xbf, 0xf7, 0xee, 0x0b, 0xf6, 0x22, 0xbd, 0x18, 0x0e, 0xf9, 0xc9, 0x2f,
  0x1c, 0xf7, 0x52, 0xef, 0xca, 0x22, 0x05, 0x23, 0x07, 0x47, 0xb1, 0x2e,
  0xdf, 0x34, 0xb6, 0x34, 0x7b, 0x18, 0x1f, 0xf5, 0x9f, 0x4a, 0x3d, 0x27,
  0xeb, 0x3a, 0xdc, 0x34, 0x01, 0x20, 0xea, 0x16, 0x0a, 0x1c, 0xfe, 0x88,
  0x28, 0xd8, 0xfb, 0xe9, 0xd8, 0xc9, 0x23, 0x21, 0x05, 0x0d, 0xd9, 0x0a,
  0xed, 0xfc, 0x0f, 0xe4, 0x23, 0xea, 0xc8, 0xfa, 0xee, 0xeb, 0x0e, 0x1a,
  0x2d, 0xf8, 0xe5, 0x05, 0x21, 0xe5, 0xe1, 0xeb, 0xda, 0xf4, 0xc3, 0xf5,
  0xd0, 0xd7, 0xfd, 0x03, 0x0e, 0xef, 0xf3, 0xfe, 0x23, 0xb8, 0x01, 0x03,
  0xd9, 0xfc, 0xd4, 0x1c, 0xe4, 0xe8, 0xe9, 0x00, 0x01, 0x81, 0x28, 0xe8,
  0x29, 0x96, 0xd8, 0xee, 0xb8, 0xde, 0xdb, 0x0c, 0xcf, 0x01, 0xcb, 0xf2,
  0x12, 0xfc, 0xff, 0xff, 0x04, 0x00, 0x00, 0x00, 0x30, 0x00, 0x00, 0x00,
  0xa6, 0x04, 0x00, 0x00, 0x42, 0x00, 0x00, 0x00, 0x0b, 0x03, 0x00, 0x00,
  0x3e, 0x00, 0x00, 0x00, 0x73, 0xfe, 0xff, 0xff, 0xca, 0xfd, 0xff, 0xff,
  0x98, 0x01, 0x00, 0x00, 0x4d, 0x01, 0x00, 0x00, 0x51, 0x01, 0x00, 0x00,
  0xe3, 0xff, 0xff, 0xff, 0xeb, 0x01, 0x00, 0x00, 0x79, 0x02, 0x00, 0x00,
  0x4e, 0xfc, 0xff, 0xff, 0x04, 0x00, 0x00, 0x00, 0x20, 0x01, 0x00, 0x00,
  0xc9, 0xd1, 0xc9, 0x7c, 0x05, 0xbb, 0x72, 0x5e, 0xdf, 0xdf, 0x3f, 0xe1,
  0xac, 0xcf, 0x00, 0x4d, 0xe1, 0x23, 0xfb, 0x02, 0xb4, 0x9d, 0x51, 0x81,
  0xd4, 0x14, 0x6a, 0x1c, 0xd8, 0x60, 0xed, 0xf4, 0xa1, 0x94, 0x5e, 0xd8,
  0x2d, 0xed, 0xcb, 0x09, 0x37, 0xd0, 0x1d, 0xff, 0x03, 0x39, 0xa5, 0xc4,
  0x0c, 0x38, 0xbe, 0xe0, 0x02, 0xde, 0x26, 0x1b, 0x15, 0x67, 0xcb, 0x47,
  0x1d, 0x45, 0xc2, 0x0f, 0xff, 0xec, 0x0d, 0xfe, 0x94, 0x64, 0xf8, 0x7f,
  0xb0, 0xf1, 0x15, 0xb3, 0x32, 0x5e, 0x20, 0xe1, 0x66, 0xb4, 0xf6, 0xa3,
  0xfe, 0x2f, 0x0c, 0xc1, 0x13, 0x36, 0xfa, 0x20, 0x88, 0xd2, 0xc1, 0x88,
  0xf4, 0xf9, 0x06, 0xdf, 0x0a, 0x3d, 0xd1, 0x4f, 0x81, 0x2d, 0xcb, 0x04,
  0xf6, 0x0c, 0x4c, 0x27, 0x41, 0x13, 0x09, 0x3b, 0xbc, 0xd8, 0xbe, 0x81,
  0xab, 0x11, 0x00, 0x64, 0x1e, 0xfa, 0x16, 0x12, 0xd8, 0x41, 0xd1, 0xd7,
  0xb6, 0xb7, 0x28, 0x2c, 0x49, 0x3d, 0x4c, 0x31, 0x22, 0x70, 0xac, 0xae,
  0xfb, 0x81, 0xc7, 0xe3, 0x40, 0x2c, 0xd7, 0xa7, 0x17, 0xf4, 0xe0, 0x15,
  0x06, 0xff, 0x0e, 0x25, 0x21, 0xdd, 0x19, 0xf8, 0xec, 0x14, 0xed, 0xd6,
  0x13, 0x24, 0xfb, 0xd4, 0xe3, 0x19, 0x2a, 0x4f, 0x28, 0xdb, 0xe9, 0x07,
  0xfc, 0x8d, 0xda, 0xf5, 0xed, 0xff, 0xd4, 0x62, 0x3f, 0x6b, 0xe5, 0x1d,
  0x1a, 0xdb, 0xb1, 0x2c, 0xf0, 0xff, 0xc4, 0x39, 0x19, 0x20, 0x43, 0xe3,
  0x56, 0x06, 0x81, 0x39, 0x9d, 0x21, 0xb3, 0x2b, 0xfa, 0xfd, 0x44, 0xe9,
  0x0c, 0x0b, 0x92, 0x08, 0xe6, 0xfe, 0x47, 0xcf, 0xd5, 0xc0, 0xf7, 0x4f,
  0x00, 0x0e, 0xc1, 0x61, 0x15, 0x26, 0x24, 0xba, 0xb8, 0xc2, 0xfd, 0x40,
  0xce, 0x03, 0xef, 0x51, 0x17, 0x81, 0x19, 0xe9, 0xac, 0x34, 0x46, 0x23,
  0x27, 0x81, 0x88, 0x4c, 0x64, 0x29, 0xa1, 0x3a, 0x3f, 0x0a, 0x43, 0x2a,
  0x37, 0xd4, 0x82, 0x54, 0x27, 0x3e, 0xd9, 0x19, 0x43, 0xaa, 0xdf, 0x30,
  0x7b, 0xd4, 0x8a, 0x58, 0xfa, 0x59, 0xfd, 0x38, 0x5a, 0x8b, 0xc3, 0x02,
  0x7a, 0xfd, 0xff, 0xff, 0x04, 0x00, 0x00, 0x00, 0x20, 0x00, 0x00, 0x00,
  0x83, 0xfd, 0xff, 0xff, 0x30, 0xfe, 0xff, 0xff, 0x88, 0x03, 0x00, 0x00,
  0x91, 0x00, 0x00, 0x00, 0xdb, 0x00, 0x00, 0x00, 0x18, 0x00, 0x00, 0x00,
  0xe7, 0x00, 0x00, 0x00, 0xa1, 0xfd, 0xff, 0xff, 0xa6, 0xfd, 0xff, 0xff,
  0x04, 0x00, 0x00, 0x00, 0x80, 0x00, 0x00, 0x00, 0xce, 0x7f, 0xeb, 0x82,
  0x2a, 0x9f, 0x42, 0x3d, 0xde, 0x1c, 0xc9, 0x30, 0x81, 0x49, 0xca, 0x21,
  0x46, 0x4a, 0x00, 0xfe, 0x9a, 0xda, 0x7f, 0xd6, 0x7f, 0xe1, 0xee, 0xe6,
  0xca, 0x2f, 0x37, 0xd3, 0xd9, 0x75, 0xcc, 0x81, 0x1d, 0xcc, 0x12, 0x5a,
  0xd2, 0x11, 0xc8, 0x3c, 0x81, 0x5a, 0xc6, 0x15, 0x0e, 0x81, 0xb7, 0xf1,
  0x56, 0x3c, 0x08, 0x24, 0x29, 0xae, 0x15, 0x7f, 0xff, 0x0c, 0x0b, 0x8d,
  0xc5, 0xc9, 0x10, 0xe9, 0x55, 0x3d, 0x81, 0x1b, 0x81, 0xdb, 0xc0, 0xd3,
  0x32, 0x5a, 0xb8, 0x7b, 0xf0, 0xef, 0x21, 0x3d, 0xbf, 0x71, 0x81, 0xa9,
  0xe8, 0x33, 0x7f, 0xf5, 0x1a, 0xd9, 0xa8, 0xeb, 0x1c, 0xac, 0x1f, 0x00,
  0x7f, 0xb0, 0x19, 0x02, 0xcb, 0x4d, 0xdd, 0x81, 0x0a, 0x14, 0xcb, 0x7a,
  0xd4, 0x7f, 0xf0, 0x91, 0x1d, 0xa7, 0x33, 0x3e, 0x7f, 0x93, 0xa8, 0xc1,
  0xfd, 0x4d, 0x57, 0xf2, 0x32, 0xfe, 0xff, 0xff, 0x04, 0x00, 0x00, 0x00,
  0x40, 0x00, 0x00, 0x00, 0xb6, 0xff, 0xff, 0xff, 0xf1, 0x05, 0x00, 0x00,
  0x2b, 0xf8, 0xff, 0xff, 0x1a, 0x04, 0x00, 0x00, 0xc5, 0x06, 0x00, 0x00,
  0xf5, 0x04, 0x00, 0x00, 0xd3, 0x04, 0x00, 0x00, 0xb3, 0xf8, 0xff, 0xff,
  0xbc, 0x0e, 0x00, 0x00, 0x56, 0x0b, 0x00, 0x00, 0x25, 0x0b, 0x00, 0x00,
  0x22, 0x01, 0x00, 0x00, 0x5d, 0x00, 0x00, 0x00, 0x7c, 0x10, 0x00, 0x00,
  0xf8, 0xff, 0xff, 0xff, 0xd1, 0x0b, 0x00, 0x00, 0x7e, 0xfe, 0xff, 0xff,
  0x04, 0x00, 0x00, 0x00, 0x70, 0x00, 0x00, 0x00, 0x8e, 0xb5, 0xa6, 0xb6,
  0x81, 0xc9, 0xc1, 0x0a, 0x1a, 0xd1, 0x0f, 0x19, 0x13, 0xe3, 0xa2, 0xa6,
  0x0e, 0x96, 0x8b, 0x81, 0x11, 0xa8, 0x20, 0xb3, 0x17, 0x12, 0xe5, 0x0f,
  0x12, 0x10, 0x13, 0xdc, 0xcc, 0x10, 0x14, 0x09, 0xcd, 0x14, 0x81, 0x17,
  0xc1, 0xaf, 0x19, 0x0e, 0xa9, 0xbe, 0xd8, 0xd9, 0x17, 0x11, 0x0a, 0xbe,
  0x17, 0x14, 0xc0, 0xa0, 0xc5, 0x10, 0xd3, 0xbc, 0x81, 0x10, 0x1c, 0xa5,
  0x1a, 0xbf, 0x15, 0x08, 0x10, 0xb0, 0xb2, 0x98, 0x90, 0x81, 0x98, 0xd4,
  0xf3, 0xf9, 0x1d, 0x0f, 0xc5, 0x94, 0x0c, 0x11, 0x8f, 0x99, 0x25, 0x0f,
  0xbf, 0xa1, 0x93, 0xbc, 0x1b, 0x81, 0xb2, 0x1a, 0x87, 0x2a, 0x81, 0x0c,
  0xf5, 0x3a, 0x60, 0xc0, 0x3e, 0x41, 0x3b, 0xa8, 0xbf, 0x2b, 0x95, 0x34,
  0xfa, 0xfe, 0xff, 0xff, 0x04, 0x00, 0x00, 0x00, 0x1c, 0x00, 0x00, 0x00,
  0x18, 0x0d, 0x00, 0x00, 0xc1, 0xfc, 0xff, 0xff, 0x15, 0xfc, 0xff, 0xff,
  0xa0, 0xf6, 0xff, 0xff, 0x9e, 0x07, 0x00, 0x00, 0x66, 0x06, 0x00, 0x00,
  0x26, 0xe5, 0xff, 0xff, 0x22, 0xff, 0xff, 0xff, 0x04, 0x00, 0x00, 0x00,
  0x04, 0x00, 0x00, 0x00, 0x01, 0x00, 0x00, 0x00, 0x32, 0xff, 0xff, 0xff,
  0x04, 0x00, 0x00, 0x00, 0x0c, 0x00, 0x00, 0x00, 0x01, 0x00, 0x00, 0x00,
  0x7d, 0x00, 0x00, 0x00, 0x08, 0x00, 0x00, 0x00, 0x4a, 0xff, 0xff, 0xff,
  0x04, 0x00, 0x00, 0x00, 0x10, 0x00, 0x00, 0x00, 0x01, 0x00, 0x00, 0x00,
  0x01, 0x00, 0x00, 0x00, 0xf4, 0x01, 0x00, 0x00, 0x06, 0x00, 0x00, 0x00,
  0x8c, 0xeb, 0xff, 0xff, 0x90, 0xeb, 0xff, 0xff, 0x0f, 0x00, 0x00, 0x00,
  0x4d, 0x4c, 0x49, 0x52, 0x20, 0x43, 0x6f, 0x6e, 0x76, 0x65, 0x72, 0x74,
  0x65, 0x64, 0x2e, 0x00, 0x01, 0x00, 0x00, 0x00, 0x14, 0x00, 0x00, 0x00,
  0x00, 0x00, 0x0e, 0x00, 0x18, 0x00, 0x14, 0x00, 0x10, 0x00, 0x0c, 0x00,
  0x08, 0x00, 0x04, 0x00, 0x0e, 0x00, 0x00, 0x00, 0x14, 0x00, 0x00, 0x00,
  0x1c, 0x00, 0x00, 0x00, 0x44, 0x02, 0x00, 0x00, 0x48, 0x02, 0x00, 0x00,
  0x4c, 0x02, 0x00, 0x00, 0x04, 0x00, 0x00, 0x00, 0x6d, 0x61, 0x69, 0x6e,
  0x00, 0x00, 0x00, 0x00, 0x09, 0x00, 0x00, 0x00, 0x08, 0x02, 0x00, 0x00,
  0xac, 0x01, 0x00, 0x00, 0x58, 0x01, 0x00, 0x00, 0x14, 0x01, 0x00, 0x00,
  0xf0, 0x00, 0x00, 0x00, 0xbc, 0x00, 0x00, 0x00, 0x78, 0x00, 0x00, 0x00,
  0x40, 0x00, 0x00, 0x00, 0x04, 0x00, 0x00, 0x00, 0x82, 0xfe, 0xff, 0xff,
  0x1c, 0x00, 0x00, 0x00, 0x00, 0x00, 0x00, 0x09, 0x1c, 0x00, 0x00, 0x00,
  0x20, 0x00, 0x00, 0x00, 0x04, 0x00, 0x00, 0x00, 0x00, 0x00, 0x06, 0x00,
  0x08, 0x00, 0x04, 0x00, 0x06, 0x00, 0x00, 0x00, 0x00, 0x00, 0x80, 0x3f,
  0x01, 0x00, 0x00, 0x00, 0x16, 0x00, 0x00, 0x00, 0x01, 0x00, 0x00, 0x00,
  0x15, 0x00, 0x00, 0x00, 0xba, 0xfe, 0xff, 0xff, 0x14, 0x00, 0x00, 0x00,
  0x00, 0x00, 0x00, 0x08, 0x10, 0x00, 0x00, 0x00, 0x14, 0x00, 0x00, 0x00,
  0x03, 0x00, 0x00, 0x00, 0x5c, 0xec, 0xff, 0xff, 0x01, 0x00, 0x00, 0x00,
  0x15, 0x00, 0x00, 0x00, 0x03, 0x00, 0x00, 0x00, 0x14, 0x00, 0x00, 0x00,
  0x05, 0x00, 0x00, 0x00, 0x04, 0x00, 0x00, 0x00, 0xee, 0xfe, 0xff, 0xff,
  0x1c, 0x00, 0x00, 0x00, 0x00, 0x00, 0x00, 0x08, 0x1c, 0x00, 0x00, 0x00,
  0x20, 0x00, 0x00, 0x00, 0x03, 0x00, 0x00, 0x00, 0x00, 0x00, 0x06, 0x00,
  0x08, 0x00, 0x07, 0x00, 0x06, 0x00, 0x00, 0x00, 0x00, 0x00, 0x00, 0x01,
  0x01, 0x00, 0x00, 0x00, 0x14, 0x00, 0x00, 0x00, 0x03, 0x00, 0x00, 0x00,
  0x13, 0x00, 0x00, 0x00, 0x07, 0x00, 0x00, 0x00, 0x06, 0x00, 0x00, 0x00,
  0x2e, 0xff, 0xff, 0xff, 0x14, 0x00, 0x00, 0x00, 0x00, 0x00, 0x00, 0x1b,
  0x10, 0x00, 0x00, 0x00, 0x14, 0x00, 0x00, 0x00, 0x02, 0x00, 0x00, 0x00,
  0xd0, 0xec, 0xff, 0xff, 0x01, 0x00, 0x00, 0x00, 0x13, 0x00, 0x00, 0x00,
  0x02, 0x00, 0x00, 0x00, 0x12, 0x00, 0x00, 0x00, 0x03, 0x00, 0x00, 0x00,
  0x02, 0xff, 0xff, 0xff, 0x08, 0x00, 0x00, 0x00, 0x0c, 0x00, 0x00, 0x00,
  0x01, 0x00, 0x00, 0x00, 0x12, 0x00, 0x00, 0x00, 0x02, 0x00, 0x00, 0x00,
  0x11, 0x00, 0x00, 0x00, 0x02, 0x00, 0x00, 0x00, 0x7e, 0xff, 0xff, 0xff,
  0x14, 0x00, 0x00, 0x00, 0x00, 0x00, 0x00, 0x01, 0x1c, 0x00, 0x00, 0x00,
  0x20, 0x00, 0x00, 0x00, 0x01, 0x00, 0x00, 0x00, 0x70, 0xff, 0xff, 0xff,
  0x00, 0x00, 0x00, 0x01, 0x01, 0x00, 0x00, 0x00, 0x01, 0x00, 0x00, 0x00,
  0x01, 0x00, 0x00, 0x00, 0x11, 0x00, 0x00, 0x00, 0x03, 0x00, 0x00, 0x00,
  0x10, 0x00, 0x00, 0x00, 0x09, 0x00, 0x00, 0x00, 0x08, 0x00, 0x00, 0x00,
  0xbe, 0xff, 0xff, 0xff, 0x14, 0x00, 0x00, 0x00, 0x00, 0x00, 0x00, 0x01,
  0x1c, 0x00, 0x00, 0x00, 0x20, 0x00, 0x00, 0x00, 0x01, 0x00, 0x00, 0x00,
  0xb0, 0xff, 0xff, 0xff, 0x00, 0x00, 0x00, 0x01, 0x01, 0x00, 0x00, 0x00,
  0x02, 0x00, 0x00, 0x00, 0x01, 0x00, 0x00, 0x00, 0x10, 0x00, 0x00, 0x00,
  0x03, 0x00, 0x00, 0x00, 0x0f, 0x00, 0x00, 0x00, 0x0b, 0x00, 0x00, 0x00,
  0x0a, 0x00, 0x00, 0x00, 0x00, 0x00, 0x0e, 0x00, 0x18, 0x00, 0x14, 0x00,
  0x10, 0x00, 0x0c, 0x00, 0x0b, 0x00, 0x04, 0x00, 0x0e, 0x00, 0x00, 0x00,
  0x20, 0x00, 0x00, 0x00, 0x00, 0x00, 0x00, 0x01, 0x28, 0x00, 0x00, 0x00,
  0x2c, 0x00, 0x00, 0x00, 0x01, 0x00, 0x00, 0x00, 0x0c, 0x00, 0x10, 0x00,
  0x00, 0x00, 0x0c, 0x00, 0x08, 0x00, 0x07, 0x00, 0x0c, 0x00, 0x00, 0x00,
  0x00, 0x00, 0x00, 0x01, 0x01, 0x00, 0x00, 0x00, 0x02, 0x00, 0x00, 0x00,
  0x01, 0x00, 0x00, 0x00, 0x0f, 0x00, 0x00, 0x00, 0x03, 0x00, 0x00, 0x00,
  0x0e, 0x00, 0x00, 0x00, 0x0d, 0x00, 0x00, 0x00, 0x0c, 0x00, 0x00, 0x00,
  0x00, 0x00, 0x0a, 0x00, 0x0c, 0x00, 0x00, 0x00, 0x08, 0x00, 0x04, 0x00,
  0x0a, 0x00, 0x00, 0x00, 0x08, 0x00, 0x00, 0x00, 0x0c, 0x00, 0x00, 0x00,
  0x01, 0x00, 0x00, 0x00, 0x0e, 0x00, 0x00, 0x00, 0x02, 0x00, 0x00, 0x00,
  0x00, 0x00, 0x00, 0x00, 0x01, 0x00, 0x00, 0x00, 0x01, 0x00, 0x00, 0x00,
  0x16, 0x00, 0x00, 0x00, 0x01, 0x00, 0x00, 0x00, 0x00, 0x00, 0x00, 0x00,
  0x17, 0x00, 0x00, 0x00, 0x18, 0x12, 0x00, 0x00, 0xbc, 0x11, 0x00, 0x00,
  0x7c, 0x11, 0x00, 0x00, 0x40, 0x11, 0x00, 0x00, 0x94, 0x10, 0x00, 0x00,
  0xe8, 0x0f, 0x00, 0x00, 0xd4, 0x0e, 0x00, 0x00, 0xb8, 0x0d, 0x00, 0x00,
  0x04, 0x0d, 0x00, 0x00, 0x40, 0x0c, 0x00, 0x00, 0x5c, 0x0b, 0x00, 0x00,
  0x68, 0x0a, 0x00, 0x00, 0x54, 0x09, 0x00, 0x00, 0x30, 0x08, 0x00, 0x00,
  0xa4, 0x07, 0x00, 0x00, 0x40, 0x06, 0x00, 0x00, 0xdc, 0x04, 0x00, 0x00,
  0x78, 0x03, 0x00, 0x00, 0x3c, 0x02, 0x00, 0x00, 0xb8, 0x01, 0x00, 0x00,
  0x04, 0x01, 0x00, 0x00, 0x70, 0x00, 0x00, 0x00, 0x04, 0x00, 0x00, 0x00,
  0x5a, 0xee, 0xff, 0xff, 0x00, 0x00, 0x00, 0x01, 0x14, 0x00, 0x00, 0x00,
  0x30, 0x00, 0x00, 0x00, 0x17, 0x00, 0x00, 0x00, 0x00, 0x00, 0x00, 0x09,
  0x44, 0x00, 0x00, 0x00, 0x44, 0xee, 0xff, 0xff, 0x08, 0x00, 0x00, 0x00,
  0x10, 0x00, 0x00, 0x00, 0x01, 0x00, 0x00, 0x00, 0x80, 0xff, 0xff, 0xff,
  0xff, 0xff, 0xff, 0xff, 0x01, 0x00, 0x00, 0x00, 0x00, 0x00, 0x80, 0x3b,
  0x1b, 0x00, 0x00, 0x00, 0x53, 0x74, 0x61, 0x74, 0x65, 0x66, 0x75, 0x6c,
  0x50, 0x61, 0x72, 0x74, 0x69, 0x74, 0x69, 0x6f, 0x6e, 0x65, 0x64, 0x43,
  0x61, 0x6c, 0x6c, 0x5f, 0x31, 0x3a, 0x30, 0x00, 0x02, 0x00, 0x00, 0x00,
  0x01, 0x00, 0x00, 0x00, 0x07, 0x00, 0x00, 0x00, 0xc2, 0xee, 0xff, 0xff,
  0x00, 0x00, 0x00, 0x01, 0x14, 0x00, 0x00, 0x00, 0x30, 0x00, 0x00, 0x00,
  0x16, 0x00, 0x00, 0x00, 0x00, 0x00, 0x00, 0x09, 0x6c, 0x00, 0x00, 0x00,
  0xac, 0xee, 0xff, 0xff, 0x08, 0x00, 0x00, 0x00, 0x10, 0x00, 0x00, 0x00,
  0x01, 0x00, 0x00, 0x00, 0x47, 0x00, 0x00, 0x00, 0x00, 0x00, 0x00, 0x00,
  0x01, 0x00, 0x00, 0x00, 0xc2, 0xff, 0xcc, 0x3e, 0x40, 0x00, 0x00, 0x00,
  0x73, 0x65, 0x71, 0x75, 0x65, 0x6e, 0x74, 0x69, 0x61, 0x6c, 0x5f, 0x31,
  0x5f, 0x31, 0x2f, 0x64, 0x65, 0x6e, 0x73, 0x65, 0x5f, 0x33, 0x5f, 0x31,
  0x2f, 0x4d, 0x61, 0x74, 0x4d, 0x75, 0x6c, 0x3b, 0x73, 0x65, 0x71, 0x75,
  0x65, 0x6e, 0x74, 0x69, 0x61, 0x6c, 0x5f, 0x31, 0x5f, 0x31, 0x2f, 0x64,
  0x65, 0x6e, 0x73, 0x65, 0x5f, 0x33, 0x5f, 0x31, 0x2f, 0x42, 0x69, 0x61,
  0x73, 0x41, 0x64, 0x64, 0x00, 0x00, 0x00, 0x00, 0x02, 0x00, 0x00, 0x00,
  0x01, 0x00, 0x00, 0x00, 0x07, 0x00, 0x00, 0x00, 0x52, 0xef, 0xff, 0xff,
  0x00, 0x00, 0x00, 0x01, 0x14, 0x00, 0x00, 0x00, 0x34, 0x00, 0x00, 0x00,
  0x15, 0x00, 0x00, 0x00, 0x00, 0x00, 0x00, 0x09, 0x8c, 0x00, 0x00, 0x00,
  0x3c, 0xef, 0xff, 0xff, 0x08, 0x00, 0x00, 0x00, 0x14, 0x00, 0x00, 0x00,
  0x01, 0x00, 0x00, 0x00, 0x80, 0xff, 0xff, 0xff, 0xff, 0xff, 0xff, 0xff,
  0x00, 0x00, 0x00, 0x00, 0x01, 0x00, 0x00, 0x00, 0xa0, 0x2d, 0x30, 0x3c,
  0x5e, 0x00, 0x00, 0x00, 0x73, 0x65, 0x71, 0x75, 0x65, 0x6e, 0x74, 0x69,
  0x61, 0x6c, 0x5f, 0x31, 0x5f, 0x31, 0x2f, 0x64, 0x65, 0x6e, 0x73, 0x65,
  0x5f, 0x32, 0x5f, 0x31, 0x2f, 0x4d, 0x61, 0x74, 0x4d, 0x75, 0x6c, 0x3b,
  0x73, 0x65, 0x71, 0x75, 0x65, 0x6e, 0x74, 0x69, 0x61, 0x6c, 0x5f, 0x31,
  0x5f, 0x31, 0x2f, 0x64, 0x65, 0x6e, 0x73, 0x65, 0x5f, 0x32, 0x5f, 0x31,
  0x2f, 0x52, 0x65, 0x6c, 0x75, 0x3b, 0x73, 0x65, 0x71, 0x75, 0x65, 0x6e,
  0x74, 0x69, 0x61, 0x6c, 0x5f, 0x31, 0x5f, 0x31, 0x2f, 0x64, 0x65, 0x6e,
  0x73, 0x65, 0x5f, 0x32, 0x5f, 0x31, 0x2f, 0x42, 0x69, 0x61, 0x73, 0x41,
  0x64, 0x64, 0x00, 0x00, 0x02, 0x00, 0x00, 0x00, 0x01, 0x00, 0x00, 0x00,
  0x10, 0x00, 0x00, 0x00, 0x02, 0xf0, 0xff, 0xff, 0x00, 0x00, 0x00, 0x01,
  0x14, 0x00, 0x00, 0x00, 0x30, 0x00, 0x00, 0x00, 0x14, 0x00, 0x00, 0x00,
  0x00, 0x00, 0x00, 0x09, 0x5c, 0x00, 0x00, 0x00, 0xec, 0xef, 0xff, 0xff,
  0x08, 0x00, 0x00, 0x00, 0x10, 0x00, 0x00, 0x00, 0x01, 0x00, 0x00, 0x00,
  0x80, 0xff, 0xff, 0xff, 0xff, 0xff, 0xff, 0xff, 0x01, 0x00, 0x00, 0x00,
  0x10, 0xa6, 0x7f, 0x3c, 0x30, 0x00, 0x00, 0x00, 0x73, 0x65, 0x71, 0x75,
  0x65, 0x6e, 0x74, 0x69, 0x61, 0x6c, 0x5f, 0x31, 0x5f, 0x31, 0x2f, 0x67,
  0x6c, 0x6f, 0x62, 0x61, 0x6c, 0x5f, 0x61, 0x76, 0x65, 0x72, 0x61, 0x67,
  0x65, 0x5f, 0x70, 0x6f, 0x6f, 0x6c, 0x69, 0x6e, 0x67, 0x31, 0x64, 0x5f,
  0x31, 0x5f, 0x31, 0x2f, 0x4d, 0x65, 0x61, 0x6e, 0x00, 0x00, 0x00, 0x00,
  0x02, 0x00, 0x00, 0x00, 0x01, 0x00, 0x00, 0x00, 0x08, 0x00, 0x00, 0x00,
  0x82, 0xf0, 0xff, 0xff, 0x00, 0x00, 0x00, 0x01, 0x14, 0x00, 0x00, 0x00,
  0x34, 0x00, 0x00, 0x00, 0x13, 0x00, 0x00, 0x00, 0x00, 0x00, 0x00, 0x09,
  0x10, 0x01, 0x00, 0x00, 0x6c, 0xf0, 0xff, 0xff, 0x08, 0x00, 0x00, 0x00,
  0x14, 0x00, 0x00, 0x00, 0x01, 0x00, 0x00, 0x00, 0x80, 0xff, 0xff, 0xff,
  0xff, 0xff, 0xff, 0xff, 0x00, 0x00, 0x00, 0x00, 0x01, 0x00, 0x00, 0x00,
  0x6b, 0x0a, 0x5b, 0x3e, 0xe1, 0x00, 0x00, 0x00, 0x73, 0x65, 0x71, 0x75,
  0x65, 0x6e, 0x74, 0x69, 0x61, 0x6c, 0x5f, 0x31, 0x5f, 0x31, 0x2f, 0x61,
  0x63, 0x74, 0x69, 0x76, 0x61, 0x74, 0x69, 0x6f, 0x6e, 0x5f, 0x35, 0x5f,
  0x31, 0x2f, 0x52, 0x65, 0x6c, 0x75, 0x3b, 0x73, 0x65, 0x71, 0x75, 0x65,
  0x6e, 0x74, 0x69, 0x61, 0x6c, 0x5f, 0x31, 0x5f, 0x31, 0x2f, 0x62, 0x61,
  0x74, 0x63, 0x68, 0x5f, 0x6e, 0x6f, 0x72, 0x6d, 0x61, 0x6c, 0x69, 0x7a,
  0x61, 0x74, 0x69, 0x6f, 0x6e, 0x5f, 0x35, 0x5f, 0x31, 0x2f, 0x62, 0x61,
  0x74, 0x63, 0x68, 0x6e, 0x6f, 0x72, 0x6d, 0x2f, 0x61, 0x64, 0x64, 0x5f,
  0x31, 0x3b, 0x73, 0x65, 0x71, 0x75, 0x65, 0x6e, 0x74, 0x69, 0x61, 0x6c,
  0x5f, 0x31, 0x5f, 0x31, 0x2f, 0x63, 0x6f, 0x6e, 0x76, 0x31, 0x64, 0x5f,
  0x35, 0x5f, 0x31, 0x2f, 0x63, 0x6f, 0x6e, 0x76, 0x6f, 0x6c, 0x75, 0x74,
  0x69, 0x6f, 0x6e, 0x2f, 0x53, 0x71, 0x75, 0x65, 0x65, 0x7a, 0x65, 0x3b,
  0x73, 0x65, 0x71, 0x75, 0x65, 0x6e, 0x74, 0x69, 0x61, 0x6c, 0x5f, 0x31,
  0x5f, 0x31, 0x2f, 0x62, 0x61, 0x74, 0x63, 0x68, 0x5f, 0x6e, 0x6f, 0x72,
  0x6d, 0x61, 0x6c, 0x69, 0x7a, 0x61, 0x74, 0x69, 0x6f, 0x6e, 0x5f, 0x35,
  0x5f, 0x31, 0x2f, 0x62, 0x61, 0x74, 0x63, 0x68, 0x6e, 0x6f, 0x72, 0x6d,
  0x2f, 0x6d, 0x75, 0x6c, 0x5f, 0x31, 0x3b, 0x73, 0x65, 0x71, 0x75, 0x65,
  0x6e, 0x74, 0x69, 0x61, 0x6c, 0x5f, 0x31, 0x5f, 0x31, 0x2f, 0x63, 0x6f,
  0x6e, 0x76, 0x31, 0x64, 0x5f, 0x35, 0x5f, 0x31, 0x2f, 0x42, 0x69, 0x61,
  0x73, 0x41, 0x64, 0x64, 0x3b, 0x00, 0x00, 0x00, 0x03, 0x00, 0x00, 0x00,
  0x01, 0x00, 0x00, 0x00, 0x7d, 0x00, 0x00, 0x00, 0x08, 0x00, 0x00, 0x00,
  0xba, 0xf1, 0xff, 0xff, 0x00, 0x00, 0x00, 0x01, 0x14, 0x00, 0x00, 0x00,
  0x34, 0x00, 0x00, 0x00, 0x12, 0x00, 0x00, 0x00, 0x00, 0x00, 0x00, 0x09,
  0x34, 0x01, 0x00, 0x00, 0xa4, 0xf1, 0xff, 0xff, 0x08, 0x00, 0x00, 0x00,
  0x14, 0x00, 0x00, 0x00, 0x01, 0x00, 0x00, 0x00, 0x80, 0xff, 0xff, 0xff,
  0xff, 0xff, 0xff, 0xff, 0x00, 0x00, 0x00, 0x00, 0x01, 0x00, 0x00, 0x00,
  0x6b, 0x0a, 0x5b, 0x3e, 0x07, 0x01, 0x00, 0x00, 0x73, 0x65, 0x71, 0x75,
  0x65, 0x6e, 0x74, 0x69, 0x61, 0x6c, 0x5f, 0x31, 0x5f, 0x31, 0x2f, 0x61,
  0x63, 0x74, 0x69, 0x76, 0x61, 0x74, 0x69, 0x6f, 0x6e, 0x5f, 0x35, 0x5f,
  0x31, 0x2f, 0x52, 0x65, 0x6c, 0x75, 0x3b, 0x73, 0x65, 0x71, 0x75, 0x65,
  0x6e, 0x74, 0x69, 0x61, 0x6c, 0x5f, 0x31, 0x5f, 0x31, 0x2f, 0x62, 0x61,
  0x74, 0x63, 0x68, 0x5f, 0x6e, 0x6f, 0x72, 0x6d, 0x61, 0x6c, 0x69, 0x7a,
  0x61, 0x74, 0x69, 0x6f, 0x6e, 0x5f, 0x35, 0x5f, 0x31, 0x2f, 0x62, 0x61,
  0x74, 0x63, 0x68, 0x6e, 0x6f, 0x72, 0x6d, 0x2f, 0x61, 0x64, 0x64, 0x5f,
  0x31, 0x3b, 0x73, 0x65, 0x71, 0x75, 0x65, 0x6e, 0x74, 0x69, 0x61, 0x6c,
  0x5f, 0x31, 0x5f, 0x31, 0x2f, 0x63, 0x6f, 0x6e, 0x76, 0x31, 0x64, 0x5f,
  0x35, 0x5f, 0x31, 0x2f, 0x63, 0x6f, 0x6e, 0x76, 0x6f, 0x6c, 0x75, 0x74,
  0x69, 0x6f, 0x6e, 0x2f, 0x53, 0x71, 0x75, 0x65, 0x65, 0x7a, 0x65, 0x3b,
  0x73, 0x65, 0x71, 0x75, 0x65, 0x6e, 0x74, 0x69, 0x61, 0x6c, 0x5f, 0x31,
  0x5f, 0x31, 0x2f, 0x62, 0x61, 0x74, 0x63, 0x68, 0x5f, 0x6e, 0x6f, 0x72,
  0x6d, 0x61, 0x6c, 0x69, 0x7a, 0x61, 0x74, 0x69, 0x6f, 0x6e, 0x5f, 0x35,
  0x5f, 0x31, 0x2f, 0x62, 0x61, 0x74, 0x63, 0x68, 0x6e, 0x6f, 0x72, 0x6d,
  0x2f, 0x6d, 0x75, 0x6c, 0x5f, 0x31, 0x3b, 0x73, 0x65, 0x71, 0x75, 0x65,
  0x6e, 0x74, 0x69, 0x61, 0x6c, 0x5f, 0x31, 0x5f, 0x31, 0x2f, 0x63, 0x6f,
  0x6e, 0x76, 0x31, 0x64, 0x5f, 0x35, 0x5f, 0x31, 0x2f, 0x42, 0x69, 0x61,
  0x73, 0x41, 0x64, 0x64, 0x3b, 0x3b, 0x73, 0x65, 0x71, 0x75, 0x65, 0x6e,
  0x74, 0x69, 0x61, 0x6c, 0x5f, 0x31, 0x5f, 0x31, 0x2f, 0x63, 0x6f, 0x6e,
  0x76, 0x31, 0x64, 0x5f, 0x35, 0x5f, 0x31, 0x2f, 0x63, 0x6f, 0x6e, 0x76,
  0x6f, 0x6c, 0x75, 0x74, 0x69, 0x6f, 0x6e, 0x00, 0x04, 0x00, 0x00, 0x00,
  0x01, 0x00, 0x00, 0x00, 0x01, 0x00, 0x00, 0x00, 0x7d, 0x00, 0x00, 0x00,
  0x08, 0x00, 0x00, 0x00, 0x1a, 0xf3, 0xff, 0xff, 0x00, 0x00, 0x00, 0x01,
  0x14, 0x00, 0x00, 0x00, 0x34, 0x00, 0x00, 0x00, 0x11, 0x00, 0x00, 0x00,
  0x00, 0x00, 0x00, 0x09, 0x34, 0x01, 0x00, 0x00, 0x04, 0xf3, 0xff, 0xff,
  0x08, 0x00, 0x00, 0x00, 0x14, 0x00, 0x00, 0x00, 0x01, 0x00, 0x00, 0x00,
  0x80, 0xff, 0xff, 0xff, 0xff, 0xff, 0xff, 0xff, 0x00, 0x00, 0x00, 0x00,
  0x01, 0x00, 0x00, 0x00, 0x78, 0x7c, 0x5f, 0x3d, 0x07, 0x01, 0x00, 0x00,
  0x73, 0x65, 0x71, 0x75, 0x65, 0x6e, 0x74, 0x69, 0x61, 0x6c, 0x5f, 0x31,
  0x5f, 0x31, 0x2f, 0x61, 0x63, 0x74, 0x69, 0x76, 0x61, 0x74, 0x69, 0x6f,
  0x6e, 0x5f, 0x34, 0x5f, 0x31, 0x2f, 0x52, 0x65, 0x6c, 0x75, 0x3b, 0x73,
  0x65, 0x71, 0x75, 0x65, 0x6e, 0x74, 0x69, 0x61, 0x6c, 0x5f, 0x31, 0x5f,
  0x31, 0x2f, 0x62, 0x61, 0x74, 0x63, 0x68, 0x5f, 0x6e, 0x6f, 0x72, 0x6d,
  0x61, 0x6c, 0x69, 0x7a, 0x61, 0x74, 0x69, 0x6f, 0x6e, 0x5f, 0x34, 0x5f,
  0x31, 0x2f, 0x62, 0x61, 0x74, 0x63, 0x68, 0x6e, 0x6f, 0x72, 0x6d, 0x2f,
  0x61, 0x64, 0x64, 0x5f, 0x31, 0x3b, 0x73, 0x65, 0x71, 0x75, 0x65, 0x6e,
  0x74, 0x69, 0x61, 0x6c, 0x5f, 0x31, 0x5f, 0x31, 0x2f, 0x63, 0x6f, 0x6e,
  0x76, 0x31, 0x64, 0x5f, 0x34, 0x5f, 0x31, 0x2f, 0x63, 0x6f, 0x6e, 0x76,
  0x6f, 0x6c, 0x75, 0x74, 0x69, 0x6f, 0x6e, 0x2f, 0x53, 0x71, 0x75, 0x65,
  0x65, 0x7a, 0x65, 0x3b, 0x73, 0x65, 0x71, 0x75, 0x65, 0x6e, 0x74, 0x69,
  0x61, 0x6c, 0x5f, 0x31, 0x5f, 0x31, 0x2f, 0x62, 0x61, 0x74, 0x63, 0x68,
  0x5f, 0x6e, 0x6f, 0x72, 0x6d, 0x61, 0x6c, 0x69, 0x7a, 0x61, 0x74, 0x69,
  0x6f, 0x6e, 0x5f, 0x34, 0x5f, 0x31, 0x2f, 0x62, 0x61, 0x74, 0x63, 0x68,
  0x6e, 0x6f, 0x72, 0x6d, 0x2f, 0x6d, 0x75, 0x6c, 0x5f, 0x31, 0x3b, 0x73,
  0x65, 0x71, 0x75, 0x65, 0x6e, 0x74, 0x69, 0x61, 0x6c, 0x5f, 0x31, 0x5f,
  0x31, 0x2f, 0x63, 0x6f, 0x6e, 0x76, 0x31, 0x64, 0x5f, 0x34, 0x5f, 0x31,
  0x2f, 0x42, 0x69, 0x61, 0x73, 0x41, 0x64, 0x64, 0x3b, 0x3b, 0x73, 0x65,
  0x71, 0x75, 0x65, 0x6e, 0x74, 0x69, 0x61, 0x6c, 0x5f, 0x31, 0x5f, 0x31,
  0x2f, 0x63, 0x6f, 0x6e, 0x76, 0x31, 0x64, 0x5f, 0x34, 0x5f, 0x31, 0x2f,
  0x63, 0x6f, 0x6e, 0x76, 0x6f, 0x6c, 0x75, 0x74, 0x69, 0x6f, 0x6e, 0x00,
  0x04, 0x00, 0x00, 0x00, 0x01, 0x00, 0x00, 0x00, 0x01, 0x00, 0x00, 0x00,
  0x7d, 0x00, 0x00, 0x00, 0x0c, 0x00, 0x00, 0x00, 0x7a, 0xf4, 0xff, 0xff,
  0x00, 0x00, 0x00, 0x01, 0x14, 0x00, 0x00, 0x00, 0x34, 0x00, 0x00, 0x00,
  0x10, 0x00, 0x00, 0x00, 0x00, 0x00, 0x00, 0x09, 0x34, 0x01, 0x00, 0x00,
  0x64, 0xf4, 0xff, 0xff, 0x08, 0x00, 0x00, 0x00, 0x14, 0x00, 0x00, 0x00,
  0x01, 0x00, 0x00, 0x00, 0x80, 0xff, 0xff, 0xff, 0xff, 0xff, 0xff, 0xff,
  0x00, 0x00, 0x00, 0x00, 0x01, 0x00, 0x00, 0x00, 0xfa, 0x1b, 0x61, 0x3e,
  0x07, 0x01, 0x00, 0x00, 0x73, 0x65, 0x71, 0x75, 0x65, 0x6e, 0x74, 0x69,
  0x61, 0x6c, 0x5f, 0x31, 0x5f, 0x31, 0x2f, 0x61, 0x63, 0x74, 0x69, 0x76,
  0x61, 0x74, 0x69, 0x6f, 0x6e, 0x5f, 0x33, 0x5f, 0x31, 0x2f, 0x52, 0x65,
  0x6c, 0x75, 0x3b, 0x73, 0x65, 0x71, 0x75, 0x65, 0x6e, 0x74, 0x69, 0x61,
  0x6c, 0x5f, 0x31, 0x5f, 0x31, 0x2f, 0x62, 0x61, 0x74, 0x63, 0x68, 0x5f,
  0x6e, 0x6f, 0x72, 0x6d, 0x61, 0x6c, 0x69, 0x7a, 0x61, 0x74, 0x69, 0x6f,
  0x6e, 0x5f, 0x33, 0x5f, 0x31, 0x2f, 0x62, 0x61, 0x74, 0x63, 0x68, 0x6e,
  0x6f, 0x72, 0x6d, 0x2f, 0x61, 0x64, 0x64, 0x5f, 0x31, 0x3b, 0x73, 0x65,
  0x71, 0x75, 0x65, 0x6e, 0x74, 0x69, 0x61, 0x6c, 0x5f, 0x31, 0x5f, 0x31,
  0x2f, 0x63, 0x6f, 0x6e, 0x76, 0x31, 0x64, 0x5f, 0x33, 0x5f, 0x31, 0x2f,
  0x63, 0x6f, 0x6e, 0x76, 0x6f, 0x6c, 0x75, 0x74, 0x69, 0x6f, 0x6e, 0x2f,
  0x53, 0x71, 0x75, 0x65, 0x65, 0x7a, 0x65, 0x3b, 0x73, 0x65, 0x71, 0x75,
  0x65, 0x6e, 0x74, 0x69, 0x61, 0x6c, 0x5f, 0x31, 0x5f, 0x31, 0x2f, 0x62,
  0x61, 0x74, 0x63, 0x68, 0x5f, 0x6e, 0x6f, 0x72, 0x6d, 0x61, 0x6c, 0x69,
  0x7a, 0x61, 0x74, 0x69, 0x6f, 0x6e, 0x5f, 0x33, 0x5f, 0x31, 0x2f, 0x62,
  0x61, 0x74, 0x63, 0x68, 0x6e, 0x6f, 0x72, 0x6d, 0x2f, 0x6d, 0x75, 0x6c,
  0x5f, 0x31, 0x3b, 0x73, 0x65, 0x71, 0x75, 0x65, 0x6e, 0x74, 0x69, 0x61,
  0x6c, 0x5f, 0x31, 0x5f, 0x31, 0x2f, 0x63, 0x6f, 0x6e, 0x76, 0x31, 0x64,
  0x5f, 0x33, 0x5f, 0x31, 0x2f, 0x42, 0x69, 0x61, 0x73, 0x41, 0x64, 0x64,
  0x3b, 0x3b, 0x73, 0x65, 0x71, 0x75, 0x65, 0x6e, 0x74, 0x69, 0x61, 0x6c,
  0x5f, 0x31, 0x5f, 0x31, 0x2f, 0x63, 0x6f, 0x6e, 0x76, 0x31, 0x64, 0x5f,
  0x33, 0x5f, 0x31, 0x2f, 0x63, 0x6f, 0x6e, 0x76, 0x6f, 0x6c, 0x75, 0x74,
  0x69, 0x6f, 0x6e, 0x00, 0x04, 0x00, 0x00, 0x00, 0x01, 0x00, 0x00, 0x00,
  0x01, 0x00, 0x00, 0x00, 0xfa, 0x00, 0x00, 0x00, 0x10, 0x00, 0x00, 0x00,
  0xda, 0xf5, 0xff, 0xff, 0x00, 0x00, 0x00, 0x01, 0x14, 0x00, 0x00, 0x00,
  0x30, 0x00, 0x00, 0x00, 0x0f, 0x00, 0x00, 0x00, 0x00, 0x00, 0x00, 0x09,
  0x5c, 0x00, 0x00, 0x00, 0xc4, 0xf5, 0xff, 0xff, 0x08, 0x00, 0x00, 0x00,
  0x10, 0x00, 0x00, 0x00, 0x01, 0x00, 0x00, 0x00, 0x90, 0xff, 0xff, 0xff,
  0xff, 0xff, 0xff, 0xff, 0x01, 0x00, 0x00, 0x00, 0xc1, 0xb9, 0x1c, 0x3f,
  0x31, 0x00, 0x00, 0x00, 0x73, 0x65, 0x71, 0x75, 0x65, 0x6e, 0x74, 0x69,
  0x61, 0x6c, 0x5f, 0x31, 0x5f, 0x31, 0x2f, 0x63, 0x6f, 0x6e, 0x76, 0x31,
  0x64, 0x5f, 0x33, 0x5f, 0x31, 0x2f, 0x63, 0x6f, 0x6e, 0x76, 0x6f, 0x6c,
  0x75, 0x74, 0x69, 0x6f, 0x6e, 0x2f, 0x45, 0x78, 0x70, 0x61, 0x6e, 0x64,
  0x44, 0x69, 0x6d, 0x73, 0x31, 0x00, 0x00, 0x00, 0x04, 0x00, 0x00, 0x00,
  0x01, 0x00, 0x00, 0x00, 0x01, 0x00, 0x00, 0x00, 0xf4, 0x01, 0x00, 0x00,
  0x06, 0x00, 0x00, 0x00, 0x62, 0xf6, 0xff, 0xff, 0x00, 0x00, 0x00, 0x01,
  0x14, 0x00, 0x00, 0x00, 0xe8, 0x00, 0x00, 0x00, 0x0e, 0x00, 0x00, 0x00,
  0x00, 0x00, 0x00, 0x09, 0xf4, 0x00, 0x00, 0x00, 0x4c, 0xf6, 0xff, 0xff,
  0x08, 0x00, 0x00, 0x00, 0x8c, 0x00, 0x00, 0x00, 0x10, 0x00, 0x00, 0x00,
  0x00, 0x00, 0x00, 0x00, 0x00, 0x00, 0x00, 0x00, 0x00, 0x00, 0x00, 0x00,
  0x00, 0x00, 0x00, 0x00, 0x00, 0x00, 0x00, 0x00, 0x00, 0x00, 0x00, 0x00,
  0x00, 0x00, 0x00, 0x00, 0x00, 0x00, 0x00, 0x00, 0x00, 0x00, 0x00, 0x00,
  0x00, 0x00, 0x00, 0x00, 0x00, 0x00, 0x00, 0x00, 0x00, 0x00, 0x00, 0x00,
  0x00, 0x00, 0x00, 0x00, 0x00, 0x00, 0x00, 0x00, 0x00, 0x00, 0x00, 0x00,
  0x00, 0x00, 0x00, 0x00, 0x00, 0x00, 0x00, 0x00, 0x00, 0x00, 0x00, 0x00,
  0x00, 0x00, 0x00, 0x00, 0x00, 0x00, 0x00, 0x00, 0x00, 0x00, 0x00, 0x00,
  0x00, 0x00, 0x00, 0x00, 0x00, 0x00, 0x00, 0x00, 0x00, 0x00, 0x00, 0x00,
  0x00, 0x00, 0x00, 0x00, 0x00, 0x00, 0x00, 0x00, 0x00, 0x00, 0x00, 0x00,
  0x00, 0x00, 0x00, 0x00, 0x00, 0x00, 0x00, 0x00, 0x00, 0x00, 0x00, 0x00,
  0x00, 0x00, 0x00, 0x00, 0x00, 0x00, 0x00, 0x00, 0x00, 0x00, 0x00, 0x00,
  0x10, 0x00, 0x00, 0x00, 0x04, 0x39, 0xfe, 0x3a, 0xb8, 0x7e, 0x4a, 0x3b,
  0x64, 0x39, 0x3e, 0x3b, 0xd1, 0xc2, 0x85, 0x3a, 0x12, 0x05, 0x41, 0x3b,
  0x8a, 0xa9, 0xa0, 0x3a, 0x1c, 0xef, 0x14, 0x3b, 0x81, 0x32, 0x80, 0x3a,
  0x7d, 0x8e, 0x2b, 0x3b, 0x41, 0x2d, 0xc9, 0x3a, 0x76, 0xa6, 0x7d, 0x3a,
  0x8a, 0x9d, 0xd1, 0x3a, 0xf1, 0x4b, 0xb3, 0x3a, 0x42, 0x5a, 0xc9, 0x3a,
  0xca, 0xd7, 0x8d, 0x3a, 0xa4, 0xbe, 0x9f, 0x3a, 0x12, 0x00, 0x00, 0x00,
  0x74, 0x66, 0x6c, 0x2e, 0x70, 0x73, 0x65, 0x75, 0x64, 0x6f, 0x5f, 0x71,
  0x63, 0x6f, 0x6e, 0x73, 0x74, 0x39, 0x00, 0x00, 0x04, 0x00, 0x00, 0x00,
  0x10, 0x00, 0x00, 0x00, 0x01, 0x00, 0x00, 0x00, 0x07, 0x00, 0x00, 0x00,
  0x06, 0x00, 0x00, 0x00, 0x82, 0xf7, 0xff, 0xff, 0x00, 0x00, 0x00, 0x01,
  0x14, 0x00, 0x00, 0x00, 0xe4, 0x00, 0x00, 0x00, 0x0d, 0x00, 0x00, 0x00,
  0x00, 0x00, 0x00, 0x02, 0xf0, 0x00, 0x00, 0x00, 0x6c, 0xf7, 0xff, 0xff,
  0x08, 0x00, 0x00, 0x00, 0x88, 0x00, 0x00, 0x00, 0x10, 0x00, 0x00, 0x00,
  0x00, 0x00, 0x00, 0x00, 0x00, 0x00, 0x00, 0x00, 0x00, 0x00, 0x00, 0x00,
  0x00, 0x00, 0x00, 0x00, 0x00, 0x00, 0x00, 0x00, 0x00, 0x00, 0x00, 0x00,
  0x00, 0x00, 0x00, 0x00, 0x00, 0x00, 0x00, 0x00, 0x00, 0x00, 0x00, 0x00,
  0x00, 0x00, 0x00, 0x00, 0x00, 0x00, 0x00, 0x00, 0x00, 0x00, 0x00, 0x00,
  0x00, 0x00, 0x00, 0x00, 0x00, 0x00, 0x00, 0x00, 0x00, 0x00, 0x00, 0x00,
  0x00, 0x00, 0x00, 0x00, 0x00, 0x00, 0x00, 0x00, 0x00, 0x00, 0x00, 0x00,
  0x00, 0x00, 0x00, 0x00, 0x00, 0x00, 0x00, 0x00, 0x00, 0x00, 0x00, 0x00,
  0x00, 0x00, 0x00, 0x00, 0x00, 0x00, 0x00, 0x00, 0x00, 0x00, 0x00, 0x00,
  0x00, 0x00, 0x00, 0x00, 0x00, 0x00, 0x00, 0x00, 0x00, 0x00, 0x00, 0x00,
  0x00, 0x00, 0x00, 0x00, 0x00, 0x00, 0x00, 0x00, 0x00, 0x00, 0x00, 0x00,
  0x00, 0x00, 0x00, 0x00, 0x00, 0x00, 0x00, 0x00, 0x10, 0x00, 0x00, 0x00,
  0x35, 0xa3, 0x9b, 0x3a, 0x4d, 0xf0, 0xf7, 0x3a, 0x00, 0xea, 0xe8, 0x3a,
  0x8c, 0xc7, 0x23, 0x3a, 0x4a, 0x56, 0xec, 0x3a, 0xc7, 0xb7, 0x44, 0x3a,
  0x8c, 0x5b, 0xb6, 0x3a, 0x98, 0xf7, 0x1c, 0x3a, 0x9f, 0x0e, 0xd2, 0x3a,
  0x1a, 0x53, 0x76, 0x3a, 0x7c, 0x49, 0x1b, 0x3a, 0x19, 0x54, 0x80, 0x3a,
  0xc0, 0x88, 0x5b, 0x3a, 0x34, 0x8a, 0x76, 0x3a, 0xd6, 0xac, 0x2d, 0x3a,
  0x2a, 0x98, 0x43, 0x3a, 0x12, 0x00, 0x00, 0x00, 0x74, 0x66, 0x6c, 0x2e,
  0x70, 0x73, 0x65, 0x75, 0x64, 0x6f, 0x5f, 0x71, 0x63, 0x6f, 0x6e, 0x73,
  0x74, 0x38, 0x00, 0x00, 0x01, 0x00, 0x00, 0x00, 0x10, 0x00, 0x00, 0x00,
  0x92, 0xf8, 0xff, 0xff, 0x00, 0x00, 0x00, 0x01, 0x14, 0x00, 0x00, 0x00,
  0xb8, 0x00, 0x00, 0x00, 0x0c, 0x00, 0x00, 0x00, 0x00, 0x00, 0x00, 0x09,
  0xc4, 0x00, 0x00, 0x00, 0x7c, 0xf8, 0xff, 0xff, 0x08, 0x00, 0x00, 0x00,
  0x6c, 0x00, 0x00, 0x00, 0x0c, 0x00, 0x00, 0x00, 0x00, 0x00, 0x00, 0x00,
  0x00, 0x00, 0x00, 0x00, 0x00, 0x00, 0x00, 0x00, 0x00, 0x00, 0x00, 0x00,
  0x00, 0x00, 0x00, 0x00, 0x00, 0x00, 0x00, 0x00, 0x00, 0x00, 0x00, 0x00,
  0x00, 0x00, 0x00, 0x00, 0x00, 0x00, 0x00, 0x00, 0x00, 0x00, 0x00, 0x00,
  0x00, 0x00, 0x00, 0x00, 0x00, 0x00, 0x00, 0x00, 0x00, 0x00, 0x00, 0x00,
  0x00, 0x00, 0x00, 0x00, 0x00, 0x00, 0x00, 0x00, 0x00, 0x00, 0x00, 0x00,
  0x00, 0x00, 0x00, 0x00, 0x00, 0x00, 0x00, 0x00, 0x00, 0x00, 0x00, 0x00,
  0x00, 0x00, 0x00, 0x00, 0x00, 0x00, 0x00, 0x00, 0x00, 0x00, 0x00, 0x00,
  0x00, 0x00, 0x00, 0x00, 0x00, 0x00, 0x00, 0x00, 0x00, 0x00, 0x00, 0x00,
  0x0c, 0x00, 0x00, 0x00, 0x58, 0x67, 0x21, 0x3b, 0xa1, 0xc7, 0x77, 0x3b,
  0x36, 0xe6, 0x63, 0x3b, 0x39, 0x73, 0x89, 0x3b, 0xb2, 0xd9, 0x2e, 0x3b,
  0xb9, 0xc9, 0x84, 0x3b, 0x2b, 0xbc, 0x69, 0x3b, 0xf9, 0x65, 0xb9, 0x3b,
  0x3b, 0x72, 0x8a, 0x3b, 0xf9, 0x3c, 0x17, 0x3c, 0x5b, 0xc2, 0x3b, 0x3b,
  0x74, 0x1b, 0x63, 0x3b, 0x12, 0x00, 0x00, 0x00, 0x74, 0x66, 0x6c, 0x2e,
  0x70, 0x73, 0x65, 0x75, 0x64, 0x6f, 0x5f, 0x71, 0x63, 0x6f, 0x6e, 0x73,
  0x74, 0x37, 0x00, 0x00, 0x04, 0x00, 0x00, 0x00, 0x0c, 0x00, 0x00, 0x00,
  0x01, 0x00, 0x00, 0x00, 0x05, 0x00, 0x00, 0x00, 0x10, 0x00, 0x00, 0x00,
  0x82, 0xf9, 0xff, 0xff, 0x00, 0x00, 0x00, 0x01, 0x14, 0x00, 0x00, 0x00,
  0xb4, 0x00, 0x00, 0x00, 0x0b, 0x00, 0x00, 0x00, 0x00, 0x00, 0x00, 0x02,
  0xc0, 0x00, 0x00, 0x00, 0x6c, 0xf9, 0xff, 0xff, 0x08, 0x00, 0x00, 0x00,
  0x68, 0x00, 0x00, 0x00, 0x0c, 0x00, 0x00, 0x00, 0x00, 0x00, 0x00, 0x00,
  0x00, 0x00, 0x00, 0x00, 0x00, 0x00, 0x00, 0x00, 0x00, 0x00, 0x00, 0x00,
  0x00, 0x00, 0x00, 0x00, 0x00, 0x00, 0x00, 0x00, 0x00, 0x00, 0x00, 0x00,
  0x00, 0x00, 0x00, 0x00, 0x00, 0x00, 0x00, 0x00, 0x00, 0x00, 0x00, 0x00,
  0x00, 0x00, 0x00, 0x00, 0x00, 0x00, 0x00, 0x00, 0x00, 0x00, 0x00, 0x00,
  0x00, 0x00, 0x00, 0x00, 0x00, 0x00, 0x00, 0x00, 0x00, 0x00, 0x00, 0x00,
  0x00, 0x00, 0x00, 0x00, 0x00, 0x00, 0x00, 0x00, 0x00, 0x00, 0x00, 0x00,
  0x00, 0x00, 0x00, 0x00, 0x00, 0x00, 0x00, 0x00, 0x00, 0x00, 0x00, 0x00,
  0x00, 0x00, 0x00, 0x00, 0x00, 0x00, 0x00, 0x00, 0x0c, 0x00, 0x00, 0x00,
  0x78, 0xed, 0x0d, 0x3a, 0x89, 0xe1, 0x59, 0x3a, 0x3d, 0x66, 0x48, 0x3a,
  0x95, 0xba, 0x71, 0x3a, 0x71, 0xc0, 0x19, 0x3a, 0x9d, 0x87, 0x69, 0x3a,
  0xed, 0x87, 0x4d, 0x3a, 0xe3, 0x06, 0xa3, 0x3a, 0x0e, 0x7b, 0x73, 0x3a,
  0x1e, 0xfd, 0x04, 0x3b, 0x57, 0x1a, 0x25, 0x3a, 0xf3, 0xb3, 0x47, 0x3a,
  0x12, 0x00, 0x00, 0x00, 0x74, 0x66, 0x6c, 0x2e, 0x70, 0x73, 0x65, 0x75,
  0x64, 0x6f, 0x5f, 0x71, 0x63, 0x6f, 0x6e, 0x73, 0x74, 0x36, 0x00, 0x00,
  0x01, 0x00, 0x00, 0x00, 0x0c, 0x00, 0x00, 0x00, 0x62, 0xfa, 0xff, 0xff,
  0x00, 0x00, 0x00, 0x01, 0x14, 0x00, 0x00, 0x00, 0x88, 0x00, 0x00, 0x00,
  0x0a, 0x00, 0x00, 0x00, 0x00, 0x00, 0x00, 0x09, 0x94, 0x00, 0x00, 0x00,
  0x4c, 0xfa, 0xff, 0xff, 0x08, 0x00, 0x00, 0x00, 0x4c, 0x00, 0x00, 0x00,
  0x08, 0x00, 0x00, 0x00, 0x00, 0x00, 0x00, 0x00, 0x00, 0x00, 0x00, 0x00,
  0x00, 0x00, 0x00, 0x00, 0x00, 0x00, 0x00, 0x00, 0x00, 0x00, 0x00, 0x00,
  0x00, 0x00, 0x00, 0x00, 0x00, 0x00, 0x00, 0x00, 0x00, 0x00, 0x00, 0x00,
  0x00, 0x00, 0x00, 0x00, 0x00, 0x00, 0x00, 0x00, 0x00, 0x00, 0x00, 0x00,
  0x00, 0x00, 0x00, 0x00, 0x00, 0x00, 0x00, 0x00, 0x00, 0x00, 0x00, 0x00,
  0x00, 0x00, 0x00, 0x00, 0x00, 0x00, 0x00, 0x00, 0x00, 0x00, 0x00, 0x00,
  0x08, 0x00, 0x00, 0x00, 0xa6, 0xec, 0x35, 0x3c, 0x4f, 0xee, 0x7a, 0x3c,
  0x2c, 0xd7, 0x44, 0x3c, 0xe2, 0x63, 0x3d, 0x3c, 0xc4, 0x89, 0x1c, 0x3d,
  0x4c, 0xb1, 0x7a, 0x3c, 0x64, 0xed, 0x9d, 0x3c, 0x43, 0x7f, 0x3c, 0x3c,
  0x12, 0x00, 0x00, 0x00, 0x74, 0x66, 0x6c, 0x2e, 0x70, 0x73, 0x65, 0x75,
  0x64, 0x6f, 0x5f, 0x71, 0x63, 0x6f, 0x6e, 0x73, 0x74, 0x35, 0x00, 0x00,
  0x04, 0x00, 0x00, 0x00, 0x08, 0x00, 0x00, 0x00, 0x01, 0x00, 0x00, 0x00,
  0x03, 0x00, 0x00, 0x00, 0x0c, 0x00, 0x00, 0x00, 0x22, 0xfb, 0xff, 0xff,
  0x00, 0x00, 0x00, 0x01, 0x14, 0x00, 0x00, 0x00, 0x84, 0x00, 0x00, 0x00,
  0x09, 0x00, 0x00, 0x00, 0x00, 0x00, 0x00, 0x02, 0x90, 0x00, 0x00, 0x00,
  0x0c, 0xfb, 0xff, 0xff, 0x08, 0x00, 0x00, 0x00, 0x48, 0x00, 0x00, 0x00,
  0x08, 0x00, 0x00, 0x00, 0x00, 0x00, 0x00, 0x00, 0x00, 0x00, 0x00, 0x00,
  0x00, 0x00, 0x00, 0x00, 0x00, 0x00, 0x00, 0x00, 0x00, 0x00, 0x00, 0x00,
  0x00, 0x00, 0x00, 0x00, 0x00, 0x00, 0x00, 0x00, 0x00, 0x00, 0x00, 0x00,
  0x00, 0x00, 0x00, 0x00, 0x00, 0x00, 0x00, 0x00, 0x00, 0x00, 0x00, 0x00,
  0x00, 0x00, 0x00, 0x00, 0x00, 0x00, 0x00, 0x00, 0x00, 0x00, 0x00, 0x00,
  0x00, 0x00, 0x00, 0x00, 0x00, 0x00, 0x00, 0x00, 0x08, 0x00, 0x00, 0x00,
  0x99, 0xd1, 0x1e, 0x3a, 0x98, 0x0f, 0x5b, 0x3a, 0x24, 0xd7, 0x2b, 0x3a,
  0x17, 0x56, 0x25, 0x3a, 0x1e, 0xa8, 0x08, 0x3b, 0x55, 0xda, 0x5a, 0x3a,
  0x93, 0xde, 0x89, 0x3a, 0x81, 0x8e, 0x24, 0x3a, 0x12, 0x00, 0x00, 0x00,
  0x74, 0x66, 0x6c, 0x2e, 0x70, 0x73, 0x65, 0x75, 0x64, 0x6f, 0x5f, 0x71,
  0x63, 0x6f, 0x6e, 0x73, 0x74, 0x34, 0x00, 0x00, 0x01, 0x00, 0x00, 0x00,
  0x08, 0x00, 0x00, 0x00, 0xd2, 0xfb, 0xff, 0xff, 0x00, 0x00, 0x00, 0x01,
  0x14, 0x00, 0x00, 0x00, 0xe8, 0x00, 0x00, 0x00, 0x08, 0x00, 0x00, 0x00,
  0x00, 0x00, 0x00, 0x09, 0xf4, 0x00, 0x00, 0x00, 0xbc, 0xfb, 0xff, 0xff,
  0x08, 0x00, 0x00, 0x00, 0x8c, 0x00, 0x00, 0x00, 0x10, 0x00, 0x00, 0x00,
  0x00, 0x00, 0x00, 0x00, 0x00, 0x00, 0x00, 0x00, 0x00, 0x00, 0x00, 0x00,
  0x00, 0x00, 0x00, 0x00, 0x00, 0x00, 0x00, 0x00, 0x00, 0x00, 0x00, 0x00,
  0x00, 0x00, 0x00, 0x00, 0x00, 0x00, 0x00, 0x00, 0x00, 0x00, 0x00, 0x00,
  0x00, 0x00, 0x00, 0x00, 0x00, 0x00, 0x00, 0x00, 0x00, 0x00, 0x00, 0x00,
  0x00, 0x00, 0x00, 0x00, 0x00, 0x00, 0x00, 0x00, 0x00, 0x00, 0x00, 0x00,
  0x00, 0x00, 0x00, 0x00, 0x00, 0x00, 0x00, 0x00, 0x00, 0x00, 0x00, 0x00,
  0x00, 0x00, 0x00, 0x00, 0x00, 0x00, 0x00, 0x00, 0x00, 0x00, 0x00, 0x00,
  0x00, 0x00, 0x00, 0x00, 0x00, 0x00, 0x00, 0x00, 0x00, 0x00, 0x00, 0x00,
  0x00, 0x00, 0x00, 0x00, 0x00, 0x00, 0x00, 0x00, 0x00, 0x00, 0x00, 0x00,
  0x00, 0x00, 0x00, 0x00, 0x00, 0x00, 0x00, 0x00, 0x00, 0x00, 0x00, 0x00,
  0x00, 0x00, 0x00, 0x00, 0x00, 0x00, 0x00, 0x00, 0x00, 0x00, 0x00, 0x00,
  0x10, 0x00, 0x00, 0x00, 0x22, 0xc9, 0xf8, 0x3b, 0x90, 0xb8, 0x08, 0x3c,
  0xa4, 0x63, 0xee, 0x3b, 0x6a, 0x6a, 0x2a, 0x3c, 0xe9, 0x40, 0xff, 0x3b,
  0x8d, 0xc8, 0xfe, 0x3b, 0x44, 0xf3, 0x35, 0x3c, 0x65, 0x78, 0x1a, 0x3c,
  0x6f, 0x03, 0x1b, 0x3c, 0xc4, 0xaf, 0xf0, 0x3b, 0x25, 0x82, 0xfa, 0x3b,
  0x84, 0x4b, 0x18, 0x3c, 0x3d, 0x9c, 0x15, 0x3c, 0x99, 0x20, 0x05, 0x3c,
  0x57, 0x86, 0xfd, 0x3b, 0x45, 0x8c, 0x05, 0x3c, 0x12, 0x00, 0x00, 0x00,
  0x74, 0x66, 0x6c, 0x2e, 0x70, 0x73, 0x65, 0x75, 0x64, 0x6f, 0x5f, 0x71,
  0x63, 0x6f, 0x6e, 0x73, 0x74, 0x33, 0x00, 0x00, 0x02, 0x00, 0x00, 0x00,
  0x10, 0x00, 0x00, 0x00, 0x08, 0x00, 0x00, 0x00, 0xea, 0xfc, 0xff, 0xff,
  0x00, 0x00, 0x00, 0x01, 0x14, 0x00, 0x00, 0x00, 0xe4, 0x00, 0x00, 0x00,
  0x07, 0x00, 0x00, 0x00, 0x00, 0x00, 0x00, 0x02, 0xf0, 0x00, 0x00, 0x00,
  0xd4, 0xfc, 0xff, 0xff, 0x08, 0x00, 0x00, 0x00, 0x88, 0x00, 0x00, 0x00,
  0x10, 0x00, 0x00, 0x00, 0x00, 0x00, 0x00, 0x00, 0x00, 0x00, 0x00, 0x00,
  0x00, 0x00, 0x00, 0x00, 0x00, 0x00, 0x00, 0x00, 0x00, 0x00, 0x00, 0x00,
  0x00, 0x00, 0x00, 0x00, 0x00, 0x00, 0x00, 0x00, 0x00, 0x00, 0x00, 0x00,
  0x00, 0x00, 0x00, 0x00, 0x00, 0x00, 0x00, 0x00, 0x00, 0x00, 0x00, 0x00,
  0x00, 0x00, 0x00, 0x00, 0x00, 0x00, 0x00, 0x00, 0x00, 0x00, 0x00, 0x00,
  0x00, 0x00, 0x00, 0x00, 0x00, 0x00, 0x00, 0x00, 0x00, 0x00, 0x00, 0x00,
  0x00, 0x00, 0x00, 0x00, 0x00, 0x00, 0x00, 0x00, 0x00, 0x00, 0x00, 0x00,
  0x00, 0x00, 0x00, 0x00, 0x00, 0x00, 0x00, 0x00, 0x00, 0x00, 0x00, 0x00,
  0x00, 0x00, 0x00, 0x00, 0x00, 0x00, 0x00, 0x00, 0x00, 0x00, 0x00, 0x00,
  0x00, 0x00, 0x00, 0x00, 0x00, 0x00, 0x00, 0x00, 0x00, 0x00, 0x00, 0x00,
  0x00, 0x00, 0x00, 0x00, 0x00, 0x00, 0x00, 0x00, 0x00, 0x00, 0x00, 0x00,
  0x10, 0x00, 0x00, 0x00, 0xbb, 0x71, 0xf8, 0x38, 0x88, 0x88, 0x08, 0x39,
  0xe4, 0x0f, 0xee, 0x38, 0x8b, 0x2e, 0x2a, 0x39, 0x3c, 0xe7, 0xfe, 0x38,
  0x0a, 0x6f, 0xfe, 0x38, 0x58, 0xb3, 0x35, 0x39, 0x20, 0x42, 0x1a, 0x39,
  0xf9, 0xcc, 0x1a, 0x39, 0x35, 0x5b, 0xf0, 0x38, 0x23, 0x2a, 0xfa, 0x38,
  0x03, 0x16, 0x18, 0x39, 0xad, 0x67, 0x15, 0x39, 0xd4, 0xf1, 0x04, 0x39,
  0x46, 0x2d, 0xfd, 0x38, 0x5a, 0x5d, 0x05, 0x39, 0x12, 0x00, 0x00, 0x00,
  0x74, 0x66, 0x6c, 0x2e, 0x70, 0x73, 0x65, 0x75, 0x64, 0x6f, 0x5f, 0x71,
  0x63, 0x6f, 0x6e, 0x73, 0x74, 0x32, 0x00, 0x00, 0x01, 0x00, 0x00, 0x00,
  0x10, 0x00, 0x00, 0x00, 0xfa, 0xfd, 0xff, 0xff, 0x00, 0x00, 0x00, 0x01,
  0x14, 0x00, 0x00, 0x00, 0x78, 0x00, 0x00, 0x00, 0x06, 0x00, 0x00, 0x00,
  0x00, 0x00, 0x00, 0x09, 0x84, 0x00, 0x00, 0x00, 0xe4, 0xfd, 0xff, 0xff,
  0x08, 0x00, 0x00, 0x00, 0x40, 0x00, 0x00, 0x00, 0x07, 0x00, 0x00, 0x00,
  0x00, 0x00, 0x00, 0x00, 0x00, 0x00, 0x00, 0x00, 0x00, 0x00, 0x00, 0x00,
  0x00, 0x00, 0x00, 0x00, 0x00, 0x00, 0x00, 0x00, 0x00, 0x00, 0x00, 0x00,
  0x00, 0x00, 0x00, 0x00, 0x00, 0x00, 0x00, 0x00, 0x00, 0x00, 0x00, 0x00,
  0x00, 0x00, 0x00, 0x00, 0x00, 0x00, 0x00, 0x00, 0x00, 0x00, 0x00, 0x00,
  0x00, 0x00, 0x00, 0x00, 0x00, 0x00, 0x00, 0x00, 0x07, 0x00, 0x00, 0x00,
  0xa6, 0x8b, 0x78, 0x3d, 0x19, 0x73, 0x8d, 0x3d, 0x78, 0x8c, 0xb3, 0x3d,
  0xcb, 0x2f, 0xb8, 0x3d, 0xbc, 0x9d, 0x59, 0x3d, 0x6f, 0x01, 0x76, 0x3d,
  0x34, 0x6f, 0xe0, 0x3c, 0x12, 0x00, 0x00, 0x00, 0x74, 0x66, 0x6c, 0x2e,
  0x70, 0x73, 0x65, 0x75, 0x64, 0x6f, 0x5f, 0x71, 0x63, 0x6f, 0x6e, 0x73,
  0x74, 0x31, 0x00, 0x00, 0x02, 0x00, 0x00, 0x00, 0x07, 0x00, 0x00, 0x00,
  0x10, 0x00, 0x00, 0x00, 0xa2, 0xfe, 0xff, 0xff, 0x00, 0x00, 0x00, 0x01,
  0x14, 0x00, 0x00, 0x00, 0x7c, 0x00, 0x00, 0x00, 0x05, 0x00, 0x00, 0x00,
  0x00, 0x00, 0x00, 0x02, 0x88, 0x00, 0x00, 0x00, 0x8c, 0xfe, 0xff, 0xff,
  0x08, 0x00, 0x00, 0x00, 0x44, 0x00, 0x00, 0x00, 0x07, 0x00, 0x00, 0x00,
  0x00, 0x00, 0x00, 0x00, 0x00, 0x00, 0x00, 0x00, 0x00, 0x00, 0x00, 0x00,
  0x00, 0x00, 0x00, 0x00, 0x00, 0x00, 0x00, 0x00, 0x00, 0x00, 0x00, 0x00,
  0x00, 0x00, 0x00, 0x00, 0x00, 0x00, 0x00, 0x00, 0x00, 0x00, 0x00, 0x00,
  0x00, 0x00, 0x00, 0x00, 0x00, 0x00, 0x00, 0x00, 0x00, 0x00, 0x00, 0x00,
  0x00, 0x00, 0x00, 0x00, 0x00, 0x00, 0x00, 0x00, 0x00, 0x00, 0x00, 0x00,
  0x07, 0x00, 0x00, 0x00, 0x4e, 0x0c, 0x2b, 0x3a, 0xae, 0xb0, 0x42, 0x3a,
  0x25, 0x21, 0x77, 0x3a, 0x5e, 0x83, 0x7d, 0x3a, 0x3a, 0xc3, 0x15, 0x3a,
  0xd4, 0x4c, 0x29, 0x3a, 0x74, 0x74, 0x9a, 0x39, 0x11, 0x00, 0x00, 0x00,
  0x74, 0x66, 0x6c, 0x2e, 0x70, 0x73, 0x65, 0x75, 0x64, 0x6f, 0x5f, 0x71,
  0x63, 0x6f, 0x6e, 0x73, 0x74, 0x00, 0x00, 0x00, 0x01, 0x00, 0x00, 0x00,
  0x07, 0x00, 0x00, 0x00, 0x4a, 0xff, 0xff, 0xff, 0x00, 0x00, 0x00, 0x01,
  0x14, 0x00, 0x00, 0x00, 0x14, 0x00, 0x00, 0x00, 0x04, 0x00, 0x00, 0x00,
  0x00, 0x00, 0x00, 0x02, 0x1c, 0x00, 0x00, 0x00, 0x8c, 0xff, 0xff, 0xff,
  0x0f, 0x00, 0x00, 0x00, 0x61, 0x72, 0x69, 0x74, 0x68, 0x2e, 0x63, 0x6f,
  0x6e, 0x73, 0x74, 0x61, 0x6e, 0x74, 0x32, 0x00, 0x00, 0x00, 0x00, 0x00,
  0x82, 0xff, 0xff, 0xff, 0x00, 0x00, 0x00, 0x01, 0x14, 0x00, 0x00, 0x00,
  0x14, 0x00, 0x00, 0x00, 0x03, 0x00, 0x00, 0x00, 0x00, 0x00, 0x00, 0x02,
  0x1c, 0x00, 0x00, 0x00, 0xc4, 0xff, 0xff, 0xff, 0x0f, 0x00, 0x00, 0x00,
  0x61, 0x72, 0x69, 0x74, 0x68, 0x2e, 0x63, 0x6f, 0x6e, 0x73, 0x74, 0x61,
  0x6e, 0x74, 0x31, 0x00, 0x01, 0x00, 0x00, 0x00, 0x03, 0x00, 0x00, 0x00,
  0xbe, 0xff, 0xff, 0xff, 0x00, 0x00, 0x00, 0x01, 0x18, 0x00, 0x00, 0x00,
  0x18, 0x00, 0x00, 0x00, 0x02, 0x00, 0x00, 0x00, 0x00, 0x00, 0x00, 0x02,
  0x20, 0x00, 0x00, 0x00, 0x04, 0x00, 0x04, 0x00, 0x04, 0x00, 0x00, 0x00,
  0x0e, 0x00, 0x00, 0x00, 0x61, 0x72, 0x69, 0x74, 0x68, 0x2e, 0x63, 0x6f,
  0x6e, 0x73, 0x74, 0x61, 0x6e, 0x74, 0x00, 0x00, 0x01, 0x00, 0x00, 0x00,
  0x04, 0x00, 0x00, 0x00, 0x00, 0x00, 0x16, 0x00, 0x1c, 0x00, 0x18, 0x00,
  0x17, 0x00, 0x10, 0x00, 0x0c, 0x00, 0x08, 0x00, 0x00, 0x00, 0x00, 0x00,
  0x00, 0x00, 0x07, 0x00, 0x16, 0x00, 0x00, 0x00, 0x00, 0x00, 0x00, 0x01,
  0x20, 0x00, 0x00, 0x00, 0x40, 0x00, 0x00, 0x00, 0x01, 0x00, 0x00, 0x00,
  0x00, 0x00, 0x00, 0x09, 0x5c, 0x00, 0x00, 0x00, 0x0c, 0x00, 0x0c, 0x00,
  0x00, 0x00, 0x00, 0x00, 0x08, 0x00, 0x04, 0x00, 0x0c, 0x00, 0x00, 0x00,
  0x08, 0x00, 0x00, 0x00, 0x14, 0x00, 0x00, 0x00, 0x01, 0x00, 0x00, 0x00,
  0x90, 0xff, 0xff, 0xff, 0xff, 0xff, 0xff, 0xff, 0x00, 0x00, 0x00, 0x00,
  0x01, 0x00, 0x00, 0x00, 0xc1, 0xb9, 0x1c, 0x3f, 0x21, 0x00, 0x00, 0x00,
  0x73, 0x65, 0x72, 0x76, 0x69, 0x6e, 0x67, 0x5f, 0x64, 0x65, 0x66, 0x61,
  0x75, 0x6c, 0x74, 0x5f, 0x6b, 0x65, 0x72, 0x61, 0x73, 0x5f, 0x74, 0x65,
  0x6e, 0x73, 0x6f, 0x72, 0x5f, 0x31, 0x34, 0x3a, 0x30, 0x00, 0x00, 0x00,
  0x03, 0x00, 0x00, 0x00, 0x01, 0x00, 0x00, 0x00, 0xf4, 0x01, 0x00, 0x00,
  0x06, 0x00, 0x00, 0x00, 0x05, 0x00, 0x00, 0x00, 0x6c, 0x00, 0x00, 0x00,
  0x4c, 0x00, 0x00, 0x00, 0x2c, 0x00, 0x00, 0x00, 0x18, 0x00, 0x00, 0x00,
  0x04, 0x00, 0x00, 0x00, 0xd0, 0xff, 0xff, 0xff, 0x19, 0x00, 0x00, 0x00,
  0x02, 0x00, 0x00, 0x00, 0x00, 0x00, 0x00, 0x19, 0xe0, 0xff, 0xff, 0xff,
  0x09, 0x00, 0x00, 0x00, 0x04, 0x00, 0x00, 0x00, 0x00, 0x00, 0x00, 0x09,
  0xf0, 0xff, 0xff, 0xff, 0x28, 0x00, 0x00, 0x00, 0x02, 0x00, 0x00, 0x00,
  0x00, 0x00, 0x00, 0x28, 0x0c, 0x00, 0x10, 0x00, 0x0f, 0x00, 0x00, 0x00,
  0x08, 0x00, 0x04, 0x00, 0x0c, 0x00, 0x00, 0x00, 0x03, 0x00, 0x00, 0x00,
  0x03, 0x00, 0x00, 0x00, 0x00, 0x00, 0x00, 0x03, 0x0c, 0x00, 0x0c, 0x00,
  0x0b, 0x00, 0x00, 0x00, 0x00, 0x00, 0x04, 0x00, 0x0c, 0x00, 0x00, 0x00,
  0x16, 0x00, 0x00, 0x00, 0x00, 0x00, 0x00, 0x16
};
inline const unsigned int gesture_model_1_tflite_len = 8768;
