
inline const unsigned char gesture_model_2_tflite[] = {
  0x1c, 0x00, 0x00, 0x00, 0x54, 0x46, 0x4c, 0x33, 0x14, 0x00, 0x20, 0x00,
  0x1c, 0x00, 0x18, 0x00, 0x14, 0x00, 0x10, 0x00, 0x0c, 0x00, 0x00, 0x00,
  0x08, 0x00, 0x04, 0x00, 0x14, 0x00, 0x00, 0x00, 0x1c, 0x00, 0x00, 0x00,
  0x98, 0x00, 0x00, 0x00, 0x18, 0x01, 0x00, 0x00, 0x6c, 0x0c, 0x00, 0x00,
  0x7c, 0x0c, 0x00, 0x00, 0x90, 0x21, 0x00, 0x00, 0x03, 0x00, 0x00, 0x00,
  0x01, 0x00, 0x00, 0x00, 0x10, 0x00, 0x00, 0x00, 0x00, 0x00, 0x0a, 0x00,
  0x10, 0x00, 0x0c, 0x00, 0x08, 0x00, 0x04, 0x00, 0x0a, 0x00, 0x00, 0x00,
  0x0c, 0x00, 0x00, 0x00, 0x1c, 0x00, 0x00, 0x00, 0x3c, 0x00, 0x00, 0x00,
  0x0f, 0x00, 0x00, 0x00, 0x73, 0x65, 0x72, 0x76, 0x69, 0x6e, 0x67, 0x5f,
  0x64, 0x65, 0x66, 0x61, 0x75, 0x6c, 0x74, 0x00, 0x01, 0x00, 0x00, 0x00,
  0x04, 0x00, 0x00, 0x00, 0x68, 0xff, 0xff, 0xff, 0x16, 0x00, 0x00, 0x00,
  0x04, 0x00, 0x00, 0x00, 0x08, 0x00, 0x00, 0x00, 0x6f, 0x75, 0x74, 0x70,
  0x75, 0x74, 0x5f, 0x30, 0x00, 0x00, 0x00, 0x00, 0x01, 0x00, 0x00, 0x00,
  0x04, 0x00, 0x00, 0x00, 0x76, 0xf3, 0xff, 0xff, 0x04, 0x00, 0x00, 0x00,
  0x0f, 0x00, 0x00, 0x00, 0x6b, 0x65, 0x72, 0x61, 0x73, 0x5f, 0x74, 0x65,
  0x6e, 0x73, 0x6f, 0x72, 0x5f, 0x32, 0x38, 0x00, 0x03, 0x00, 0x00, 0x00,
  0x5c, 0x00, 0x00, 0x00, 0x2c, 0x00, 0x00, 0x00, 0x04, 0x00, 0x00, 0x00,
  0xb8, 0xff, 0xff, 0xff, 0x1a, 0x00, 0x00, 0x00, 0x04, 0x00, 0x00, 0x00,
  0x13, 0x00, 0x00, 0x00, 0x43, 0x4f, 0x4e, 0x56, 0x45, 0x52, 0x53, 0x49,
  0x4f, 0x4e, 0x5f, 0x4d, 0x45, 0x54, 0x41, 0x44, 0x41, 0x54, 0x41, 0x00,
  0xdc, 0xff, 0xff, 0xff, 0x19, 0x00, 0x00, 0x00, 0x04, 0x00, 0x00, 0x00,
  0x13, 0x00, 0x00, 0x00, 0x6d, 0x69, 0x6e, 0x5f, 0x72, 0x75, 0x6e, 0x74,
  0x69, 0x6d, 0x65, 0x5f, 0x76, 0x65, 0x72, 0x73, 0x69, 0x6f, 0x6e, 0x00,
  0x08, 0x00, 0x0c, 0x00, 0x08, 0x00, 0x04, 0x00, 0x08, 0x00, 0x00, 0x00,
  0x18, 0x00, 0x00, 0x00, 0x04, 0x00, 0x00, 0x00, 0x13, 0x00, 0x00, 0x00,
  0x6d, 0x69, 0x6e, 0x5f, 0x72, 0x75, 0x6e, 0x74, 0x69, 0x6d, 0x65, 0x5f,
  0x76, 0x65, 0x72, 0x73, 0x69, 0x6f, 0x6e, 0x00, 0x1b, 0x00, 0x00, 0x00,
  0x50, 0x0b, 0x00, 0x00, 0x48, 0x0b, 0x00, 0x00, 0x28, 0x0b, 0x00, 0x00,
  0x0c, 0x0b, 0x00, 0x00, 0xf8, 0x0a, 0x00, 0x00, 0xcc, 0x0a, 0x00, 0x00,
  0x4c, 0x0a, 0x00, 0x00, 0xfc, 0x09, 0x00, 0x00, 0x6c, 0x09, 0x00, 0x00,
  0x3c, 0x09, 0x00, 0x00, 0x0c, 0x08, 0x00, 0x00, 0xcc, 0x07, 0x00, 0x00,
  0xfc, 0x03, 0x00, 0x00, 0xac, 0x03, 0x00, 0x00, 0xfc, 0x00, 0x00, 0x00,
  0xf4, 0x00, 0x00, 0x00, 0xec, 0x00, 0x00, 0x00, 0xe4, 0x00, 0x00, 0x00,
  0xdc, 0x00, 0x00, 0x00, 0xd4, 0x00, 0x00, 0x00, 0xcc, 0x00, 0x00, 0x00,
  0xc4, 0x00, 0x00, 0x00, 0xbc, 0x00, 0x00, 0x00, 0xb4, 0x00, 0x00, 0x00,
  0x94, 0x00, 0x00, 0x00, 0x74, 0x00, 0x00, 0x00, 0x04, 0x00, 0x00, 0x00,
  0x86, 0xf4, 0xff, 0xff, 0x04, 0x00, 0x00, 0x00, 0x60, 0x00, 0x00, 0x00,
  0x0c, 0x00, 0x00, 0x00, 0x08, 0x00, 0x0e, 0x00, 0x08, 0x00, 0x04, 0x00,
  0x08, 0x00, 0x00, 0x00, 0x10, 0x00, 0x00, 0x00, 0x28, 0x00, 0x00, 0x00,
  0x00, 0x00, 0x06, 0x00, 0x08, 0x00, 0x04, 0x00, 0x06, 0x00, 0x00, 0x00,
  0x04, 0x00, 0x00, 0x00, 0x01, 0x00, 0x00, 0x00, 0xeb, 0x03, 0x00, 0x00,
  0x0c, 0x00, 0x18, 0x00, 0x14, 0x00, 0x10, 0x00, 0x0c, 0x00, 0x04, 0x00,
  0x0c, 0x00, 0x00, 0x00, 0x90, 0x23, 0x1c, 0x91, 0xe1, 0x42, 0xe3, 0x7e,
  0x02, 0x00, 0x00, 0x00, 0x02, 0x00, 0x00, 0x00, 0x04, 0x00, 0x00, 0x00,
  0x06, 0x00, 0x00, 0x00, 0x32, 0x2e, 0x31, 0x39, 0x2e, 0x30, 0x00, 0x00,
  0xf2, 0xf4, 0xff, 0xff, 0x04, 0x00, 0x00, 0x00, 0x10, 0x00, 0x00, 0x00,
  0x00, 0x00, 0x00, 0x00, 0x00, 0x00, 0x00, 0x00, 0x00, 0x00, 0x00, 0x00,
  0x00, 0x00, 0x00, 0x00, 0x0e, 0xf5, 0xff, 0xff, 0x04, 0x00, 0x00, 0x00,
  0x10, 0x00, 0x00, 0x00, 0x31, 0x2e, 0x31, 0x34, 0x2e, 0x30, 0x00, 0x00,
  0x00, 0x00, 0x00, 0x00, 0x00, 0x00, 0x00, 0x00, 0x50, 0xe1, 0xff, 0xff,
  0x54, 0xe1, 0xff, 0xff, 0x58, 0xe1, 0xff, 0xff, 0x5c, 0xe1, 0xff, 0xff,
  0x60, 0xe1, 0xff, 0xff, 0x64, 0xe1, 0xff, 0xff, 0x68, 0xe1, 0xff, 0xff,
  0x6c, 0xe1, 0xff, 0xff, 0x70, 0xe1, 0xff, 0xff, 0x4e, 0xf5, 0xff, 0xff,
  0x04, 0x00, 0x00, 0x00, 0xa0, 0x02, 0x00, 0x00, 0xda, 0x1d, 0x43, 0x93,
  0xbf, 0x5c, 0x04, 0x39, 0x61, 0xb4, 0xe8, 0x50, 0x25, 0x43, 0x5e, 0xd8,
  0x1b, 0x3b, 0x4e, 0x55, 0x35, 0xc9, 0x2d, 0x24, 0x45, 0x54, 0x56, 0xc1,
  0x20, 0x13, 0x4a, 0x54, 0x4f, 0xe8, 0x60, 0x39, 0x0c, 0x7f, 0x75, 0xe0,
  0x73, 0x14, 0xf8, 0xf3, 0xe3, 0x06, 0xf3, 0x7f, 0x02, 0xfc, 0xff, 0xfd,
  0xff, 0x67, 0xed, 0xfa, 0xf4, 0x0c, 0xf7, 0x45, 0xf4, 0xfa, 0xf9, 0xf4,
  0xfa, 0x31, 0xec, 0x09, 0x07, 0xff, 0x01, 0x17, 0xe8, 0xe6, 0x1b, 0xee,
  0x08, 0x06, 0xe2, 0xf0, 0x12, 0xdb, 0x24, 0xeb, 0xea, 0x0a, 0x0c, 0xe4,
  0xf7, 0x94, 0x04, 0x05, 0x2d, 0x03, 0xfe, 0xaf, 0x16, 0x28, 0x4e, 0xfd,
  0x10, 0xb0, 0x04, 0x1e, 0x36, 0x0c, 0x1f, 0xb6, 0x1c, 0x41, 0x3e, 0x20,
  0x2f, 0x93, 0x48, 0x1a, 0xfc, 0x13, 0x0f, 0xa9, 0x3c, 0x40, 0x02, 0xd2,
  0x21, 0x81, 0x17, 0xdc, 0xac, 0xe4, 0x16, 0x79, 0x0e, 0x05, 0xe5, 0xf7,
  0x14, 0x60, 0xfc, 0xfa, 0x0e, 0x28, 0x09, 0x54, 0x02, 0x1d, 0x10, 0x06,
  0xff, 0x52, 0x19, 0x02, 0x2e, 0x1c, 0x08, 0x61, 0xfa, 0x15, 0x1c, 0x00,
  0xda, 0x74, 0xfe, 0x10, 0x1b, 0xdc, 0xd8, 0x7f, 0xc4, 0xdd, 0x6a, 0x37,
  0xe2, 0xdd, 0xb8, 0xd4, 0x51, 0x06, 0x0b, 0xd8, 0xe7, 0xf4, 0x20, 0xee,
  0x35, 0xea, 0xf7, 0xf6, 0x2d, 0xfb, 0x54, 0xdb, 0x26, 0xfc, 0x02, 0xdc,
  0x58, 0xd9, 0x38, 0xf8, 0xd7, 0xe3, 0x7f, 0xcd, 0x3d, 0xfe, 0xec, 0xa5,
  0x73, 0xd9, 0x07, 0x12, 0xfa, 0xfe, 0xd1, 0xce, 0x05, 0x05, 0xf2, 0xfe,
  0xe7, 0xff, 0x11, 0x09, 0x01, 0x02, 0xfa, 0x10, 0x02, 0x09, 0xfb, 0xfc,
  0x14, 0x28, 0xe2, 0xfd, 0x02, 0x18, 0x42, 0x3b, 0xed, 0xff, 0x0e, 0x26,
  0x48, 0x6d, 0xdc, 0xdf, 0x1a, 0x24, 0x54, 0x7f, 0x0a, 0x1e, 0x42, 0x02,
  0xef, 0xfa, 0x1a, 0x11, 0x1d, 0x00, 0xd0, 0xff, 0x0a, 0xe6, 0xfe, 0x00,
  0xc6, 0x0a, 0x0f, 0xeb, 0xff, 0x17, 0xad, 0xff, 0xef, 0xfc, 0x08, 0x1c,
  0xac, 0xe7, 0xcf, 0xea, 0xf6, 0x3a, 0xbe, 0xf0, 0xbe, 0x06, 0xfa, 0x7f,
  0xd1, 0xfe, 0x49, 0x3a, 0xee, 0xf8, 0xb1, 0x0d, 0x3b, 0x19, 0x24, 0xe2,
  0xc8, 0xfc, 0x15, 0x06, 0x2a, 0xe7, 0xde, 0xf6, 0x12, 0xdd, 0x23, 0xea,
  0xd3, 0xea, 0x1e, 0xdb, 0x4f, 0xfa, 0xc3, 0xe2, 0xfe, 0xd0, 0x7f, 0xf0,
  0xc2, 0xf3, 0x12, 0xbc, 0x69, 0x01, 0xca, 0xec, 0x15, 0x01, 0x36, 0xbd,
  0x0c, 0x4a, 0xff, 0x2c, 0x1f, 0xa7, 0x02, 0x3e, 0x2a, 0x3e, 0x3d, 0xdc,
  0x01, 0x28, 0x22, 0x3a, 0x55, 0xfa, 0xed, 0x09, 0x37, 0x31, 0x3b, 0x03,
  0xf5, 0xe8, 0x3a, 0x61, 0x1e, 0x2b, 0xe9, 0xce, 0x00, 0x54, 0x52, 0x7f,
  0xc1, 0xfb, 0xdc, 0x81, 0x01, 0xb9, 0x04, 0xed, 0xc2, 0xa8, 0x21, 0xd4,
  0x16, 0xf2, 0xba, 0xc7, 0x0f, 0xfb, 0xe3, 0xf4, 0xc1, 0xcb, 0x33, 0xea,
  0xf4, 0xe8, 0xa2, 0x08, 0x23, 0x12, 0xe4, 0xe1, 0xc6, 0x12, 0x38, 0xfc,
  0xad, 0xde, 0xb9, 0x5a, 0x12, 0x01, 0xaa, 0xc7, 0x08, 0xe7, 0xe9, 0xf4,
  0xe0, 0x81, 0x02, 0xeb, 0xfc, 0xec, 0xf3, 0x8d, 0x06, 0xf8, 0x10, 0x07,
  0xe1, 0x90, 0xfd, 0xe1, 0x19, 0x06, 0xf5, 0x96, 0xfb, 0xdc, 0x04, 0xf5,
  0xfa, 0x95, 0xf4, 0xf3, 0x0c, 0x0c, 0xe3, 0x8e, 0xf3, 0xfe, 0xfc, 0x0d,
  0x09, 0xab, 0x31, 0x2b, 0xba, 0xbb, 0x36, 0x49, 0x0f, 0xfe, 0xbc, 0xd5,
  0x17, 0x60, 0xf2, 0xf9, 0xf1, 0xc6, 0x3c, 0x51, 0x15, 0xd8, 0xfd, 0xbb,
  0x06, 0x2a, 0x01, 0xc0, 0xf6, 0xb0, 0x01, 0x11, 0x19, 0x9c, 0xd1, 0xa5,
  0xff, 0xf1, 0x10, 0x81, 0xde, 0xaa, 0xc9, 0xf3, 0x4c, 0x19, 0xbb, 0xd0,
  0x81, 0x6d, 0x47, 0xf8, 0xd2, 0xff, 0x86, 0x70, 0x1c, 0xfe, 0xed, 0x02,
  0xab, 0x59, 0x0d, 0x31, 0x14, 0xdd, 0xdb, 0x4e, 0x10, 0x13, 0x4b, 0xfb,
  0xfb, 0x30, 0xca, 0x08, 0x52, 0xc4, 0xff, 0x03, 0xcb, 0x20, 0x43, 0xbe,
  0x08, 0x0b, 0xdc, 0x88, 0x7f, 0x2b, 0x5d, 0x55, 0xdf, 0xa9, 0x57, 0x04,
  0x45, 0x59, 0xfc, 0x83, 0x5d, 0xef, 0x38, 0x3a, 0x1c, 0xc2, 0x2e, 0xc4,
  0x3e, 0x34, 0x2a, 0xdb, 0x4b, 0xda, 0x14, 0xfe, 0x48, 0xae, 0x38, 0x17,
  0x1e, 0x01, 0x67, 0x00, 0x75, 0x39, 0x4f, 0x06, 0x5e, 0xb2, 0xc3, 0x15,
  0xee, 0x48, 0x56, 0xcc, 0xd5, 0x39, 0xf7, 0x19, 0x2e, 0xe2, 0x0f, 0x16,
  0x18, 0xed, 0x14, 0xe3, 0x25, 0x1c, 0xf8, 0xd1, 0x02, 0xec, 0x30, 0x28,
  0xf2, 0xe4, 0xfd, 0xe2, 0x3e, 0xe7, 0xe3, 0x96, 0xb9, 0xe8, 0x5b, 0xe7,
  0xd0, 0x81, 0x33, 0x4e, 0x19, 0xde, 0x0d, 0x81, 0x22, 0x3d, 0x2a, 0xdf,
  0x02, 0xa8, 0x1f, 0x0f, 0xf2, 0xf8, 0xf3, 0xcb, 0x16, 0xfe, 0xf7, 0x11,
  0xf1, 0xff, 0xf3, 0xee, 0xf9, 0x12, 0xef, 0x3e, 0xe0, 0xfe, 0x1b, 0x22,
  0xd1, 0x56, 0xcb, 0xd0, 0x11, 0x29, 0xe7, 0x4b, 0xfa, 0xf7, 0xff, 0xff,
  0x04, 0x00, 0x00, 0x00, 0x40, 0x00, 0x00, 0x00, 0xb7, 0xfe, 0xff, 0xff,
  0x45, 0x00, 0x00, 0x00, 0x04, 0xff, 0xff, 0xff, 0x8a, 0xfe, 0xff, 0xff,
  0x74, 0xff, 0xff, 0xff, 0x75, 0xff, 0xff, 0xff, 0xf0, 0xfe, 0xff, 0xff,
  0x77, 0xff, 0xff, 0xff, 0x6b, 0xff, 0xff, 0xff, 0x21, 0x00, 0x00, 0x00,
  0x2b, 0xfe, 0xff, 0xff, 0xd6, 0xfd, 0xff, 0xff, 0x8e, 0xff, 0xff, 0xff,
  0x36, 0xfe, 0xff, 0xff, 0x44, 0xff, 0xff, 0xff, 0xfb, 0xff, 0xff, 0xff,
  0x46, 0xf8, 0xff, 0xff, 0x04, 0x00, 0x00, 0x00, 0xc0, 0x03, 0x00, 0x00,
  0xdf, 0xda, 0x41, 0x81, 0x1d, 0xdf, 0x0b, 0x1b, 0xeb, 0x4e, 0x49, 0x07,
  0xdc, 0xfa, 0x03, 0xfe, 0x00, 0x00, 0x26, 0xd7, 0x13, 0xeb, 0x37, 0x09,
  0xf7, 0x25, 0x2c, 0x07, 0xee, 0x1c, 0xd7, 0x09, 0xf8, 0x07, 0x27, 0xe7,
  0x0d, 0x01, 0x32, 0xe4, 0x0e, 0xf7, 0xe8, 0xda, 0xf4, 0x1d, 0xca, 0x0d,
  0xff, 0xf5, 0xe0, 0xf6, 0xfe, 0xf9, 0x05, 0xca, 0xfb, 0xa4, 0xe2, 0xf3,
  0x22, 0x08, 0xac, 0xe5, 0xef, 0x18, 0xe9, 0x0d, 0x00, 0x05, 0xd8, 0xa9,
  0xb5, 0x96, 0x9e, 0xd1, 0x35, 0x02, 0xb4, 0xf7, 0xba, 0x27, 0xf3, 0x23,
  0x33, 0xf4, 0x2a, 0x81, 0xd8, 0x1b, 0x83, 0x38, 0xe1, 0x50, 0x12, 0xd2,
  0xe0, 0x18, 0xe9, 0x1e, 0xf7, 0xba, 0x12, 0xa8, 0xff, 0x1b, 0xd5, 0xfe,
  0xfa, 0x04, 0x06, 0xee, 0x0e, 0x00, 0x17, 0x06, 0xd8, 0xbe, 0x13, 0xb9,
  0x09, 0xf4, 0xef, 0xec, 0xfb, 0xf1, 0x13, 0xee, 0x34, 0xe7, 0x1d, 0xe0,
  0xa6, 0xdf, 0x0c, 0x0b, 0x01, 0xe3, 0xd9, 0xec, 0xfd, 0xe4, 0xfd, 0x3a,
  0x4e, 0xf9, 0x1a, 0xcf, 0xaf, 0xbb, 0xec, 0x2f, 0x2a, 0xdc, 0xb1, 0xee,
  0x12, 0xce, 0xee, 0x1c, 0x23, 0x81, 0xe8, 0xae, 0xfb, 0xc8, 0xfd, 0x05,
  0xf0, 0xf6, 0xee, 0xcb, 0xf1, 0x11, 0x1a, 0x09, 0x1b, 0xbb, 0xf0, 0xc9,
  0xf4, 0xfb, 0xf3, 0x0f, 0xda, 0xfd, 0xf1, 0xe5, 0x0b, 0x27, 0x18, 0x1e,
  0x11, 0xeb, 0xee, 0xe2, 0x09, 0x1e, 0xe0, 0x0d, 0x03, 0x08, 0x12, 0xf4,
  0x10, 0xfc, 0x01, 0x04, 0x06, 0x1d, 0xf7, 0x1d, 0xf5, 0x27, 0xd0, 0x00,
  0xff, 0xfd, 0x0c, 0xfb, 0x01, 0xfb, 0xef, 0x06, 0xfc, 0x57, 0x27, 0x3c,
  0xf1, 0x1f, 0xd8, 0xde, 0x27, 0xf4, 0x22, 0x1e, 0x16, 0xd8, 0xd8, 0xe2,
  0xd7, 0x1d, 0x37, 0x97, 0xe7, 0xd3, 0xb9, 0x0c, 0xe3, 0x0b, 0x08, 0x05,
  0x99, 0x17, 0xd0, 0x48, 0xfa, 0x01, 0xfd, 0xc8, 0x1c, 0xfe, 0xc7, 0x0b,
  0x26, 0xf3, 0xf5, 0x12, 0xba, 0x0f, 0xc8, 0x2c, 0xfd, 0x11, 0xe7, 0x0a,
  0xbc, 0x25, 0xa3, 0x08, 0xf5, 0xe6, 0xe6, 0x29, 0xb6, 0x24, 0xf5, 0x3e,
  0xf4, 0xe8, 0xcc, 0x20, 0x94, 0xdd, 0xa8, 0xd7, 0x13, 0x07, 0x9e, 0x20,
  0xd2, 0x17, 0x2b, 0x94, 0xfb, 0x06, 0xaf, 0x16, 0x81, 0xcd, 0xc3, 0x3b,
  0x0d, 0x46, 0xe4, 0x60, 0x1a, 0x15, 0x58, 0xd9, 0x2d, 0xa8, 0xde, 0x0e,
  0xba, 0xcd, 0x23, 0x17, 0x45, 0xa7, 0xe1, 0x37, 0x54, 0xcb, 0xbd, 0x2f,
  0x41, 0xe9, 0xf4, 0x1a, 0xfe, 0xf2, 0x0e, 0xe1, 0x35, 0xce, 0xfe, 0x0e,
  0x0f, 0xb4, 0xd0, 0x1b, 0x13, 0x10, 0xf9, 0xda, 0xfc, 0x02, 0x09, 0xdd,
  0xf1, 0xcf, 0x24, 0xf7, 0xe1, 0xa4, 0xdb, 0x58, 0x22, 0x26, 0xe1, 0xe8,
  0x0f, 0x08, 0xec, 0xd6, 0xca, 0xfc, 0x21, 0x0f, 0x17, 0x97, 0x03, 0xc9,
  0x0a, 0x6b, 0x2e, 0x01, 0x1e, 0x19, 0x9e, 0xa0, 0xac, 0xfa, 0x4e, 0x2f,
  0xf4, 0x81, 0x24, 0xc8, 0x2d, 0xdf, 0xba, 0x1f, 0xde, 0xe5, 0x0e, 0xff,
  0x07, 0xde, 0x81, 0xc4, 0x51, 0xf9, 0x48, 0xe2, 0x1d, 0xed, 0xb9, 0xfa,
  0xfd, 0xec, 0xf4, 0x03, 0x02, 0xe2, 0xa8, 0xe9, 0x34, 0xe6, 0x30, 0xb2,
  0x3a, 0xff, 0xce, 0x12, 0x0f, 0xf8, 0xfe, 0xf4, 0x43, 0xe9, 0xfe, 0x16,
  0x1b, 0x04, 0x16, 0xdd, 0x47, 0xed, 0xef, 0x08, 0x07, 0xd1, 0xe8, 0xda,
  0x37, 0xe7, 0x2c, 0x25, 0x40, 0xe8, 0x23, 0xe2, 0x4e, 0xae, 0x18, 0xef,
  0xfe, 0xc5, 0xe0, 0xe4, 0x69, 0xd2, 0x4c, 0x09, 0x17, 0xf1, 0x3a, 0x0b,
  0x18, 0xd9, 0x3e, 0x08, 0x13, 0x15, 0x0f, 0x04, 0xeb, 0xfc, 0xff, 0x26,
  0xd9, 0xc5, 0xc4, 0x4c, 0x0d, 0xfd, 0x0c, 0x05, 0x16, 0x11, 0x08, 0xfc,
  0xdb, 0x13, 0xe6, 0x2f, 0xff, 0xf8, 0xd8, 0x35, 0x07, 0xf8, 0xf5, 0xf2,
  0x12, 0x01, 0x08, 0xe9, 0xe2, 0xf5, 0xdb, 0x16, 0x12, 0x05, 0xd2, 0x0b,
  0xe8, 0x16, 0xca, 0xf6, 0xff, 0xf7, 0xfa, 0xc7, 0xd3, 0xf9, 0xc3, 0x21,
  0xf0, 0x1e, 0xdb, 0x0b, 0xff, 0x22, 0xd1, 0xed, 0x00, 0xd1, 0xfb, 0x8e,
  0xe4, 0xd7, 0x81, 0xf7, 0xdf, 0x22, 0xea, 0xec, 0xe6, 0x00, 0x48, 0xe7,
  0x00, 0xcb, 0x11, 0x05, 0x04, 0xe5, 0x18, 0xf2, 0xff, 0x0a, 0xc3, 0x66,
  0xef, 0x02, 0x14, 0x01, 0x15, 0xc1, 0xec, 0xf6, 0xf8, 0xf3, 0x08, 0xe1,
  0xff, 0x01, 0xc4, 0x35, 0xef, 0x10, 0x00, 0x10, 0x10, 0xb8, 0xea, 0xe7,
  0xd7, 0xf7, 0xfc, 0x00, 0x10, 0xf7, 0xe1, 0xfe, 0xf6, 0x07, 0xf7, 0x20,
  0x0c, 0xa2, 0xfc, 0x01, 0xcd, 0xfb, 0x03, 0x00, 0x24, 0xf5, 0xfa, 0xda,
  0x07, 0x0f, 0x2c, 0x16, 0xe9, 0x81, 0x06, 0x2b, 0xc9, 0x02, 0x4c, 0x28,
  0x1d, 0xe8, 0xfb, 0x92, 0x25, 0xe3, 0xf0, 0xce, 0x16, 0xc9, 0x31, 0xdd,
  0x38, 0x23, 0x81, 0xeb, 0xbe, 0x0a, 0xf6, 0x27, 0x06, 0x0c, 0xd4, 0x00,
  0x0b, 0xb9, 0x31, 0x04, 0x1c, 0xff, 0x9c, 0xeb, 0xdd, 0x03, 0x0a, 0x0a,
  0xeb, 0x04, 0xd5, 0xf6, 0xe8, 0xdd, 0x24, 0xfc, 0x07, 0x0b, 0xcb, 0xe0,
  0xfa, 0xf8, 0x10, 0x15, 0xed, 0x17, 0xd3, 0xfc, 0xde, 0xfe, 0x1a, 0x15,
  0xd5, 0xf3, 0xe2, 0xe8, 0x2a, 0xd3, 0x0d, 0x25, 0xe0, 0x2b, 0xdd, 0x05,
  0xe8, 0x28, 0xf7, 0x34, 0xd8, 0xde, 0x07, 0x03, 0x31, 0xce, 0x25, 0xec,
  0x1e, 0xf1, 0xe0, 0xf7, 0x1c, 0x22, 0x03, 0x00, 0xbe, 0xfe, 0x9c, 0xbe,
  0xfe, 0xcc, 0x02, 0xd8, 0xfb, 0x04, 0xfa, 0xe7, 0x2d, 0x23, 0xf1, 0x0e,
  0xce, 0xf0, 0xb2, 0xf1, 0x0c, 0xdf, 0xfd, 0xf5, 0xfb, 0xfa, 0x06, 0xdc,
  0x0e, 0x1a, 0x0e, 0x1d, 0xdd, 0xf6, 0xd8, 0x06, 0x27, 0xf2, 0xe1, 0xff,
  0xfa, 0xe0, 0x14, 0xab, 0x23, 0xff, 0x11, 0x0e, 0xf0, 0xc6, 0xef, 0x0b,
  0x16, 0xee, 0xc1, 0x0b, 0xeb, 0xd2, 0x16, 0x81, 0x18, 0xfd, 0x18, 0xfd,
  0x10, 0xc5, 0xf0, 0x05, 0x25, 0x1a, 0xc2, 0x07, 0x0d, 0x26, 0x21, 0x7f,
  0xdc, 0x11, 0xde, 0xf9, 0xf2, 0x8f, 0x53, 0xe6, 0xe0, 0xff, 0xdb, 0x17,
  0xca, 0x2a, 0x1e, 0x28, 0xec, 0xf2, 0xf9, 0x2b, 0xe8, 0xa5, 0x28, 0x04,
  0xec, 0x0c, 0xfc, 0xfd, 0xb2, 0x2d, 0xf2, 0xfe, 0xeb, 0xf7, 0x0c, 0x46,
  0xf9, 0xb1, 0x0c, 0x1e, 0xf1, 0xfb, 0x28, 0xfb, 0xc3, 0x2b, 0x16, 0xb7,
  0x18, 0xf7, 0x11, 0x13, 0x22, 0xde, 0xe9, 0x15, 0x0c, 0xdb, 0x1c, 0xfc,
  0xdd, 0xf4, 0xf4, 0x94, 0x18, 0x22, 0x20, 0xea, 0x33, 0x50, 0x8e, 0xc9,
  0xfd, 0xcd, 0xfe, 0x31, 0xf4, 0xd3, 0x30, 0xd3, 0x29, 0x09, 0xfa, 0xe3,
  0xc5, 0xfa, 0x25, 0xcc, 0xbd, 0xb7, 0xe6, 0xd3, 0x03, 0xe0, 0x17, 0x02,
  0x13, 0x04, 0xfa, 0xe6, 0xef, 0x02, 0x24, 0xf6, 0xc6, 0xbb, 0xea, 0xed,
  0x22, 0xfb, 0xf5, 0xfe, 0x00, 0x06, 0xd3, 0x07, 0xff, 0xfb, 0x0f, 0x04,
  0xf7, 0xea, 0xe0, 0x29, 0x1f, 0x06, 0xb8, 0x2a, 0x01, 0xeb, 0xe1, 0x0b,
  0x1b, 0x13, 0x0b, 0x02, 0xe7, 0x03, 0xfd, 0xec, 0x2c, 0x05, 0x81, 0x36,
  0xf0, 0xd7, 0xe8, 0x10, 0x1b, 0x02, 0xe9, 0x0c, 0xe1, 0x1a, 0x0e, 0x02,
  0x12, 0xfc, 0xff, 0xff, 0x04, 0x00, 0x00, 0x00, 0x30, 0x00, 0x00, 0x00,
  0x33, 0x03, 0x00, 0x00, 0x55, 0x03, 0x00, 0x00, 0xf9, 0x00, 0x00, 0x00,
  0x14, 0x02, 0x00, 0x00, 0x64, 0x02, 0x00, 0x00, 0x78, 0x00, 0x00, 0x00,
  0xbc, 0x06, 0x00, 0x00, 0x84, 0x00, 0x00, 0x00, 0x80, 0x03, 0x00, 0x00,
  0x93, 0x04, 0x00, 0x00, 0xd8, 0xfe, 0xff, 0xff, 0x0f, 0x02, 0x00, 0x00,
  0x4e, 0xfc, 0xff, 0xff, 0x04, 0x00, 0x00, 0x00, 0x20, 0x01, 0x00, 0x00,
  0x11, 0x81, 0xdc, 0x2c, 0xee, 0x1d, 0xf7, 0xdf, 0xee, 0xf7, 0x17, 0xec,
  0x73, 0xde, 0xcd, 0x36, 0x00, 0x01, 0x0f, 0xfb, 0x25, 0xe8, 0xff, 0x0d,
  0xe6, 0xbb, 0xe8, 0xfd, 0x55, 0x33, 0xf6, 0x1c, 0x23, 0x0a, 0xb5, 0x23,
  0x3a, 0xc7, 0x51, 0x41, 0x49, 0x21, 0xfb, 0xfa, 0x4d, 0xcf, 0xd1, 0x0c,
  0x1a, 0xe2, 0x15, 0x24, 0x1b, 0xed, 0x9b, 0xe2, 0x25, 0x81, 0xff, 0x07,
  0x16, 0xbe, 0xe3, 0x0e, 0x4a, 0xd6, 0xa7, 0x35, 0x0e, 0xa5, 0xe5, 0x11,
  0xe4, 0xa8, 0xb7, 0x8d, 0x66, 0x0d, 0x0d, 0x3c, 0xf6, 0xa6, 0x01, 0x81,
  0xf8, 0xcd, 0xdd, 0xf8, 0x1e, 0xcb, 0x13, 0xf6, 0x0d, 0x2a, 0x48, 0xb3,
  0xe1, 0x55, 0x15, 0x4d, 0x6b, 0x87, 0x2f, 0xaf, 0x25, 0xe0, 0x74, 0x19,
  0xd8, 0x1f, 0x3c, 0xe7, 0x2a, 0xc7, 0xf0, 0xe7, 0x99, 0xe5, 0x0e, 0x5a,
  0xc0, 0xca, 0xc5, 0xd9, 0x28, 0x01, 0xa8, 0x1a, 0xc4, 0x29, 0x1c, 0x1c,
  0xb4, 0x1b, 0x81, 0x09, 0xe1, 0x3e, 0xc7, 0x19, 0x0e, 0x37, 0x06, 0x3a,
  0xe3, 0xbc, 0x4b, 0xcd, 0x2b, 0x81, 0x76, 0x29, 0x5a, 0xbc, 0xaa, 0xd0,
  0xea, 0xdf, 0x9a, 0xbe, 0xe1, 0xe2, 0x2b, 0xc0, 0xcc, 0x41, 0x34, 0x03,
  0xeb, 0xf9, 0x93, 0xbd, 0x8f, 0xf2, 0x06, 0xd2, 0xbc, 0x45, 0x41, 0xf8,
  0xcd, 0x31, 0xc7, 0x44, 0xd9, 0xf5, 0xaf, 0xba, 0xf7, 0x76, 0x1a, 0x87,
  0xfe, 0xbd, 0xcf, 0x32, 0x0f, 0x0d, 0xbf, 0xd9, 0x95, 0x81, 0x23, 0x49,
  0x5a, 0x95, 0x11, 0xa1, 0x61, 0xbe, 0xe9, 0xcf, 0xc1, 0xc4, 0x3b, 0x73,
  0xd1, 0xb9, 0x6c, 0xaf, 0xff, 0x39, 0x14, 0x9e, 0x3b, 0x05, 0xe2, 0xfa,
  0x41, 0xe9, 0xf3, 0xe9, 0x21, 0xf3, 0x1a, 0xee, 0xea, 0x88, 0xec, 0x29,
  0x4f, 0xc5, 0x0a, 0xf5, 0x29, 0xe0, 0xfd, 0x13, 0x39, 0x81, 0x0d, 0x23,
  0x17, 0xba, 0x0c, 0xd4, 0xec, 0xfa, 0xf4, 0xd3, 0xeb, 0x0d, 0x46, 0x58,
  0x19, 0x01, 0xfb, 0x81, 0xd2, 0x28, 0x27, 0xb5, 0x34, 0x0b, 0x47, 0x09,
  0x4e, 0xef, 0xfa, 0xc4, 0xbd, 0x01, 0x14, 0x83, 0x24, 0xe3, 0x46, 0xef,
  0x7a, 0xfd, 0xff, 0xff, 0x04, 0x00, 0x00, 0x00, 0x20, 0x00, 0x00, 0x00,
  0xe5, 0xff, 0xff, 0xff, 0x36, 0x03, 0x00, 0x00, 0x1e, 0x03, 0x00, 0x00,
  0x27, 0x08, 0x00, 0x00, 0x29, 0x0b, 0x00, 0x00, 0x58, 0x11, 0x00, 0x00,
  0x71, 0x03, 0x00, 0x00, 0xaf, 0xff, 0xff, 0xff, 0xa6, 0xfd, 0xff, 0xff,
  0x04, 0x00, 0x00, 0x00, 0x80, 0x00, 0x00, 0x00, 0x12, 0xe4, 0xd4, 0x31,
  0xc2, 0x7f, 0xda, 0xf3, 0x5b, 0xee, 0xdc, 0x87, 0x9e, 0x7f, 0x23, 0x11,
  0xae, 0xe0, 0x7f, 0xca, 0x1a, 0xd0, 0x0d, 0x04, 0x3a, 0xd5, 0x00, 0x1b,
  0xe7, 0x7f, 0xa7, 0xb9, 0x57, 0x71, 0xe5, 0x9b, 0x50, 0xd6, 0x81, 0x08,
  0x81, 0x53, 0xec, 0x51, 0xfd, 0xb9, 0x49, 0xec, 0x6a, 0x07, 0xd4, 0x81,
  0xb6, 0x62, 0x28, 0x0e, 0xf1, 0xfa, 0x81, 0x2d, 0x38, 0xe9, 0xf0, 0x72,
  0xf0, 0x02, 0x7f, 0xa3, 0xe0, 0x31, 0x09, 0x9d, 0x9a, 0xb2, 0xe5, 0x7f,
  0xbd, 0x4a, 0x24, 0x1d, 0xee, 0x70, 0xe8, 0x09, 0x1c, 0xef, 0x01, 0x81,
  0x11, 0x55, 0x14, 0x81, 0xc1, 0xfe, 0x5a, 0xe2, 0xf5, 0xc8, 0xee, 0xc8,
  0xc2, 0x17, 0x7f, 0x35, 0x39, 0xc3, 0xbc, 0x9e, 0x06, 0xda, 0x41, 0x7f,
  0x92, 0xf5, 0x7f, 0xd4, 0xeb, 0xf7, 0x37, 0xd1, 0x26, 0x81, 0x39, 0xc9,
  0x20, 0x13, 0xe9, 0x28, 0x32, 0xfe, 0xff, 0xff, 0x04, 0x00, 0x00, 0x00,
  0x40, 0x00, 0x00, 0x00, 0xc9, 0xff, 0xff, 0xff, 0x96, 0xf3, 0xff, 0xff,
  0xd7, 0x09, 0x00, 0x00, 0x09, 0x00, 0x00, 0x00, 0x9b, 0x09, 0x00, 0x00,
  0x9e, 0x00, 0x00, 0x00, 0xf1, 0xf0, 0xff, 0xff, 0xa2, 0x08, 0x00, 0x00,
  0x9d, 0xfe, 0xff, 0xff, 0xdd, 0x03, 0x00, 0x00, 0xa6, 0xff, 0xff, 0xff,
  0xa8, 0xf8, 0xff, 0xff, 0x43, 0xf4, 0xff, 0xff, 0xc4, 0x06, 0x00, 0x00,
  0xd5, 0xff, 0xff, 0xff, 0xfe, 0x05, 0x00, 0x00, 0x7e, 0xfe, 0xff, 0xff,
  0x04, 0x00, 0x00, 0x00, 0x70, 0x00, 0x00, 0x00, 0x15, 0xb6, 0x87, 0x15,
  0xb1, 0x22, 0x98, 0x08, 0x81, 0x16, 0x10, 0xa1, 0xb2, 0xa3, 0x88, 0x98,
  0x18, 0xd6, 0x17, 0x2a, 0x81, 0xe2, 0xa4, 0xde, 0x0c, 0x19, 0xa4, 0x8e,
  0xa9, 0x90, 0x24, 0x15, 0x15, 0x23, 0x98, 0xd0, 0xac, 0x1d, 0x24, 0x1d,
  0x81, 0x17, 0xa7, 0x0c, 0x27, 0x1d, 0xcc, 0x93, 0x85, 0x2c, 0x25, 0x83,
  0xa6, 0x85, 0x2e, 0x88, 0x14, 0x8f, 0x81, 0x20, 0x35, 0x23, 0x30, 0x18,
  0x89, 0x8a, 0x0c, 0x9d, 0x10, 0x22, 0xbf, 0x81, 0x0a, 0x9a, 0x20, 0x0f,
  0xa4, 0x9d, 0x1e, 0x9a, 0x0f, 0x1f, 0xb7, 0x23, 0x1c, 0xb0, 0x26, 0x81,
  0x08, 0xad, 0x1e, 0x10, 0xad, 0xae, 0xc2, 0xb6, 0xa9, 0xa2, 0x16, 0xc9,
  0x39, 0x81, 0xc4, 0x36, 0x86, 0xb0, 0xc4, 0x8f, 0xc6, 0x30, 0xb1, 0x2a,
  0xfa, 0xfe, 0xff, 0xff, 0x04, 0x00, 0x00, 0x00, 0x1c, 0x00, 0x00, 0x00,
  0x16, 0x0b, 0x00, 0x00, 0xef, 0x00, 0x00, 0x00, 0xaa, 0xf1, 0xff, 0xff,
  0xbe, 0xe4, 0xff, 0xff, 0xc8, 0x06, 0x00, 0x00, 0xeb, 0xfb, 0xff, 0xff,
  0x1f, 0x0c, 0x00, 0x00, 0x22, 0xff, 0xff, 0xff, 0x04, 0x00, 0x00, 0x00,
  0x04, 0x00, 0x00, 0x00, 0x01, 0x00, 0x00, 0x00, 0x32, 0xff, 0xff, 0xff,
  0x04, 0x00, 0x00, 0x00, 0x0c, 0x00, 0x00, 0x00, 0x01, 0x00, 0x00, 0x00,
  0x7d, 0x00, 0x00, 0x00, 0x08, 0x00, 0x00, 0x00, 0x4a, 0xff, 0xff, 0xff,
  0x04, 0x00, 0x00, 0x00, 0x10, 0x00, 0x00, 0x00, 0x01, 0x00, 0x00, 0x00,
  0x01, 0x00, 0x00, 0x00, 0xf4, 0x01, 0x00, 0x00, 0x06, 0x00, 0x00, 0x00,
  0x8c, 0xeb, 0xff, 0xff, 0x90, 0xeb, 0xff, 0xff, 0x0f, 0x00, 0x00, 0x00,
  0x4d, 0x4c, 0x49, 0x52, 0x20, 0x43, 0x6f, 0x6e, 0x76, 0x65, 0x72, 0x74,
  0x65, 0x64, 0x2e, 0x00, 0x01, 0x00, 0x00, 0x00, 0x14, 0x00, 0x00, 0x00,
  0x00, 0x00, 0x0e, 0x00, 0x18, 0x00, 0x14, 0x00, 0x10, 0x00, 0x0c, 0x00,
  0x08, 0x00, 0x04, 0x00, 0x0e, 0x00, 0x00, 0x00, 0x14, 0x00, 0x00, 0x00,
  0x1c, 0x00, 0x00, 0x00, 0x44, 0x02, 0x00, 0x00, 0x48, 0x02, 0x00, 0x00,
  0x4c, 0x02, 0x00, 0x00, 0x04, 0x00, 0x00, 0x00, 0x6d, 0x61, 0x69, 0x6e,
  0x00, 0x00, 0x00, 0x00, 0x09, 0x00, 0x00, 0x00, 0x08, 0x02, 0x00, 0x00,
  0xac, 0x01, 0x00, 0x00, 0x58, 0x01, 0x00, 0x00, 0x14, 0x01, 0x00, 0x00,
  0xf0, 0x00, 0x00, 0x00, 0xbc, 0x00, 0x00, 0x00, 0x78, 0x00, 0x00, 0x00,
  0x40, 0x00, 0x00, 0x00, 0x04, 0x00, 0x00, 0x00, 0x82, 0xfe, 0xff, 0xff,
  0x1c, 0x00, 0x00, 0x00, 0x00, 0x00, 0x00, 0x09, 0x1c, 0x00, 0x00, 0x00,
  0x20, 0x00, 0x00, 0x00, 0x04, 0x00, 0x00, 0x00, 0x00, 0x00, 0x06, 0x00,
  0x08, 0x00, 0x04, 0x00, 0x06, 0x00, 0x00, 0x00, 0x00, 0x00, 0x80, 0x3f,
  0x01, 0x00, 0x00, 0x00, 0x16, 0x00, 0x00, 0x00, 0x01, 0x00, 0x00, 0x00,
  0x15, 0x00, 0x00, 0x00, 0xba, 0xfe, 0xff, 0xff, 0x14, 0x00, 0x00, 0x00,
  0x00, 0x00, 0x00, 0x08, 0x10, 0x00, 0x00, 0x00, 0x14, 0x00, 0x00, 0x00,
  0x03, 0x00, 0x00, 0x00, 0x5c, 0xec, 0xff, 0xff, 0x01, 0x00, 0x00, 0x00,
  0x15, 0x00, 0x00, 0x00, 0x03, 0x00, 0x00, 0x00, 0x14, 0x00, 0x00, 0x00,
  0x05, 0x00, 0x00, 0x00, 0x04, 0x00, 0x00, 0x00, 0xee, 0xfe, 0xff, 0xff,
  0x1c, 0x00, 0x00, 0x00, 0x00, 0x00, 0x00, 0x08, 0x1c, 0x00, 0x00, 0x00,
  0x20, 0x00, 0x00, 0x00, 0x03, 0x00, 0x00, 0x00, 0x00, 0x00, 0x06, 0x00,
  0x08, 0x00, 0x07, 0x00, 0x06, 0x00, 0x00, 0x00, 0x00, 0x00, 0x00, 0x01,
  0x01, 0x00, 0x00, 0x00, 0x14, 0x00, 0x00, 0x00, 0x03, 0x00, 0x00, 0x00,
  0x13, 0x00, 0x00, 0x00, 0x07, 0x00, 0x00, 0x00, 0x06, 0x00, 0x00, 0x00,
  0x2e, 0xff, 0xff, 0xff, 0x14, 0x00, 0x00, 0x00, 0x00, 0x00, 0x00, 0x1b,
  0x10, 0x00, 0x00, 0x00, 0x14, 0x00, 0x00, 0x00, 0x02, 0x00, 0x00, 0x00,
  0xd0, 0xec, 0xff, 0xff, 0x01, 0x00, 0x00, 0x00, 0x13, 0x00, 0x00, 0x00,
  0x02, 0x00, 0x00, 0x00, 0x12, 0x00, 0x00, 0x00, 0x03, 0x00, 0x00, 0x00,
  0x02, 0xff, 0xff, 0xff, 0x08, 0x00, 0x00, 0x00, 0x0c, 0x00, 0x00, 0x00,
  0x01, 0x00, 0x00, 0x00, 0x12, 0x00, 0x00, 0x00, 0x02, 0x00, 0x00, 0x00,
  0x11, 0x00, 0x00, 0x00, 0x02, 0x00, 0x00, 0x00, 0x7e, 0xff, 0xff, 0xff,
  0x14, 0x00, 0x00, 0x00, 0x00, 0x00, 0x00, 0x01, 0x1c, 0x00, 0x00, 0x00,
  0x20, 0x00, 0x00, 0x00, 0x01, 0x00, 0x00, 0x00, 0x70, 0xff, 0xff, 0xff,
  0x00, 0x00, 0x00, 0x01, 0x01, 0x00, 0x00, 0x00, 0x01, 0x00, 0x00, 0x00,
  0x01, 0x00, 0x00, 0x00, 0x11, 0x00, 0x00, 0x00, 0x03, 0x00, 0x00, 0x00,
  0x10, 0x00, 0x00, 0x00, 0x09, 0x00, 0x00, 0x00, 0x08, 0x00, 0x00, 0x00,
  0xbe, 0xff, 0xff, 0xff, 0x14, 0x00, 0x00, 0x00, 0x00, 0x00, 0x00, 0x01,
  0x1c, 0x00, 0x00, 0x00, 0x20, 0x00, 0x00, 0x00, 0x01, 0x00, 0x00, 0x00,
  0xb0, 0xff, 0xff, 0xff, 0x00, 0x00, 0x00, 0x01, 0x01, 0x00, 0x00, 0x00,
  0x02, 0x00, 0x00, 0x00, 0x01, 0x00, 0x00, 0x00, 0x10, 0x00, 0x00, 0x00,
  0x03, 0x00, 0x00, 0x00, 0x0f, 0x00, 0x00, 0x00, 0x0b, 0x00, 0x00, 0x00,
  0x0a, 0x00, 0x00, 0x00, 0x00, 0x00, 0x0e, 0x00, 0x18, 0x00, 0x14, 0x00,
  0x10, 0x00, 0x0c, 0x00, 0x0b, 0x00, 0x04, 0x00, 0x0e, 0x00, 0x00, 0x00,
  0x20, 0x00, 0x00, 0x00, 0x00, 0x00, 0x00, 0x01, 0x28, 0x00, 0x00, 0x00,
  0x2c, 0x00, 0x00, 0x00, 0x01, 0x00, 0x00, 0x00, 0x0c, 0x00, 0x10, 0x00,
  0x00, 0x00, 0x0c, 0x00, 0x08, 0x00, 0x07, 0x00, 0x0c, 0x00, 0x00, 0x00,
  0x00, 0x00, 0x00, 0x01, 0x01, 0x00, 0x00, 0x00, 0x02, 0x00, 0x00, 0x00,
  0x01, 0x00, 0x00, 0x00, 0x0f, 0x00, 0x00, 0x00, 0x03, 0x00, 0x00, 0x00,
  0x0e, 0x00, 0x00, 0x00, 0x0d, 0x00, 0x00, 0x00, 0x0c, 0x00, 0x00, 0x00,
  0x00, 0x00, 0x0a, 0x00, 0x0c, 0x00, 0x00, 0x00, 0x08, 0x00, 0x04, 0x00,
  0x0a, 0x00, 0x00, 0x00, 0x08, 0x00, 0x00, 0x00, 0x0c, 0x00, 0x00, 0x00,
  0x01, 0x00, 0x00, 0x00, 0x0e, 0x00, 0x00, 0x00, 0x02, 0x00, 0x00, 0x00,
  0x00, 0x00, 0x00, 0x00, 0x01, 0x00, 0x00, 0x00, 0x01, 0x00, 0x00, 0x00,
  0x16, 0x00, 0x00, 0x00, 0x01, 0x00, 0x00, 0x00, 0x00, 0x00, 0x00, 0x00,
  0x17, 0x00, 0x00, 0x00, 0x18, 0x12, 0x00, 0x00, 0xbc, 0x11, 0x00, 0x00,
  0x7c, 0x11, 0x00, 0x00, 0x40, 0x11, 0x00, 0x00, 0x94, 0x10, 0x00, 0x00,
  0xe8, 0x0f, 0x00, 0x00, 0xd4, 0x0e, 0x00, 0x00, 0xb8, 0x0d, 0x00, 0x00,
  0x04, 0x0d, 0x00, 0x00, 0x40, 0x0c, 0x00, 0x00, 0x5c, 0x0b, 0x00, 0x00,
  0x68, 0x0a, 0x00, 0x00, 0x54, 0x09, 0x00, 0x00, 0x30, 0x08, 0x00, 0x00,
  0xa4, 0x07, 0x00, 0x00, 0x40, 0x06, 0x00, 0x00, 0xdc, 0x04, 0x00, 0x00,
  0x78, 0x03, 0x00, 0x00, 0x3c, 0x02, 0x00, 0x00, 0xb8, 0x01, 0x00, 0x00,
  0x04, 0x01, 0x00, 0x00, 0x70, 0x00, 0x00, 0x00, 0x04, 0x00, 0x00, 0x00,
  0x5a, 0xee, 0xff, 0xff, 0x00, 0x00, 0x00, 0x01, 0x14, 0x00, 0x00, 0x00,
  0x30, 0x00, 0x00, 0x00, 0x17, 0x00, 0x00, 0x00, 0x00, 0x00, 0x00, 0x09,
  0x44, 0x00, 0x00, 0x00, 0x44, 0xee, 0xff, 0xff, 0x08, 0x00, 0x00, 0x00,
  0x10, 0x00, 0x00, 0x00, 0x01, 0x00, 0x00, 0x00, 0x80, 0xff, 0xff, 0xff,
  0xff, 0xff, 0xff, 0xff, 0x01, 0x00, 0x00, 0x00, 0x00, 0x00, 0x80, 0x3b,
  0x1b, 0x00, 0x00, 0x00, 0x53, 0x74, 0x61, 0x74, 0x65, 0x66, 0x75, 0x6c,
  0x50, 0x61, 0x72, 0x74, 0x69, 0x74, 0x69, 0x6f, 0x6e, 0x65, 0x64, 0x43,
  0x61, 0x6c, 0x6c, 0x5f, 0x31, 0x3a, 0x30, 0x00, 0x02, 0x00, 0x00, 0x00,
  0x01, 0x00, 0x00, 0x00, 0x07, 0x00, 0x00, 0x00, 0xc2, 0xee, 0xff, 0xff,
  0x00, 0x00, 0x00, 0x01, 0x14, 0x00, 0x00, 0x00, 0x30, 0x00, 0x00, 0x00,
  0x16, 0x00, 0x00, 0x00, 0x00, 0x00, 0x00, 0x09, 0x6c, 0x00, 0x00, 0x00,
  0xac, 0xee, 0xff, 0xff, 0x08, 0x00, 0x00, 0x00, 0x10, 0x00, 0x00, 0x00,
  0x01, 0x00, 0x00, 0x00, 0x51, 0x00, 0x00, 0x00, 0x00, 0x00, 0x00, 0x00,
  0x01, 0x00, 0x00, 0x00, 0xad, 0x2e, 0xdb, 0x3e, 0x40, 0x00, 0x00, 0x00,
  0x73, 0x65, 0x71, 0x75, 0x65, 0x6e, 0x74, 0x69, 0x61, 0x6c, 0x5f, 0x32,
  0x5f, 0x31, 0x2f, 0x64, 0x65, 0x6e, 0x73, 0x65, 0x5f, 0x35, 0x5f, 0x31,
  0x2f, 0x4d, 0x61, 0x74, 0x4d, 0x75, 0x6c, 0x3b, 0x73, 0x65, 0x71, 0x75,
  0x65, 0x6e, 0x74, 0x69, 0x61, 0x6c, 0x5f, 0x32, 0x5f, 0x31, 0x2f, 0x64,
  0x65, 0x6e, 0x73, 0x65, 0x5f, 0x35, 0x5f, 0x31, 0x2f, 0x42, 0x69, 0x61,
  0x73, 0x41, 0x64, 0x64, 0x00, 0x00, 0x00, 0x00, 0x02, 0x00, 0x00, 0x00,
  0x01, 0x00, 0x00, 0x00, 0x07, 0x00, 0x00, 0x00, 0x52, 0xef, 0xff, 0xff,
  0x00, 0x00, 0x00, 0x01, 0x14, 0x00, 0x00, 0x00, 0x34, 0x00, 0x00, 0x00,
  0x15, 0x00, 0x00, 0x00, 0x00, 0x00, 0x00, 0x09, 0x8c, 0x00, 0x00, 0x00,
  0x3c, 0xef, 0xff, 0xff, 0x08, 0x00, 0x00, 0x00, 0x14, 0x00, 0x00, 0x00,
  0x01, 0x00, 0x00, 0x00, 0x80, 0xff, 0xff, 0xff, 0xff, 0xff, 0xff, 0xff,
  0x00, 0x00, 0x00, 0x00, 0x01, 0x00, 0x00, 0x00, 0x23, 0xb9, 0x1d, 0x3c,
  0x5e, 0x00, 0x00, 0x00, 0x73, 0x65, 0x71, 0x75, 0x65, 0x6e, 0x74, 0x69,
  0x61, 0x6c, 0x5f, 0x32, 0x5f, 0x31, 0x2f, 0x64, 0x65, 0x6e, 0x73, 0x65,
  0x5f, 0x34, 0x5f, 0x31, 0x2f, 0x4d, 0x61, 0x74, 0x4d, 0x75, 0x6c, 0x3b,
  0x73, 0x65, 0x71, 0x75, 0x65, 0x6e, 0x74, 0x69, 0x61, 0x6c, 0x5f, 0x32,
  0x5f, 0x31, 0x2f, 0x64, 0x65, 0x6e, 0x73, 0x65, 0x5f, 0x34, 0x5f, 0x31,
  0x2f, 0x52, 0x65, 0x6c, 0x75, 0x3b, 0x73, 0x65, 0x71, 0x75, 0x65, 0x6e,
  0x74, 0x69, 0x61, 0x6c, 0x5f, 0x32, 0x5f, 0x31, 0x2f, 0x64, 0x65, 0x6e,
  0x73, 0x65, 0x5f, 0x34, 0x5f, 0x31, 0x2f, 0x42, 0x69, 0x61, 0x73, 0x41,
  0x64, 0x64, 0x00, 0x00, 0x02, 0x00, 0x00, 0x00, 0x01, 0x00, 0x00, 0x00,
  0x10, 0x00, 0x00, 0x00, 0x02, 0xf0, 0xff, 0xff, 0x00, 0x00, 0x00, 0x01,
  0x14, 0x00, 0x00, 0x00, 0x30, 0x00, 0x00, 0x00, 0x14, 0x00, 0x00, 0x00,
  0x00, 0x00, 0x00, 0x09, 0x5c, 0x00, 0x00, 0x00, 0xec, 0xef, 0xff, 0xff,
  0x08, 0x00, 0x00, 0x00, 0x10, 0x00, 0x00, 0x00, 0x01, 0x00, 0x00, 0x00,
  0x80, 0xff, 0xff, 0xff, 0xff, 0xff, 0xff, 0xff, 0x01, 0x00, 0x00, 0x00,
  0xd7, 0x4f, 0x68, 0x3c, 0x30, 0x00, 0x00, 0x00, 0x73, 0x65, 0x71, 0x75,
  0x65, 0x6e, 0x74, 0x69, 0x61, 0x6c, 0x5f, 0x32, 0x5f, 0x31, 0x2f, 0x67,
  0x6c, 0x6f, 0x62, 0x61, 0x6c, 0x5f, 0x61, 0x76, 0x65, 0x72, 0x61, 0x67,
  0x65, 0x5f, 0x70, 0x6f, 0x6f, 0x6c, 0x69, 0x6e, 0x67, 0x31, 0x64, 0x5f,
  0x32, 0x5f, 0x31, 0x2f, 0x4d, 0x65, 0x61, 0x6e, 0x00, 0x00, 0x00, 0x00,
  0x02, 0x00, 0x00, 0x00, 0x01, 0x00, 0x00, 0x00, 0x08, 0x00, 0x00, 0x00,
  0x82, 0xf0, 0xff, 0xff, 0x00, 0x00, 0x00, 0x01, 0x14, 0x00, 0x00, 0x00,
  0x34, 0x00, 0x00, 0x00, 0x13, 0x00, 0x00, 0x00, 0x00, 0x00, 0x00, 0x09,
  0x10, 0x01, 0x00, 0x00, 0x6c, 0xf0, 0xff, 0xff, 0x08, 0x00, 0x00, 0x00,
  0x14, 0x00, 0x00, 0x00, 0x01, 0x00, 0x00, 0x00, 0x80, 0xff, 0xff, 0xff,
  0xff, 0xff, 0xff, 0xff, 0x00, 0x00, 0x00, 0x00, 0x01, 0x00, 0x00, 0x00,
  0xaa, 0xf0, 0xf0, 0x3d, 0xe1, 0x00, 0x00, 0x00, 0x73, 0x65, 0x71, 0x75,
  0x65, 0x6e, 0x74, 0x69, 0x61, 0x6c, 0x5f, 0x32, 0x5f, 0x31, 0x2f, 0x61,
  0x63, 0x74, 0x69, 0x76, 0x61, 0x74, 0x69, 0x6f, 0x6e, 0x5f, 0x38, 0x5f,
  0x31, 0x2f, 0x52, 0x65, 0x6c, 0x75, 0x3b, 0x73, 0x65, 0x71, 0x75, 0x65,
  0x6e, 0x74, 0x69, 0x61, 0x6c, 0x5f, 0x32, 0x5f, 0x31, 0x2f, 0x62, 0x61,
  0x74, 0x63, 0x68, 0x5f, 0x6e, 0x6f, 0x72, 0x6d, 0x61, 0x6c, 0x69, 0x7a,
  0x61, 0x74, 0x69, 0x6f, 0x6e, 0x5f, 0x38, 0x5f, 0x31, 0x2f, 0x62, 0x61,
  0x74, 0x63, 0x68, 0x6e, 0x6f, 0x72, 0x6d, 0x2f, 0x61, 0x64, 0x64, 0x5f,
  0x31, 0x3b, 0x73, 0x65, 0x71, 0x75, 0x65, 0x6e, 0x74, 0x69, 0x61, 0x6c,
  0x5f, 0x32, 0x5f, 0x31, 0x2f, 0x63, 0x6f, 0x6e, 0x76, 0x31, 0x64, 0x5f,
  0x38, 0x5f, 0x31, 0x2f, 0x63, 0x6f, 0x6e, 0x76, 0x6f, 0x6c, 0x75, 0x74,
  0x69, 0x6f, 0x6e, 0x2f, 0x53, 0x71, 0x75, 0x65, 0x65, 0x7a, 0x65, 0x3b,
  0x73, 0x65, 0x71, 0x75, 0x65, 0x6e, 0x74, 0x69, 0x61, 0x6c, 0x5f, 0x32,
  0x5f, 0x31, 0x2f, 0x62, 0x61, 0x74, 0x63, 0x68, 0x5f, 0x6e, 0x6f, 0x72,
  0x6d, 0x61, 0x6c, 0x69, 0x7a, 0x61, 0x74, 0x69, 0x6f, 0x6e, 0x5f, 0x38,
  0x5f, 0x31, 0x2f, 0x62, 0x61, 0x74, 0x63, 0x68, 0x6e, 0x6f, 0x72, 0x6d,
  0x2f, 0x6d, 0x75, 0x6c, 0x5f, 0x31, 0x3b, 0x73, 0x65, 0x71, 0x75, 0x65,
  0x6e, 0x74, 0x69, 0x61, 0x6c, 0x5f, 0x32, 0x5f, 0x31, 0x2f, 0x63, 0x6f,
  0x6e, 0x76, 0x31, 0x64, 0x5f, 0x38, 0x5f, 0x31, 0x2f, 0x42, 0x69, 0x61,
  0x73, 0x41, 0x64, 0x64, 0x3b, 0x00, 0x00, 0x00, 0x03, 0x00, 0x00, 0x00,
  0x01, 0x00, 0x00, 0x00, 0x7d, 0x00, 0x00, 0x00, 0x08, 0x00, 0x00, 0x00,
  0xba, 0xf1, 0xff, 0xff, 0x00, 0x00, 0x00, 0x01, 0x14, 0x00, 0x00, 0x00,
  0x34, 0x00, 0x00, 0x00, 0x12, 0x00, 0x00, 0x00, 0x00, 0x00, 0x00, 0x09,
  0x34, 0x01, 0x00, 0x00, 0xa4, 0xf1, 0xff, 0xff, 0x08, 0x00, 0x00, 0x00,
  0x14, 0x00, 0x00, 0x00, 0x01, 0x00, 0x00, 0x00, 0x80, 0xff, 0xff, 0xff,
  0xff, 0xff, 0xff, 0xff, 0x00, 0x00, 0x00, 0x00, 0x01, 0x00, 0x00, 0x00,
  0xaa, 0xf0, 0xf0, 0x3d, 0x07, 0x01, 0x00, 0x00, 0x73, 0x65, 0x71, 0x75,
  0x65, 0x6e, 0x74, 0x69, 0x61, 0x6c, 0x5f, 0x32, 0x5f, 0x31, 0x2f, 0x61,
  0x63, 0x74, 0x69, 0x76, 0x61, 0x74, 0x69, 0x6f, 0x6e, 0x5f, 0x38, 0x5f,
  0x31, 0x2f, 0x52, 0x65, 0x6c, 0x75, 0x3b, 0x73, 0x65, 0x71, 0x75, 0x65,
  0x6e, 0x74, 0x69, 0x61, 0x6c, 0x5f, 0x32, 0x5f, 0x31, 0x2f, 0x62, 0x61,
  0x74, 0x63, 0x68, 0x5f, 0x6e, 0x6f, 0x72, 0x6d, 0x61, 0x6c, 0x69, 0x7a,
  0x61, 0x74, 0x69, 0x6f, 0x6e, 0x5f, 0x38, 0x5f, 0x31, 0x2f, 0x62, 0x61,
  0x74, 0x63, 0x68, 0x6e, 0x6f, 0x72, 0x6d, 0x2f, 0x61, 0x64, 0x64, 0x5f,
  0x31, 0x3b, 0x73, 0x65, 0x71, 0x75, 0x65, 0x6e, 0x74, 0x69, 0x61, 0x6c,
  0x5f, 0x32, 0x5f, 0x31, 0x2f, 0x63, 0x6f, 0x6e, 0x76, 0x31, 0x64, 0x5f,
  0x38, 0x5f, 0x31, 0x2f, 0x63, 0x6f, 0x6e, 0x76, 0x6f, 0x6c, 0x75, 0x74,
  0x69, 0x6f, 0x6e, 0x2f, 0x53, 0x71, 0x75, 0x65, 0x65, 0x7a, 0x65, 0x3b,
  0x73, 0x65, 0x71, 0x75, 0x65, 0x6e, 0x74, 0x69, 0x61, 0x6c, 0x5f, 0x32,
  0x5f, 0x31, 0x2f, 0x62, 0x61, 0x74, 0x63, 0x68, 0x5f, 0x6e, 0x6f, 0x72,
  0x6d, 0x61, 0x6c, 0x69, 0x7a, 0x61, 0x74, 0x69, 0x6f, 0x6e, 0x5f, 0x38,
  0x5f, 0x31, 0x2f, 0x62, 0x61, 0x74, 0x63, 0x68, 0x6e, 0x6f, 0x72, 0x6d,
  0x2f, 0x6d, 0x75, 0x6c, 0x5f, 0x31, 0x3b, 0x73, 0x65, 0x71, 0x75, 0x65,
  0x6e, 0x74, 0x69, 0x61, 0x6c, 0x5f, 0x32, 0x5f, 0x31, 0x2f, 0x63, 0x6f,
  0x6e, 0x76, 0x31, 0x64, 0x5f, 0x38, 0x5f, 0x31, 0x2f, 0x42, 0x69, 0x61,
  0x73, 0x41, 0x64, 0x64, 0x3b, 0x3b, 0x73, 0x65, 0x71, 0x75, 0x65, 0x6e,
  0x74, 0x69, 0x61, 0x6c, 0x5f, 0x32, 0x5f, 0x31, 0x2f, 0x63, 0x6f, 0x6e,
  0x76, 0x31, 0x64, 0x5f, 0x38, 0x5f, 0x31, 0x2f, 0x63, 0x6f, 0x6e, 0x76,
  0x6f, 0x6c, 0x75, 0x74, 0x69, 0x6f, 0x6e, 0x00, 0x04, 0x00, 0x00, 0x00,
  0x01, 0x00, 0x00, 0x00, 0x01, 0x00, 0x00, 0x00, 0x7d, 0x00, 0x00, 0x00,
  0x08, 0x00, 0x00, 0x00, 0x1a, 0xf3, 0xff, 0xff, 0x00, 0x00, 0x00, 0x01,
  0x14, 0x00, 0x00, 0x00, 0x34, 0x00, 0x00, 0x00, 0x11, 0x00, 0x00, 0x00,
  0x00, 0x00, 0x00, 0x09, 0x34, 0x01, 0x00, 0x00, 0x04, 0xf3, 0xff, 0xff,
  0x08, 0x00, 0x00, 0x00, 0x14, 0x00, 0x00, 0x00, 0x01, 0x00, 0x00, 0x00,
  0x80, 0xff, 0xff, 0xff, 0xff, 0xff, 0xff, 0xff, 0x00, 0x00, 0x00, 0x00,
  0x01, 0x00, 0x00, 0x00, 0x77, 0x65, 0x39, 0x3d, 0x07, 0x01, 0x00, 0x00,
  0x73, 0x65, 0x71, 0x75, 0x65, 0x6e, 0x74, 0x69, 0x61, 0x6c, 0x5f, 0x32,
  0x5f, 0x31, 0x2f, 0x61, 0x63, 0x74, 0x69, 0x76, 0x61, 0x74, 0x69, 0x6f,
  0x6e, 0x5f, 0x37, 0x5f, 0x31, 0x2f, 0x52, 0x65, 0x6c, 0x75, 0x3b, 0x73,
  0x65, 0x71, 0x75, 0x65, 0x6e, 0x74, 0x69, 0x61, 0x6c, 0x5f, 0x32, 0x5f,
  0x31, 0x2f, 0x62, 0x61, 0x74, 0x63, 0x68, 0x5f, 0x6e, 0x6f, 0x72, 0x6d,
  0x61, 0x6c, 0x69, 0x7a, 0x61, 0x74, 0x69, 0x6f, 0x6e, 0x5f, 0x37, 0x5f,
  0x31, 0x2f, 0x62, 0x61, 0x74, 0x63, 0x68, 0x6e, 0x6f, 0x72, 0x6d, 0x2f,
  0x61, 0x64, 0x64, 0x5f, 0x31, 0x3b, 0x73, 0x65, 0x71, 0x75, 0x65, 0x6e,
  0x74, 0x69, 0x61, 0x6c, 0x5f, 0x32, 0x5f, 0x31, 0x2f, 0x63, 0x6f, 0x6e,
  0x76, 0x31, 0x64, 0x5f, 0x37, 0x5f, 0x31, 0x2f, 0x63, 0x6f, 0x6e, 0x76,
  0x6f, 0x6c, 0x75, 0x74, 0x69, 0x6f, 0x6e, 0x2f, 0x53, 0x71, 0x75, 0x65,
  0x65, 0x7a, 0x65, 0x3b, 0x73, 0x65, 0x71, 0x75, 0x65, 0x6e, 0x74, 0x69,
  0x61, 0x6c, 0x5f, 0x32, 0x5f, 0x31, 0x2f, 0x62, 0x61, 0x74, 0x63, 0x68,
  0x5f, 0x6e, 0x6f, 0x72, 0x6d, 0x61, 0x6c, 0x69, 0x7a, 0x61, 0x74, 0x69,
  0x6f, 0x6e, 0x5f, 0x37, 0x5f, 0x31, 0x2f, 0x62, 0x61, 0x74, 0x63, 0x68,
  0x6e, 0x6f, 0x72, 0x6d, 0x2f, 0x6d, 0x75, 0x6c, 0x5f, 0x31, 0x3b, 0x73,
  0x65, 0x71, 0x75, 0x65, 0x6e, 0x74, 0x69, 0x61, 0x6c, 0x5f, 0x32, 0x5f,
  0x31, 0x2f, 0x63, 0x6f, 0x6e, 0x76, 0x31, 0x64, 0x5f, 0x37, 0x5f, 0x31,
  0x2f, 0x42, 0x69, 0x61, 0x73, 0x41, 0x64, 0x64, 0x3b, 0x3b, 0x73, 0x65,
  0x71, 0x75, 0x65, 0x6e, 0x74, 0x69, 0x61, 0x6c, 0x5f, 0x32, 0x5f, 0x31,
  0x2f, 0x63, 0x6f, 0x6e, 0x76, 0x31, 0x64, 0x5f, 0x37, 0x5f, 0x31, 0x2f,
  0x63, 0x6f, 0x6e, 0x76, 0x6f, 0x6c, 0x75, 0x74, 0x69, 0x6f, 0x6e, 0x00,
  0x04, 0x00, 0x00, 0x00, 0x01, 0x00, 0x00, 0x00, 0x01, 0x00, 0x00, 0x00,
  0x7d, 0x00, 0x00, 0x00, 0x0c, 0x00, 0x00, 0x00, 0x7a, 0xf4, 0xff, 0xff,
  0x00, 0x00, 0x00, 0x01, 0x14, 0x00, 0x00, 0x00, 0x34, 0x00, 0x00, 0x00,
  0x10, 0x00, 0x00, 0x00, 0x00, 0x00, 0x00, 0x09, 0x34, 0x01, 0x00, 0x00,
  0x64, 0xf4, 0xff, 0xff, 0x08, 0x00, 0x00, 0x00, 0x14, 0x00, 0x00, 0x00,
  0x01, 0x00, 0x00, 0x00, 0x80, 0xff, 0xff, 0xff, 0xff, 0xff, 0xff, 0xff,
  0x00, 0x00, 0x00, 0x00, 0x01, 0x00, 0x00, 0x00, 0x69, 0xbc, 0x45, 0x3e,
  0x07, 0x01, 0x00, 0x00, 0x73, 0x65, 0x71, 0x75, 0x65, 0x6e, 0x74, 0x69,
  0x61, 0x6c, 0x5f, 0x32, 0x5f, 0x31, 0x2f, 0x61, 0x63, 0x74, 0x69, 0x76,
  0x61, 0x74, 0x69, 0x6f, 0x6e, 0x5f, 0x36, 0x5f, 0x31, 0x2f, 0x52, 0x65,
  0x6c, 0x75, 0x3b, 0x73, 0x65, 0x71, 0x75, 0x65, 0x6e, 0x74, 0x69, 0x61,
  0x6c, 0x5f, 0x32, 0x5f, 0x31, 0x2f, 0x62, 0x61, 0x74, 0x63, 0x68, 0x5f,
  0x6e, 0x6f, 0x72, 0x6d, 0x61, 0x6c, 0x69, 0x7a, 0x61, 0x74, 0x69, 0x6f,
  0x6e, 0x5f, 0x36, 0x5f, 0x31, 0x2f, 0x62, 0x61, 0x74, 0x63, 0x68, 0x6e,
  0x6f, 0x72, 0x6d, 0x2f, 0x61, 0x64, 0x64, 0x5f, 0x31, 0x3b, 0x73, 0x65,
  0x71, 0x75, 0x65, 0x6e, 0x74, 0x69, 0x61, 0x6c, 0x5f, 0x32, 0x5f, 0x31,
  0x2f, 0x63, 0x6f, 0x6e, 0x76, 0x31, 0x64, 0x5f, 0x36, 0x5f, 0x31, 0x2f,
  0x63, 0x6f, 0x6e, 0x76, 0x6f, 0x6c, 0x75, 0x74, 0x69, 0x6f, 0x6e, 0x2f,
  0x53, 0x71, 0x75, 0x65, 0x65, 0x7a, 0x65, 0x3b, 0x73, 0x65, 0x71, 0x75,
  0x65, 0x6e, 0x74, 0x69, 0x61, 0x6c, 0x5f, 0x32, 0x5f, 0x31, 0x2f, 0x62,
  0x61, 0x74, 0x63, 0x68, 0x5f, 0x6e, 0x6f, 0x72, 0x6d, 0x61, 0x6c, 0x69,
  0x7a, 0x61, 0x74, 0x69, 0x6f, 0x6e, 0x5f, 0x36, 0x5f, 0x31, 0x2f, 0x62,
  0x61, 0x74, 0x63, 0x68, 0x6e, 0x6f, 0x72, 0x6d, 0x2f, 0x6d, 0x75, 0x6c,
  0x5f, 0x31, 0x3b, 0x73, 0x65, 0x71, 0x75, 0x65, 0x6e, 0x74, 0x69, 0x61,
  0x6c, 0x5f, 0x32, 0x5f, 0x31, 0x2f, 0x63, 0x6f, 0x6e, 0x76, 0x31, 0x64,
  0x5f, 0x36, 0x5f, 0x31, 0x2f, 0x42, 0x69, 0x61, 0x73, 0x41, 0x64, 0x64,
  0x3b, 0x3b, 0x73, 0x65, 0x71, 0x75, 0x65, 0x6e, 0x74, 0x69, 0x61, 0x6c,
  0x5f, 0x32, 0x5f, 0x31, 0x2f, 0x63, 0x6f, 0x6e, 0x76, 0x31, 0x64, 0x5f,
  0x36, 0x5f, 0x31, 0x2f, 0x63, 0x6f, 0x6e, 0x76, 0x6f, 0x6c, 0x75, 0x74,
  0x69, 0x6f, 0x6e, 0x00, 0x04, 0x00, 0x00, 0x00, 0x01, 0x00, 0x00, 0x00,
  0x01, 0x00, 0x00, 0x00, 0xfa, 0x00, 0x00, 0x00, 0x10, 0x00, 0x00, 0x00,
  0xda, 0xf5, 0xff, 0xff, 0x00, 0x00, 0x00, 0x01, 0x14, 0x00, 0x00, 0x00,
  0x30, 0x00, 0x00, 0x00, 0x0f, 0x00, 0x00, 0x00, 0x00, 0x00, 0x00, 0x09,
  0x5c, 0x00, 0x00, 0x00, 0xc4, 0xf5, 0xff, 0xff, 0x08, 0x00, 0x00, 0x00,
  0x10, 0x00, 0x00, 0x00, 0x01, 0x00, 0x00, 0x00, 0x90, 0xff, 0xff, 0xff,
  0xff, 0xff, 0xff, 0xff, 0x01, 0x00, 0x00, 0x00, 0xc1, 0xb9, 0x1c, 0x3f,
  0x31, 0x00, 0x00, 0x00, 0x73, 0x65, 0x71, 0x75, 0x65, 0x6e, 0x74, 0x69,
  0x61, 0x6c, 0x5f, 0x32, 0x5f, 0x31, 0x2f, 0x63, 0x6f, 0x6e, 0x76, 0x31,
  0x64, 0x5f, 0x36, 0x5f, 0x31, 0x2f, 0x63, 0x6f, 0x6e, 0x76, 0x6f, 0x6c,
  0x75, 0x74, 0x69, 0x6f, 0x6e, 0x2f, 0x45, 0x78, 0x70, 0x61, 0x6e, 0x64,
  0x44, 0x69, 0x6d, 0x73, 0x31, 0x00, 0x00, 0x00, 0x04, 0x00, 0x00, 0x00,
  0x01, 0x00, 0x00, 0x00, 0x01, 0x00, 0x00, 0x00, 0xf4, 0x01, 0x00, 0x00,
  0x06, 0x00, 0x00, 0x00, 0x62, 0xf6, 0xff, 0xff, 0x00, 0x00, 0x00, 0x01,
  0x14, 0x00, 0x00, 0x00, 0xe8, 0x00, 0x00, 0x00, 0x0e, 0x00, 0x00, 0x00,
  0x00, 0x00, 0x00, 0x09, 0xf4, 0x00, 0x00, 0x00, 0x4c, 0xf6, 0xff, 0xff,
  0x08, 0x00, 0x00, 0x00, 0x8c, 0x00, 0x00, 0x00, 0x10, 0x00, 0x00, 0x00,
  0x00, 0x00, 0x00, 0x00, 0x00, 0x00, 0x00, 0x00, 0x00, 0x00, 0x00, 0x00,
  0x00, 0x00, 0x00, 0x00, 0x00, 0x00, 0x00, 0x00, 0x00, 0x00, 0x00, 0x00,
  0x00, 0x00, 0x00, 0x00, 0x00, 0x00, 0x00, 0x00, 0x00, 0x00, 0x00, 0x00,
  0x00, 0x00, 0x00, 0x00, 0x00, 0x00, 0x00, 0x00, 0x00, 0x00, 0x00, 0x00,
  0x00, 0x00, 0x00, 0x00, 0x00, 0x00, 0x00, 0x00, 0x00, 0x00, 0x00, 0x00,
  0x00, 0x00, 0x00, 0x00, 0x00, 0x00, 0x00, 0x00, 0x00, 0x00, 0x00, 0x00,
  0x00, 0x00, 0x00, 0x00, 0x00, 0x00, 0x00, 0x00, 0x00, 0x00, 0x00, 0x00,
  0x00, 0x00, 0x00, 0x00, 0x00, 0x00, 0x00, 0x00, 0x00, 0x00, 0x00, 0x00,
  0x00, 0x00, 0x00, 0x00, 0x00, 0x00, 0x00, 0x00, 0x00, 0x00, 0x00, 0x00,
  0x00, 0x00, 0x00, 0x00, 0x00, 0x00, 0x00, 0x00, 0x00, 0x00, 0x00, 0x00,
  0x00, 0x00, 0x00, 0x00, 0x00, 0x00, 0x00, 0x00, 0x00, 0x00, 0x00, 0x00,
  0x10, 0x00, 0x00, 0x00, 0x4f, 0x08, 0x62, 0x3a, 0xf3, 0x09, 0x45, 0x3b,
  0x2c, 0x03, 0xd0, 0x3a, 0xa2, 0xc0, 0x13, 0x3b, 0x46, 0x3c, 0x98, 0x3a,
  0x38, 0xcc, 0x0b, 0x3b, 0x0a, 0xb9, 0xfe, 0x3a, 0x72, 0xec, 0xf4, 0x3a,
  0xfd, 0x53, 0xcf, 0x3a, 0xf9, 0x09, 0xda, 0x3a, 0x1d, 0xc7, 0x0d, 0x3b,
  0xb9, 0x7e, 0x39, 0x3a, 0x2b, 0x6b, 0xc5, 0x3a, 0x33, 0xa8, 0x92, 0x3a,
  0xd8, 0x71, 0x13, 0x3b, 0x6f, 0x71, 0xa3, 0x3b, 0x12, 0x00, 0x00, 0x00,
  0x74, 0x66, 0x6c, 0x2e, 0x70, 0x73, 0x65, 0x75, 0x64, 0x6f, 0x5f, 0x71,
  0x63, 0x6f, 0x6e, 0x73, 0x74, 0x39, 0x00, 0x00, 0x04, 0x00, 0x00, 0x00,
  0x10, 0x00, 0x00, 0x00, 0x01, 0x00, 0x00, 0x00, 0x07, 0x00, 0x00, 0x00,
  0x06, 0x00, 0x00, 0x00, 0x82, 0xf7, 0xff, 0xff, 0x00, 0x00, 0x00, 0x01,
  0x14, 0x00, 0x00, 0x00, 0xe4, 0x00, 0x00, 0x00, 0x0d, 0x00, 0x00, 0x00,
  0x00, 0x00, 0x00, 0x02, 0xf0, 0x00, 0x00, 0x00, 0x6c, 0xf7, 0xff, 0xff,
  0x08, 0x00, 0x00, 0x00, 0x88, 0x00, 0x00, 0x00, 0x10, 0x00, 0x00, 0x00,
  0x00, 0x00, 0x00, 0x00, 0x00, 0x00, 0x00, 0x00, 0x00, 0x00, 0x00, 0x00,
  0x00, 0x00, 0x00, 0x00, 0x00, 0x00, 0x00, 0x00, 0x00, 0x00, 0x00, 0x00,
  0x00, 0x00, 0x00, 0x00, 0x00, 0x00, 0x00, 0x00, 0x00, 0x00, 0x00, 0x00,
  0x00, 0x00, 0x00, 0x00, 0x00, 0x00, 0x00, 0x00, 0x00, 0x00, 0x00, 0x00,
  0x00, 0x00, 0x00, 0x00, 0x00, 0x00, 0x00, 0x00, 0x00, 0x00, 0x00, 0x00,
  0x00, 0x00, 0x00, 0x00, 0x00, 0x00, 0x00, 0x00, 0x00, 0x00, 0x00, 0x00,
  0x00, 0x00, 0x00, 0x00, 0x00, 0x00, 0x00, 0x00, 0x00, 0x00, 0x00, 0x00,
  0x00, 0x00, 0x00, 0x00, 0x00, 0x00, 0x00, 0x00, 0x00, 0x00, 0x00, 0x00,
  0x00, 0x00, 0x00, 0x00, 0x00, 0x00, 0x00, 0x00, 0x00, 0x00, 0x00, 0x00,
  0x00, 0x00, 0x00, 0x00, 0x00, 0x00, 0x00, 0x00, 0x00, 0x00, 0x00, 0x00,
  0x00, 0x00, 0x00, 0x00, 0x00, 0x00, 0x00, 0x00, 0x10, 0x00, 0x00, 0x00,
  0x13, 0x61, 0x0a, 0x3a, 0x12, 0x42, 0xf1, 0x3a, 0xbc, 0xb1, 0x7e, 0x3a,
  0x31, 0xe9, 0xb4, 0x3a, 0x62, 0x66, 0x3a, 0x3a, 0xc4, 0x2b, 0xab, 0x3a,
  0x96, 0xf1, 0x9b, 0x3a, 0xcd, 0xf1, 0x95, 0x3a, 0x3c, 0xdb, 0x7d, 0x3a,
  0x49, 0x7c, 0x85, 0x3a, 0x6b, 0x98, 0xad, 0x3a, 0xa2, 0x1f, 0xe3, 0x39,
  0x1b, 0xb9, 0x71, 0x3a, 0xd2, 0x91, 0x33, 0x3a, 0xb8, 0x88, 0xb4, 0x3a,
  0x70, 0x1f, 0x48, 0x3b, 0x12, 0x00, 0x00, 0x00, 0x74, 0x66, 0x6c, 0x2e,
  0x70, 0x73, 0x65, 0x75, 0x64, 0x6f, 0x5f, 0x71, 0x63, 0x6f, 0x6e, 0x73,
  0x74, 0x38, 0x00, 0x00, 0x01, 0x00, 0x00, 0x00, 0x10, 0x00, 0x00, 0x00,
  0x92, 0xf8, 0xff, 0xff, 0x00, 0x00, 0x00, 0x01, 0x14, 0x00, 0x00, 0x00,
  0xb8, 0x00, 0x00, 0x00, 0x0c, 0x00, 0x00, 0x00, 0x00, 0x00, 0x00, 0x09,
  0xc4, 0x00, 0x00, 0x00, 0x7c, 0xf8, 0xff, 0xff, 0x08, 0x00, 0x00, 0x00,
  0x6c, 0x00, 0x00, 0x00, 0x0c, 0x00, 0x00, 0x00, 0x00, 0x00, 0x00, 0x00,
  0x00, 0x00, 0x00, 0x00, 0x00, 0x00, 0x00, 0x00, 0x00, 0x00, 0x00, 0x00,
  0x00, 0x00, 0x00, 0x00, 0x00, 0x00, 0x00, 0x00, 0x00, 0x00, 0x00, 0x00,
  0x00, 0x00, 0x00, 0x00, 0x00, 0x00, 0x00, 0x00, 0x00, 0x00, 0x00, 0x00,
  0x00, 0x00, 0x00, 0x00, 0x00, 0x00, 0x00, 0x00, 0x00, 0x00, 0x00, 0x00,
  0x00, 0x00, 0x00, 0x00, 0x00, 0x00, 0x00, 0x00, 0x00, 0x00, 0x00, 0x00,
  0x00, 0x00, 0x00, 0x00, 0x00, 0x00, 0x00, 0x00, 0x00, 0x00, 0x00, 0x00,
  0x00, 0x00, 0x00, 0x00, 0x00, 0x00, 0x00, 0x00, 0x00, 0x00, 0x00, 0x00,
  0x00, 0x00, 0x00, 0x00, 0x00, 0x00, 0x00, 0x00, 0x00, 0x00, 0x00, 0x00,
  0x0c, 0x00, 0x00, 0x00, 0x10, 0xbd, 0x87, 0x3b, 0x5a, 0xb1, 0x97, 0x3b,
  0x33, 0xcc, 0xd2, 0x3b, 0x6d, 0x6b, 0x65, 0x3b, 0x73, 0x35, 0x56, 0x3b,
  0xcf, 0x6e, 0x21, 0x3b, 0x04, 0xc2, 0x01, 0x3b, 0x36, 0x5f, 0x72, 0x3b,
  0x12, 0xff, 0x3e, 0x3b, 0x03, 0xb9, 0x83, 0x3b, 0x63, 0x98, 0x8a, 0x3b,
  0xff, 0x06, 0xae, 0x3b, 0x12, 0x00, 0x00, 0x00, 0x74, 0x66, 0x6c, 0x2e,
  0x70, 0x73, 0x65, 0x75, 0x64, 0x6f, 0x5f, 0x71, 0x63, 0x6f, 0x6e, 0x73,
  0x74, 0x37, 0x00, 0x00, 0x04, 0x00, 0x00, 0x00, 0x0c, 0x00, 0x00, 0x00,
  0x01, 0x00, 0x00, 0x00, 0x05, 0x00, 0x00, 0x00, 0x10, 0x00, 0x00, 0x00,
  0x82, 0xf9, 0xff, 0xff, 0x00, 0x00, 0x00, 0x01, 0x14, 0x00, 0x00, 0x00,
  0xb4, 0x00, 0x00, 0x00, 0x0b, 0x00, 0x00, 0x00, 0x00, 0x00, 0x00, 0x02,
  0xc0, 0x00, 0x00, 0x00, 0x6c, 0xf9, 0xff, 0xff, 0x08, 0x00, 0x00, 0x00,
  0x68, 0x00, 0x00, 0x00, 0x0c, 0x00, 0x00, 0x00, 0x00, 0x00, 0x00, 0x00,
  0x00, 0x00, 0x00, 0x00, 0x00, 0x00, 0x00, 0x00, 0x00, 0x00, 0x00, 0x00,
  0x00, 0x00, 0x00, 0x00, 0x00, 0x00, 0x00, 0x00, 0x00, 0x00, 0x00, 0x00,
  0x00, 0x00, 0x00, 0x00, 0x00, 0x00, 0x00, 0x00, 0x00, 0x00, 0x00, 0x00,
  0x00, 0x00, 0x00, 0x00, 0x00, 0x00, 0x00, 0x00, 0x00, 0x00, 0x00, 0x00,
  0x00, 0x00, 0x00, 0x00, 0x00, 0x00, 0x00, 0x00, 0x00, 0x00, 0x00, 0x00,
  0x00, 0x00, 0x00, 0x00, 0x00, 0x00, 0x00, 0x00, 0x00, 0x00, 0x00, 0x00,
  0x00, 0x00, 0x00, 0x00, 0x00, 0x00, 0x00, 0x00, 0x00, 0x00, 0x00, 0x00,
  0x00, 0x00, 0x00, 0x00, 0x00, 0x00, 0x00, 0x00, 0x0c, 0x00, 0x00, 0x00,
  0xc8, 0xb0, 0x51, 0x3a, 0x3d, 0x56, 0x6a, 0x3a, 0x48, 0xd2, 0xa2, 0x3a,
  0x84, 0x34, 0x31, 0x3a, 0xc9, 0x74, 0x25, 0x3a, 0x2a, 0x62, 0xf9, 0x39,
  0x9a, 0x73, 0xc8, 0x39, 0xa6, 0x35, 0x3b, 0x3a, 0xdb, 0x86, 0x13, 0x3a,
  0xa2, 0x7c, 0x4b, 0x3a, 0x8a, 0x1a, 0x56, 0x3a, 0x77, 0x6b, 0x86, 0x3a,
  0x12, 0x00, 0x00, 0x00, 0x74, 0x66, 0x6c, 0x2e, 0x70, 0x73, 0x65, 0x75,
  0x64, 0x6f, 0x5f, 0x71, 0x63, 0x6f, 0x6e, 0x73, 0x74, 0x36, 0x00, 0x00,
  0x01, 0x00, 0x00, 0x00, 0x0c, 0x00, 0x00, 0x00, 0x62, 0xfa, 0xff, 0xff,
  0x00, 0x00, 0x00, 0x01, 0x14, 0x00, 0x00, 0x00, 0x88, 0x00, 0x00, 0x00,
  0x0a, 0x00, 0x00, 0x00, 0x00, 0x00, 0x00, 0x09, 0x94, 0x00, 0x00, 0x00,
  0x4c, 0xfa, 0xff, 0xff, 0x08, 0x00, 0x00, 0x00, 0x4c, 0x00, 0x00, 0x00,
  0x08, 0x00, 0x00, 0x00, 0x00, 0x00, 0x00, 0x00, 0x00, 0x00, 0x00, 0x00,
  0x00, 0x00, 0x00, 0x00, 0x00, 0x00, 0x00, 0x00, 0x00, 0x00, 0x00, 0x00,
  0x00, 0x00, 0x00, 0x00, 0x00, 0x00, 0x00, 0x00, 0x00, 0x00, 0x00, 0x00,
  0x00, 0x00, 0x00, 0x00, 0x00, 0x00, 0x00, 0x00, 0x00, 0x00, 0x00, 0x00,
  0x00, 0x00, 0x00, 0x00, 0x00, 0x00, 0x00, 0x00, 0x00, 0x00, 0x00, 0x00,
  0x00, 0x00, 0x00, 0x00, 0x00, 0x00, 0x00, 0x00, 0x00, 0x00, 0x00, 0x00,
  0x08, 0x00, 0x00, 0x00, 0x88, 0x7c, 0xe0, 0x3c, 0x47, 0x8a, 0x85, 0x3c,
  0xd2, 0x5f, 0x68, 0x3c, 0xf4, 0xe5, 0x93, 0x3c, 0x9a, 0xf4, 0x2e, 0x3c,
  0x11, 0x1c, 0x8e, 0x3c, 0xbe, 0x8e, 0x90, 0x3c, 0x4d, 0x13, 0x96, 0x3c,
  0x12, 0x00, 0x00, 0x00, 0x74, 0x66, 0x6c, 0x2e, 0x70, 0x73, 0x65, 0x75,
  0x64, 0x6f, 0x5f, 0x71, 0x63, 0x6f, 0x6e, 0x73, 0x74, 0x35, 0x00, 0x00,
  0x04, 0x00, 0x00, 0x00, 0x08, 0x00, 0x00, 0x00, 0x01, 0x00, 0x00, 0x00,
  0x03, 0x00, 0x00, 0x00, 0x0c, 0x00, 0x00, 0x00, 0x22, 0xfb, 0xff, 0xff,
  0x00, 0x00, 0x00, 0x01, 0x14, 0x00, 0x00, 0x00, 0x84, 0x00, 0x00, 0x00,
  0x09, 0x00, 0x00, 0x00, 0x00, 0x00, 0x00, 0x02, 0x90, 0x00, 0x00, 0x00,
  0x0c, 0xfb, 0xff, 0xff, 0x08, 0x00, 0x00, 0x00, 0x48, 0x00, 0x00, 0x00,
  0x08, 0x00, 0x00, 0x00, 0x00, 0x00, 0x00, 0x00, 0x00, 0x00, 0x00, 0x00,
  0x00, 0x00, 0x00, 0x00, 0x00, 0x00, 0x00, 0x00, 0x00, 0x00, 0x00, 0x00,
  0x00, 0x00, 0x00, 0x00, 0x00, 0x00, 0x00, 0x00, 0x00, 0x00, 0x00, 0x00,
  0x00, 0x00, 0x00, 0x00, 0x00, 0x00, 0x00, 0x00, 0x00, 0x00, 0x00, 0x00,
  0x00, 0x00, 0x00, 0x00, 0x00, 0x00, 0x00, 0x00, 0x00, 0x00, 0x00, 0x00,
  0x00, 0x00, 0x00, 0x00, 0x00, 0x00, 0x00, 0x00, 0x08, 0x00, 0x00, 0x00,
  0xf8, 0x92, 0xa2, 0x3a, 0xb6, 0x6b, 0x41, 0x3a, 0x59, 0x49, 0x28, 0x3a,
  0x98, 0x37, 0x56, 0x3a, 0x36, 0x68, 0xfd, 0x39, 0x37, 0xd5, 0x4d, 0x3a,
  0xe6, 0x60, 0x51, 0x3a, 0xdc, 0x5e, 0x59, 0x3a, 0x12, 0x00, 0x00, 0x00,
  0x74, 0x66, 0x6c, 0x2e, 0x70, 0x73, 0x65, 0x75, 0x64, 0x6f, 0x5f, 0x71,
  0x63, 0x6f, 0x6e, 0x73, 0x74, 0x34, 0x00, 0x00, 0x01, 0x00, 0x00, 0x00,
  0x08, 0x00, 0x00, 0x00, 0xd2, 0xfb, 0xff, 0xff, 0x00, 0x00, 0x00, 0x01,
  0x14, 0x00, 0x00, 0x00, 0xe8, 0x00, 0x00, 0x00, 0x08, 0x00, 0x00, 0x00,
  0x00, 0x00, 0x00, 0x09, 0xf4, 0x00, 0x00, 0x00, 0xbc, 0xfb, 0xff, 0xff,
  0x08, 0x00, 0x00, 0x00, 0x8c, 0x00, 0x00, 0x00, 0x10, 0x00, 0x00, 0x00,
  0x00, 0x00, 0x00, 0x00, 0x00, 0x00, 0x00, 0x00, 0x00, 0x00, 0x00, 0x00,
  0x00, 0x00, 0x00, 0x00, 0x00, 0x00, 0x00, 0x00, 0x00, 0x00, 0x00, 0x00,
  0x00, 0x00, 0x00, 0x00, 0x00, 0x00, 0x00, 0x00, 0x00, 0x00, 0x00, 0x00,
  0x00, 0x00, 0x00, 0x00, 0x00, 0x00, 0x00, 0x00, 0x00, 0x00, 0x00, 0x00,
  0x00, 0x00, 0x00, 0x00, 0x00, 0x00, 0x00, 0x00, 0x00, 0x00, 0x00, 0x00,
  0x00, 0x00, 0x00, 0x00, 0x00, 0x00, 0x00, 0x00, 0x00, 0x00, 0x00, 0x00,
  0x00, 0x00, 0x00, 0x00, 0x00, 0x00, 0x00, 0x00, 0x00, 0x00, 0x00, 0x00,
  0x00, 0x00, 0x00, 0x00, 0x00, 0x00, 0x00, 0x00, 0x00, 0x00, 0x00, 0x00,
  0x00, 0x00, 0x00, 0x00, 0x00, 0x00, 0x00, 0x00, 0x00, 0x00, 0x00, 0x00,
  0x00, 0x00, 0x00, 0x00, 0x00, 0x00, 0x00, 0x00, 0x00, 0x00, 0x00, 0x00,
  0x00, 0x00, 0x00, 0x00, 0x00, 0x00, 0x00, 0x00, 0x00, 0x00, 0x00, 0x00,
  0x10, 0x00, 0x00, 0x00, 0x04, 0xd5, 0x24, 0x3c, 0x3a, 0x53, 0x01, 0x3c,
  0x13, 0x6b, 0x17, 0x3c, 0x9b, 0x2d, 0x2d, 0x3c, 0xfc, 0xf0, 0x05, 0x3c,
  0x18, 0x28, 0x22, 0x3c, 0x0b, 0x83, 0xfb, 0x3b, 0xa7, 0x10, 0xfd, 0x3b,
  0xb5, 0x8b, 0x09, 0x3c, 0x65, 0x52, 0x09, 0x3c, 0x33, 0x6e, 0x31, 0x3c,
  0x0b, 0x0f, 0xf2, 0x3b, 0x50, 0xeb, 0xf4, 0x3b, 0xc9, 0x57, 0xf4, 0x3b,
  0x30, 0xcb, 0x09, 0x3c, 0x39, 0x6a, 0x21, 0x3c, 0x12, 0x00, 0x00, 0x00,
  0x74, 0x66, 0x6c, 0x2e, 0x70, 0x73, 0x65, 0x75, 0x64, 0x6f, 0x5f, 0x71,
  0x63, 0x6f, 0x6e, 0x73, 0x74, 0x33, 0x00, 0x00, 0x02, 0x00, 0x00, 0x00,
  0x10, 0x00, 0x00, 0x00, 0x08, 0x00, 0x00, 0x00, 0xea, 0xfc, 0xff, 0xff,
  0x00, 0x00, 0x00, 0x01, 0x14, 0x00, 0x00, 0x00, 0xe4, 0x00, 0x00, 0x00,
  0x07, 0x00, 0x00, 0x00, 0x00, 0x00, 0x00, 0x02, 0xf0, 0x00, 0x00, 0x00,
  0xd4, 0xfc, 0xff, 0xff, 0x08, 0x00, 0x00, 0x00, 0x88, 0x00, 0x00, 0x00,
  0x10, 0x00, 0x00, 0x00, 0x00, 0x00, 0x00, 0x00, 0x00, 0x00, 0x00, 0x00,
  0x00, 0x00, 0x00, 0x00, 0x00, 0x00, 0x00, 0x00, 0x00, 0x00, 0x00, 0x00,
  0x00, 0x00, 0x00, 0x00, 0x00, 0x00, 0x00, 0x00, 0x00, 0x00, 0x00, 0x00,
  0x00, 0x00, 0x00, 0x00, 0x00, 0x00, 0x00, 0x00, 0x00, 0x00, 0x00, 0x00,
  0x00, 0x00, 0x00, 0x00, 0x00, 0x00, 0x00, 0x00, 0x00, 0x00, 0x00, 0x00,
  0x00, 0x00, 0x00, 0x00, 0x00, 0x00, 0x00, 0x00, 0x00, 0x00, 0x00, 0x00,
  0x00, 0x00, 0x00, 0x00, 0x00, 0x00, 0x00, 0x00, 0x00, 0x00, 0x00, 0x00,
  0x00, 0x00, 0x00, 0x00, 0x00, 0x00, 0x00, 0x00, 0x00, 0x00, 0x00, 0x00,
  0x00, 0x00, 0x00, 0x00, 0x00, 0x00, 0x00, 0x00, 0x00, 0x00, 0x00, 0x00,
  0x00, 0x00, 0x00, 0x00, 0x00, 0x00, 0x00, 0x00, 0x00, 0x00, 0x00, 0x00,
  0x00, 0x00, 0x00, 0x00, 0x00, 0x00, 0x00, 0x00, 0x00, 0x00, 0x00, 0x00,
  0x10, 0x00, 0x00, 0x00, 0x74, 0x94, 0x15, 0x39, 0x84, 0xb7, 0xea, 0x38,
  0x42, 0x68, 0x09, 0x39, 0x57, 0x27, 0x1d, 0x39, 0x54, 0x18, 0xf3, 0x38,
  0xe8, 0x26, 0x13, 0x39, 0x33, 0x3d, 0xe4, 0x38, 0x04, 0xa6, 0xe5, 0x38,
  0x03, 0xa3, 0xf9, 0x38, 0xff, 0x3a, 0xf9, 0x38, 0x34, 0x03, 0x21, 0x39,
  0x20, 0xa9, 0xdb, 0x38, 0xa3, 0x41, 0xde, 0x38, 0xc2, 0xbb, 0xdd, 0x38,
  0x3a, 0x16, 0xfa, 0x38, 0x9b, 0x7a, 0x12, 0x39, 0x12, 0x00, 0x00, 0x00,
  0x74, 0x66, 0x6c, 0x2e, 0x70, 0x73, 0x65, 0x75, 0x64, 0x6f, 0x5f, 0x71,
  0x63, 0x6f, 0x6e, 0x73, 0x74, 0x32, 0x00, 0x00, 0x01, 0x00, 0x00, 0x00,
  0x10, 0x00, 0x00, 0x00, 0xfa, 0xfd, 0xff, 0xff, 0x00, 0x00, 0x00, 0x01,
  0x14, 0x00, 0x00, 0x00, 0x78, 0x00, 0x00, 0x00, 0x06, 0x00, 0x00, 0x00,
  0x00, 0x00, 0x00, 0x09, 0x84, 0x00, 0x00, 0x00, 0xe4, 0xfd, 0xff, 0xff,
  0x08, 0x00, 0x00, 0x00, 0x40, 0x00, 0x00, 0x00, 0x07, 0x00, 0x00, 0x00,
  0x00, 0x00, 0x00, 0x00, 0x00, 0x00, 0x00, 0x00, 0x00, 0x00, 0x00, 0x00,
  0x00, 0x00, 0x00, 0x00, 0x00, 0x00, 0x00, 0x00, 0x00, 0x00, 0x00, 0x00,
  0x00, 0x00, 0x00, 0x00, 0x00, 0x00, 0x00, 0x00, 0x00, 0x00, 0x00, 0x00,
  0x00, 0x00, 0x00, 0x00, 0x00, 0x00, 0x00, 0x00, 0x00, 0x00, 0x00, 0x00,
  0x00, 0x00, 0x00, 0x00, 0x00, 0x00, 0x00, 0x00, 0x07, 0x00, 0x00, 0x00,
  0xfd, 0x28, 0x80, 0x3d, 0x9d, 0xfc, 0x44, 0x3d, 0xdd, 0x4e, 0x6e, 0x3d,
  0x9d, 0xc5, 0x35, 0x3d, 0x94, 0x40, 0x5d, 0x3d, 0x12, 0xf5, 0x55, 0x3d,
  0x25, 0x44, 0x13, 0x3d, 0x12, 0x00, 0x00, 0x00, 0x74, 0x66, 0x6c, 0x2e,
  0x70, 0x73, 0x65, 0x75, 0x64, 0x6f, 0x5f, 0x71, 0x63, 0x6f, 0x6e, 0x73,
  0x74, 0x31, 0x00, 0x00, 0x02, 0x00, 0x00, 0x00, 0x07, 0x00, 0x00, 0x00,
  0x10, 0x00, 0x00, 0x00, 0xa2, 0xfe, 0xff, 0xff, 0x00, 0x00, 0x00, 0x01,
  0x14, 0x00, 0x00, 0x00, 0x7c, 0x00, 0x00, 0x00, 0x05, 0x00, 0x00, 0x00,
  0x00, 0x00, 0x00, 0x02, 0x88, 0x00, 0x00, 0x00, 0x8c, 0xfe, 0xff, 0xff,
  0x08, 0x00, 0x00, 0x00, 0x44, 0x00, 0x00, 0x00, 0x07, 0x00, 0x00, 0x00,
  0x00, 0x00, 0x00, 0x00, 0x00, 0x00, 0x00, 0x00, 0x00, 0x00, 0x00, 0x00,
  0x00, 0x00, 0x00, 0x00, 0x00, 0x00, 0x00, 0x00, 0x00, 0x00, 0x00, 0x00,
  0x00, 0x00, 0x00, 0x00, 0x00, 0x00, 0x00, 0x00, 0x00, 0x00, 0x00, 0x00,
  0x00, 0x00, 0x00, 0x00, 0x00, 0x00, 0x00, 0x00, 0x00, 0x00, 0x00, 0x00,
  0x00, 0x00, 0x00, 0x00, 0x00, 0x00, 0x00, 0x00, 0x00, 0x00, 0x00, 0x00,
  0x07, 0x00, 0x00, 0x00, 0xa5, 0xeb, 0x1d, 0x3a, 0xc4, 0xba, 0xf2, 0x39,
  0xb5, 0xd2, 0x12, 0x3a, 0x4c, 0xfb, 0xdf, 0x39, 0x9d, 0x50, 0x08, 0x3a,
  0x07, 0xd2, 0x03, 0x3a, 0x96, 0x76, 0xb5, 0x39, 0x11, 0x00, 0x00, 0x00,
  0x74, 0x66, 0x6c, 0x2e, 0x70, 0x73, 0x65, 0x75, 0x64, 0x6f, 0x5f, 0x71,
  0x63, 0x6f, 0x6e, 0x73, 0x74, 0x00, 0x00, 0x00, 0x01, 0x00, 0x00, 0x00,
  0x07, 0x00, 0x00, 0x00, 0x4a, 0xff, 0xff, 0xff, 0x00, 0x00, 0x00, 0x01,
  0x14, 0x00, 0x00, 0x00, 0x14, 0x00, 0x00, 0x00, 0x04, 0x00, 0x00, 0x00,
  0x00, 0x00, 0x00, 0x02, 0x1c, 0x00, 0x00, 0x00, 0x8c, 0xff, 0xff, 0xff,
  0x0f, 0x00, 0x00, 0x00, 0x61, 0x72, 0x69, 0x74, 0x68, 0x2e, 0x63, 0x6f,
  0x6e, 0x73, 0x74, 0x61, 0x6e, 0x74, 0x32, 0x00, 0x00, 0x00, 0x00, 0x00,
  0x82, 0xff, 0xff, 0xff, 0x00, 0x00, 0x00, 0x01, 0x14, 0x00, 0x00, 0x00,
  0x14, 0x00, 0x00, 0x00, 0x03, 0x00, 0x00, 0x00, 0x00, 0x00, 0x00, 0x02,
  0x1c, 0x00, 0x00, 0x00, 0xc4, 0xff, 0xff, 0xff, 0x0f, 0x00, 0x00, 0x00,
  0x61, 0x72, 0x69, 0x74, 0x68, 0x2e, 0x63, 0x6f, 0x6e, 0x73, 0x74, 0x61,
  0x6e, 0x74, 0x31, 0x00, 0x01, 0x00, 0x00, 0x00, 0x03, 0x00, 0x00, 0x00,
  0xbe, 0xff, 0xff, 0xff, 0x00, 0x00, 0x00, 0x01, 0x18, 0x00, 0x00, 0x00,
  0x18, 0x00, 0x00, 0x00, 0x02, 0x00, 0x00, 0x00, 0x00, 0x00, 0x00, 0x02,
  0x20, 0x00, 0x00, 0x00, 0x04, 0x00, 0x04, 0x00, 0x04, 0x00, 0x00, 0x00,
  0x0e, 0x00, 0x00, 0x00, 0x61, 0x72, 0x69, 0x74, 0x68, 0x2e, 0x63, 0x6f,
  0x6e, 0x73, 0x74, 0x61, 0x6e, 0x74, 0x00, 0x00, 0x01, 0x00, 0x00, 0x00,
  0x04, 0x00, 0x00, 0x00, 0x00, 0x00, 0x16, 0x00, 0x1c, 0x00, 0x18, 0x00,
  0x17, 0x00, 0x10, 0x00, 0x0c, 0x00, 0x08, 0x00, 0x00, 0x00, 0x00, 0x00,
  0x00, 0x00, 0x07, 0x00, 0x16, 0x00, 0x00, 0x00, 0x00, 0x00, 0x00, 0x01,
  0x20, 0x00, 0x00, 0x00, 0x40, 0x00, 0x00, 0x00, 0x01, 0x00, 0x00, 0x00,
  0x00, 0x00, 0x00, 0x09, 0x5c, 0x00, 0x00, 0x00, 0x0c, 0x00, 0x0c, 0x00,
  0x00, 0x00, 0x00, 0x00, 0x08, 0x00, 0x04, 0x00, 0x0c, 0x00, 0x00, 0x00,
  0x08, 0x00, 0x00, 0x00, 0x14, 0x00, 0x00, 0x00, 0x01, 0x00, 0x00, 0x00,
  0x90, 0xff, 0xff, 0xff, 0xff, 0xff, 0xff, 0xff, 0x00, 0x00, 0x00, 0x00,
  0x01, 0x00, 0x00, 0x00, 0xc1, 0xb9, 0x1c, 0x3f, 0x21, 0x00, 0x00, 0x00,
  0x73, 0x65, 0x72, 0x76, 0x69, 0x6e, 0x67, 0x5f, 0x64, 0x65, 0x66, 0x61,
  0x75, 0x6c, 0x74, 0x5f, 0x6b, 0x65, 0x72, 0x61, 0x73, 0x5f, 0x74, 0x65,
  0x6e, 0x73, 0x6f, 0x72, 0x5f, 0x32, 0x38, 0x3a, 0x30, 0x00, 0x00, 0x00,
  0x03, 0x00, 0x00, 0x00, 0x01, 0x00, 0x00, 0x00, 0xf4, 0x01, 0x00, 0x00,
  0x06, 0x00, 0x00, 0x00, 0x05, 0x00, 0x00, 0x00, 0x6c, 0x00, 0x00, 0x00,
  0x4c, 0x00, 0x00, 0x00, 0x2c, 0x00, 0x00, 0x00, 0x18, 0x00, 0x00, 0x00,
  0x04, 0x00, 0x00, 0x00, 0xd0, 0xff, 0xff, 0xff, 0x19, 0x00, 0x00, 0x00,
  0x02, 0x00, 0x00, 0x00, 0x00, 0x00, 0x00, 0x19, 0xe0, 0xff, 0xff, 0xff,
  0x09, 0x00, 0x00, 0x00, 0x04, 0x00, 0x00, 0x00, 0x00, 0x00, 0x00, 0x09,
  0xf0, 0xff, 0xff, 0xff, 0x28, 0x00, 0x00, 0x00, 0x02, 0x00, 0x00, 0x00,
  0x00, 0x00, 0x00, 0x28, 0x0c, 0x00, 0x10, 0x00, 0x0f, 0x00, 0x00, 0x00,
  0x08, 0x00, 0x04, 0x00, 0x0c, 0x00, 0x00, 0x00, 0x03, 0x00, 0x00, 0x00,
  0x03, 0x00, 0x00, 0x00, 0x00, 0x00, 0x00, 0x03, 0x0c, 0x00, 0x0c, 0x00,
  0x0b, 0x00, 0x00, 0x00, 0x00, 0x00, 0x04, 0x00, 0x0c, 0x00, 0x00, 0x00,
  0x16, 0x00, 0x00, 0x00, 0x00, 0x00, 0x00, 0x16
};
inline const unsigned int gesture_model_2_tflite_len = 8768;
