
inline const unsigned char gesture_model_2_tflite[] = {
  0x1c, 0x00, 0x00, 0x00, 0x54, 0x46, 0x4c, 0x33, 0x14, 0x00, 0x20, 0x00,
  0x1c, 0x00, 0x18, 0x00, 0x14, 0x00, 0x10, 0x00, 0x0c, 0x00, 0x00, 0x00,
  0x08, 0x00, 0x04, 0x00, 0x14, 0x00, 0x00, 0x00, 0x1c, 0x00, 0x00, 0x00,
  0x98, 0x00, 0x00, 0x00, 0x18, 0x01, 0x00, 0x00, 0x6c, 0x0c, 0x00, 0x00,
  0x7c, 0x0c, 0x00, 0x00, 0x90, 0x21, 0x00, 0x00, 0x03, 0x00, 0x00, 0x00,
  0x01, 0x00, 0x00, 0x00, 0x10, 0x00, 0x00, 0x00, 0x00, 0x00, 0x0a, 0x00,
  0x10, 0x00, 0x0c, 0x00, 0x08, 0x00, 0x04, 0x00, 0x0a, 0x00, 0x00, 0x00,
  0x0c, 0x00, 0x00, 0x00, 0x1c, 0x00, 0x00, 0x00, 0x3c, 0x00, 0x00, 0x00,
  0x0f, 0x00, 0x00, 0x00, 0x73, 0x65, 0x72, 0x76, 0x69, 0x6e, 0x67, 0x5f,
  0x64, 0x65, 0x66, 0x61, 0x75, 0x6c, 0x74, 0x00, 0x01, 0x00, 0x00, 0x00,
  0x04, 0x00, 0x00, 0x00, 0x68, 0xff, 0xff, 0xff, 0x16, 0x00, 0x00, 0x00,
  0x04, 0x00, 0x00, 0x00, 0x08, 0x00, 0x00, 0x00, 0x6f, 0x75, 0x74, 0x70,
  0x75, 0x74, 0x5f, 0x30, 0x00, 0x00, 0x00, 0x00, 0x01, 0x00, 0x00, 0x00,
  0x04, 0x00, 0x00, 0x00, 0x76, 0xf3, 0xff, 0xff, 0x04, 0x00, 0x00, 0x00,
  0x0f, 0x00, 0x00, 0x00, 0x6b, 0x65, 0x72, 0x61, 0x73, 0x5f, 0x74, 0x65,
  0x6e, 0x73, 0x6f, 0x72, 0x5f, 0x32, 0x38, 0x00, 0x03, 0x00, 0x00, 0x00,
  0x5c, 0x00, 0x00, 0x00, 0x2c, 0x00, 0x00, 0x00, 0x04, 0x00, 0x00, 0x00,
  0xb8, 0xff, 0xff, 0xff, 0x1a, 0x00, 0x00, 0x00, 0x04, 0x00, 0x00, 0x00,
  0x13, 0x00, 0x00, 0x00, 0x43, 0x4f, 0x4e, 0x56, 0x45, 0x52, 0x53, 0x49,
  0x4f, 0x4e, 0x5f, 0x4d, 0x45, 0x54, 0x41, 0x44, 0x41, 0x54, 0x41, 0x00,
  0xdc, 0xff, 0xff, 0xff, 0x19, 0x00, 0x00, 0x00, 0x04, 0x00, 0x00, 0x00,
  0x13, 0x00, 0x00, 0x00, 0x6d, 0x69, 0x6e, 0x5f, 0x72, 0x75, 0x6e, 0x74,
  0x69, 0x6d, 0x65, 0x5f, 0x76, 0x65, 0x72, 0x73, 0x69, 0x6f, 0x6e, 0x00,
  0x08, 0x00, 0x0c, 0x00, 0x08, 0x00, 0x04, 0x00, 0x08, 0x00, 0x00, 0x00,
  0x18, 0x00, 0x00, 0x00, 0x04, 0x00, 0x00, 0x00, 0x13, 0x00, 0x00, 0x00,
  0x6d, 0x69, 0x6e, 0x5f, 0x72, 0x75, 0x6e, 0x74, 0x69, 0x6d, 0x65, 0x5f,
  0x76, 0x65, 0x72, 0x73, 0x69, 0x6f, 0x6e, 0x00, 0x1b, 0x00, 0x00, 0x00,
  0x50, 0x0b, 0x00, 0x00, 0x48, 0x0b, 0x00, 0x00, 0x28, 0x0b, 0x00, 0x00,
  0x0c, 0x0b, 0x00, 0x00, 0xf8, 0x0a, 0x00, 0x00, 0xcc, 0x0a, 0x00, 0x00,
  0x4c, 0x0a, 0x00, 0x00, 0xfc, 0x09, 0x00, 0x00, 0x6c, 0x09, 0x00, 0x00,
  0x3c, 0x09, 0x00, 0x00, 0x0c, 0x08, 0x00, 0x00, 0xcc, 0x07, 0x00, 0x00,
  0xfc, 0x03, 0x00, 0x00, 0xac, 0x03, 0x00, 0x00, 0xfc, 0x00, 0x00, 0x00,
  0xf4, 0x00, 0x00, 0x00, 0xec, 0x00, 0x00, 0x00, 0xe4, 0x00, 0x00, 0x00,
  0xdc, 0x00, 0x00, 0x00, 0xd4, 0x00, 0x00, 0x00, 0xcc, 0x00, 0x00, 0x00,
  0xc4, 0x00, 0x00, 0x00, 0xbc, 0x00, 0x00, 0x00, 0xb4, 0x00, 0x00, 0x00,
  0x94, 0x00, 0x00, 0x00, 0x74, 0x00, 0x00, 0x00, 0x04, 0x00, 0x00, 0x00,
  0x86, 0xf4, 0xff, 0xff, 0x04, 0x00, 0x00, 0x00, 0x60, 0x00, 0x00, 0x00,
  0x0c, 0x00, 0x00, 0x00, 0x08, 0x00, 0x0e, 0x00, 0x08, 0x00, 0x04, 0x00,
  0x08, 0x00, 0x00, 0x00, 0x10, 0x00, 0x00, 0x00, 0x28, 0x00, 0x00, 0x00,
  0x00, 0x00, 0x06, 0x00, 0x08, 0x00, 0x04, 0x00, 0x06, 0x00, 0x00, 0x00,
  0x04, 0x00, 0x00, 0x00, 0x01, 0x00, 0x00, 0x00, 0xeb, 0x03, 0x00, 0x00,
  0x0c, 0x00, 0x18, 0x00, 0x14, 0x00, 0x10, 0x00, 0x0c, 0x00, 0x04, 0x00,
  0x0c, 0x00, 0x00, 0x00, 0x90, 0x23, 0x1c, 0x91, 0xe1, 0x42, 0xe3, 0x7e,
  0x02, 0x00, 0x00, 0x00, 0x02, 0x00, 0x00, 0x00, 0x04, 0x00, 0x00, 0x00,
  0x06, 0x00, 0x00, 0x00, 0x32, 0x2e, 0x31, 0x39, 0x2e, 0x30, 0x00, 0x00,
  0xf2, 0xf4, 0xff, 0xff, 0x04, 0x00, 0x00, 0x00, 0x10, 0x00, 0x00, 0x00,
  0x00, 0x00, 0x00, 0x00, 0x00, 0x00, 0x00, 0x00, 0x00, 0x00, 0x00, 0x00,
  0x00, 0x00, 0x00, 0x00, 0x0e, 0xf5, 0xff, 0xff, 0x04, 0x00, 0x00, 0x00,
  0x10, 0x00, 0x00, 0x00, 0x31, 0x2e, 0x31, 0x34, 0x2e, 0x30, 0x00, 0x00,
  0x00, 0x00, 0x00, 0x00, 0x00, 0x00, 0x00, 0x00, 0x50, 0xe1, 0xff, 0xff,
  0x54, 0xe1, 0xff, 0xff, 0x58, 0xe1, 0xff, 0xff, 0x5c, 0xe1, 0xff, 0xff,
  0x60, 0xe1, 0xff, 0xff, 0x64, 0xe1, 0xff, 0xff, 0x68, 0xe1, 0xff, 0xff,
  0x6c, 0xe1, 0xff, 0xff, 0x70, 0xe1, 0xff, 0xff, 0x4e, 0xf5, 0xff, 0xff,
  0x04, 0x00, 0x00, 0x00, 0xa0, 0x02, 0x00, 0x00, 0x0b, 0x7f, 0xfd, 0xab,
  0x0e, 0x07, 0x1e, 0x6d, 0x1b, 0xdf, 0x05, 0x2d, 0x0b, 0x61, 0x57, 0xf3,
  0xf4, 0x2b, 0x19, 0x6a, 0x56, 0xf0, 0xce, 0x26, 0xd6, 0x31, 0x0b, 0xee,
  0xf3, 0x14, 0xb1, 0x2b, 0x3d, 0xd9, 0xe9, 0x16, 0x97, 0x27, 0x61, 0xf5,
  0xcd, 0x20, 0x7f, 0xf9, 0x03, 0x05, 0xf0, 0xec, 0x5e, 0xf4, 0x0b, 0x10,
  0xc2, 0xf1, 0x36, 0xbf, 0x09, 0x19, 0xc1, 0xf3, 0x23, 0xe2, 0x43, 0x1b,
  0xa7, 0xf0, 0xed, 0xbf, 0x26, 0xe9, 0xce, 0xe5, 0xd7, 0xb5, 0x37, 0xf8,
  0xe0, 0xc0, 0x9a, 0xd8, 0x4f, 0xe7, 0x98, 0xc2, 0x05, 0x1e, 0xeb, 0x1b,
  0xee, 0x14, 0x05, 0x16, 0xe5, 0x15, 0xff, 0x0e, 0x18, 0x21, 0xf1, 0x01,
  0x05, 0x25, 0x13, 0xfa, 0xf2, 0xdb, 0xee, 0x45, 0xfd, 0xfb, 0xf2, 0xe3,
  0xf7, 0x5b, 0x0f, 0x0c, 0xd6, 0xfa, 0x03, 0x73, 0x01, 0xf1, 0xd5, 0xf0,
  0xfa, 0x7f, 0xe8, 0x40, 0x36, 0x99, 0xef, 0x13, 0x2a, 0x18, 0x2b, 0xd5,
  0xf4, 0x39, 0x29, 0x0d, 0x43, 0xaa, 0xfa, 0x1f, 0x49, 0xe6, 0x3a, 0xf1,
  0x2a, 0x2e, 0x45, 0xd1, 0x44, 0xdb, 0x58, 0x02, 0x34, 0xae, 0x6a, 0xe0,
  0x6e, 0xf5, 0x33, 0x89, 0x6c, 0x04, 0x7f, 0x1a, 0xee, 0xae, 0xe7, 0xe5,
  0x3c, 0x2a, 0xdd, 0xc0, 0xf7, 0xf7, 0x35, 0x2f, 0xd0, 0xf5, 0x00, 0xfc,
  0x05, 0x09, 0xdc, 0x06, 0x10, 0x10, 0x02, 0xe3, 0xf0, 0xf4, 0x14, 0xe6,
  0xeb, 0xb3, 0xc1, 0x04, 0x17, 0xe3, 0xe9, 0x81, 0xc3, 0x22, 0x21, 0xc9,
  0xdd, 0x88, 0xa3, 0x0a, 0x62, 0x3b, 0xff, 0x05, 0xc8, 0x2b, 0x4a, 0x0e,
  0x0e, 0x32, 0xdd, 0x00, 0x2a, 0x06, 0x34, 0x1a, 0x17, 0xfe, 0xf0, 0xfc,
  0x3d, 0x3b, 0x25, 0x00, 0xfb, 0xfd, 0x4e, 0x44, 0x45, 0x13, 0xf2, 0x11,
  0x77, 0x3b, 0x3c, 0xfd, 0xed, 0x0a, 0x7f, 0x43, 0x21, 0xd6, 0x19, 0x0e,
  0xa2, 0xb3, 0x11, 0xbd, 0x1f, 0xf3, 0xb4, 0xc2, 0x40, 0xe6, 0x3e, 0xf7,
  0xf3, 0xa5, 0x38, 0xff, 0x44, 0x20, 0xff, 0xb8, 0x41, 0xf5, 0x1c, 0x53,
  0xcf, 0x81, 0x11, 0x1e, 0x5d, 0x41, 0xd6, 0x82, 0x27, 0x02, 0x52, 0x5b,
  0xd9, 0xc1, 0x21, 0x20, 0x2b, 0xd4, 0x04, 0x81, 0x36, 0x39, 0x34, 0xe8,
  0x1e, 0x86, 0x45, 0x3f, 0x2a, 0xe4, 0x11, 0x8a, 0x1c, 0x43, 0x46, 0xe5,
  0x05, 0xbb, 0x3c, 0x3b, 0x22, 0x00, 0x05, 0xc4, 0x27, 0x33, 0x12, 0x01,
  0x0b, 0xe2, 0x3a, 0x4f, 0x26, 0x32, 0xf3, 0x09, 0x17, 0x26, 0xed, 0x0d,
  0xf1, 0x7f, 0x11, 0x28, 0xf8, 0xfb, 0xf8, 0x64, 0x12, 0x0f, 0x02, 0x12,
  0xf6, 0x43, 0xf5, 0xf6, 0xf5, 0xf8, 0x0f, 0x2a, 0xff, 0xea, 0xff, 0xf5,
  0x0f, 0xf0, 0xec, 0xf2, 0x15, 0x02, 0xfe, 0xe3, 0xed, 0xe2, 0x24, 0xfa,
  0xea, 0xbd, 0xa9, 0xcb, 0x18, 0x04, 0x0b, 0x7b, 0xb6, 0xcb, 0x1e, 0x03,
  0xe2, 0x60, 0xb6, 0xd9, 0x25, 0x21, 0x0e, 0x6f, 0xba, 0xf2, 0x01, 0x01,
  0x1c, 0x5e, 0xb8, 0xd3, 0xee, 0xff, 0x03, 0x73, 0xe0, 0xe7, 0xf8, 0xe6,
  0x2d, 0x6b, 0xd2, 0xe0, 0xfc, 0x04, 0x11, 0x7f, 0xff, 0x35, 0x06, 0xff,
  0x08, 0x08, 0x1c, 0x10, 0x12, 0xfe, 0x02, 0x11, 0x0e, 0x22, 0x06, 0xf5,
  0xf2, 0x1e, 0x2b, 0x1a, 0xf5, 0xff, 0xd4, 0x21, 0x1d, 0x20, 0xe6, 0x0b,
  0xde, 0x4e, 0xf1, 0x16, 0xf4, 0x20, 0x01, 0x67, 0xfc, 0x1f, 0x18, 0x5f,
  0x13, 0x7f, 0xf4, 0x9f, 0x7f, 0x58, 0x01, 0x0f, 0xf3, 0xbc, 0x64, 0x3f,
  0xeb, 0x0e, 0x10, 0xab, 0x42, 0x24, 0xfe, 0xf6, 0x1f, 0xd5, 0x02, 0x1b,
  0x10, 0xee, 0x11, 0xcb, 0xff, 0xff, 0x1f, 0x05, 0x28, 0xd0, 0xfb, 0x1a,
  0x57, 0x00, 0x07, 0x06, 0x17, 0x26, 0x75, 0x1c, 0xe0, 0x35, 0xf6, 0xf7,
  0x02, 0x81, 0x07, 0x10, 0xfe, 0x03, 0x02, 0x99, 0x04, 0x0d, 0xfb, 0x01,
  0x04, 0xa7, 0x19, 0x03, 0x02, 0xf4, 0xf0, 0xbb, 0x0a, 0xf2, 0xf9, 0xf0,
  0xe8, 0xdd, 0x09, 0xe9, 0x08, 0xfd, 0x09, 0xec, 0x1d, 0xc8, 0x09, 0x10,
  0xfd, 0xf9, 0x37, 0x3f, 0x0e, 0x7f, 0xa2, 0xf7, 0x1b, 0x09, 0xfe, 0x44,
  0xba, 0x0b, 0x07, 0x17, 0x15, 0x46, 0xc1, 0x07, 0xe7, 0x1d, 0x15, 0x19,
  0xd2, 0x33, 0xcc, 0xf9, 0xff, 0x13, 0xff, 0x13, 0xa1, 0xf0, 0xfe, 0xf7,
  0x08, 0x2c, 0xb4, 0xeb, 0x17, 0xfe, 0x1c, 0x38, 0xe1, 0xfd, 0x7f, 0xd1,
  0x21, 0xa8, 0xd8, 0x16, 0x2e, 0xec, 0x00, 0xa2, 0xde, 0x06, 0x17, 0xf7,
  0x10, 0xc2, 0x0e, 0x23, 0xfd, 0xe5, 0x1e, 0xb2, 0x14, 0x44, 0x03, 0xf9,
  0x0e, 0xf6, 0xf3, 0x37, 0xd4, 0x11, 0x3a, 0x0e, 0x01, 0x51, 0xc2, 0x08,
  0x5b, 0x32, 0xfc, 0x3c, 0xae, 0x18, 0x81, 0xd1, 0xf5, 0x33, 0xa7, 0x0c,
  0xba, 0xe3, 0x02, 0x24, 0xb5, 0x16, 0xe3, 0xe2, 0xfd, 0x1d, 0xe5, 0x01,
  0xf2, 0xea, 0xe8, 0xff, 0x08, 0xfa, 0x07, 0x14, 0x00, 0xfc, 0x2a, 0xd6,
  0x2e, 0x2e, 0x10, 0xca, 0x20, 0xe6, 0x55, 0x4d, 0xfa, 0xf7, 0xff, 0xff,
  0x04, 0x00, 0x00, 0x00, 0x40, 0x00, 0x00, 0x00, 0x85, 0xff, 0xff, 0xff,
  0xfc, 0xff, 0xff, 0xff, 0x3c, 0xfe, 0xff, 0xff, 0xa9, 0xfd, 0xff, 0xff,
  0x91, 0x00, 0x00, 0x00, 0x6e, 0x01, 0x00, 0x00, 0x5d, 0xfe, 0xff, 0xff,
  0x0b, 0x00, 0x00, 0x00, 0xae, 0xff, 0xff, 0xff, 0x1d, 0x01, 0x00, 0x00,
  0x81, 0x00, 0x00, 0x00, 0x52, 0xff, 0xff, 0xff, 0x49, 0xff, 0xff, 0xff,
  0x15, 0x00, 0x00, 0x00, 0xb5, 0xfe, 0xff, 0xff, 0x6c, 0xff, 0xff, 0xff,
  0x46, 0xf8, 0xff, 0xff, 0x04, 0x00, 0x00, 0x00, 0xc0, 0x03, 0x00, 0x00,
  0xe7, 0x14, 0x55, 0xae, 0x46, 0x26, 0x48, 0xff, 0x31, 0xed, 0xe0, 0xa0,
  0x22, 0x1d, 0x15, 0x1a, 0xf3, 0xd5, 0x21, 0xdd, 0x07, 0x00, 0x3d, 0x03,
  0x3c, 0x0a, 0xdc, 0xe1, 0x1b, 0xff, 0x03, 0x09, 0x03, 0xc9, 0x01, 0x07,
  0xef, 0x21, 0x02, 0x1b, 0x3b, 0xfa, 0xd4, 0xef, 0x3e, 0xf3, 0x2c, 0x04,
  0xdc, 0xb0, 0xc6, 0x23, 0xe8, 0x1f, 0xff, 0xf6, 0x09, 0xf6, 0xc8, 0x29,
  0xde, 0xdd, 0x06, 0xfc, 0xed, 0xd3, 0xc2, 0x22, 0x81, 0xe9, 0xc2, 0xee,
  0xcf, 0xf3, 0xad, 0x40, 0xad, 0xec, 0x10, 0x41, 0xe0, 0x05, 0x06, 0x22,
  0x31, 0x0b, 0x49, 0x33, 0x7e, 0x1c, 0xeb, 0xd5, 0x77, 0xd6, 0x5d, 0xc2,
  0xf2, 0xf9, 0xfe, 0xf8, 0x18, 0x05, 0x01, 0x01, 0x5c, 0x0c, 0x01, 0xbf,
  0x33, 0xe9, 0x19, 0xe8, 0x1c, 0x25, 0xf1, 0x00, 0x23, 0xf2, 0xe1, 0xeb,
  0x41, 0xe6, 0xf1, 0xf3, 0xfc, 0x03, 0x16, 0x0a, 0xf9, 0xe4, 0xbd, 0xfc,
  0xcd, 0xb6, 0xd7, 0xc7, 0xb9, 0xaa, 0x25, 0xec, 0xb8, 0x02, 0xea, 0x0a,
  0x3e, 0x38, 0xc5, 0x21, 0xd9, 0xd5, 0xca, 0x8b, 0xb8, 0x94, 0x39, 0x0f,
  0x81, 0x26, 0xdb, 0x15, 0x24, 0xcb, 0xef, 0x76, 0xbe, 0x35, 0xfe, 0x4c,
  0x25, 0x26, 0xed, 0x19, 0x8e, 0xdd, 0xcf, 0xd4, 0x1c, 0xcc, 0xe2, 0x1f,
  0xd7, 0x17, 0xef, 0x29, 0xf9, 0x38, 0xfa, 0xef, 0xa8, 0xec, 0xd9, 0xcf,
  0xf5, 0xbd, 0xba, 0xce, 0xec, 0xe1, 0xf8, 0x01, 0xea, 0x2c, 0xf2, 0xb7,
  0xee, 0xdf, 0x08, 0xd7, 0xfe, 0xdd, 0xec, 0x9a, 0x1f, 0xc8, 0x0f, 0x0e,
  0x04, 0x2b, 0xfb, 0xcb, 0xf9, 0xd1, 0x17, 0x05, 0xf1, 0x44, 0x29, 0x8d,
  0xf6, 0x81, 0x20, 0xfc, 0x08, 0x19, 0xf2, 0x98, 0x1c, 0xe9, 0x35, 0x2e,
  0x0d, 0x43, 0x14, 0xf8, 0x23, 0xe7, 0x95, 0xdc, 0x3f, 0x13, 0xdf, 0x32,
  0x99, 0x7f, 0xf8, 0x1b, 0xee, 0x1c, 0x07, 0xfc, 0x10, 0x20, 0xa6, 0x00,
  0x15, 0xf2, 0xe7, 0x29, 0xb1, 0x2b, 0x30, 0x01, 0xe1, 0xd8, 0xf9, 0xe8,
  0x08, 0x21, 0xd0, 0x02, 0x08, 0xe1, 0xcb, 0xfc, 0xaa, 0x06, 0x1f, 0x22,
  0xd2, 0xb3, 0xe7, 0xd3, 0x07, 0x00, 0xde, 0x13, 0xe2, 0xed, 0xb9, 0x05,
  0xad, 0xc2, 0x2a, 0xfb, 0xf6, 0x8c, 0xf1, 0xf0, 0x11, 0x31, 0xf6, 0x3c,
  0xcc, 0xc4, 0xdb, 0xf0, 0xce, 0xca, 0x1c, 0xed, 0x48, 0xe8, 0xac, 0x13,
  0x18, 0x90, 0xe2, 0x02, 0xff, 0xf3, 0x1d, 0xaf, 0x5a, 0xf4, 0x81, 0x00,
  0x26, 0x1e, 0xdb, 0x27, 0xfd, 0xad, 0xfb, 0x0e, 0x26, 0x01, 0xf8, 0xdd,
  0x4b, 0x30, 0xa9, 0xed, 0xea, 0x0b, 0xe9, 0x1d, 0x04, 0xd3, 0x1f, 0x16,
  0x0e, 0xf4, 0xe9, 0xfc, 0x19, 0x02, 0xc4, 0xaf, 0xed, 0x0b, 0x05, 0x16,
  0x17, 0x1a, 0x04, 0x0c, 0x33, 0x11, 0xe5, 0x24, 0xdf, 0x02, 0xd0, 0xce,
  0xb6, 0xdf, 0x24, 0x01, 0xff, 0x16, 0x35, 0xd2, 0x34, 0x3a, 0xc1, 0x51,
  0xd9, 0xb7, 0xa4, 0xcb, 0xe8, 0xb4, 0x41, 0x0b, 0xf6, 0xea, 0xef, 0x1a,
  0x1c, 0x0c, 0x52, 0x09, 0x46, 0x15, 0x0d, 0x63, 0xf7, 0xe7, 0x1f, 0x0d,
  0x14, 0xea, 0xfe, 0x00, 0x3e, 0x3d, 0x38, 0x22, 0x05, 0x09, 0x0c, 0x43,
  0xff, 0x07, 0xfb, 0x17, 0x0a, 0xe3, 0x0c, 0x07, 0x40, 0x3e, 0xee, 0xf8,
  0xd4, 0x11, 0x23, 0xf6, 0x2b, 0x1f, 0xd4, 0x1b, 0x13, 0xe3, 0x30, 0x06,
  0x34, 0x0f, 0xd4, 0x31, 0xb2, 0xf9, 0x20, 0xc7, 0xea, 0x34, 0x8d, 0x36,
  0x07, 0xcd, 0x34, 0xfb, 0x0f, 0xec, 0x81, 0x11, 0x8c, 0xf2, 0xf6, 0x98,
  0xe5, 0x04, 0xda, 0xdd, 0xf1, 0xf8, 0x2f, 0xf6, 0xa3, 0x81, 0xb2, 0xe8,
  0xc9, 0x04, 0x08, 0xe5, 0x13, 0x06, 0x02, 0xf4, 0x1a, 0x14, 0xef, 0xe9,
  0xba, 0xaa, 0xe1, 0xe1, 0xdd, 0xe8, 0xe8, 0x09, 0xfe, 0xfe, 0x16, 0x07,
  0x28, 0x0c, 0xcb, 0xf4, 0xf6, 0xb2, 0x15, 0xdb, 0x05, 0xab, 0xf2, 0x13,
  0xf4, 0xf9, 0x19, 0x0b, 0x21, 0x2b, 0xd8, 0xee, 0xf8, 0xcf, 0x14, 0xcd,
  0x02, 0xb8, 0xf5, 0x17, 0xf3, 0xfb, 0x15, 0xfe, 0x50, 0x41, 0xfe, 0x15,
  0x14, 0xd4, 0x26, 0xe1, 0x14, 0xb9, 0x18, 0x14, 0xec, 0xd2, 0x07, 0xd3,
  0xe6, 0x1e, 0xfd, 0x14, 0x81, 0xfe, 0xf5, 0xdd, 0xd0, 0x0b, 0x00, 0x23,
  0xe2, 0xed, 0x19, 0xdd, 0x0b, 0x3b, 0x00, 0x07, 0xbc, 0x10, 0xee, 0xfc,
  0xee, 0xd9, 0xf5, 0x1d, 0xf1, 0xfb, 0x16, 0x12, 0x0c, 0x53, 0x0c, 0x00,
  0xfb, 0x2a, 0x0d, 0xdb, 0x01, 0xdf, 0xd0, 0x0e, 0xf0, 0xea, 0x0c, 0x0f,
  0xfe, 0x5d, 0x31, 0xf0, 0x1a, 0x13, 0xf5, 0x10, 0x0a, 0xc8, 0xbc, 0xfb,
  0xf0, 0xdc, 0xe3, 0x3a, 0x1e, 0x58, 0x43, 0xf4, 0x2c, 0x13, 0x05, 0x0a,
  0x15, 0xf5, 0xac, 0x04, 0x9c, 0x1d, 0x00, 0xf1, 0x0e, 0x2c, 0xe5, 0x8a,
  0x5d, 0x17, 0xb0, 0x66, 0xdf, 0xac, 0xef, 0xb7, 0xe8, 0x02, 0x0d, 0xeb,
  0x16, 0x1e, 0xf6, 0xb7, 0x2a, 0x0f, 0xc6, 0x27, 0x05, 0xbd, 0x07, 0xc6,
  0x0d, 0x11, 0x0a, 0xfa, 0x0a, 0x01, 0xfa, 0xbb, 0x15, 0xe2, 0x09, 0x14,
  0x0f, 0xda, 0x12, 0xf2, 0x46, 0xfe, 0x1b, 0x0c, 0x23, 0x0c, 0x18, 0xd3,
  0x21, 0x0b, 0x32, 0xfb, 0x0f, 0xde, 0x1f, 0x05, 0x5f, 0xec, 0x3e, 0x12,
  0x28, 0x3e, 0x32, 0xf5, 0x0b, 0xf9, 0x7f, 0x11, 0xe2, 0xe9, 0x12, 0x30,
  0xf4, 0x65, 0xa4, 0x11, 0xf1, 0x06, 0x52, 0xa8, 0x9d, 0x02, 0xe1, 0x18,
  0xac, 0x40, 0xdb, 0xe8, 0xd8, 0x18, 0xb5, 0xf9, 0x12, 0x0f, 0x31, 0xf4,
  0xd2, 0x14, 0x04, 0xf7, 0xd4, 0x33, 0x0d, 0xde, 0xd3, 0xed, 0xce, 0xf5,
  0x06, 0x0e, 0x29, 0x01, 0xd5, 0x21, 0x15, 0x11, 0x28, 0xfc, 0x0c, 0xfb,
  0xfb, 0xbf, 0xc7, 0xf6, 0xe3, 0x04, 0xff, 0x16, 0x0e, 0x23, 0xe2, 0xef,
  0x0d, 0xf4, 0x18, 0x08, 0xc2, 0x81, 0xa8, 0xfa, 0xc9, 0x1f, 0x8b, 0xfd,
  0x04, 0x1a, 0xed, 0xed, 0x48, 0xf4, 0x48, 0x42, 0xc2, 0x24, 0xeb, 0x03,
  0xeb, 0xed, 0x28, 0xf0, 0x05, 0xff, 0xe1, 0x24, 0x02, 0x54, 0xba, 0x0f,
  0xd4, 0xf5, 0xe2, 0xf1, 0xe1, 0xf9, 0x1e, 0x00, 0x02, 0x05, 0xd3, 0xfd,
  0x1e, 0x13, 0xe2, 0x25, 0xee, 0xf5, 0x04, 0xd4, 0xb1, 0x0c, 0x23, 0xfe,
  0xe6, 0x19, 0xef, 0xd1, 0x0a, 0xf6, 0x0a, 0x29, 0xfc, 0xd6, 0x1e, 0xc6,
  0xba, 0x12, 0x21, 0x15, 0x01, 0x28, 0xf5, 0xe0, 0xd9, 0xe4, 0xf8, 0xf2,
  0x13, 0xb4, 0x3e, 0xcc, 0x81, 0x09, 0x14, 0x2e, 0x0f, 0x21, 0x34, 0xd3,
  0xc9, 0xe8, 0xf9, 0xfd, 0x55, 0x48, 0x0e, 0x2c, 0xcb, 0x18, 0x2e, 0x3f,
  0xff, 0xcd, 0x3e, 0xcc, 0xe1, 0xfb, 0x06, 0x23, 0x2f, 0x2a, 0xf9, 0x04,
  0xe2, 0x11, 0xf6, 0xf9, 0x16, 0xca, 0x2d, 0xfa, 0x0a, 0xfa, 0xfd, 0xfe,
  0xee, 0x22, 0x13, 0x03, 0x10, 0x19, 0xd0, 0xc5, 0x2a, 0x00, 0x16, 0xfe,
  0x20, 0xf5, 0xec, 0x02, 0xdc, 0xce, 0xfc, 0xd5, 0x33, 0xf0, 0xc0, 0x9a,
  0x19, 0x08, 0xf8, 0xf9, 0x1d, 0xcf, 0xec, 0xf4, 0xa5, 0xbb, 0xfe, 0xa4,
  0x1b, 0x02, 0xcc, 0x81, 0x1a, 0x15, 0xe0, 0x12, 0x06, 0xe0, 0x13, 0xe9,
  0x12, 0xfc, 0xff, 0xff, 0x04, 0x00, 0x00, 0x00, 0x30, 0x00, 0x00, 0x00,
  0x51, 0x02, 0x00, 0x00, 0x7f, 0x01, 0x00, 0x00, 0xc8, 0x03, 0x00, 0x00,
  0x22, 0x04, 0x00, 0x00, 0xc0, 0xff, 0xff, 0xff, 0xc6, 0xfe, 0xff, 0xff,
  0xbb, 0x03, 0x00, 0x00, 0x70, 0xff, 0xff, 0xff, 0x61, 0xfc, 0xff, 0xff,
  0xbc, 0x01, 0x00, 0x00, 0x2d, 0x03, 0x00, 0x00, 0x69, 0x00, 0x00, 0x00,
  0x4e, 0xfc, 0xff, 0xff, 0x04, 0x00, 0x00, 0x00, 0x20, 0x01, 0x00, 0x00,
  0x49, 0xea, 0xce, 0x43, 0x5d, 0xb1, 0x81, 0x55, 0xf2, 0x25, 0x5d, 0x38,
  0x3e, 0x7e, 0x96, 0xd6, 0x29, 0xc1, 0x10, 0x2a, 0x18, 0x11, 0xfd, 0xdc,
  0xe1, 0x73, 0xbd, 0xef, 0x1b, 0xcd, 0xf2, 0xef, 0xc1, 0x1e, 0xcc, 0x02,
  0x3a, 0x1c, 0x0c, 0x3a, 0x26, 0x18, 0x97, 0xd2, 0x04, 0x81, 0x2b, 0xbd,
  0xee, 0xef, 0x1e, 0x46, 0x30, 0xcb, 0xa5, 0xfe, 0xee, 0xa7, 0x1b, 0xf8,
  0xd7, 0x42, 0x14, 0x1d, 0x23, 0x1d, 0xde, 0x57, 0x47, 0x20, 0x42, 0x34,
  0xf7, 0xaf, 0xcf, 0xeb, 0x48, 0xb7, 0xdb, 0xd7, 0xa6, 0xfb, 0xd7, 0x12,
  0x4d, 0xfb, 0xce, 0xfb, 0xf2, 0x11, 0xc3, 0x02, 0x01, 0xe6, 0x2c, 0x19,
  0x7f, 0x44, 0x2f, 0xbd, 0xa0, 0x21, 0xf2, 0x24, 0xf8, 0xfb, 0xda, 0x0c,
  0x14, 0x1f, 0xf4, 0xa6, 0x55, 0x22, 0x17, 0x24, 0xde, 0xf1, 0x2b, 0x4d,
  0x05, 0x04, 0x2b, 0x01, 0x0f, 0x21, 0xe9, 0x3e, 0xd9, 0xe5, 0xc3, 0x2e,
  0x19, 0x04, 0xee, 0x1e, 0xfd, 0xff, 0xe5, 0xfb, 0xf4, 0xd2, 0x81, 0xdc,
  0x69, 0xfc, 0xaa, 0x06, 0x1a, 0x6d, 0x60, 0xfe, 0xc9, 0x1f, 0x01, 0xc5,
  0x28, 0x7f, 0xce, 0x29, 0x82, 0x3c, 0x1a, 0x69, 0xd6, 0xe1, 0xf4, 0xe3,
  0xe6, 0x6f, 0xfa, 0x22, 0xb3, 0x0a, 0xf1, 0x53, 0xb9, 0x0d, 0xcd, 0x1d,
  0xe8, 0xd0, 0xa2, 0xbc, 0x00, 0xe9, 0xfe, 0x29, 0x0d, 0x30, 0xe9, 0x2f,
  0x7f, 0x55, 0x99, 0xba, 0xf8, 0xf6, 0xd1, 0x03, 0xf3, 0x62, 0x06, 0xfd,
  0x4f, 0x4c, 0xa2, 0xd9, 0xd5, 0xfa, 0xd0, 0xd6, 0xfa, 0x41, 0x2a, 0xac,
  0x19, 0xf1, 0x45, 0xeb, 0x33, 0x43, 0x1c, 0xef, 0xef, 0xb8, 0x06, 0xf8,
  0x0f, 0x00, 0x17, 0xe5, 0xfb, 0x0b, 0x00, 0x2f, 0xa7, 0xe1, 0xeb, 0x17,
  0x02, 0x06, 0x09, 0xfc, 0xe9, 0xe9, 0x81, 0x21, 0xa8, 0xf2, 0xe4, 0x46,
  0x71, 0x0b, 0x03, 0xac, 0xfe, 0x1a, 0x08, 0xde, 0x31, 0x4b, 0x94, 0x4d,
  0x27, 0xf8, 0xef, 0xac, 0x0f, 0xb1, 0x04, 0xe7, 0x2c, 0x23, 0xd0, 0xff,
  0xcf, 0xe9, 0x32, 0x81, 0x14, 0x9b, 0x43, 0xbc, 0x22, 0x2b, 0x1c, 0x23,
  0x7a, 0xfd, 0xff, 0xff, 0x04, 0x00, 0x00, 0x00, 0x20, 0x00, 0x00, 0x00,
  0xb8, 0xff, 0xff, 0xff, 0x21, 0xfd, 0xff, 0xff, 0x51, 0x02, 0x00, 0x00,
  0x00, 0x00, 0x00, 0x00, 0xe5, 0xf9, 0xff, 0xff, 0x6d, 0x02, 0x00, 0x00,
  0xab, 0x00, 0x00, 0x00, 0x7f, 0x00, 0x00, 0x00, 0xa6, 0xfd, 0xff, 0xff,
  0x04, 0x00, 0x00, 0x00, 0x80, 0x00, 0x00, 0x00, 0x4e, 0x6a, 0xce, 0x8d,
  0x28, 0x2f, 0xe6, 0x81, 0x36, 0x3c, 0x09, 0x34, 0x81, 0x85, 0x5f, 0x1b,
  0xe2, 0x87, 0xef, 0x71, 0x01, 0xba, 0x7f, 0xfb, 0xe6, 0x06, 0x06, 0x3a,
  0xb8, 0xda, 0x20, 0x7f, 0xa8, 0x81, 0x27, 0x17, 0xeb, 0x1a, 0x30, 0x56,
  0x72, 0x2d, 0x81, 0xf8, 0x00, 0xc0, 0xef, 0xf9, 0x1d, 0x2a, 0x2e, 0xf7,
  0x81, 0xc7, 0x25, 0x4c, 0x81, 0xd6, 0x4e, 0x4a, 0x2c, 0x05, 0x71, 0xac,
  0x15, 0xb0, 0x81, 0x2a, 0x38, 0x23, 0x05, 0x01, 0xf5, 0x5b, 0x61, 0xfc,
  0xc7, 0xdb, 0x4d, 0x81, 0xef, 0x57, 0x75, 0x81, 0xe4, 0x3b, 0xf4, 0xbf,
  0x81, 0xd4, 0x7b, 0x0b, 0xff, 0x40, 0x25, 0x06, 0x25, 0x54, 0x1d, 0x50,
  0xc3, 0x81, 0x40, 0xb9, 0x0b, 0xd4, 0x11, 0x81, 0x12, 0x49, 0x9c, 0x34,
  0x20, 0x9f, 0x81, 0x2e, 0x44, 0x15, 0x04, 0xf8, 0xb1, 0xb4, 0x1a, 0x15,
  0x59, 0x27, 0x53, 0x81, 0x32, 0xfe, 0xff, 0xff, 0x04, 0x00, 0x00, 0x00,
  0x40, 0x00, 0x00, 0x00, 0x9c, 0x0c, 0x00, 0x00, 0xd3, 0x03, 0x00, 0x00,
  0x0f, 0x01, 0x00, 0x00, 0x80, 0x00, 0x00, 0x00, 0xac, 0x03, 0x00, 0x00,
  0x2a, 0x0d, 0x00, 0x00, 0x44, 0x01, 0x00, 0x00, 0x52, 0xfd, 0xff, 0xff,
  0x52, 0x07, 0x00, 0x00, 0x80, 0x03, 0x00, 0x00, 0x05, 0x0e, 0x00, 0x00,
  0x45, 0xfb, 0xff, 0xff, 0x5d, 0x05, 0x00, 0x00, 0xe2, 0x07, 0x00, 0x00,
  0x51, 0x09, 0x00, 0x00, 0xdb, 0x08, 0x00, 0x00, 0x7e, 0xfe, 0xff, 0xff,
  0x04, 0x00, 0x00, 0x00, 0x70, 0x00, 0x00, 0x00, 0xa9, 0x14, 0x17, 0x0c,
  0x01, 0x18, 0x08, 0xcb, 0x13, 0x9c, 0x81, 0xab, 0x0e, 0xbf, 0x14, 0xbd,
  0x15, 0x17, 0xbb, 0xfa, 0x81, 0x1b, 0x11, 0xa0, 0xca, 0x15, 0x09, 0x9d,
  0x19, 0xeb, 0xd0, 0x9c, 0xa8, 0xba, 0x1a, 0x0d, 0x13, 0xb8, 0xb5, 0x17,
  0x17, 0x81, 0x95, 0x0f, 0xb1, 0xea, 0x16, 0x12, 0x13, 0xb6, 0xbc, 0x81,
  0xa0, 0xc7, 0xa4, 0x19, 0xb6, 0x18, 0x0f, 0x0f, 0x0c, 0xc4, 0xbc, 0x18,
  0x81, 0x1d, 0x1f, 0x05, 0x11, 0xa7, 0x14, 0x27, 0x86, 0x19, 0x02, 0x15,
  0x15, 0xd0, 0x97, 0x1a, 0xa3, 0xf1, 0x9a, 0x11, 0x1a, 0xb4, 0x1a, 0xbb,
  0x89, 0xab, 0x0c, 0x17, 0x97, 0x34, 0x81, 0x88, 0x43, 0x88, 0x92, 0x81,
  0xbe, 0x3b, 0x81, 0xa8, 0x3c, 0xca, 0x0c, 0x9a, 0xba, 0x52, 0x3d, 0x26,
  0xfa, 0xfe, 0xff, 0xff, 0x04, 0x00, 0x00, 0x00, 0x1c, 0x00, 0x00, 0x00,
  0x8a, 0x01, 0x00, 0x00, 0xc4, 0x02, 0x00, 0x00, 0x5b, 0xfa, 0xff, 0xff,
  0xed, 0xfd, 0xff, 0xff, 0x8e, 0xf4, 0xff, 0xff, 0x4c, 0x0a, 0x00, 0x00,
  0xce, 0x0a, 0x00, 0x00, 0x22, 0xff, 0xff, 0xff, 0x04, 0x00, 0x00, 0x00,
  0x04, 0x00, 0x00, 0x00, 0x01, 0x00, 0x00, 0x00, 0x32, 0xff, 0xff, 0xff,
  0x04, 0x00, 0x00, 0x00, 0x0c, 0x00, 0x00, 0x00, 0x01, 0x00, 0x00, 0x00,
  0x7d, 0x00, 0x00, 0x00, 0x08, 0x00, 0x00, 0x00, 0x4a, 0xff, 0xff, 0xff,
  0x04, 0x00, 0x00, 0x00, 0x10, 0x00, 0x00, 0x00, 0x01, 0x00, 0x00, 0x00,
  0x01, 0x00, 0x00, 0x00, 0xf4, 0x01, 0x00, 0x00, 0x06, 0x00, 0x00, 0x00,
  0x8c, 0xeb, 0xff, 0xff, 0x90, 0xeb, 0xff, 0xff, 0x0f, 0x00, 0x00, 0x00,
  0x4d, 0x4c, 0x49, 0x52, 0x20, 0x43, 0x6f, 0x6e, 0x76, 0x65, 0x72, 0x74,
  0x65, 0x64, 0x2e, 0x00, 0x01, 0x00, 0x00, 0x00, 0x14, 0x00, 0x00, 0x00,
  0x00, 0x00, 0x0e, 0x00, 0x18, 0x00, 0x14, 0x00, 0x10, 0x00, 0x0c, 0x00,
  0x08, 0x00, 0x04, 0x00, 0x0e, 0x00, 0x00, 0x00, 0x14, 0x00, 0x00, 0x00,
  0x1c, 0x00, 0x00, 0x00, 0x44, 0x02, 0x00, 0x00, 0x48, 0x02, 0x00, 0x00,
  0x4c, 0x02, 0x00, 0x00, 0x04, 0x00, 0x00, 0x00, 0x6d, 0x61, 0x69, 0x6e,
  0x00, 0x00, 0x00, 0x00, 0x09, 0x00, 0x00, 0x00, 0x08, 0x02, 0x00, 0x00,
  0xac, 0x01, 0x00, 0x00, 0x58, 0x01, 0x00, 0x00, 0x14, 0x01, 0x00, 0x00,
  0xf0, 0x00, 0x00, 0x00, 0xbc, 0x00, 0x00, 0x00, 0x78, 0x00, 0x00, 0x00,
  0x40, 0x00, 0x00, 0x00, 0x04, 0x00, 0x00, 0x00, 0x82, 0xfe, 0xff, 0xff,
  0x1c, 0x00, 0x00, 0x00, 0x00, 0x00, 0x00, 0x09, 0x1c, 0x00, 0x00, 0x00,
  0x20, 0x00, 0x00, 0x00, 0x04, 0x00, 0x00, 0x00, 0x00, 0x00, 0x06, 0x00,
  0x08, 0x00, 0x04, 0x00, 0x06, 0x00, 0x00, 0x00, 0x00, 0x00, 0x80, 0x3f,
  0x01, 0x00, 0x00, 0x00, 0x16, 0x00, 0x00, 0x00, 0x01, 0x00, 0x00, 0x00,
  0x15, 0x00, 0x00, 0x00, 0xba, 0xfe, 0xff, 0xff, 0x14, 0x00, 0x00, 0x00,
  0x00, 0x00, 0x00, 0x08, 0x10, 0x00, 0x00, 0x00, 0x14, 0x00, 0x00, 0x00,
  0x03, 0x00, 0x00, 0x00, 0x5c, 0xec, 0xff, 0xff, 0x01, 0x00, 0x00, 0x00,
  0x15, 0x00, 0x00, 0x00, 0x03, 0x00, 0x00, 0x00, 0x14, 0x00, 0x00, 0x00,
  0x05, 0x00, 0x00, 0x00, 0x04, 0x00, 0x00, 0x00, 0xee, 0xfe, 0xff, 0xff,
  0x1c, 0x00, 0x00, 0x00, 0x00, 0x00, 0x00, 0x08, 0x1c, 0x00, 0x00, 0x00,
  0x20, 0x00, 0x00, 0x00, 0x03, 0x00, 0x00, 0x00, 0x00, 0x00, 0x06, 0x00,
  0x08, 0x00, 0x07, 0x00, 0x06, 0x00, 0x00, 0x00, 0x00, 0x00, 0x00, 0x01,
  0x01, 0x00, 0x00, 0x00, 0x14, 0x00, 0x00, 0x00, 0x03, 0x00, 0x00, 0x00,
  0x13, 0x00, 0x00, 0x00, 0x07, 0x00, 0x00, 0x00, 0x06, 0x00, 0x00, 0x00,
  0x2e, 0xff, 0xff, 0xff, 0x14, 0x00, 0x00, 0x00, 0x00, 0x00, 0x00, 0x1b,
  0x10, 0x00, 0x00, 0x00, 0x14, 0x00, 0x00, 0x00, 0x02, 0x00, 0x00, 0x00,
  0xd0, 0xec, 0xff, 0xff, 0x01, 0x00, 0x00, 0x00, 0x13, 0x00, 0x00, 0x00,
  0x02, 0x00, 0x00, 0x00, 0x12, 0x00, 0x00, 0x00, 0x03, 0x00, 0x00, 0x00,
  0x02, 0xff, 0xff, 0xff, 0x08, 0x00, 0x00, 0x00, 0x0c, 0x00, 0x00, 0x00,
  0x01, 0x00, 0x00, 0x00, 0x12, 0x00, 0x00, 0x00, 0x02, 0x00, 0x00, 0x00,
  0x11, 0x00, 0x00, 0x00, 0x02, 0x00, 0x00, 0x00, 0x7e, 0xff, 0xff, 0xff,
  0x14, 0x00, 0x00, 0x00, 0x00, 0x00, 0x00, 0x01, 0x1c, 0x00, 0x00, 0x00,
  0x20, 0x00, 0x00, 0x00, 0x01, 0x00, 0x00, 0x00, 0x70, 0xff, 0xff, 0xff,
  0x00, 0x00, 0x00, 0x01, 0x01, 0x00, 0x00, 0x00, 0x01, 0x00, 0x00, 0x00,
  0x01, 0x00, 0x00, 0x00, 0x11, 0x00, 0x00, 0x00, 0x03, 0x00, 0x00, 0x00,
  0x10, 0x00, 0x00, 0x00, 0x09, 0x00, 0x00, 0x00, 0x08, 0x00, 0x00, 0x00,
  0xbe, 0xff, 0xff, 0xff, 0x14, 0x00, 0x00, 0x00, 0x00, 0x00, 0x00, 0x01,
  0x1c, 0x00, 0x00, 0x00, 0x20, 0x00, 0x00, 0x00, 0x01, 0x00, 0x00, 0x00,
  0xb0, 0xff, 0xff, 0xff, 0x00, 0x00, 0x00, 0x01, 0x01, 0x00, 0x00, 0x00,
  0x02, 0x00, 0x00, 0x00, 0x01, 0x00, 0x00, 0x00, 0x10, 0x00, 0x00, 0x00,
  0x03, 0x00, 0x00, 0x00, 0x0f, 0x00, 0x00, 0x00, 0x0b, 0x00, 0x00, 0x00,
  0x0a, 0x00, 0x00, 0x00, 0x00, 0x00, 0x0e, 0x00, 0x18, 0x00, 0x14, 0x00,
  0x10, 0x00, 0x0c, 0x00, 0x0b, 0x00, 0x04, 0x00, 0x0e, 0x00, 0x00, 0x00,
  0x20, 0x00, 0x00, 0x00, 0x00, 0x00, 0x00, 0x01, 0x28, 0x00, 0x00, 0x00,
  0x2c, 0x00, 0x00, 0x00, 0x01, 0x00, 0x00, 0x00, 0x0c, 0x00, 0x10, 0x00,
  0x00, 0x00, 0x0c, 0x00, 0x08, 0x00, 0x07, 0x00, 0x0c, 0x00, 0x00, 0x00,
  0x00, 0x00, 0x00, 0x01, 0x01, 0x00, 0x00, 0x00, 0x02, 0x00, 0x00, 0x00,
  0x01, 0x00, 0x00, 0x00, 0x0f, 0x00, 0x00, 0x00, 0x03, 0x00, 0x00, 0x00,
  0x0e, 0x00, 0x00, 0x00, 0x0d, 0x00, 0x00, 0x00, 0x0c, 0x00, 0x00, 0x00,
  0x00, 0x00, 0x0a, 0x00, 0x0c, 0x00, 0x00, 0x00, 0x08, 0x00, 0x04, 0x00,
  0x0a, 0x00, 0x00, 0x00, 0x08, 0x00, 0x00, 0x00, 0x0c, 0x00, 0x00, 0x00,
  0x01, 0x00, 0x00, 0x00, 0x0e, 0x00, 0x00, 0x00, 0x02, 0x00, 0x00, 0x00,
  0x00, 0x00, 0x00, 0x00, 0x01, 0x00, 0x00, 0x00, 0x01, 0x00, 0x00, 0x00,
  0x16, 0x00, 0x00, 0x00, 0x01, 0x00, 0x00, 0x00, 0x00, 0x00, 0x00, 0x00,
  0x17, 0x00, 0x00, 0x00, 0x18, 0x12, 0x00, 0x00, 0xbc, 0x11, 0x00, 0x00,
  0x7c, 0x11, 0x00, 0x00, 0x40, 0x11, 0x00, 0x00, 0x94, 0x10, 0x00, 0x00,
  0xe8, 0x0f, 0x00, 0x00, 0xd4, 0x0e, 0x00, 0x00, 0xb8, 0x0d, 0x00, 0x00,
  0x04, 0x0d, 0x00, 0x00, 0x40, 0x0c, 0x00, 0x00, 0x5c, 0x0b, 0x00, 0x00,
  0x68, 0x0a, 0x00, 0x00, 0x54, 0x09, 0x00, 0x00, 0x30, 0x08, 0x00, 0x00,
  0xa4, 0x07, 0x00, 0x00, 0x40, 0x06, 0x00, 0x00, 0xdc, 0x04, 0x00, 0x00,
  0x78, 0x03, 0x00, 0x00, 0x3c, 0x02, 0x00, 0x00, 0xb8, 0x01, 0x00, 0x00,
  0x04, 0x01, 0x00, 0x00, 0x70, 0x00, 0x00, 0x00, 0x04, 0x00, 0x00, 0x00,
  0x5a, 0xee, 0xff, 0xff, 0x00, 0x00, 0x00, 0x01, 0x14, 0x00, 0x00, 0x00,
  0x30, 0x00, 0x00, 0x00, 0x17, 0x00, 0x00, 0x00, 0x00, 0x00, 0x00, 0x09,
  0x44, 0x00, 0x00, 0x00, 0x44, 0xee, 0xff, 0xff, 0x08, 0x00, 0x00, 0x00,
  0x10, 0x00, 0x00, 0x00, 0x01, 0x00, 0x00, 0x00, 0x80, 0xff, 0xff, 0xff,
  0xff, 0xff, 0xff, 0xff, 0x01, 0x00, 0x00, 0x00, 0x00, 0x00, 0x80, 0x3b,
  0x1b, 0x00, 0x00, 0x00, 0x53, 0x74, 0x61, 0x74, 0x65, 0x66, 0x75, 0x6c,
  0x50, 0x61, 0x72, 0x74, 0x69, 0x74, 0x69, 0x6f, 0x6e, 0x65, 0x64, 0x43,
  0x61, 0x6c, 0x6c, 0x5f, 0x31, 0x3a, 0x30, 0x00, 0x02, 0x00, 0x00, 0x00,
  0x01, 0x00, 0x00, 0x00, 0x07, 0x00, 0x00, 0x00, 0xc2, 0xee, 0xff, 0xff,
  0x00, 0x00, 0x00, 0x01, 0x14, 0x00, 0x00, 0x00, 0x30, 0x00, 0x00, 0x00,
  0x16, 0x00, 0x00, 0x00, 0x00, 0x00, 0x00, 0x09, 0x6c, 0x00, 0x00, 0x00,
  0xac, 0xee, 0xff, 0xff, 0x08, 0x00, 0x00, 0x00, 0x10, 0x00, 0x00, 0x00,
  0x01, 0x00, 0x00, 0x00, 0x43, 0x00, 0x00, 0x00, 0x00, 0x00, 0x00, 0x00,
  0x01, 0x00, 0x00, 0x00, 0xe6, 0xf2, 0x9a, 0x3e, 0x40, 0x00, 0x00, 0x00,
  0x73, 0x65, 0x71, 0x75, 0x65, 0x6e, 0x74, 0x69, 0x61, 0x6c, 0x5f, 0x32,
  0x5f, 0x31, 0x2f, 0x64, 0x65, 0x6e, 0x73, 0x65, 0x5f, 0x35, 0x5f, 0x31,
  0x2f, 0x4d, 0x61, 0x74, 0x4d, 0x75, 0x6c, 0x3b, 0x73, 0x65, 0x71, 0x75,
  0x65, 0x6e, 0x74, 0x69, 0x61, 0x6c, 0x5f, 0x32, 0x5f, 0x31, 0x2f, 0x64,
  0x65, 0x6e, 0x73, 0x65, 0x5f, 0x35, 0x5f, 0x31, 0x2f, 0x42, 0x69, 0x61,
  0x73, 0x41, 0x64, 0x64, 0x00, 0x00, 0x00, 0x00, 0x02, 0x00, 0x00, 0x00,
  0x01, 0x00, 0x00, 0x00, 0x07, 0x00, 0x00, 0x00, 0x52, 0xef, 0xff, 0xff,
  0x00, 0x00, 0x00, 0x01, 0x14, 0x00, 0x00, 0x00, 0x34, 0x00, 0x00, 0x00,
  0x15, 0x00, 0x00, 0x00, 0x00, 0x00, 0x00, 0x09, 0x8c, 0x00, 0x00, 0x00,
  0x3c, 0xef, 0xff, 0xff, 0x08, 0x00, 0x00, 0x00, 0x14, 0x00, 0x00, 0x00,
  0x01, 0x00, 0x00, 0x00, 0x80, 0xff, 0xff, 0xff, 0xff, 0xff, 0xff, 0xff,
  0x00, 0x00, 0x00, 0x00, 0x01, 0x00, 0x00, 0x00, 0xd6, 0x4b, 0x20, 0x3c,
  0x5e, 0x00, 0x00, 0x00, 0x73, 0x65, 0x71, 0x75, 0x65, 0x6e, 0x74, 0x69,
  0x61, 0x6c, 0x5f, 0x32, 0x5f, 0x31, 0x2f, 0x64, 0x65, 0x6e, 0x73, 0x65,
  0x5f, 0x34, 0x5f, 0x31, 0x2f, 0x4d, 0x61, 0x74, 0x4d, 0x75, 0x6c, 0x3b,
  0x73, 0x65, 0x71, 0x75, 0x65, 0x6e, 0x74, 0x69, 0x61, 0x6c, 0x5f, 0x32,
  0x5f, 0x31, 0x2f, 0x64, 0x65, 0x6e, 0x73, 0x65, 0x5f, 0x34, 0x5f, 0x31,
  0x2f, 0x52, 0x65, 0x6c, 0x75, 0x3b, 0x73, 0x65, 0x71, 0x75, 0x65, 0x6e,
  0x74, 0x69, 0x61, 0x6c, 0x5f, 0x32, 0x5f, 0x31, 0x2f, 0x64, 0x65, 0x6e,
  0x73, 0x65, 0x5f, 0x34, 0x5f, 0x31, 0x2f, 0x42, 0x69, 0x61, 0x73, 0x41,
  0x64, 0x64, 0x00, 0x00, 0x02, 0x00, 0x00, 0x00, 0x01, 0x00, 0x00, 0x00,
  0x10, 0x00, 0x00, 0x00, 0x02, 0xf0, 0xff, 0xff, 0x00, 0x00, 0x00, 0x01,
  0x14, 0x00, 0x00, 0x00, 0x30, 0x00, 0x00, 0x00, 0x14, 0x00, 0x00, 0x00,
  0x00, 0x00, 0x00, 0x09, 0x5c, 0x00, 0x00, 0x00, 0xec, 0xef, 0xff, 0xff,
  0x08, 0x00, 0x00, 0x00, 0x10, 0x00, 0x00, 0x00, 0x01, 0x00, 0x00, 0x00,
  0x80, 0xff, 0xff, 0xff, 0xff, 0xff, 0xff, 0xff, 0x01, 0x00, 0x00, 0x00,
  0x23, 0xc1, 0x52, 0x3c, 0x30, 0x00, 0x00, 0x00, 0x73, 0x65, 0x71, 0x75,
  0x65, 0x6e, 0x74, 0x69, 0x61, 0x6c, 0x5f, 0x32, 0x5f, 0x31, 0x2f, 0x67,
  0x6c, 0x6f, 0x62, 0x61, 0x6c, 0x5f, 0x61, 0x76, 0x65, 0x72, 0x61, 0x67,
  0x65, 0x5f, 0x70, 0x6f, 0x6f, 0x6c, 0x69, 0x6e, 0x67, 0x31, 0x64, 0x5f,
  0x32, 0x5f, 0x31, 0x2f, 0x4d, 0x65, 0x61, 0x6e, 0x00, 0x00, 0x00, 0x00,
  0x02, 0x00, 0x00, 0x00, 0x01, 0x00, 0x00, 0x00, 0x08, 0x00, 0x00, 0x00,
  0x82, 0xf0, 0xff, 0xff, 0x00, 0x00, 0x00, 0x01, 0x14, 0x00, 0x00, 0x00,
  0x34, 0x00, 0x00, 0x00, 0x13, 0x00, 0x00, 0x00, 0x00, 0x00, 0x00, 0x09,
  0x10, 0x01, 0x00, 0x00, 0x6c, 0xf0, 0xff, 0xff, 0x08, 0x00, 0x00, 0x00,
  0x14, 0x00, 0x00, 0x00, 0x01, 0x00, 0x00, 0x00, 0x80, 0xff, 0xff, 0xff,
  0xff, 0xff, 0xff, 0xff, 0x00, 0x00, 0x00, 0x00, 0x01, 0x00, 0x00, 0x00,
  0x91, 0x5a, 0x70, 0x3e, 0xe1, 0x00, 0x00, 0x00, 0x73, 0x65, 0x71, 0x75,
  0x65, 0x6e, 0x74, 0x69, 0x61, 0x6c, 0x5f, 0x32, 0x5f, 0x31, 0x2f, 0x61,
  0x63, 0x74, 0x69, 0x76, 0x61, 0x74, 0x69, 0x6f, 0x6e, 0x5f, 0x38, 0x5f,
  0x31, 0x2f, 0x52, 0x65, 0x6c, 0x75, 0x3b, 0x73, 0x65, 0x71, 0x75, 0x65,
  0x6e, 0x74, 0x69, 0x61, 0x6c, 0x5f, 0x32, 0x5f, 0x31, 0x2f, 0x62, 0x61,
  0x74, 0x63, 0x68, 0x5f, 0x6e, 0x6f, 0x72, 0x6d, 0x61, 0x6c, 0x69, 0x7a,
  0x61, 0x74, 0x69, 0x6f, 0x6e, 0x5f, 0x38, 0x5f, 0x31, 0x2f, 0x62, 0x61,
  0x74, 0x63, 0x68, 0x6e, 0x6f, 0x72, 0x6d, 0x2f, 0x61, 0x64, 0x64, 0x5f,
  0x31, 0x3b, 0x73, 0x65, 0x71, 0x75, 0x65, 0x6e, 0x74, 0x69, 0x61, 0x6c,
  0x5f, 0x32, 0x5f, 0x31, 0x2f, 0x63, 0x6f, 0x6e, 0x76, 0x31, 0x64, 0x5f,
  0x38, 0x5f, 0x31, 0x2f, 0x63, 0x6f, 0x6e, 0x76, 0x6f, 0x6c, 0x75, 0x74,
  0x69, 0x6f, 0x6e, 0x2f, 0x53, 0x71, 0x75, 0x65, 0x65, 0x7a, 0x65, 0x3b,
  0x73, 0x65, 0x71, 0x75, 0x65, 0x6e, 0x74, 0x69, 0x61, 0x6c, 0x5f, 0x32,
  0x5f, 0x31, 0x2f, 0x62, 0x61, 0x74, 0x63, 0x68, 0x5f, 0x6e, 0x6f, 0x72,
  0x6d, 0x61, 0x6c, 0x69, 0x7a, 0x61, 0x74, 0x69, 0x6f, 0x6e, 0x5f, 0x38,
  0x5f, 0x31, 0x2f, 0x62, 0x61, 0x74, 0x63, 0x68, 0x6e, 0x6f, 0x72, 0x6d,
  0x2f, 0x6d, 0x75, 0x6c, 0x5f, 0x31, 0x3b, 0x73, 0x65, 0x71, 0x75, 0x65,
  0x6e, 0x74, 0x69, 0x61, 0x6c, 0x5f, 0x32, 0x5f, 0x31, 0x2f, 0x63, 0x6f,
  0x6e, 0x76, 0x31, 0x64, 0x5f, 0x38, 0x5f, 0x31, 0x2f, 0x42, 0x69, 0x61,
  0x73, 0x41, 0x64, 0x64, 0x3b, 0x00, 0x00, 0x00, 0x03, 0x00, 0x00, 0x00,
  0x01, 0x00, 0x00, 0x00, 0x7d, 0x00, 0x00, 0x00, 0x08, 0x00, 0x00, 0x00,
  0xba, 0xf1, 0xff, 0xff, 0x00, 0x00, 0x00, 0x01, 0x14, 0x00, 0x00, 0x00,
  0x34, 0x00, 0x00, 0x00, 0x12, 0x00, 0x00, 0x00, 0x00, 0x00, 0x00, 0x09,
  0x34, 0x01, 0x00, 0x00, 0xa4, 0xf1, 0xff, 0xff, 0x08, 0x00, 0x00, 0x00,
  0x14, 0x00, 0x00, 0x00, 0x01, 0x00, 0x00, 0x00, 0x80, 0xff, 0xff, 0xff,
  0xff, 0xff, 0xff, 0xff, 0x00, 0x00, 0x00, 0x00, 0x01, 0x00, 0x00, 0x00,
  0x91, 0x5a, 0x70, 0x3e, 0x07, 0x01, 0x00, 0x00, 0x73, 0x65, 0x71, 0x75,
  0x65, 0x6e, 0x74, 0x69, 0x61, 0x6c, 0x5f, 0x32, 0x5f, 0x31, 0x2f, 0x61,
  0x63, 0x74, 0x69, 0x76, 0x61, 0x74, 0x69, 0x6f, 0x6e, 0x5f, 0x38, 0x5f,
  0x31, 0x2f, 0x52, 0x65, 0x6c, 0x75, 0x3b, 0x73, 0x65, 0x71, 0x75, 0x65,
  0x6e, 0x74, 0x69, 0x61, 0x6c, 0x5f, 0x32, 0x5f, 0x31, 0x2f, 0x62, 0x61,
  0x74, 0x63, 0x68, 0x5f, 0x6e, 0x6f, 0x72, 0x6d, 0x61, 0x6c, 0x69, 0x7a,
  0x61, 0x74, 0x69, 0x6f, 0x6e, 0x5f, 0x38, 0x5f, 0x31, 0x2f, 0x62, 0x61,
  0x74, 0x63, 0x68, 0x6e, 0x6f, 0x72, 0x6d, 0x2f, 0x61, 0x64, 0x64, 0x5f,
  0x31, 0x3b, 0x73, 0x65, 0x71, 0x75, 0x65, 0x6e, 0x74, 0x69, 0x61, 0x6c,
  0x5f, 0x32, 0x5f, 0x31, 0x2f, 0x63, 0x6f, 0x6e, 0x76, 0x31, 0x64, 0x5f,
  0x38, 0x5f, 0x31, 0x2f, 0x63, 0x6f, 0x6e, 0x76, 0x6f, 0x6c, 0x75, 0x74,
  0x69, 0x6f, 0x6e, 0x2f, 0x53, 0x71, 0x75, 0x65, 0x65, 0x7a, 0x65, 0x3b,
  0x73, 0x65, 0x71, 0x75, 0x65, 0x6e, 0x74, 0x69, 0x61, 0x6c, 0x5f, 0x32,
  0x5f, 0x31, 0x2f, 0x62, 0x61, 0x74, 0x63, 0x68, 0x5f, 0x6e, 0x6f, 0x72,
  0x6d, 0x61, 0x6c, 0x69, 0x7a, 0x61, 0x74, 0x69, 0x6f, 0x6e, 0x5f, 0x38,
  0x5f, 0x31, 0x2f, 0x62, 0x61, 0x74, 0x63, 0x68, 0x6e, 0x6f, 0x72, 0x6d,
  0x2f, 0x6d, 0x75, 0x6c, 0x5f, 0x31, 0x3b, 0x73, 0x65, 0x71, 0x75, 0x65,
  0x6e, 0x74, 0x69, 0x61, 0x6c, 0x5f, 0x32, 0x5f, 0x31, 0x2f, 0x63, 0x6f,
  0x6e, 0x76, 0x31, 0x64, 0x5f, 0x38, 0x5f, 0x31, 0x2f, 0x42, 0x69, 0x61,
  0x73, 0x41, 0x64, 0x64, 0x3b, 0x3b, 0x73, 0x65, 0x71, 0x75, 0x65, 0x6e,
  0x74, 0x69, 0x61, 0x6c, 0x5f, 0x32, 0x5f, 0x31, 0x2f, 0x63, 0x6f, 0x6e,
  0x76, 0x31, 0x64, 0x5f, 0x38, 0x5f, 0x31, 0x2f, 0x63, 0x6f, 0x6e, 0x76,
  0x6f, 0x6c, 0x75, 0x74, 0x69, 0x6f, 0x6e, 0x00, 0x04, 0x00, 0x00, 0x00,
  0x01, 0x00, 0x00, 0x00, 0x01, 0x00, 0x00, 0x00, 0x7d, 0x00, 0x00, 0x00,
  0x08, 0x00, 0x00, 0x00, 0x1a, 0xf3, 0xff, 0xff, 0x00, 0x00, 0x00, 0x01,
  0x14, 0x00, 0x00, 0x00, 0x34, 0x00, 0x00, 0x00, 0x11, 0x00, 0x00, 0x00,
  0x00, 0x00, 0x00, 0x09, 0x34, 0x01, 0x00, 0x00, 0x04, 0xf3, 0xff, 0xff,
  0x08, 0x00, 0x00, 0x00, 0x14, 0x00, 0x00, 0x00, 0x01, 0x00, 0x00, 0x00,
  0x80, 0xff, 0xff, 0xff, 0xff, 0xff, 0xff, 0xff, 0x00, 0x00, 0x00, 0x00,
  0x01, 0x00, 0x00, 0x00, 0xbf, 0x14, 0xbe, 0x3d, 0x07, 0x01, 0x00, 0x00,
  0x73, 0x65, 0x71, 0x75, 0x65, 0x6e, 0x74, 0x69, 0x61, 0x6c, 0x5f, 0x32,
  0x5f, 0x31, 0x2f, 0x61, 0x63, 0x74, 0x69, 0x76, 0x61, 0x74, 0x69, 0x6f,
  0x6e, 0x5f, 0x37, 0x5f, 0x31, 0x2f, 0x52, 0x65, 0x6c, 0x75, 0x3b, 0x73,
  0x65, 0x71, 0x75, 0x65, 0x6e, 0x74, 0x69, 0x61, 0x6c, 0x5f, 0x32, 0x5f,
  0x31, 0x2f, 0x62, 0x61, 0x74, 0x63, 0x68, 0x5f, 0x6e, 0x6f, 0x72, 0x6d,
  0x61, 0x6c, 0x69, 0x7a, 0x61, 0x74, 0x69, 0x6f, 0x6e, 0x5f, 0x37, 0x5f,
  0x31, 0x2f, 0x62, 0x61, 0x74, 0x63, 0x68, 0x6e, 0x6f, 0x72, 0x6d, 0x2f,
  0x61, 0x64, 0x64, 0x5f, 0x31, 0x3b, 0x73, 0x65, 0x71, 0x75, 0x65, 0x6e,
  0x74, 0x69, 0x61, 0x6c, 0x5f, 0x32, 0x5f, 0x31, 0x2f, 0x63, 0x6f, 0x6e,
  0x76, 0x31, 0x64, 0x5f, 0x37, 0x5f, 0x31, 0x2f, 0x63, 0x6f, 0x6e, 0x76,
  0x6f, 0x6c, 0x75, 0x74, 0x69, 0x6f, 0x6e, 0x2f, 0x53, 0x71, 0x75, 0x65,
  0x65, 0x7a, 0x65, 0x3b, 0x73, 0x65, 0x71, 0x75, 0x65, 0x6e, 0x74, 0x69,
  0x61, 0x6c, 0x5f, 0x32, 0x5f, 0x31, 0x2f, 0x62, 0x61, 0x74, 0x63, 0x68,
  0x5f, 0x6e, 0x6f, 0x72, 0x6d, 0x61, 0x6c, 0x69, 0x7a, 0x61, 0x74, 0x69,
  0x6f, 0x6e, 0x5f, 0x37, 0x5f, 0x31, 0x2f, 0x62, 0x61, 0x74, 0x63, 0x68,
  0x6e, 0x6f, 0x72, 0x6d, 0x2f, 0x6d, 0x75, 0x6c, 0x5f, 0x31, 0x3b, 0x73,
  0x65, 0x71, 0x75, 0x65, 0x6e, 0x74, 0x69, 0x61, 0x6c, 0x5f, 0x32, 0x5f,
  0x31, 0x2f, 0x63, 0x6f, 0x6e, 0x76, 0x31, 0x64, 0x5f, 0x37, 0x5f, 0x31,
  0x2f, 0x42, 0x69, 0x61, 0x73, 0x41, 0x64, 0x64, 0x3b, 0x3b, 0x73, 0x65,
  0x71, 0x75, 0x65, 0x6e, 0x74, 0x69, 0x61, 0x6c, 0x5f, 0x32, 0x5f, 0x31,
  0x2f, 0x63, 0x6f, 0x6e, 0x76, 0x31, 0x64, 0x5f, 0x37, 0x5f, 0x31, 0x2f,
  0x63, 0x6f, 0x6e, 0x76, 0x6f, 0x6c, 0x75, 0x74, 0x69, 0x6f, 0x6e, 0x00,
  0x04, 0x00, 0x00, 0x00, 0x01, 0x00, 0x00, 0x00, 0x01, 0x00, 0x00, 0x00,
  0x7d, 0x00, 0x00, 0x00, 0x0c, 0x00, 0x00, 0x00, 0x7a, 0xf4, 0xff, 0xff,
  0x00, 0x00, 0x00, 0x01, 0x14, 0x00, 0x00, 0x00, 0x34, 0x00, 0x00, 0x00,
  0x10, 0x00, 0x00, 0x00, 0x00, 0x00, 0x00, 0x09, 0x34, 0x01, 0x00, 0x00,
  0x64, 0xf4, 0xff, 0xff, 0x08, 0x00, 0x00, 0x00, 0x14, 0x00, 0x00, 0x00,
  0x01, 0x00, 0x00, 0x00, 0x80, 0xff, 0xff, 0xff, 0xff, 0xff, 0xff, 0xff,
  0x00, 0x00, 0x00, 0x00, 0x01, 0x00, 0x00, 0x00, 0x84, 0x47, 0x65, 0x3e,
  0x07, 0x01, 0x00, 0x00, 0x73, 0x65, 0x71, 0x75, 0x65, 0x6e, 0x74, 0x69,
  0x61, 0x6c, 0x5f, 0x32, 0x5f, 0x31, 0x2f, 0x61, 0x63, 0x74, 0x69, 0x76,
  0x61, 0x74, 0x69, 0x6f, 0x6e, 0x5f, 0x36, 0x5f, 0x31, 0x2f, 0x52, 0x65,
  0x6c, 0x75, 0x3b, 0x73, 0x65, 0x71, 0x75, 0x65, 0x6e, 0x74, 0x69, 0x61,
  0x6c, 0x5f, 0x32, 0x5f, 0x31, 0x2f, 0x62, 0x61, 0x74, 0x63, 0x68, 0x5f,
  0x6e, 0x6f, 0x72, 0x6d, 0x61, 0x6c, 0x69, 0x7a, 0x61, 0x74, 0x69, 0x6f,
  0x6e, 0x5f, 0x36, 0x5f, 0x31, 0x2f, 0x62, 0x61, 0x74, 0x63, 0x68, 0x6e,
  0x6f, 0x72, 0x6d, 0x2f, 0x61, 0x64, 0x64, 0x5f, 0x31, 0x3b, 0x73, 0x65,
  0x71, 0x75, 0x65, 0x6e, 0x74, 0x69, 0x61, 0x6c, 0x5f, 0x32, 0x5f, 0x31,
  0x2f, 0x63, 0x6f, 0x6e, 0x76, 0x31, 0x64, 0x5f, 0x36, 0x5f, 0x31, 0x2f,
  0x63, 0x6f, 0x6e, 0x76, 0x6f, 0x6c, 0x75, 0x74, 0x69, 0x6f, 0x6e, 0x2f,
  0x53, 0x71, 0x75, 0x65, 0x65, 0x7a, 0x65, 0x3b, 0x73, 0x65, 0x71, 0x75,
  0x65, 0x6e, 0x74, 0x69, 0x61, 0x6c, 0x5f, 0x32, 0x5f, 0x31, 0x2f, 0x62,
  0x61, 0x74, 0x63, 0x68, 0x5f, 0x6e, 0x6f, 0x72, 0x6d, 0x61, 0x6c, 0x69,
  0x7a, 0x61, 0x74, 0x69, 0x6f, 0x6e, 0x5f, 0x36, 0x5f, 0x31, 0x2f, 0x62,
  0x61, 0x74, 0x63, 0x68, 0x6e, 0x6f, 0x72, 0x6d, 0x2f, 0x6d, 0x75, 0x6c,
  0x5f, 0x31, 0x3b, 0x73, 0x65, 0x71, 0x75, 0x65, 0x6e, 0x74, 0x69, 0x61,
  0x6c, 0x5f, 0x32, 0x5f, 0x31, 0x2f, 0x63, 0x6f, 0x6e, 0x76, 0x31, 0x64,
  0x5f, 0x36, 0x5f, 0x31, 0x2f, 0x42, 0x69, 0x61, 0x73, 0x41, 0x64, 0x64,
  0x3b, 0x3b, 0x73, 0x65, 0x71, 0x75, 0x65, 0x6e, 0x74, 0x69, 0x61, 0x6c,
  0x5f, 0x32, 0x5f, 0x31, 0x2f, 0x63, 0x6f, 0x6e, 0x76, 0x31, 0x64, 0x5f,
  0x36, 0x5f, 0x31, 0x2f, 0x63, 0x6f, 0x6e, 0x76, 0x6f, 0x6c, 0x75, 0x74,
  0x69, 0x6f, 0x6e, 0x00, 0x04, 0x00, 0x00, 0x00, 0x01, 0x00, 0x00, 0x00,
  0x01, 0x00, 0x00, 0x00, 0xfa, 0x00, 0x00, 0x00, 0x10, 0x00, 0x00, 0x00,
  0xda, 0xf5, 0xff, 0xff, 0x00, 0x00, 0x00, 0x01, 0x14, 0x00, 0x00, 0x00,
  0x30, 0x00, 0x00, 0x00, 0x0f, 0x00, 0x00, 0x00, 0x00, 0x00, 0x00, 0x09,
  0x5c, 0x00, 0x00, 0x00, 0xc4, 0xf5, 0xff, 0xff, 0x08, 0x00, 0x00, 0x00,
  0x10, 0x00, 0x00, 0x00, 0x01, 0x00, 0x00, 0x00, 0x90, 0xff, 0xff, 0xff,
  0xff, 0xff, 0xff, 0xff, 0x01, 0x00, 0x00, 0x00, 0xc1, 0xb9, 0x1c, 0x3f,
  0x31, 0x00, 0x00, 0x00, 0x73, 0x65, 0x71, 0x75, 0x65, 0x6e, 0x74, 0x69,
  0x61, 0x6c, 0x5f, 0x32, 0x5f, 0x31, 0x2f, 0x63, 0x6f, 0x6e, 0x76, 0x31,
  0x64, 0x5f, 0x36, 0x5f, 0x31, 0x2f, 0x63, 0x6f, 0x6e, 0x76, 0x6f, 0x6c,
  0x75, 0x74, 0x69, 0x6f, 0x6e, 0x2f, 0x45, 0x78, 0x70, 0x61, 0x6e, 0x64,
  0x44, 0x69, 0x6d, 0x73, 0x31, 0x00, 0x00, 0x00, 0x04, 0x00, 0x00, 0x00,
  0x01, 0x00, 0x00, 0x00, 0x01, 0x00, 0x00, 0x00, 0xf4, 0x01, 0x00, 0x00,
  0x06, 0x00, 0x00, 0x00, 0x62, 0xf6, 0xff, 0xff, 0x00, 0x00, 0x00, 0x01,
  0x14, 0x00, 0x00, 0x00, 0xe8, 0x00, 0x00, 0x00, 0x0e, 0x00, 0x00, 0x00,
  0x00, 0x00, 0x00, 0x09, 0xf4, 0x00, 0x00, 0x00, 0x4c, 0xf6, 0xff, 0xff,
  0x08, 0x00, 0x00, 0x00, 0x8c, 0x00, 0x00, 0x00, 0x10, 0x00, 0x00, 0x00,
  0x00, 0x00, 0x00, 0x00, 0x00, 0x00, 0x00, 0x00, 0x00, 0x00, 0x00, 0x00,
  0x00, 0x00, 0x00, 0x00, 0x00, 0x00, 0x00, 0x00, 0x00, 0x00, 0x00, 0x00,
  0x00, 0x00, 0x00, 0x00, 0x00, 0x00, 0x00, 0x00, 0x00, 0x00, 0x00, 0x00,
  0x00, 0x00, 0x00, 0x00, 0x00, 0x00, 0x00, 0x00, 0x00, 0x00, 0x00, 0x00,
  0x00, 0x00, 0x00, 0x00, 0x00, 0x00, 0x00, 0x00, 0x00, 0x00, 0x00, 0x00,
  0x00, 0x00, 0x00, 0x00, 0x00, 0x00, 0x00, 0x00, 0x00, 0x00, 0x00, 0x00,
  0x00, 0x00, 0x00, 0x00, 0x00, 0x00, 0x00, 0x00, 0x00, 0x00, 0x00, 0x00,
  0x00, 0x00, 0x00, 0x00, 0x00, 0x00, 0x00, 0x00, 0x00, 0x00, 0x00, 0x00,
  0x00, 0x00, 0x00, 0x00, 0x00, 0x00, 0x00, 0x00, 0x00, 0x00, 0x00, 0x00,
  0x00, 0x00, 0x00, 0x00, 0x00, 0x00, 0x00, 0x00, 0x00, 0x00, 0x00, 0x00,
  0x00, 0x00, 0x00, 0x00, 0x00, 0x00, 0x00, 0x00, 0x00, 0x00, 0x00, 0x00,
  0x10, 0x00, 0x00, 0x00, 0xf6, 0xb3, 0xb5, 0x3a, 0x4c, 0xbe, 0x0e, 0x3b,
  0xba, 0x02, 0x0a, 0x3b, 0x9e, 0xfd, 0x99, 0x3a, 0xff, 0x49, 0x03, 0x3b,
  0xda, 0xcf, 0xb7, 0x3a, 0xce, 0x8f, 0xbd, 0x3a, 0x62, 0x74, 0x85, 0x3a,
  0x7c, 0x92, 0xb6, 0x3b, 0x9d, 0x32, 0x31, 0x3a, 0x1f, 0x25, 0x29, 0x3b,
  0x42, 0xb0, 0xee, 0x3a, 0xbd, 0xc7, 0x75, 0x3b, 0x9e, 0x23, 0x00, 0x3b,
  0x6c, 0x1f, 0x07, 0x3b, 0x2a, 0x98, 0x0a, 0x3b, 0x12, 0x00, 0x00, 0x00,
  0x74, 0x66, 0x6c, 0x2e, 0x70, 0x73, 0x65, 0x75, 0x64, 0x6f, 0x5f, 0x71,
  0x63, 0x6f, 0x6e, 0x73, 0x74, 0x39, 0x00, 0x00, 0x04, 0x00, 0x00, 0x00,
  0x10, 0x00, 0x00, 0x00, 0x01, 0x00, 0x00, 0x00, 0x07, 0x00, 0x00, 0x00,
  0x06, 0x00, 0x00, 0x00, 0x82, 0xf7, 0xff, 0xff, 0x00, 0x00, 0x00, 0x01,
  0x14, 0x00, 0x00, 0x00, 0xe4, 0x00, 0x00, 0x00, 0x0d, 0x00, 0x00, 0x00,
  0x00, 0x00, 0x00, 0x02, 0xf0, 0x00, 0x00, 0x00, 0x6c, 0xf7, 0xff, 0xff,
  0x08, 0x00, 0x00, 0x00, 0x88, 0x00, 0x00, 0x00, 0x10, 0x00, 0x00, 0x00,
  0x00, 0x00, 0x00, 0x00, 0x00, 0x00, 0x00, 0x00, 0x00, 0x00, 0x00, 0x00,
  0x00, 0x00, 0x00, 0x00, 0x00, 0x00, 0x00, 0x00, 0x00, 0x00, 0x00, 0x00,
  0x00, 0x00, 0x00, 0x00, 0x00, 0x00, 0x00, 0x00, 0x00, 0x00, 0x00, 0x00,
  0x00, 0x00, 0x00, 0x00, 0x00, 0x00, 0x00, 0x00, 0x00, 0x00, 0x00, 0x00,
  0x00, 0x00, 0x00, 0x00, 0x00, 0x00, 0x00, 0x00, 0x00, 0x00, 0x00, 0x00,
  0x00, 0x00, 0x00, 0x00, 0x00, 0x00, 0x00, 0x00, 0x00, 0x00, 0x00, 0x00,
  0x00, 0x00, 0x00, 0x00, 0x00, 0x00, 0x00, 0x00, 0x00, 0x00, 0x00, 0x00,
  0x00, 0x00, 0x00, 0x00, 0x00, 0x00, 0x00, 0x00, 0x00, 0x00, 0x00, 0x00,
  0x00, 0x00, 0x00, 0x00, 0x00, 0x00, 0x00, 0x00, 0x00, 0x00, 0x00, 0x00,
  0x00, 0x00, 0x00, 0x00, 0x00, 0x00, 0x00, 0x00, 0x00, 0x00, 0x00, 0x00,
  0x00, 0x00, 0x00, 0x00, 0x00, 0x00, 0x00, 0x00, 0x10, 0x00, 0x00, 0x00,
  0x04, 0x7b, 0x5e, 0x3a, 0x13, 0xc7, 0xae, 0x3a, 0x9b, 0xfb, 0xa8, 0x3a,
  0x91, 0x8c, 0x3c, 0x3a, 0xb6, 0xc0, 0xa0, 0x3a, 0x11, 0x10, 0x61, 0x3a,
  0x5b, 0x1a, 0x68, 0x3a, 0x83, 0x67, 0x23, 0x3a, 0x7a, 0x8b, 0x5f, 0x3b,
  0xd6, 0xf6, 0xd8, 0x39, 0xb4, 0x1a, 0xcf, 0x3a, 0x9a, 0x20, 0x92, 0x3a,
  0x0e, 0x78, 0x16, 0x3b, 0x5d, 0xe5, 0x9c, 0x3a, 0x63, 0x72, 0xa5, 0x3a,
  0x94, 0xb2, 0xa9, 0x3a, 0x12, 0x00, 0x00, 0x00, 0x74, 0x66, 0x6c, 0x2e,
  0x70, 0x73, 0x65, 0x75, 0x64, 0x6f, 0x5f, 0x71, 0x63, 0x6f, 0x6e, 0x73,
  0x74, 0x38, 0x00, 0x00, 0x01, 0x00, 0x00, 0x00, 0x10, 0x00, 0x00, 0x00,
  0x92, 0xf8, 0xff, 0xff, 0x00, 0x00, 0x00, 0x01, 0x14, 0x00, 0x00, 0x00,
  0xb8, 0x00, 0x00, 0x00, 0x0c, 0x00, 0x00, 0x00, 0x00, 0x00, 0x00, 0x09,
  0xc4, 0x00, 0x00, 0x00, 0x7c, 0xf8, 0xff, 0xff, 0x08, 0x00, 0x00, 0x00,
  0x6c, 0x00, 0x00, 0x00, 0x0c, 0x00, 0x00, 0x00, 0x00, 0x00, 0x00, 0x00,
  0x00, 0x00, 0x00, 0x00, 0x00, 0x00, 0x00, 0x00, 0x00, 0x00, 0x00, 0x00,
  0x00, 0x00, 0x00, 0x00, 0x00, 0x00, 0x00, 0x00, 0x00, 0x00, 0x00, 0x00,
  0x00, 0x00, 0x00, 0x00, 0x00, 0x00, 0x00, 0x00, 0x00, 0x00, 0x00, 0x00,
  0x00, 0x00, 0x00, 0x00, 0x00, 0x00, 0x00, 0x00, 0x00, 0x00, 0x00, 0x00,
  0x00, 0x00, 0x00, 0x00, 0x00, 0x00, 0x00, 0x00, 0x00, 0x00, 0x00, 0x00,
  0x00, 0x00, 0x00, 0x00, 0x00, 0x00, 0x00, 0x00, 0x00, 0x00, 0x00, 0x00,
  0x00, 0x00, 0x00, 0x00, 0x00, 0x00, 0x00, 0x00, 0x00, 0x00, 0x00, 0x00,
  0x00, 0x00, 0x00, 0x00, 0x00, 0x00, 0x00, 0x00, 0x00, 0x00, 0x00, 0x00,
  0x0c, 0x00, 0x00, 0x00, 0x0a, 0x8f, 0xa7, 0x3b, 0x3a, 0xfd, 0xbb, 0x3b,
  0x5c, 0x24, 0x6e, 0x3b, 0x83, 0x4c, 0x22, 0x3b, 0x3f, 0xa6, 0x90, 0x3b,
  0x87, 0x40, 0x55, 0x3b, 0x76, 0x0c, 0x6d, 0x3b, 0xcc, 0xd5, 0x5d, 0x3b,
  0x52, 0xd3, 0x3e, 0x3b, 0x94, 0xd9, 0x89, 0x3b, 0x33, 0xa7, 0x8b, 0x3b,
  0xd9, 0x02, 0x89, 0x3b, 0x12, 0x00, 0x00, 0x00, 0x74, 0x66, 0x6c, 0x2e,
  0x70, 0x73, 0x65, 0x75, 0x64, 0x6f, 0x5f, 0x71, 0x63, 0x6f, 0x6e, 0x73,
  0x74, 0x37, 0x00, 0x00, 0x04, 0x00, 0x00, 0x00, 0x0c, 0x00, 0x00, 0x00,
  0x01, 0x00, 0x00, 0x00, 0x05, 0x00, 0x00, 0x00, 0x10, 0x00, 0x00, 0x00,
  0x82, 0xf9, 0xff, 0xff, 0x00, 0x00, 0x00, 0x01, 0x14, 0x00, 0x00, 0x00,
  0xb4, 0x00, 0x00, 0x00, 0x0b, 0x00, 0x00, 0x00, 0x00, 0x00, 0x00, 0x02,
  0xc0, 0x00, 0x00, 0x00, 0x6c, 0xf9, 0xff, 0xff, 0x08, 0x00, 0x00, 0x00,
  0x68, 0x00, 0x00, 0x00, 0x0c, 0x00, 0x00, 0x00, 0x00, 0x00, 0x00, 0x00,
  0x00, 0x00, 0x00, 0x00, 0x00, 0x00, 0x00, 0x00, 0x00, 0x00, 0x00, 0x00,
  0x00, 0x00, 0x00, 0x00, 0x00, 0x00, 0x00, 0x00, 0x00, 0x00, 0x00, 0x00,
  0x00, 0x00, 0x00, 0x00, 0x00, 0x00, 0x00, 0x00, 0x00, 0x00, 0x00, 0x00,
  0x00, 0x00, 0x00, 0x00, 0x00, 0x00, 0x00, 0x00, 0x00, 0x00, 0x00, 0x00,
  0x00, 0x00, 0x00, 0x00, 0x00, 0x00, 0x00, 0x00, 0x00, 0x00, 0x00, 0x00,
  0x00, 0x00, 0x00, 0x00, 0x00, 0x00, 0x00, 0x00, 0x00, 0x00, 0x00, 0x00,
  0x00, 0x00, 0x00, 0x00, 0x00, 0x00, 0x00, 0x00, 0x00, 0x00, 0x00, 0x00,
  0x00, 0x00, 0x00, 0x00, 0x00, 0x00, 0x00, 0x00, 0x0c, 0x00, 0x00, 0x00,
  0xc3, 0x11, 0x96, 0x3a, 0x09, 0x5e, 0xa8, 0x3a, 0x0d, 0x49, 0x55, 0x3a,
  0xc8, 0x5b, 0x11, 0x3a, 0x1f, 0x8d, 0x81, 0x3a, 0x4c, 0xfe, 0x3e, 0x3a,
  0x5e, 0x4e, 0x54, 0x3a, 0x38, 0xae, 0x46, 0x3a, 0x57, 0xe8, 0x2a, 0x3a,
  0x48, 0xec, 0x76, 0x3a, 0x28, 0x27, 0x7a, 0x3a, 0xa5, 0x6b, 0x75, 0x3a,
  0x12, 0x00, 0x00, 0x00, 0x74, 0x66, 0x6c, 0x2e, 0x70, 0x73, 0x65, 0x75,
  0x64, 0x6f, 0x5f, 0x71, 0x63, 0x6f, 0x6e, 0x73, 0x74, 0x36, 0x00, 0x00,
  0x01, 0x00, 0x00, 0x00, 0x0c, 0x00, 0x00, 0x00, 0x62, 0xfa, 0xff, 0xff,
  0x00, 0x00, 0x00, 0x01, 0x14, 0x00, 0x00, 0x00, 0x88, 0x00, 0x00, 0x00,
  0x0a, 0x00, 0x00, 0x00, 0x00, 0x00, 0x00, 0x09, 0x94, 0x00, 0x00, 0x00,
  0x4c, 0xfa, 0xff, 0xff, 0x08, 0x00, 0x00, 0x00, 0x4c, 0x00, 0x00, 0x00,
  0x08, 0x00, 0x00, 0x00, 0x00, 0x00, 0x00, 0x00, 0x00, 0x00, 0x00, 0x00,
  0x00, 0x00, 0x00, 0x00, 0x00, 0x00, 0x00, 0x00, 0x00, 0x00, 0x00, 0x00,
  0x00, 0x00, 0x00, 0x00, 0x00, 0x00, 0x00, 0x00, 0x00, 0x00, 0x00, 0x00,
  0x00, 0x00, 0x00, 0x00, 0x00, 0x00, 0x00, 0x00, 0x00, 0x00, 0x00, 0x00,
  0x00, 0x00, 0x00, 0x00, 0x00, 0x00, 0x00, 0x00, 0x00, 0x00, 0x00, 0x00,
  0x00, 0x00, 0x00, 0x00, 0x00, 0x00, 0x00, 0x00, 0x00, 0x00, 0x00, 0x00,
  0x08, 0x00, 0x00, 0x00, 0x2b, 0xad, 0x3c, 0x3c, 0x5a, 0x12, 0x85, 0x3c,
  0x66, 0x5f, 0x8f, 0x3c, 0x2c, 0x53, 0x8f, 0x3c, 0xd9, 0x45, 0x36, 0x3c,
  0xb0, 0xdf, 0x3b, 0x3c, 0x44, 0xf7, 0xd6, 0x3c, 0x75, 0x5c, 0x81, 0x3c,
  0x12, 0x00, 0x00, 0x00, 0x74, 0x66, 0x6c, 0x2e, 0x70, 0x73, 0x65, 0x75,
  0x64, 0x6f, 0x5f, 0x71, 0x63, 0x6f, 0x6e, 0x73, 0x74, 0x35, 0x00, 0x00,
  0x04, 0x00, 0x00, 0x00, 0x08, 0x00, 0x00, 0x00, 0x01, 0x00, 0x00, 0x00,
  0x03, 0x00, 0x00, 0x00, 0x0c, 0x00, 0x00, 0x00, 0x22, 0xfb, 0xff, 0xff,
  0x00, 0x00, 0x00, 0x01, 0x14, 0x00, 0x00, 0x00, 0x84, 0x00, 0x00, 0x00,
  0x09, 0x00, 0x00, 0x00, 0x00, 0x00, 0x00, 0x02, 0x90, 0x00, 0x00, 0x00,
  0x0c, 0xfb, 0xff, 0xff, 0x08, 0x00, 0x00, 0x00, 0x48, 0x00, 0x00, 0x00,
  0x08, 0x00, 0x00, 0x00, 0x00, 0x00, 0x00, 0x00, 0x00, 0x00, 0x00, 0x00,
  0x00, 0x00, 0x00, 0x00, 0x00, 0x00, 0x00, 0x00, 0x00, 0x00, 0x00, 0x00,
  0x00, 0x00, 0x00, 0x00, 0x00, 0x00, 0x00, 0x00, 0x00, 0x00, 0x00, 0x00,
  0x00, 0x00, 0x00, 0x00, 0x00, 0x00, 0x00, 0x00, 0x00, 0x00, 0x00, 0x00,
  0x00, 0x00, 0x00, 0x00, 0x00, 0x00, 0x00, 0x00, 0x00, 0x00, 0x00, 0x00,
  0x00, 0x00, 0x00, 0x00, 0x00, 0x00, 0x00, 0x00, 0x08, 0x00, 0x00, 0x00,
  0xd0, 0x17, 0x8c, 0x3a, 0xcf, 0x9c, 0xc5, 0x3a, 0xd8, 0xe8, 0xd4, 0x3a,
  0xb0, 0xd6, 0xd4, 0x3a, 0x9d, 0x56, 0x87, 0x3a, 0x3e, 0x7f, 0x8b, 0x3a,
  0xf0, 0x9c, 0x1f, 0x3b, 0x35, 0x1a, 0xc0, 0x3a, 0x12, 0x00, 0x00, 0x00,
  0x74, 0x66, 0x6c, 0x2e, 0x70, 0x73, 0x65, 0x75, 0x64, 0x6f, 0x5f, 0x71,
  0x63, 0x6f, 0x6e, 0x73, 0x74, 0x34, 0x00, 0x00, 0x01, 0x00, 0x00, 0x00,
  0x08, 0x00, 0x00, 0x00, 0xd2, 0xfb, 0xff, 0xff, 0x00, 0x00, 0x00, 0x01,
  0x14, 0x00, 0x00, 0x00, 0xe8, 0x00, 0x00, 0x00, 0x08, 0x00, 0x00, 0x00,
  0x00, 0x00, 0x00, 0x09, 0xf4, 0x00, 0x00, 0x00, 0xbc, 0xfb, 0xff, 0xff,
  0x08, 0x00, 0x00, 0x00, 0x8c, 0x00, 0x00, 0x00, 0x10, 0x00, 0x00, 0x00,
  0x00, 0x00, 0x00, 0x00, 0x00, 0x00, 0x00, 0x00, 0x00, 0x00, 0x00, 0x00,
  0x00, 0x00, 0x00, 0x00, 0x00, 0x00, 0x00, 0x00, 0x00, 0x00, 0x00, 0x00,
  0x00, 0x00, 0x00, 0x00, 0x00, 0x00, 0x00, 0x00, 0x00, 0x00, 0x00, 0x00,
  0x00, 0x00, 0x00, 0x00, 0x00, 0x00, 0x00, 0x00, 0x00, 0x00, 0x00, 0x00,
  0x00, 0x00, 0x00, 0x00, 0x00, 0x00, 0x00, 0x00, 0x00, 0x00, 0x00, 0x00,
  0x00, 0x00, 0x00, 0x00, 0x00, 0x00, 0x00, 0x00, 0x00, 0x00, 0x00, 0x00,
  0x00, 0x00, 0x00, 0x00, 0x00, 0x00, 0x00, 0x00, 0x00, 0x00, 0x00, 0x00,
  0x00, 0x00, 0x00, 0x00, 0x00, 0x00, 0x00, 0x00, 0x00, 0x00, 0x00, 0x00,
  0x00, 0x00, 0x00, 0x00, 0x00, 0x00, 0x00, 0x00, 0x00, 0x00, 0x00, 0x00,
  0x00, 0x00, 0x00, 0x00, 0x00, 0x00, 0x00, 0x00, 0x00, 0x00, 0x00, 0x00,
  0x00, 0x00, 0x00, 0x00, 0x00, 0x00, 0x00, 0x00, 0x00, 0x00, 0x00, 0x00,
  0x10, 0x00, 0x00, 0x00, 0x1d, 0x68, 0xd6, 0x3b, 0x6b, 0x13, 0x11, 0x3c,
  0xc7, 0xa5, 0x15, 0x3c, 0xc7, 0x9c, 0xfa, 0x3b, 0xc9, 0xe0, 0x08, 0x3c,
  0x2f, 0xde, 0x23, 0x3c, 0x96, 0x92, 0x1e, 0x3c, 0x56, 0x7c, 0xfd, 0x3b,
  0x03, 0x4d, 0x2d, 0x3c, 0xd4, 0xe0, 0x11, 0x3c, 0xd2, 0x85, 0xd0, 0x3b,
  0x95, 0x78, 0x01, 0x3c, 0xd3, 0xbf, 0x13, 0x3c, 0xf8, 0x44, 0x22, 0x3c,
  0x09, 0x64, 0x15, 0x3c, 0x4e, 0xc3, 0x0c, 0x3c, 0x12, 0x00, 0x00, 0x00,
  0x74, 0x66, 0x6c, 0x2e, 0x70, 0x73, 0x65, 0x75, 0x64, 0x6f, 0x5f, 0x71,
  0x63, 0x6f, 0x6e, 0x73, 0x74, 0x33, 0x00, 0x00, 0x02, 0x00, 0x00, 0x00,
  0x10, 0x00, 0x00, 0x00, 0x08, 0x00, 0x00, 0x00, 0xea, 0xfc, 0xff, 0xff,
  0x00, 0x00, 0x00, 0x01, 0x14, 0x00, 0x00, 0x00, 0xe4, 0x00, 0x00, 0x00,
  0x07, 0x00, 0x00, 0x00, 0x00, 0x00, 0x00, 0x02, 0xf0, 0x00, 0x00, 0x00,
  0xd4, 0xfc, 0xff, 0xff, 0x08, 0x00, 0x00, 0x00, 0x88, 0x00, 0x00, 0x00,
  0x10, 0x00, 0x00, 0x00, 0x00, 0x00, 0x00, 0x00, 0x00, 0x00, 0x00, 0x00,
  0x00, 0x00, 0x00, 0x00, 0x00, 0x00, 0x00, 0x00, 0x00, 0x00, 0x00, 0x00,
  0x00, 0x00, 0x00, 0x00, 0x00, 0x00, 0x00, 0x00, 0x00, 0x00, 0x00, 0x00,
  0x00, 0x00, 0x00, 0x00, 0x00, 0x00, 0x00, 0x00, 0x00, 0x00, 0x00, 0x00,
  0x00, 0x00, 0x00, 0x00, 0x00, 0x00, 0x00, 0x00, 0x00, 0x00, 0x00, 0x00,
  0x00, 0x00, 0x00, 0x00, 0x00, 0x00, 0x00, 0x00, 0x00, 0x00, 0x00, 0x00,
  0x00, 0x00, 0x00, 0x00, 0x00, 0x00, 0x00, 0x00, 0x00, 0x00, 0x00, 0x00,
  0x00, 0x00, 0x00, 0x00, 0x00, 0x00, 0x00, 0x00, 0x00, 0x00, 0x00, 0x00,
  0x00, 0x00, 0x00, 0x00, 0x00, 0x00, 0x00, 0x00, 0x00, 0x00, 0x00, 0x00,
  0x00, 0x00, 0x00, 0x00, 0x00, 0x00, 0x00, 0x00, 0x00, 0x00, 0x00, 0x00,
  0x00, 0x00, 0x00, 0x00, 0x00, 0x00, 0x00, 0x00, 0x00, 0x00, 0x00, 0x00,
  0x10, 0x00, 0x00, 0x00, 0x2a, 0x83, 0xb0, 0x38, 0xc2, 0xde, 0xee, 0x38,
  0xc7, 0x65, 0xf6, 0x38, 0xae, 0x51, 0xce, 0x38, 0x52, 0x5f, 0xe1, 0x38,
  0xe3, 0xe7, 0x06, 0x39, 0xe1, 0x8b, 0x02, 0x39, 0x3c, 0xaf, 0xd0, 0x38,
  0xeb, 0xab, 0x0e, 0x39, 0xf9, 0x30, 0xf0, 0x38, 0x18, 0xab, 0xab, 0x38,
  0x30, 0x2d, 0xd5, 0x38, 0xa6, 0x45, 0xf3, 0x38, 0x00, 0x97, 0x05, 0x39,
  0x88, 0xf9, 0xf5, 0x38, 0xd1, 0xc4, 0xe7, 0x38, 0x12, 0x00, 0x00, 0x00,
  0x74, 0x66, 0x6c, 0x2e, 0x70, 0x73, 0x65, 0x75, 0x64, 0x6f, 0x5f, 0x71,
  0x63, 0x6f, 0x6e, 0x73, 0x74, 0x32, 0x00, 0x00, 0x01, 0x00, 0x00, 0x00,
  0x10, 0x00, 0x00, 0x00, 0xfa, 0xfd, 0xff, 0xff, 0x00, 0x00, 0x00, 0x01,
  0x14, 0x00, 0x00, 0x00, 0x78, 0x00, 0x00, 0x00, 0x06, 0x00, 0x00, 0x00,
  0x00, 0x00, 0x00, 0x09, 0x84, 0x00, 0x00, 0x00, 0xe4, 0xfd, 0xff, 0xff,
  0x08, 0x00, 0x00, 0x00, 0x40, 0x00, 0x00, 0x00, 0x07, 0x00, 0x00, 0x00,
  0x00, 0x00, 0x00, 0x00, 0x00, 0x00, 0x00, 0x00, 0x00, 0x00, 0x00, 0x00,
  0x00, 0x00, 0x00, 0x00, 0x00, 0x00, 0x00, 0x00, 0x00, 0x00, 0x00, 0x00,
  0x00, 0x00, 0x00, 0x00, 0x00, 0x00, 0x00, 0x00, 0x00, 0x00, 0x00, 0x00,
  0x00, 0x00, 0x00, 0x00, 0x00, 0x00, 0x00, 0x00, 0x00, 0x00, 0x00, 0x00,
  0x00, 0x00, 0x00, 0x00, 0x00, 0x00, 0x00, 0x00, 0x07, 0x00, 0x00, 0x00,
  0x4a, 0xdf, 0x8c, 0x3d, 0xa2, 0x9a, 0x81, 0x3d, 0x11, 0xa8, 0xab, 0x3d,
  0x06, 0x38, 0xb4, 0x3d, 0x4a, 0x40, 0x30, 0x3d, 0x48, 0x0e, 0x3e, 0x3d,
  0xe2, 0x09, 0xdd, 0x3c, 0x12, 0x00, 0x00, 0x00, 0x74, 0x66, 0x6c, 0x2e,
  0x70, 0x73, 0x65, 0x75, 0x64, 0x6f, 0x5f, 0x71, 0x63, 0x6f, 0x6e, 0x73,
  0x74, 0x31, 0x00, 0x00, 0x02, 0x00, 0x00, 0x00, 0x07, 0x00, 0x00, 0x00,
  0x10, 0x00, 0x00, 0x00, 0xa2, 0xfe, 0xff, 0xff, 0x00, 0x00, 0x00, 0x01,
  0x14, 0x00, 0x00, 0x00, 0x7c, 0x00, 0x00, 0x00, 0x05, 0x00, 0x00, 0x00,
  0x00, 0x00, 0x00, 0x02, 0x88, 0x00, 0x00, 0x00, 0x8c, 0xfe, 0xff, 0xff,
  0x08, 0x00, 0x00, 0x00, 0x44, 0x00, 0x00, 0x00, 0x07, 0x00, 0x00, 0x00,
  0x00, 0x00, 0x00, 0x00, 0x00, 0x00, 0x00, 0x00, 0x00, 0x00, 0x00, 0x00,
  0x00, 0x00, 0x00, 0x00, 0x00, 0x00, 0x00, 0x00, 0x00, 0x00, 0x00, 0x00,
  0x00, 0x00, 0x00, 0x00, 0x00, 0x00, 0x00, 0x00, 0x00, 0x00, 0x00, 0x00,
  0x00, 0x00, 0x00, 0x00, 0x00, 0x00, 0x00, 0x00, 0x00, 0x00, 0x00, 0x00,
  0x00, 0x00, 0x00, 0x00, 0x00, 0x00, 0x00, 0x00, 0x00, 0x00, 0x00, 0x00,
  0x07, 0x00, 0x00, 0x00, 0x93, 0x6a, 0x30, 0x3a, 0x14, 0x4e, 0x22, 0x3a,
  0xc9, 0xf7, 0x56, 0x3a, 0xce, 0xb0, 0x61, 0x3a, 0xc9, 0xb8, 0xdc, 0x39,
  0x74, 0x02, 0xee, 0x39, 0xa8, 0x67, 0x8a, 0x39, 0x11, 0x00, 0x00, 0x00,
  0x74, 0x66, 0x6c, 0x2e, 0x70, 0x73, 0x65, 0x75, 0x64, 0x6f, 0x5f, 0x71,
  0x63, 0x6f, 0x6e, 0x73, 0x74, 0x00, 0x00, 0x00, 0x01, 0x00, 0x00, 0x00,
  0x07, 0x00, 0x00, 0x00, 0x4a, 0xff, 0xff, 0xff, 0x00, 0x00, 0x00, 0x01,
  0x14, 0x00, 0x00, 0x00, 0x14, 0x00, 0x00, 0x00, 0x04, 0x00, 0x00, 0x00,
  0x00, 0x00, 0x00, 0x02, 0x1c, 0x00, 0x00, 0x00, 0x8c, 0xff, 0xff, 0xff,
  0x0f, 0x00, 0x00, 0x00, 0x61, 0x72, 0x69, 0x74, 0x68, 0x2e, 0x63, 0x6f,
  0x6e, 0x73, 0x74, 0x61, 0x6e, 0x74, 0x32, 0x00, 0x00, 0x00, 0x00, 0x00,
  0x82, 0xff, 0xff, 0xff, 0x00, 0x00, 0x00, 0x01, 0x14, 0x00, 0x00, 0x00,
  0x14, 0x00, 0x00, 0x00, 0x03, 0x00, 0x00, 0x00, 0x00, 0x00, 0x00, 0x02,
  0x1c, 0x00, 0x00, 0x00, 0xc4, 0xff, 0xff, 0xff, 0x0f, 0x00, 0x00, 0x00,
  0x61, 0x72, 0x69, 0x74, 0x68, 0x2e, 0x63, 0x6f, 0x6e, 0x73, 0x74, 0x61,
  0x6e, 0x74, 0x31, 0x00, 0x01, 0x00, 0x00, 0x00, 0x03, 0x00, 0x00, 0x00,
  0xbe, 0xff, 0xff, 0xff, 0x00, 0x00, 0x00, 0x01, 0x18, 0x00, 0x00, 0x00,
  0x18, 0x00, 0x00, 0x00, 0x02, 0x00, 0x00, 0x00, 0x00, 0x00, 0x00, 0x02,
  0x20, 0x00, 0x00, 0x00, 0x04, 0x00, 0x04, 0x00, 0x04, 0x00, 0x00, 0x00,
  0x0e, 0x00, 0x00, 0x00, 0x61, 0x72, 0x69, 0x74, 0x68, 0x2e, 0x63, 0x6f,
  0x6e, 0x73, 0x74, 0x61, 0x6e, 0x74, 0x00, 0x00, 0x01, 0x00, 0x00, 0x00,
  0x04, 0x00, 0x00, 0x00, 0x00, 0x00, 0x16, 0x00, 0x1c, 0x00, 0x18, 0x00,
  0x17, 0x00, 0x10, 0x00, 0x0c, 0x00, 0x08, 0x00, 0x00, 0x00, 0x00, 0x00,
  0x00, 0x00, 0x07, 0x00, 0x16, 0x00, 0x00, 0x00, 0x00, 0x00, 0x00, 0x01,
  0x20, 0x00, 0x00, 0x00, 0x40, 0x00, 0x00, 0x00, 0x01, 0x00, 0x00, 0x00,
  0x00, 0x00, 0x00, 0x09, 0x5c, 0x00, 0x00, 0x00, 0x0c, 0x00, 0x0c, 0x00,
  0x00, 0x00, 0x00, 0x00, 0x08, 0x00, 0x04, 0x00, 0x0c, 0x00, 0x00, 0x00,
  0x08, 0x00, 0x00, 0x00, 0x14, 0x00, 0x00, 0x00, 0x01, 0x00, 0x00, 0x00,
  0x90, 0xff, 0xff, 0xff, 0xff, 0xff, 0xff, 0xff, 0x00, 0x00, 0x00, 0x00,
  0x01, 0x00, 0x00, 0x00, 0xc1, 0xb9, 0x1c, 0x3f, 0x21, 0x00, 0x00, 0x00,
  0x73, 0x65, 0x72, 0x76, 0x69, 0x6e, 0x67, 0x5f, 0x64, 0x65, 0x66, 0x61,
  0x75, 0x6c, 0x74, 0x5f, 0x6b, 0x65, 0x72, 0x61, 0x73, 0x5f, 0x74, 0x65,
  0x6e, 0x73, 0x6f, 0x72, 0x5f, 0x32, 0x38, 0x3a, 0x30, 0x00, 0x00, 0x00,
  0x03, 0x00, 0x00, 0x00, 0x01, 0x00, 0x00, 0x00, 0xf4, 0x01, 0x00, 0x00,
  0x06, 0x00, 0x00, 0x00, 0x05, 0x00, 0x00, 0x00, 0x6c, 0x00, 0x00, 0x00,
  0x4c, 0x00, 0x00, 0x00, 0x2c, 0x00, 0x00, 0x00, 0x18, 0x00, 0x00, 0x00,
  0x04, 0x00, 0x00, 0x00, 0xd0, 0xff, 0xff, 0xff, 0x19, 0x00, 0x00, 0x00,
  0x02, 0x00, 0x00, 0x00, 0x00, 0x00, 0x00, 0x19, 0xe0, 0xff, 0xff, 0xff,
  0x09, 0x00, 0x00, 0x00, 0x04, 0x00, 0x00, 0x00, 0x00, 0x00, 0x00, 0x09,
  0xf0, 0xff, 0xff, 0xff, 0x28, 0x00, 0x00, 0x00, 0x02, 0x00, 0x00, 0x00,
  0x00, 0x00, 0x00, 0x28, 0x0c, 0x00, 0x10, 0x00, 0x0f, 0x00, 0x00, 0x00,
  0x08, 0x00, 0x04, 0x00, 0x0c, 0x00, 0x00, 0x00, 0x03, 0x00, 0x00, 0x00,
  0x03, 0x00, 0x00, 0x00, 0x00, 0x00, 0x00, 0x03, 0x0c, 0x00, 0x0c, 0x00,
  0x0b, 0x00, 0x00, 0x00, 0x00, 0x00, 0x04, 0x00, 0x0c, 0x00, 0x00, 0x00,
  0x16, 0x00, 0x00, 0x00, 0x00, 0x00, 0x00, 0x16
};
inline const unsigned int gesture_model_2_tflite_len = 8768;
