
inline const unsigned char gesture_model_3_tflite[] = {
  0x1c, 0x00, 0x00, 0x00, 0x54, 0x46, 0x4c, 0x33, 0x14, 0x00, 0x20, 0x00,
  0x1c, 0x00, 0x18, 0x00, 0x14, 0x00, 0x10, 0x00, 0x0c, 0x00, 0x00, 0x00,
  0x08, 0x00, 0x04, 0x00, 0x14, 0x00, 0x00, 0x00, 0x1c, 0x00, 0x00, 0x00,
  0x98, 0x00, 0x00, 0x00, 0x18, 0x01, 0x00, 0x00, 0x6c, 0x0c, 0x00, 0x00,
  0x7c, 0x0c, 0x00, 0x00, 0xa0, 0x21, 0x00, 0x00, 0x03, 0x00, 0x00, 0x00,
  0x01, 0x00, 0x00, 0x00, 0x10, 0x00, 0x00, 0x00, 0x00, 0x00, 0x0a, 0x00,
  0x10, 0x00, 0x0c, 0x00, 0x08, 0x00, 0x04, 0x00, 0x0a, 0x00, 0x00, 0x00,
  0x0c, 0x00, 0x00, 0x00, 0x1c, 0x00, 0x00, 0x00, 0x3c, 0x00, 0x00, 0x00,
  0x0f, 0x00, 0x00, 0x00, 0x73, 0x65, 0x72, 0x76, 0x69, 0x6e, 0x67, 0x5f,
  0x64, 0x65, 0x66, 0x61, 0x75, 0x6c, 0x74, 0x00, 0x01, 0x00, 0x00, 0x00,
  0x04, 0x00, 0x00, 0x00, 0x68, 0xff, 0xff, 0xff, 0x16, 0x00, 0x00, 0x00,
  0x04, 0x00, 0x00, 0x00, 0x08, 0x00, 0x00, 0x00, 0x6f, 0x75, 0x74, 0x70,
  0x75, 0x74, 0x5f, 0x30, 0x00, 0x00, 0x00, 0x00, 0x01, 0x00, 0x00, 0x00,
  0x04, 0x00, 0x00, 0x00, 0x76, 0xf3, 0xff, 0xff, 0x04, 0x00, 0x00, 0x00,
  0x0f, 0x00, 0x00, 0x00, 0x6b, 0x65, 0x72, 0x61, 0x73, 0x5f, 0x74, 0x65,
  0x6e, 0x73, 0x6f, 0x72, 0x5f, 0x34, 0x32, 0x00, 0x03, 0x00, 0x00, 0x00,
  0x5c, 0x00, 0x00, 0x00, 0x2c, 0x00, 0x00, 0x00, 0x04, 0x00, 0x00, 0x00,
  0xb8, 0xff, 0xff, 0xff, 0x1a, 0x00, 0x00, 0x00, 0x04, 0x00, 0x00, 0x00,
  0x13, 0x00, 0x00, 0x00, 0x43, 0x4f, 0x4e, 0x56, 0x45, 0x52, 0x53, 0x49,
  0x4f, 0x4e, 0x5f, 0x4d, 0x45, 0x54, 0x41, 0x44, 0x41, 0x54, 0x41, 0x00,
  0xdc, 0xff, 0xff, 0xff, 0x19, 0x00, 0x00, 0x00, 0x04, 0x00, 0x00, 0x00,
  0x13, 0x00, 0x00, 0x00, 0x6d, 0x69, 0x6e, 0x5f, 0x72, 0x75, 0x6e, 0x74,
  0x69, 0x6d, 0x65, 0x5f, 0x76, 0x65, 0x72, 0x73, 0x69, 0x6f, 0x6e, 0x00,
  0x08, 0x00, 0x0c, 0x00, 0x08, 0x00, 0x04, 0x00, 0x08, 0x00, 0x00, 0x00,
  0x18, 0x00, 0x00, 0x00, 0x04, 0x00, 0x00, 0x00, 0x13, 0x00, 0x00, 0x00,
  0x6d, 0x69, 0x6e, 0x5f, 0x72, 0x75, 0x6e, 0x74, 0x69, 0x6d, 0x65, 0x5f,
  0x76, 0x65, 0x72, 0x73, 0x69, 0x6f, 0x6e, 0x00, 0x1b, 0x00, 0x00, 0x00,
  0x50, 0x0b, 0x00, 0x00, 0x48, 0x0b, 0x00, 0x00, 0x28, 0x0b, 0x00, 0x00,
  0x0c, 0x0b, 0x00, 0x00, 0xf8, 0x0a, 0x00, 0x00, 0xcc, 0x0a, 0x00, 0x00,
  0x4c, 0x0a, 0x00, 0x00, 0xfc, 0x09, 0x00, 0x00, 0x6c, 0x09, 0x00, 0x00,
  0x3c, 0x09, 0x00, 0x00, 0x0c, 0x08, 0x00, 0x00, 0xcc, 0x07, 0x00, 0x00,
  0xfc, 0x03, 0x00, 0x00, 0xac, 0x03, 0x00, 0x00, 0xfc, 0x00, 0x00, 0x00,
  0xf4, 0x00, 0x00, 0x00, 0xec, 0x00, 0x00, 0x00, 0xe4, 0x00, 0x00, 0x00,
  0xdc, 0x00, 0x00, 0x00, 0xd4, 0x00, 0x00, 0x00, 0xcc, 0x00, 0x00, 0x00,
  0xc4, 0x00, 0x00, 0x00, 0xbc, 0x00, 0x00, 0x00, 0xb4, 0x00, 0x00, 0x00,
  0x94, 0x00, 0x00, 0x00, 0x74, 0x00, 0x00, 0x00, 0x04, 0x00, 0x00, 0x00,
  0x86, 0xf4, 0xff, 0xff, 0x04, 0x00, 0x00, 0x00, 0x60, 0x00, 0x00, 0x00,
  0x0c, 0x00, 0x00, 0x00, 0x08, 0x00, 0x0e, 0x00, 0x08, 0x00, 0x04, 0x00,
  0x08, 0x00, 0x00, 0x00, 0x10, 0x00, 0x00, 0x00, 0x28, 0x00, 0x00, 0x00,
  0x00, 0x00, 0x06, 0x00, 0x08, 0x00, 0x04, 0x00, 0x06, 0x00, 0x00, 0x00,
  0x04, 0x00, 0x00, 0x00, 0x01, 0x00, 0x00, 0x00, 0xeb, 0x03, 0x00, 0x00,
  0x0c, 0x00, 0x18, 0x00, 0x14, 0x00, 0x10, 0x00, 0x0c, 0x00, 0x04, 0x00,
  0x0c, 0x00, 0x00, 0x00, 0x90, 0x23, 0x1c, 0x91, 0xe1, 0x42, 0xe3, 0x7e,
  0x02, 0x00, 0x00, 0x00, 0x02, 0x00, 0x00, 0x00, 0x04, 0x00, 0x00, 0x00,
  0x06, 0x00, 0x00, 0x00, 0x32, 0x2e, 0x31, 0x39, 0x2e, 0x30, 0x00, 0x00,
  0xf2, 0xf4, 0xff, 0xff, 0x04, 0x00, 0x00, 0x00, 0x10, 0x00, 0x00, 0x00,
  0x00, 0x00, 0x00, 0x00, 0x00, 0x00, 0x00, 0x00, 0x00, 0x00, 0x00, 0x00,
  0x00, 0x00, 0x00, 0x00, 0x0e, 0xf5, 0xff, 0xff, 0x04, 0x00, 0x00, 0x00,
  0x10, 0x00, 0x00, 0x00, 0x31, 0x2e, 0x31, 0x34, 0x2e, 0x30, 0x00, 0x00,
  0x00, 0x00, 0x00, 0x00, 0x00, 0x00, 0x00, 0x00, 0x40, 0xe1, 0xff, 0xff,
  0x44, 0xe1, 0xff, 0xff, 0x48, 0xe1, 0xff, 0xff, 0x4c, 0xe1, 0xff, 0xff,
  0x50, 0xe1, 0xff, 0xff, 0x54, 0xe1, 0xff, 0xff, 0x58, 0xe1, 0xff, 0xff,
  0x5c, 0xe1, 0xff, 0xff, 0x60, 0xe1, 0xff, 0xff, 0x4e, 0xf5, 0xff, 0xff,
  0x04, 0x00, 0x00, 0x00, 0xa0, 0x02, 0x00, 0x00, 0xfc, 0x2e, 0xde, 0xe0,
  0xfa, 0x81, 0x16, 0x2e, 0xeb, 0xff, 0x07, 0x91, 0xf7, 0x02, 0xfa, 0xf3,
  0x02, 0xa4, 0x04, 0xed, 0x01, 0xfb, 0x07, 0xa6, 0xfe, 0xf0, 0xff, 0x01,
  0xf5, 0xb8, 0x00, 0xc6, 0x19, 0x0a, 0xf3, 0xb6, 0x1c, 0xcf, 0x04, 0xfe,
  0xd3, 0xbb, 0x1d, 0x5f, 0x52, 0xfa, 0xbc, 0x64, 0x00, 0x1b, 0x44, 0xf2,
  0xac, 0x29, 0xfb, 0x25, 0x21, 0xed, 0xc5, 0x1d, 0x13, 0x08, 0x21, 0x00,
  0xd0, 0x0e, 0x0f, 0xf2, 0x3d, 0x2d, 0xca, 0xf3, 0x01, 0x05, 0x20, 0x5b,
  0xd5, 0xde, 0x0d, 0x0a, 0x48, 0x7f, 0xe9, 0xed, 0x60, 0x81, 0x43, 0x01,
  0xe4, 0xea, 0x51, 0x91, 0x1f, 0x16, 0xca, 0xef, 0x41, 0xbf, 0x03, 0xfc,
  0xca, 0x03, 0x36, 0xea, 0x07, 0x13, 0xea, 0xfd, 0x06, 0xdd, 0x39, 0x18,
  0xc2, 0xdc, 0x0a, 0xe8, 0x3a, 0x0a, 0xf5, 0xf1, 0x05, 0xe6, 0x71, 0xd1,
  0xd8, 0xff, 0x23, 0x7f, 0x46, 0x1b, 0x8d, 0xf5, 0x09, 0x53, 0x53, 0xfe,
  0xae, 0xdc, 0x31, 0x19, 0x2d, 0xfb, 0xbb, 0xca, 0x21, 0x0c, 0x53, 0xef,
  0xff, 0xe9, 0x08, 0xf7, 0x48, 0xef, 0x38, 0xc0, 0xe5, 0xea, 0x50, 0xea,
  0x38, 0xb8, 0x0c, 0xd0, 0x27, 0x22, 0x68, 0xa9, 0x2a, 0xeb, 0x0f, 0xf8,
  0xf0, 0x16, 0x14, 0xf4, 0x18, 0xf6, 0xf2, 0x16, 0x13, 0xe9, 0xfe, 0x05,
  0x00, 0x26, 0x07, 0x11, 0xf8, 0x02, 0xed, 0x31, 0xed, 0x06, 0x0d, 0xfc,
  0x05, 0x4b, 0xf2, 0x25, 0x0d, 0x01, 0xf6, 0x64, 0xda, 0x19, 0xf0, 0x02,
  0xfd, 0x7f, 0xf0, 0x31, 0x48, 0xfc, 0x0f, 0x9e, 0x1e, 0x32, 0x3d, 0xff,
  0x19, 0xce, 0x27, 0x18, 0x0e, 0xff, 0x2f, 0xde, 0x0c, 0x11, 0xf1, 0x0a,
  0x28, 0xd7, 0x02, 0x07, 0xf5, 0x45, 0x3b, 0xfd, 0x35, 0x31, 0xe3, 0x4d,
  0x31, 0x05, 0x19, 0x39, 0xb1, 0x7f, 0x2f, 0x1a, 0x21, 0x17, 0x47, 0xf2,
  0xd8, 0xee, 0x34, 0x2e, 0x39, 0xdd, 0xd6, 0xf9, 0x32, 0x39, 0x3a, 0xd3,
  0xe3, 0xf2, 0x23, 0x2e, 0x27, 0xf8, 0xf5, 0x17, 0x38, 0x34, 0x2b, 0xec,
  0x0e, 0x02, 0x3d, 0x56, 0x5d, 0xf4, 0x07, 0xfe, 0x35, 0x61, 0x7f, 0xf2,
  0x1a, 0x01, 0xf1, 0x37, 0xf7, 0x12, 0xd1, 0x16, 0xff, 0x34, 0xe6, 0x20,
  0xd7, 0x26, 0xfe, 0x15, 0xef, 0x1d, 0xe8, 0x2a, 0x06, 0x2f, 0xf7, 0x1c,
  0xf2, 0x27, 0x12, 0x2e, 0xdf, 0x12, 0x20, 0x4e, 0xfc, 0x21, 0xee, 0x2b,
  0x13, 0x64, 0xe7, 0x1d, 0xe3, 0x48, 0x36, 0x7f, 0x20, 0xfc, 0x5d, 0xfa,
  0xb5, 0xe9, 0xfb, 0x03, 0x30, 0xf2, 0xde, 0xe3, 0x20, 0x03, 0x13, 0xe9,
  0xff, 0x09, 0x11, 0x10, 0x1f, 0x03, 0xfc, 0x16, 0x0a, 0x08, 0x0a, 0xfe,
  0x1a, 0x37, 0x2d, 0x2b, 0x15, 0xfc, 0x3f, 0x52, 0x25, 0x34, 0x05, 0x14,
  0x4a, 0x7f, 0x7b, 0xc5, 0xe1, 0x67, 0xbd, 0xc1, 0x46, 0xb8, 0xf3, 0x3b,
  0x9b, 0xdf, 0x4a, 0xae, 0xfc, 0x2d, 0xad, 0xa7, 0x23, 0xb0, 0x40, 0x32,
  0xdc, 0xb1, 0xd6, 0xc1, 0x7f, 0x2d, 0xdf, 0xb3, 0xe4, 0xc3, 0x6a, 0x0b,
  0xcc, 0x9d, 0xc4, 0xb1, 0x79, 0xfb, 0xbf, 0x82, 0x2f, 0x0e, 0x8d, 0xd5,
  0xb4, 0x94, 0x37, 0x22, 0xc1, 0xae, 0xc0, 0xb0, 0x23, 0xf3, 0x0b, 0xb2,
  0xe3, 0xb6, 0xe1, 0xc8, 0x59, 0xb3, 0x29, 0xf3, 0xfd, 0x91, 0x65, 0xe9,
  0x40, 0xfd, 0xbd, 0xa6, 0x5c, 0xf6, 0x36, 0xe2, 0xa2, 0x81, 0x57, 0x28,
  0x50, 0xfa, 0xd2, 0xd9, 0x4a, 0x08, 0x53, 0xf9, 0xf1, 0xf6, 0x37, 0xec,
  0x31, 0xd0, 0xf0, 0x02, 0x27, 0xd9, 0x38, 0xdb, 0x04, 0x02, 0x3d, 0xf6,
  0x16, 0xb3, 0x34, 0x36, 0x0f, 0xf2, 0x3c, 0xae, 0x2e, 0x24, 0x16, 0xec,
  0x42, 0x89, 0x51, 0x72, 0x14, 0x1d, 0x7b, 0x81, 0xe9, 0x3e, 0x57, 0x24,
  0xfe, 0x81, 0xd1, 0x1f, 0x47, 0xfc, 0x0a, 0x97, 0xd0, 0x37, 0x16, 0xe2,
  0xe5, 0xb0, 0xfd, 0x0e, 0x10, 0xe5, 0xdf, 0xd3, 0xdd, 0x19, 0x28, 0xe0,
  0xeb, 0xcc, 0xce, 0xfc, 0xf9, 0xaf, 0xd4, 0xf1, 0xb9, 0x01, 0xe7, 0xd6,
  0xfc, 0xf4, 0x1c, 0x21, 0xf6, 0xb6, 0x02, 0x7f, 0x2c, 0x24, 0xf9, 0xa6,
  0x19, 0x64, 0x1e, 0x25, 0xe7, 0xcf, 0x07, 0x5f, 0x23, 0x27, 0xda, 0xe5,
  0x05, 0x54, 0x1d, 0x0e, 0xc7, 0xe4, 0xf9, 0x5e, 0x08, 0x46, 0xb7, 0xe1,
  0xf0, 0x60, 0x00, 0x36, 0xa5, 0xf7, 0xdf, 0x58, 0xf5, 0xcd, 0xcd, 0x36,
  0x7a, 0x7f, 0xff, 0xe3, 0xec, 0x13, 0x51, 0x5d, 0xff, 0xe5, 0xea, 0x0e,
  0x43, 0x56, 0x16, 0xdc, 0x02, 0x01, 0x21, 0x3d, 0x00, 0xde, 0xed, 0x02,
  0x0e, 0x3c, 0xf4, 0xd8, 0xfe, 0x0d, 0xe9, 0x32, 0x0f, 0xcc, 0x04, 0xea,
  0xef, 0x25, 0xdb, 0xfa, 0xcf, 0x1c, 0x08, 0x81, 0xdf, 0x06, 0xde, 0x08,
  0x0e, 0x9d, 0xe8, 0x0c, 0xe7, 0x10, 0x19, 0xbf, 0x01, 0x08, 0xed, 0xfc,
  0x0a, 0xd3, 0xff, 0x12, 0xf5, 0xfd, 0x01, 0xdf, 0x03, 0x2c, 0x05, 0xf0,
  0xf8, 0xf1, 0x0f, 0x2a, 0x02, 0xe0, 0xe0, 0x04, 0xfa, 0xf7, 0xff, 0xff,
  0x04, 0x00, 0x00, 0x00, 0x40, 0x00, 0x00, 0x00, 0x56, 0xff, 0xff, 0xff,
  0xb3, 0x00, 0x00, 0x00, 0x78, 0xff, 0xff, 0xff, 0x70, 0x00, 0x00, 0x00,
  0x5f, 0xff, 0xff, 0xff, 0xfd, 0x01, 0x00, 0x00, 0xa0, 0xff, 0xff, 0xff,
  0x73, 0x00, 0x00, 0x00, 0x3e, 0x00, 0x00, 0x00, 0x91, 0xfe, 0xff, 0xff,
  0xdf, 0x00, 0x00, 0x00, 0xe3, 0x00, 0x00, 0x00, 0xd5, 0xfd, 0xff, 0xff,
  0x38, 0x01, 0x00, 0x00, 0xae, 0x01, 0x00, 0x00, 0x95, 0xff, 0xff, 0xff,
  0x46, 0xf8, 0xff, 0xff, 0x04, 0x00, 0x00, 0x00, 0xc0, 0x03, 0x00, 0x00,
  0xfd, 0x32, 0xcf, 0xbc, 0x18, 0x0d, 0xe4, 0x19, 0x22, 0xe1, 0x09, 0xd3,
  0xab, 0xea, 0x81, 0xe1, 0xf2, 0x3b, 0xea, 0xd8, 0x48, 0x1f, 0xe0, 0xfb,
  0x16, 0x07, 0xe8, 0x01, 0xcc, 0x06, 0xa0, 0xf8, 0x0c, 0x35, 0xe3, 0xff,
  0x41, 0x18, 0xe5, 0xe2, 0xff, 0x00, 0xbc, 0x16, 0xc9, 0x19, 0xb9, 0xfb,
  0x21, 0x21, 0xf1, 0x09, 0x44, 0x0d, 0xd5, 0xe1, 0xea, 0xfd, 0xc3, 0x09,
  0xf3, 0xff, 0xcf, 0x07, 0x49, 0x1c, 0xfa, 0x2d, 0x4b, 0x11, 0x02, 0xe3,
  0xe6, 0x1c, 0xc2, 0x18, 0xf8, 0xff, 0xf1, 0x19, 0x19, 0xcb, 0x0d, 0xfc,
  0x7a, 0xdd, 0x05, 0xbf, 0xa3, 0xcb, 0xee, 0xe0, 0xc8, 0x3e, 0x74, 0x02,
  0x12, 0xff, 0x0c, 0x0a, 0x2e, 0xd1, 0x0b, 0xd9, 0xa7, 0xcf, 0x00, 0xf2,
  0xed, 0x32, 0x3f, 0x0f, 0x0e, 0x1b, 0x3b, 0x04, 0x3a, 0xc9, 0x38, 0x08,
  0xbc, 0xfa, 0xf2, 0xec, 0xfb, 0x03, 0x18, 0x0c, 0x0e, 0x5c, 0x38, 0x14,
  0x32, 0xcf, 0x43, 0xf5, 0xda, 0x0d, 0xfa, 0x08, 0xf4, 0xdf, 0x0e, 0x2c,
  0x21, 0x7f, 0x1c, 0x29, 0x22, 0xf6, 0x3d, 0x12, 0xf9, 0xfc, 0xf9, 0xf9,
  0xfd, 0xd0, 0xcc, 0x1f, 0x81, 0xeb, 0xe7, 0xe3, 0x06, 0x27, 0x1a, 0x25,
  0x08, 0xd0, 0xdb, 0x07, 0x03, 0x09, 0x0a, 0xd2, 0xaf, 0x07, 0x01, 0xef,
  0xff, 0x19, 0x02, 0x0b, 0xfd, 0xdd, 0xee, 0x0a, 0x08, 0x05, 0x02, 0xe3,
  0xc1, 0x17, 0x03, 0xe7, 0xe3, 0x04, 0xef, 0xfb, 0xfa, 0xd3, 0x08, 0xff,
  0x0b, 0x0c, 0xde, 0x06, 0xb7, 0x0f, 0x22, 0xff, 0xf2, 0xfa, 0x05, 0xd4,
  0x07, 0xcf, 0x03, 0x01, 0x07, 0x04, 0xc9, 0x15, 0x95, 0x28, 0x25, 0xf3,
  0xda, 0x19, 0xf3, 0xdc, 0xf8, 0xc6, 0x1d, 0xf9, 0x1a, 0xf9, 0xea, 0x1b,
  0x09, 0xf8, 0x62, 0xbe, 0xba, 0xee, 0x34, 0xf1, 0xda, 0x1e, 0x07, 0xe6,
  0x81, 0xe3, 0xee, 0xda, 0xf2, 0xe6, 0x56, 0x01, 0xb7, 0x22, 0x32, 0xf6,
  0xf6, 0x24, 0x2e, 0xd3, 0xa6, 0xdc, 0xfd, 0xed, 0xf3, 0xe9, 0x30, 0x32,
  0x91, 0x24, 0x5a, 0xf5, 0xff, 0x36, 0xfc, 0xf7, 0xdd, 0xe2, 0x00, 0xee,
  0xda, 0xd0, 0x17, 0x37, 0x84, 0x0f, 0x4a, 0xff, 0xd7, 0x08, 0xf0, 0xff,
  0x11, 0xd9, 0x1e, 0xfa, 0xac, 0xb7, 0x28, 0x59, 0x85, 0x10, 0x3d, 0xdb,
  0xdc, 0xf3, 0xe3, 0xfc, 0x57, 0xdd, 0x32, 0x1f, 0xfc, 0xdd, 0x1b, 0xcd,
  0x04, 0xea, 0xff, 0xce, 0x1a, 0x40, 0xc9, 0xee, 0x37, 0xf5, 0x7f, 0x1b,
  0x02, 0xed, 0x1d, 0xd3, 0x08, 0xfb, 0x06, 0xdc, 0x19, 0x2c, 0xcd, 0xcd,
  0x28, 0x05, 0x3a, 0x1c, 0x00, 0xe7, 0x2a, 0xfc, 0x04, 0xe6, 0x0f, 0xee,
  0x19, 0x35, 0xf1, 0xb1, 0x0f, 0xf7, 0x22, 0x0c, 0xf0, 0xfa, 0x36, 0x03,
  0xf5, 0xd0, 0x3d, 0xd7, 0x34, 0x1b, 0x14, 0xb6, 0xdd, 0xe1, 0x04, 0x0d,
  0xe2, 0xe7, 0x2b, 0x1c, 0xd4, 0xb4, 0x37, 0x97, 0x28, 0x1d, 0x70, 0xe2,
  0xcf, 0xd5, 0xcc, 0x0e, 0xb7, 0x19, 0x05, 0x0c, 0x53, 0xf1, 0x16, 0x4b,
  0x23, 0xb0, 0xdd, 0x37, 0xf6, 0x2e, 0x23, 0xe6, 0xe2, 0x0a, 0x13, 0xfc,
  0x2d, 0xdf, 0xe8, 0x17, 0x08, 0xd5, 0xc4, 0x08, 0xfc, 0x28, 0x15, 0xe7,
  0xd2, 0x03, 0xfc, 0xf4, 0xff, 0xd2, 0x02, 0x0c, 0xe5, 0xea, 0xee, 0x06,
  0xff, 0x26, 0x10, 0xf5, 0xef, 0x23, 0xff, 0xf8, 0xd7, 0x07, 0x12, 0xae,
  0xc4, 0x01, 0x10, 0x0b, 0x06, 0x09, 0xdc, 0x0c, 0xf9, 0x29, 0x15, 0x0a,
  0x8a, 0x05, 0x00, 0x81, 0xce, 0x1b, 0x02, 0x29, 0x11, 0xf2, 0xe0, 0x04,
  0x16, 0xc5, 0xf8, 0x22, 0xcd, 0x22, 0x0c, 0xf9, 0xd8, 0x06, 0x16, 0x56,
  0x0f, 0xcb, 0x9a, 0x1d, 0xf4, 0xf1, 0xea, 0x30, 0xe7, 0x08, 0x15, 0xf7,
  0xee, 0x10, 0x11, 0x33, 0x17, 0xe8, 0xb5, 0x2a, 0xeb, 0x03, 0xf5, 0x21,
  0xf8, 0x05, 0x19, 0x17, 0x13, 0x03, 0x1b, 0x23, 0x02, 0x0f, 0xd0, 0x27,
  0xd1, 0x15, 0xf9, 0x26, 0x02, 0x23, 0x2c, 0x0d, 0x4e, 0x03, 0x1b, 0x10,
  0xfa, 0x25, 0xd4, 0x06, 0xaa, 0x3d, 0xd9, 0x1f, 0x43, 0x1f, 0x56, 0x66,
  0x7f, 0xff, 0x00, 0x00, 0x08, 0x48, 0xb8, 0xf8, 0xb2, 0x42, 0x16, 0xba,
  0xea, 0x90, 0x92, 0x24, 0xd5, 0x10, 0xad, 0xdd, 0xf2, 0xdd, 0xe8, 0xbe,
  0xbb, 0x00, 0x06, 0xbf, 0xd1, 0xc5, 0xaf, 0x0d, 0xfc, 0x1e, 0xeb, 0x11,
  0xf1, 0xdb, 0x03, 0xf5, 0xdc, 0xf6, 0xf8, 0xdb, 0xdd, 0xe6, 0xe8, 0x12,
  0x0b, 0x05, 0xed, 0x18, 0xf9, 0xd8, 0xf3, 0xf4, 0xf3, 0x01, 0x13, 0xe2,
  0xf6, 0xff, 0x02, 0xf8, 0x22, 0x04, 0xdb, 0x4c, 0x09, 0xfb, 0xd8, 0x12,
  0x2a, 0x17, 0x0e, 0xfe, 0xe9, 0x2e, 0x2e, 0x47, 0x23, 0xec, 0xc7, 0x7f,
  0x0e, 0xf0, 0xb6, 0x0f, 0xd8, 0x1a, 0xe2, 0x22, 0x02, 0xda, 0x0a, 0x37,
  0x25, 0xfe, 0x0a, 0xea, 0xf2, 0x3c, 0x4a, 0xb6, 0xd2, 0xfc, 0xde, 0x12,
  0xff, 0xde, 0xfe, 0x09, 0x15, 0x03, 0x09, 0x04, 0x02, 0x20, 0x34, 0xca,
  0xea, 0x02, 0xec, 0x09, 0xf3, 0xef, 0xd5, 0x07, 0xe9, 0x13, 0x03, 0xf5,
  0x05, 0x16, 0x09, 0xe4, 0xef, 0xfc, 0xf2, 0xfb, 0xd9, 0xfb, 0xa9, 0x01,
  0xd7, 0x1e, 0x07, 0xf0, 0x05, 0xfd, 0x12, 0xe1, 0xdc, 0xf4, 0xda, 0xfa,
  0xc7, 0xf7, 0x81, 0xc7, 0x9e, 0x23, 0x03, 0xea, 0x17, 0xf0, 0x1d, 0xd6,
  0x0a, 0xcf, 0x81, 0xb2, 0x4d, 0x06, 0xf6, 0x25, 0x09, 0x0a, 0x02, 0x11,
  0xe0, 0x34, 0xfd, 0x13, 0xff, 0xca, 0xae, 0xe5, 0x3c, 0xf0, 0x00, 0x20,
  0x17, 0x02, 0x07, 0xe7, 0xe9, 0x10, 0xfa, 0xf6, 0xfb, 0xe7, 0xd4, 0xf7,
  0xfc, 0xd9, 0xfd, 0x01, 0x03, 0xee, 0xff, 0xfa, 0x01, 0xf2, 0xe9, 0x03,
  0x1c, 0xf7, 0xfd, 0x00, 0xe1, 0xd3, 0xe8, 0xe4, 0xfb, 0x0c, 0x18, 0xf4,
  0x22, 0xb9, 0xf6, 0x07, 0x1f, 0xf8, 0x24, 0x0b, 0xb6, 0xc1, 0xf3, 0xcc,
  0xe6, 0x26, 0x2e, 0x1e, 0x3c, 0xa8, 0xde, 0xf2, 0xf3, 0xde, 0x82, 0x47,
  0x1b, 0xae, 0x0f, 0xe6, 0xce, 0xc5, 0x35, 0x1e, 0x30, 0x25, 0x9d, 0xf9,
  0x0a, 0xb3, 0xc1, 0x4d, 0x17, 0xb6, 0x0d, 0x07, 0xdc, 0xf6, 0x1a, 0x1a,
  0x24, 0x2f, 0x9f, 0xda, 0x06, 0xaa, 0xc4, 0x3f, 0x58, 0x00, 0xea, 0xfe,
  0xff, 0x04, 0x15, 0x18, 0xe9, 0x0c, 0xe2, 0xb8, 0x0a, 0xa1, 0xc9, 0x2c,
  0x61, 0x21, 0xd4, 0x0f, 0xe0, 0x13, 0xe4, 0x3d, 0xd6, 0x1c, 0x08, 0xd0,
  0x40, 0xcf, 0xc3, 0x1f, 0x7f, 0x51, 0xec, 0x1c, 0xd3, 0x20, 0xdd, 0x26,
  0xbb, 0x01, 0x19, 0xdd, 0x78, 0x1e, 0xce, 0xef, 0xeb, 0x41, 0xf2, 0xde,
  0xf5, 0x19, 0x1d, 0x44, 0x1e, 0xba, 0xfd, 0x4d, 0x36, 0x11, 0xe7, 0xe0,
  0xd0, 0x2f, 0xe0, 0xe3, 0xfc, 0xdc, 0xf5, 0x09, 0x27, 0xac, 0xf9, 0x57,
  0x07, 0x08, 0xe8, 0xcf, 0xdf, 0x07, 0xd5, 0xf7, 0x18, 0xbb, 0xd0, 0xf0,
  0xfe, 0xbe, 0xea, 0x3b, 0xc2, 0x0a, 0xf9, 0xcb, 0xdc, 0xdb, 0xf4, 0x13,
  0x1a, 0x8b, 0xce, 0xfe, 0xd7, 0xd3, 0xdc, 0x0a, 0x97, 0xf7, 0x05, 0xa3,
  0xf0, 0xdd, 0xe5, 0x14, 0x38, 0x81, 0xde, 0xff, 0xcd, 0xe1, 0xd7, 0xd4,
  0x12, 0xfc, 0xff, 0xff, 0x04, 0x00, 0x00, 0x00, 0x30, 0x00, 0x00, 0x00,
  0xee, 0x03, 0x00, 0x00, 0x1f, 0xf3, 0xff, 0xff, 0x75, 0x0b, 0x00, 0x00,
  0x57, 0x06, 0x00, 0x00, 0xed, 0x00, 0x00, 0x00, 0xe5, 0x04, 0x00, 0x00,
  0x66, 0xf6, 0xff, 0xff, 0x55, 0x0e, 0x00, 0x00, 0x1e, 0x04, 0x00, 0x00,
  0x35, 0x07, 0x00, 0x00, 0x33, 0xfc, 0xff, 0xff, 0x9e, 0x0d, 0x00, 0x00,
  0x4e, 0xfc, 0xff, 0xff, 0x04, 0x00, 0x00, 0x00, 0x20, 0x01, 0x00, 0x00,
  0xe9, 0x27, 0x91, 0x0f, 0x38, 0x4c, 0xaa, 0x38, 0x05, 0xe7, 0xa6, 0xda,
  0xd5, 0xea, 0x83, 0x0e, 0xe0, 0x1f, 0x4a, 0x05, 0xd0, 0x08, 0xd7, 0xf2,
  0x06, 0xae, 0x92, 0xd5, 0xda, 0x0c, 0x7f, 0x27, 0xc2, 0xf7, 0xd4, 0x3f,
  0xe0, 0xcb, 0xba, 0x21, 0x10, 0x1b, 0x2c, 0xca, 0xd1, 0x23, 0xfb, 0x62,
  0x03, 0xed, 0xd4, 0x0b, 0xf4, 0x00, 0x09, 0xe9, 0xaf, 0x09, 0x31, 0x11,
  0x3e, 0xf1, 0x00, 0xfc, 0x29, 0x42, 0x81, 0xfb, 0xe3, 0x15, 0x28, 0xde,
  0x16, 0x34, 0x02, 0x2b, 0xae, 0x45, 0x44, 0xbc, 0x5e, 0x02, 0xe7, 0xbe,
  0xf7, 0x0c, 0xf5, 0xf8, 0xdc, 0x7f, 0x19, 0xfd, 0x05, 0x05, 0x8b, 0xff,
  0xd0, 0xda, 0xfa, 0x05, 0xef, 0x33, 0x3e, 0x5e, 0xee, 0xf9, 0xa5, 0x50,
  0x8e, 0x64, 0x03, 0xe8, 0xe5, 0x44, 0xd7, 0xf6, 0xf5, 0x81, 0xee, 0x56,
  0xc3, 0x2f, 0xff, 0xd4, 0xe1, 0x1d, 0x19, 0xc1, 0x02, 0xfe, 0xd5, 0x23,
  0xcf, 0xf4, 0xa3, 0x04, 0xe4, 0x92, 0xf7, 0x13, 0xe3, 0x12, 0x23, 0xcc,
  0x03, 0x42, 0x3c, 0xc7, 0x2f, 0x27, 0x1c, 0x0e, 0x9d, 0x36, 0x81, 0x51,
  0xe6, 0x29, 0x17, 0xca, 0x07, 0x16, 0x26, 0xf2, 0xf0, 0x3e, 0x90, 0xdf,
  0x01, 0x0c, 0xee, 0xa5, 0x12, 0x96, 0x40, 0xc8, 0xec, 0xf7, 0xd8, 0xba,
  0xcc, 0x09, 0xc8, 0x1c, 0xd7, 0x31, 0x1a, 0xf9, 0x3c, 0x0b, 0xf9, 0xfa,
  0x0b, 0x30, 0xc7, 0x18, 0xc6, 0xff, 0xfb, 0xe9, 0x27, 0xb0, 0xe6, 0x04,
  0x24, 0x09, 0xff, 0x34, 0xec, 0xcc, 0xd4, 0xdc, 0x07, 0x81, 0x18, 0x2e,
  0xee, 0xed, 0x42, 0xc8, 0xf3, 0x1d, 0x28, 0xd8, 0x1e, 0xfd, 0x41, 0xe5,
  0xed, 0x1c, 0x03, 0xdc, 0xe5, 0xd9, 0x1c, 0xbf, 0x3b, 0xd8, 0xeb, 0xc7,
  0xcd, 0x0b, 0xdc, 0xdd, 0x0a, 0x08, 0x18, 0x81, 0x5e, 0xbd, 0x17, 0xd3,
  0x08, 0xce, 0x08, 0xa2, 0x4b, 0x0e, 0x00, 0xc1, 0x21, 0xfc, 0x3e, 0x6a,
  0x0c, 0xab, 0x08, 0xee, 0x4d, 0xd7, 0x0f, 0xd0, 0x04, 0xb6, 0x1b, 0x44,
  0x53, 0xf1, 0x14, 0x59, 0x59, 0xe9, 0x09, 0xc4, 0x1b, 0x81, 0x22, 0x1a,
  0x7a, 0xfd, 0xff, 0xff, 0x04, 0x00, 0x00, 0x00, 0x20, 0x00, 0x00, 0x00,
  0xb1, 0x07, 0x00, 0x00, 0x01, 0x03, 0x00, 0x00, 0x0b, 0xfc, 0xff, 0xff,
  0xd6, 0x11, 0x00, 0x00, 0xd7, 0x06, 0x00, 0x00, 0x29, 0x04, 0x00, 0x00,
  0x3d, 0x12, 0x00, 0x00, 0x04, 0xfb, 0xff, 0xff, 0xa6, 0xfd, 0xff, 0xff,
  0x04, 0x00, 0x00, 0x00, 0x80, 0x00, 0x00, 0x00, 0x81, 0x44, 0x45, 0xe3,
  0x11, 0xcf, 0xe8, 0x0c, 0x7f, 0x48, 0xb4, 0xd9, 0xcf, 0x1c, 0xd1, 0x37,
  0x81, 0x0e, 0x5d, 0xf7, 0x2c, 0xb6, 0x0d, 0xe7, 0x02, 0x59, 0x91, 0xb2,
  0x7f, 0x9e, 0x4f, 0x44, 0x4a, 0x53, 0xb7, 0x1f, 0x7f, 0x91, 0x19, 0x8e,
  0x14, 0x33, 0x29, 0x52, 0x11, 0x81, 0xa7, 0xd5, 0x15, 0x0c, 0x1a, 0x26,
  0x81, 0x52, 0x91, 0x13, 0xb3, 0x25, 0x21, 0x78, 0xfb, 0x0a, 0xd0, 0x81,
  0xe6, 0x81, 0x24, 0xbb, 0x11, 0x3c, 0x7a, 0xfe, 0xf3, 0x0c, 0x81, 0x42,
  0xa9, 0x45, 0xfb, 0x24, 0xd5, 0x59, 0x81, 0x45, 0x19, 0x4e, 0xfe, 0xd3,
  0x93, 0x75, 0xad, 0x83, 0x7f, 0xc7, 0x6e, 0x3a, 0xf4, 0xfb, 0xfc, 0xcb,
  0x7f, 0x8c, 0x6f, 0xf4, 0xdd, 0x0f, 0xe0, 0x43, 0x37, 0x20, 0x18, 0x81,
  0x41, 0x81, 0x11, 0xcb, 0x29, 0x13, 0x7f, 0x01, 0x46, 0xed, 0x90, 0x66,
  0x6b, 0x12, 0x25, 0x81, 0x32, 0xfe, 0xff, 0xff, 0x04, 0x00, 0x00, 0x00,
  0x40, 0x00, 0x00, 0x00, 0xdb, 0x05, 0x00, 0x00, 0x37, 0x02, 0x00, 0x00,
  0x50, 0x02, 0x00, 0x00, 0x8a, 0xfd, 0xff, 0xff, 0xe3, 0xf5, 0xff, 0xff,
  0x14, 0x07, 0x00, 0x00, 0xdb, 0x0a, 0x00, 0x00, 0x83, 0x02, 0x00, 0x00,
  0x65, 0xfb, 0xff, 0xff, 0x8f, 0x07, 0x00, 0x00, 0xa0, 0xfd, 0xff, 0xff,
  0xfd, 0xff, 0xff, 0xff, 0xdd, 0xf6, 0xff, 0xff, 0xd1, 0xfa, 0xff, 0xff,
  0x6a, 0xf6, 0xff, 0xff, 0x6d, 0xf9, 0xff, 0xff, 0x7e, 0xfe, 0xff, 0xff,
  0x04, 0x00, 0x00, 0x00, 0x70, 0x00, 0x00, 0x00, 0x12, 0xa4, 0x16, 0x16,
  0x2f, 0x1e, 0x81, 0x1c, 0x95, 0xd3, 0x20, 0x15, 0x1c, 0x2b, 0xb8, 0x25,
  0x81, 0x98, 0xbf, 0xa4, 0xa0, 0x9c, 0x0c, 0x1e, 0x23, 0x35, 0x2d, 0xad,
  0xa5, 0x37, 0x19, 0x31, 0x81, 0x23, 0x8a, 0x1f, 0x34, 0x26, 0xc1, 0x92,
  0xba, 0x86, 0xa5, 0xe9, 0x23, 0xbe, 0x21, 0x2b, 0x81, 0x17, 0x8f, 0xa6,
  0xcc, 0xac, 0x15, 0x93, 0x16, 0xb9, 0x9e, 0x8e, 0xb9, 0x9d, 0x1a, 0xbd,
  0x13, 0x8d, 0x16, 0x0e, 0x95, 0xbc, 0x81, 0xb7, 0x1b, 0xd6, 0xd2, 0x19,
  0x1a, 0xc2, 0x12, 0xb0, 0x01, 0x16, 0x94, 0x1c, 0x97, 0xaf, 0x0d, 0xc1,
  0x95, 0x35, 0x26, 0x1e, 0xa4, 0xab, 0x81, 0xbb, 0x22, 0x9c, 0x29, 0x84,
  0xa4, 0x31, 0x18, 0x2a, 0xc7, 0xce, 0xca, 0xa4, 0x81, 0xee, 0x89, 0xbc,
  0xfa, 0xfe, 0xff, 0xff, 0x04, 0x00, 0x00, 0x00, 0x1c, 0x00, 0x00, 0x00,
  0x51, 0xea, 0xff, 0xff, 0xb3, 0xfb, 0xff, 0xff, 0x4b, 0xf6, 0xff, 0xff,
  0x9d, 0x0a, 0x00, 0x00, 0x04, 0x02, 0x00, 0x00, 0x88, 0x06, 0x00, 0x00,
  0x08, 0x0c, 0x00, 0x00, 0x22, 0xff, 0xff, 0xff, 0x04, 0x00, 0x00, 0x00,
  0x04, 0x00, 0x00, 0x00, 0x01, 0x00, 0x00, 0x00, 0x32, 0xff, 0xff, 0xff,
  0x04, 0x00, 0x00, 0x00, 0x0c, 0x00, 0x00, 0x00, 0x01, 0x00, 0x00, 0x00,
  0x7d, 0x00, 0x00, 0x00, 0x08, 0x00, 0x00, 0x00, 0x4a, 0xff, 0xff, 0xff,
  0x04, 0x00, 0x00, 0x00, 0x10, 0x00, 0x00, 0x00, 0x01, 0x00, 0x00, 0x00,
  0x01, 0x00, 0x00, 0x00, 0xf4, 0x01, 0x00, 0x00, 0x06, 0x00, 0x00, 0x00,
  0x7c, 0xeb, 0xff, 0xff, 0x80, 0xeb, 0xff, 0xff, 0x0f, 0x00, 0x00, 0x00,
  0x4d, 0x4c, 0x49, 0x52, 0x20, 0x43, 0x6f, 0x6e, 0x76, 0x65, 0x72, 0x74,
  0x65, 0x64, 0x2e, 0x00, 0x01, 0x00, 0x00, 0x00, 0x14, 0x00, 0x00, 0x00,
  0x00, 0x00, 0x0e, 0x00, 0x18, 0x00, 0x14, 0x00, 0x10, 0x00, 0x0c, 0x00,
  0x08, 0x00, 0x04, 0x00, 0x0e, 0x00, 0x00, 0x00, 0x14, 0x00, 0x00, 0x00,
  0x1c, 0x00, 0x00, 0x00, 0x44, 0x02, 0x00, 0x00, 0x48, 0x02, 0x00, 0x00,
  0x4c, 0x02, 0x00, 0x00, 0x04, 0x00, 0x00, 0x00, 0x6d, 0x61, 0x69, 0x6e,
  0x00, 0x00, 0x00, 0x00, 0x09, 0x00, 0x00, 0x00, 0x08, 0x02, 0x00, 0x00,
  0xac, 0x01, 0x00, 0x00, 0x58, 0x01, 0x00, 0x00, 0x14, 0x01, 0x00, 0x00,
  0xf0, 0x00, 0x00, 0x00, 0xbc, 0x00, 0x00, 0x00, 0x78, 0x00, 0x00, 0x00,
  0x40, 0x00, 0x00, 0x00, 0x04, 0x00, 0x00, 0x00, 0x82, 0xfe, 0xff, 0xff,
  0x1c, 0x00, 0x00, 0x00, 0x00, 0x00, 0x00, 0x09, 0x1c, 0x00, 0x00, 0x00,
  0x20, 0x00, 0x00, 0x00, 0x04, 0x00, 0x00, 0x00, 0x00, 0x00, 0x06, 0x00,
  0x08, 0x00, 0x04, 0x00, 0x06, 0x00, 0x00, 0x00, 0x00, 0x00, 0x80, 0x3f,
  0x01, 0x00, 0x00, 0x00, 0x16, 0x00, 0x00, 0x00, 0x01, 0x00, 0x00, 0x00,
  0x15, 0x00, 0x00, 0x00, 0xba, 0xfe, 0xff, 0xff, 0x14, 0x00, 0x00, 0x00,
  0x00, 0x00, 0x00, 0x08, 0x10, 0x00, 0x00, 0x00, 0x14, 0x00, 0x00, 0x00,
  0x03, 0x00, 0x00, 0x00, 0x4c, 0xec, 0xff, 0xff, 0x01, 0x00, 0x00, 0x00,
  0x15, 0x00, 0x00, 0x00, 0x03, 0x00, 0x00, 0x00, 0x14, 0x00, 0x00, 0x00,
  0x05, 0x00, 0x00, 0x00, 0x04, 0x00, 0x00, 0x00, 0xee, 0xfe, 0xff, 0xff,
  0x1c, 0x00, 0x00, 0x00, 0x00, 0x00, 0x00, 0x08, 0x1c, 0x00, 0x00, 0x00,
  0x20, 0x00, 0x00, 0x00, 0x03, 0x00, 0x00, 0x00, 0x00, 0x00, 0x06, 0x00,
  0x08, 0x00, 0x07, 0x00, 0x06, 0x00, 0x00, 0x00, 0x00, 0x00, 0x00, 0x01,
  0x01, 0x00, 0x00, 0x00, 0x14, 0x00, 0x00, 0x00, 0x03, 0x00, 0x00, 0x00,
  0x13, 0x00, 0x00, 0x00, 0x07, 0x00, 0x00, 0x00, 0x06, 0x00, 0x00, 0x00,
  0x2e, 0xff, 0xff, 0xff, 0x14, 0x00, 0x00, 0x00, 0x00, 0x00, 0x00, 0x1b,
  0x10, 0x00, 0x00, 0x00, 0x14, 0x00, 0x00, 0x00, 0x02, 0x00, 0x00, 0x00,
  0xc0, 0xec, 0xff, 0xff, 0x01, 0x00, 0x00, 0x00, 0x13, 0x00, 0x00, 0x00,
  0x02, 0x00, 0x00, 0x00, 0x12, 0x00, 0x00, 0x00, 0x03, 0x00, 0x00, 0x00,
  0x02, 0xff, 0xff, 0xff, 0x08, 0x00, 0x00, 0x00, 0x0c, 0x00, 0x00, 0x00,
  0x01, 0x00, 0x00, 0x00, 0x12, 0x00, 0x00, 0x00, 0x02, 0x00, 0x00, 0x00,
  0x11, 0x00, 0x00, 0x00, 0x02, 0x00, 0x00, 0x00, 0x7e, 0xff, 0xff, 0xff,
  0x14, 0x00, 0x00, 0x00, 0x00, 0x00, 0x00, 0x01, 0x1c, 0x00, 0x00, 0x00,
  0x20, 0x00, 0x00, 0x00, 0x01, 0x00, 0x00, 0x00, 0x70, 0xff, 0xff, 0xff,
  0x00, 0x00, 0x00, 0x01, 0x01, 0x00, 0x00, 0x00, 0x01, 0x00, 0x00, 0x00,
  0x01, 0x00, 0x00, 0x00, 0x11, 0x00, 0x00, 0x00, 0x03, 0x00, 0x00, 0x00,
  0x10, 0x00, 0x00, 0x00, 0x09, 0x00, 0x00, 0x00, 0x08, 0x00, 0x00, 0x00,
  0xbe, 0xff, 0xff, 0xff, 0x14, 0x00, 0x00, 0x00, 0x00, 0x00, 0x00, 0x01,
  0x1c, 0x00, 0x00, 0x00, 0x20, 0x00, 0x00, 0x00, 0x01, 0x00, 0x00, 0x00,
  0xb0, 0xff, 0xff, 0xff, 0x00, 0x00, 0x00, 0x01, 0x01, 0x00, 0x00, 0x00,
  0x02, 0x00, 0x00, 0x00, 0x01, 0x00, 0x00, 0x00, 0x10, 0x00, 0x00, 0x00,
  0x03, 0x00, 0x00, 0x00, 0x0f, 0x00, 0x00, 0x00, 0x0b, 0x00, 0x00, 0x00,
  0x0a, 0x00, 0x00, 0x00, 0x00, 0x00, 0x0e, 0x00, 0x18, 0x00, 0x14, 0x00,
  0x10, 0x00, 0x0c, 0x00, 0x0b, 0x00, 0x04, 0x00, 0x0e, 0x00, 0x00, 0x00,
  0x20, 0x00, 0x00, 0x00, 0x00, 0x00, 0x00, 0x01, 0x28, 0x00, 0x00, 0x00,
  0x2c, 0x00, 0x00, 0x00, 0x01, 0x00, 0x00, 0x00, 0x0c, 0x00, 0x10, 0x00,
  0x00, 0x00, 0x0c, 0x00, 0x08, 0x00, 0x07, 0x00, 0x0c, 0x00, 0x00, 0x00,
  0x00, 0x00, 0x00, 0x01, 0x01, 0x00, 0x00, 0x00, 0x02, 0x00, 0x00, 0x00,
  0x01, 0x00, 0x00, 0x00, 0x0f, 0x00, 0x00, 0x00, 0x03, 0x00, 0x00, 0x00,
  0x0e, 0x00, 0x00, 0x00, 0x0d, 0x00, 0x00, 0x00, 0x0c, 0x00, 0x00, 0x00,
  0x00, 0x00, 0x0a, 0x00, 0x0c, 0x00, 0x00, 0x00, 0x08, 0x00, 0x04, 0x00,
  0x0a, 0x00, 0x00, 0x00, 0x08, 0x00, 0x00, 0x00, 0x0c, 0x00, 0x00, 0x00,
  0x01, 0x00, 0x00, 0x00, 0x0e, 0x00, 0x00, 0x00, 0x02, 0x00, 0x00, 0x00,
  0x00, 0x00, 0x00, 0x00, 0x01, 0x00, 0x00, 0x00, 0x01, 0x00, 0x00, 0x00,
  0x16, 0x00, 0x00, 0x00, 0x01, 0x00, 0x00, 0x00, 0x00, 0x00, 0x00, 0x00,
  0x17, 0x00, 0x00, 0x00, 0x28, 0x12, 0x00, 0x00, 0xcc, 0x11, 0x00, 0x00,
  0x8c, 0x11, 0x00, 0x00, 0x50, 0x11, 0x00, 0x00, 0xa4, 0x10, 0x00, 0x00,
  0xf8, 0x0f, 0x00, 0x00, 0xe4, 0x0e, 0x00, 0x00, 0xc8, 0x0d, 0x00, 0x00,
  0x14, 0x0d, 0x00, 0x00, 0x50, 0x0c, 0x00, 0x00, 0x6c, 0x0b, 0x00, 0x00,
  0x78, 0x0a, 0x00, 0x00, 0x64, 0x09, 0x00, 0x00, 0x40, 0x08, 0x00, 0x00,
  0xb4, 0x07, 0x00, 0x00, 0x50, 0x06, 0x00, 0x00, 0xe4, 0x04, 0x00, 0x00,
  0x78, 0x03, 0x00, 0x00, 0x3c, 0x02, 0x00, 0x00, 0xb8, 0x01, 0x00, 0x00,
  0x04, 0x01, 0x00, 0x00, 0x70, 0x00, 0x00, 0x00, 0x04, 0x00, 0x00, 0x00,
  0x4a, 0xee, 0xff, 0xff, 0x00, 0x00, 0x00, 0x01, 0x14, 0x00, 0x00, 0x00,
  0x30, 0x00, 0x00, 0x00, 0x17, 0x00, 0x00, 0x00, 0x00, 0x00, 0x00, 0x09,
  0x44, 0x00, 0x00, 0x00, 0x34, 0xee, 0xff, 0xff, 0x08, 0x00, 0x00, 0x00,
  0x10, 0x00, 0x00, 0x00, 0x01, 0x00, 0x00, 0x00, 0x80, 0xff, 0xff, 0xff,
  0xff, 0xff, 0xff, 0xff, 0x01, 0x00, 0x00, 0x00, 0x00, 0x00, 0x80, 0x3b,
  0x1b, 0x00, 0x00, 0x00, 0x53, 0x74, 0x61, 0x74, 0x65, 0x66, 0x75, 0x6c,
  0x50, 0x61, 0x72, 0x74, 0x69, 0x74, 0x69, 0x6f, 0x6e, 0x65, 0x64, 0x43,
  0x61, 0x6c, 0x6c, 0x5f, 0x31, 0x3a, 0x30, 0x00, 0x02, 0x00, 0x00, 0x00,
  0x01, 0x00, 0x00, 0x00, 0x07, 0x00, 0x00, 0x00, 0xb2, 0xee, 0xff, 0xff,
  0x00, 0x00, 0x00, 0x01, 0x14, 0x00, 0x00, 0x00, 0x30, 0x00, 0x00, 0x00,
  0x16, 0x00, 0x00, 0x00, 0x00, 0x00, 0x00, 0x09, 0x6c, 0x00, 0x00, 0x00,
  0x9c, 0xee, 0xff, 0xff, 0x08, 0x00, 0x00, 0x00, 0x10, 0x00, 0x00, 0x00,
  0x01, 0x00, 0x00, 0x00, 0x31, 0x00, 0x00, 0x00, 0x00, 0x00, 0x00, 0x00,
  0x01, 0x00, 0x00, 0x00, 0x57, 0x21, 0xc1, 0x3e, 0x40, 0x00, 0x00, 0x00,
  0x73, 0x65, 0x71, 0x75, 0x65, 0x6e, 0x74, 0x69, 0x61, 0x6c, 0x5f, 0x33,
  0x5f, 0x31, 0x2f, 0x64, 0x65, 0x6e, 0x73, 0x65, 0x5f, 0x37, 0x5f, 0x31,
  0x2f, 0x4d, 0x61, 0x74, 0x4d, 0x75, 0x6c, 0x3b, 0x73, 0x65, 0x71, 0x75,
  0x65, 0x6e, 0x74, 0x69, 0x61, 0x6c, 0x5f, 0x33, 0x5f, 0x31, 0x2f, 0x64,
  0x65, 0x6e, 0x73, 0x65, 0x5f, 0x37, 0x5f, 0x31, 0x2f, 0x42, 0x69, 0x61,
  0x73, 0x41, 0x64, 0x64, 0x00, 0x00, 0x00, 0x00, 0x02, 0x00, 0x00, 0x00,
  0x01, 0x00, 0x00, 0x00, 0x07, 0x00, 0x00, 0x00, 0x42, 0xef, 0xff, 0xff,
  0x00, 0x00, 0x00, 0x01, 0x14, 0x00, 0x00, 0x00, 0x34, 0x00, 0x00, 0x00,
  0x15, 0x00, 0x00, 0x00, 0x00, 0x00, 0x00, 0x09, 0x8c, 0x00, 0x00, 0x00,
  0x2c, 0xef, 0xff, 0xff, 0x08, 0x00, 0x00, 0x00, 0x14, 0x00, 0x00, 0x00,
  0x01, 0x00, 0x00, 0x00, 0x80, 0xff, 0xff, 0xff, 0xff, 0xff, 0xff, 0xff,
  0x00, 0x00, 0x00, 0x00, 0x01, 0x00, 0x00, 0x00, 0xb1, 0x87, 0x1c, 0x3c,
  0x5e, 0x00, 0x00, 0x00, 0x73, 0x65, 0x71, 0x75, 0x65, 0x6e, 0x74, 0x69,
  0x61, 0x6c, 0x5f, 0x33, 0x5f, 0x31, 0x2f, 0x64, 0x65, 0x6e, 0x73, 0x65,
  0x5f, 0x36, 0x5f, 0x31, 0x2f, 0x4d, 0x61, 0x74, 0x4d, 0x75, 0x6c, 0x3b,
  0x73, 0x65, 0x71, 0x75, 0x65, 0x6e, 0x74, 0x69, 0x61, 0x6c, 0x5f, 0x33,
  0x5f, 0x31, 0x2f, 0x64, 0x65, 0x6e, 0x73, 0x65, 0x5f, 0x36, 0x5f, 0x31,
  0x2f, 0x52, 0x65, 0x6c, 0x75, 0x3b, 0x73, 0x65, 0x71, 0x75, 0x65, 0x6e,
  0x74, 0x69, 0x61, 0x6c, 0x5f, 0x33, 0x5f, 0x31, 0x2f, 0x64, 0x65, 0x6e,
  0x73, 0x65, 0x5f, 0x36, 0x5f, 0x31, 0x2f, 0x42, 0x69, 0x61, 0x73, 0x41,
  0x64, 0x64, 0x00, 0x00, 0x02, 0x00, 0x00, 0x00, 0x01, 0x00, 0x00, 0x00,
  0x10, 0x00, 0x00, 0x00, 0xf2, 0xef, 0xff, 0xff, 0x00, 0x00, 0x00, 0x01,
  0x14, 0x00, 0x00, 0x00, 0x30, 0x00, 0x00, 0x00, 0x14, 0x00, 0x00, 0x00,
  0x00, 0x00, 0x00, 0x09, 0x5c, 0x00, 0x00, 0x00, 0xdc, 0xef, 0xff, 0xff,
  0x08, 0x00, 0x00, 0x00, 0x10, 0x00, 0x00, 0x00, 0x01, 0x00, 0x00, 0x00,
  0x80, 0xff, 0xff, 0xff, 0xff, 0xff, 0xff, 0xff, 0x01, 0x00, 0x00, 0x00,
  0xbb, 0x94, 0x83, 0x3c, 0x30, 0x00, 0x00, 0x00, 0x73, 0x65, 0x71, 0x75,
  0x65, 0x6e, 0x74, 0x69, 0x61, 0x6c, 0x5f, 0x33, 0x5f, 0x31, 0x2f, 0x67,
  0x6c, 0x6f, 0x62, 0x61, 0x6c, 0x5f, 0x61, 0x76, 0x65, 0x72, 0x61, 0x67,
  0x65, 0x5f, 0x70, 0x6f, 0x6f, 0x6c, 0x69, 0x6e, 0x67, 0x31, 0x64, 0x5f,
  0x33, 0x5f, 0x31, 0x2f, 0x4d, 0x65, 0x61, 0x6e, 0x00, 0x00, 0x00, 0x00,
  0x02, 0x00, 0x00, 0x00, 0x01, 0x00, 0x00, 0x00, 0x08, 0x00, 0x00, 0x00,
  0x72, 0xf0, 0xff, 0xff, 0x00, 0x00, 0x00, 0x01, 0x14, 0x00, 0x00, 0x00,
  0x30, 0x00, 0x00, 0x00, 0x13, 0x00, 0x00, 0x00, 0x00, 0x00, 0x00, 0x09,
  0x10, 0x01, 0x00, 0x00, 0x5c, 0xf0, 0xff, 0xff, 0x08, 0x00, 0x00, 0x00,
  0x10, 0x00, 0x00, 0x00, 0x01, 0x00, 0x00, 0x00, 0x80, 0xff, 0xff, 0xff,
  0xff, 0xff, 0xff, 0xff, 0x01, 0x00, 0x00, 0x00, 0x91, 0x70, 0x80, 0x3d,
  0xe6, 0x00, 0x00, 0x00, 0x73, 0x65, 0x71, 0x75, 0x65, 0x6e, 0x74, 0x69,
  0x61, 0x6c, 0x5f, 0x33, 0x5f, 0x31, 0x2f, 0x61, 0x63, 0x74, 0x69, 0x76,
  0x61, 0x74, 0x69, 0x6f, 0x6e, 0x5f, 0x31, 0x31, 0x5f, 0x31, 0x2f, 0x52,
  0x65, 0x6c, 0x75, 0x3b, 0x73, 0x65, 0x71, 0x75, 0x65, 0x6e, 0x74, 0x69,
  0x61, 0x6c, 0x5f, 0x33, 0x5f, 0x31, 0x2f, 0x62, 0x61, 0x74, 0x63, 0x68,
  0x5f, 0x6e, 0x6f, 0x72, 0x6d, 0x61, 0x6c, 0x69, 0x7a, 0x61, 0x74, 0x69,
  0x6f, 0x6e, 0x5f, 0x31, 0x31, 0x5f, 0x31, 0x2f, 0x62, 0x61, 0x74, 0x63,
  0x68, 0x6e, 0x6f, 0x72, 0x6d, 0x2f, 0x61, 0x64, 0x64, 0x5f, 0x31, 0x3b,
  0x73, 0x65, 0x71, 0x75, 0x65, 0x6e, 0x74, 0x69, 0x61, 0x6c, 0x5f, 0x33,
  0x5f, 0x31, 0x2f, 0x63, 0x6f, 0x6e, 0x76, 0x31, 0x64, 0x5f, 0x31, 0x31,
  0x5f, 0x31, 0x2f, 0x63, 0x6f, 0x6e, 0x76, 0x6f, 0x6c, 0x75, 0x74, 0x69,
  0x6f, 0x6e, 0x2f, 0x53, 0x71, 0x75, 0x65, 0x65, 0x7a, 0x65, 0x3b, 0x73,
  0x65, 0x71, 0x75, 0x65, 0x6e, 0x74, 0x69, 0x61, 0x6c, 0x5f, 0x33, 0x5f,
  0x31, 0x2f, 0x62, 0x61, 0x74, 0x63, 0x68, 0x5f, 0x6e, 0x6f, 0x72, 0x6d,
  0x61, 0x6c, 0x69, 0x7a, 0x61, 0x74, 0x69, 0x6f, 0x6e, 0x5f, 0x31, 0x31,
  0x5f, 0x31, 0x2f, 0x62, 0x61, 0x74, 0x63, 0x68, 0x6e, 0x6f, 0x72, 0x6d,
  0x2f, 0x6d, 0x75, 0x6c, 0x5f, 0x31, 0x3b, 0x73, 0x65, 0x71, 0x75, 0x65,
  0x6e, 0x74, 0x69, 0x61, 0x6c, 0x5f, 0x33, 0x5f, 0x31, 0x2f, 0x63, 0x6f,
  0x6e, 0x76, 0x31, 0x64, 0x5f, 0x31, 0x31, 0x5f, 0x31, 0x2f, 0x42, 0x69,
  0x61, 0x73, 0x41, 0x64, 0x64, 0x3b, 0x00, 0x00, 0x03, 0x00, 0x00, 0x00,
  0x01, 0x00, 0x00, 0x00, 0x7d, 0x00, 0x00, 0x00, 0x08, 0x00, 0x00, 0x00,
  0xaa, 0xf1, 0xff, 0xff, 0x00, 0x00, 0x00, 0x01, 0x14, 0x00, 0x00, 0x00,
  0x34, 0x00, 0x00, 0x00, 0x12, 0x00, 0x00, 0x00, 0x00, 0x00, 0x00, 0x09,
  0x3c, 0x01, 0x00, 0x00, 0x94, 0xf1, 0xff, 0xff, 0x08, 0x00, 0x00, 0x00,
  0x14, 0x00, 0x00, 0x00, 0x01, 0x00, 0x00, 0x00, 0x80, 0xff, 0xff, 0xff,
  0xff, 0xff, 0xff, 0xff, 0x00, 0x00, 0x00, 0x00, 0x01, 0x00, 0x00, 0x00,
  0x91, 0x70, 0x80, 0x3d, 0x0d, 0x01, 0x00, 0x00, 0x73, 0x65, 0x71, 0x75,
  0x65, 0x6e, 0x74, 0x69, 0x61, 0x6c, 0x5f, 0x33, 0x5f, 0x31, 0x2f, 0x61,
  0x63, 0x74, 0x69, 0x76, 0x61, 0x74, 0x69, 0x6f, 0x6e, 0x5f, 0x31, 0x31,
  0x5f, 0x31, 0x2f, 0x52, 0x65, 0x6c, 0x75, 0x3b, 0x73, 0x65, 0x71, 0x75,
  0x65, 0x6e, 0x74, 0x69, 0x61, 0x6c, 0x5f, 0x33, 0x5f, 0x31, 0x2f, 0x62,
  0x61, 0x74, 0x63, 0x68, 0x5f, 0x6e, 0x6f, 0x72, 0x6d, 0x61, 0x6c, 0x69,
  0x7a, 0x61, 0x74, 0x69, 0x6f, 0x6e, 0x5f, 0x31, 0x31, 0x5f, 0x31, 0x2f,
  0x62, 0x61, 0x74, 0x63, 0x68, 0x6e, 0x6f, 0x72, 0x6d, 0x2f, 0x61, 0x64,
  0x64, 0x5f, 0x31, 0x3b, 0x73, 0x65, 0x71, 0x75, 0x65, 0x6e, 0x74, 0x69,
  0x61, 0x6c, 0x5f, 0x33, 0x5f, 0x31, 0x2f, 0x63, 0x6f, 0x6e, 0x76, 0x31,
  0x64, 0x5f, 0x31, 0x31, 0x5f, 0x31, 0x2f, 0x63, 0x6f, 0x6e, 0x76, 0x6f,
  0x6c, 0x75, 0x74, 0x69, 0x6f, 0x6e, 0x2f, 0x53, 0x71, 0x75, 0x65, 0x65,
  0x7a, 0x65, 0x3b, 0x73, 0x65, 0x71, 0x75, 0x65, 0x6e, 0x74, 0x69, 0x61,
  0x6c, 0x5f, 0x33, 0x5f, 0x31, 0x2f, 0x62, 0x61, 0x74, 0x63, 0x68, 0x5f,
  0x6e, 0x6f, 0x72, 0x6d, 0x61, 0x6c, 0x69, 0x7a, 0x61, 0x74, 0x69, 0x6f,
  0x6e, 0x5f, 0x31, 0x31, 0x5f, 0x31, 0x2f, 0x62, 0x61, 0x74, 0x63, 0x68,
  0x6e, 0x6f, 0x72, 0x6d, 0x2f, 0x6d, 0x75, 0x6c, 0x5f, 0x31, 0x3b, 0x73,
  0x65, 0x71, 0x75, 0x65, 0x6e, 0x74, 0x69, 0x61, 0x6c, 0x5f, 0x33, 0x5f,
  0x31, 0x2f, 0x63, 0x6f, 0x6e, 0x76, 0x31, 0x64, 0x5f, 0x31, 0x31, 0x5f,
  0x31, 0x2f, 0x42, 0x69, 0x61, 0x73, 0x41, 0x64, 0x64, 0x3b, 0x3b, 0x73,
  0x65, 0x71, 0x75, 0x65, 0x6e, 0x74, 0x69, 0x61, 0x6c, 0x5f, 0x33, 0x5f,
  0x31, 0x2f, 0x63, 0x6f, 0x6e, 0x76, 0x31, 0x64, 0x5f, 0x31, 0x31, 0x5f,
  0x31, 0x2f, 0x63, 0x6f, 0x6e, 0x76, 0x6f, 0x6c, 0x75, 0x74, 0x69, 0x6f,
  0x6e, 0x00, 0x00, 0x00, 0x04, 0x00, 0x00, 0x00, 0x01, 0x00, 0x00, 0x00,
  0x01, 0x00, 0x00, 0x00, 0x7d, 0x00, 0x00, 0x00, 0x08, 0x00, 0x00, 0x00,
  0x12, 0xf3, 0xff, 0xff, 0x00, 0x00, 0x00, 0x01, 0x14, 0x00, 0x00, 0x00,
  0x34, 0x00, 0x00, 0x00, 0x11, 0x00, 0x00, 0x00, 0x00, 0x00, 0x00, 0x09,
  0x3c, 0x01, 0x00, 0x00, 0xfc, 0xf2, 0xff, 0xff, 0x08, 0x00, 0x00, 0x00,
  0x14, 0x00, 0x00, 0x00, 0x01, 0x00, 0x00, 0x00, 0x80, 0xff, 0xff, 0xff,
  0xff, 0xff, 0xff, 0xff, 0x00, 0x00, 0x00, 0x00, 0x01, 0x00, 0x00, 0x00,
  0x32, 0xe9, 0x1d, 0x3d, 0x0d, 0x01, 0x00, 0x00, 0x73, 0x65, 0x71, 0x75,
  0x65, 0x6e, 0x74, 0x69, 0x61, 0x6c, 0x5f, 0x33, 0x5f, 0x31, 0x2f, 0x61,
  0x63, 0x74, 0x69, 0x76, 0x61, 0x74, 0x69, 0x6f, 0x6e, 0x5f, 0x31, 0x30,
  0x5f, 0x31, 0x2f, 0x52, 0x65, 0x6c, 0x75, 0x3b, 0x73, 0x65, 0x71, 0x75,
  0x65, 0x6e, 0x74, 0x69, 0x61, 0x6c, 0x5f, 0x33, 0x5f, 0x31, 0x2f, 0x62,
  0x61, 0x74, 0x63, 0x68, 0x5f, 0x6e, 0x6f, 0x72, 0x6d, 0x61, 0x6c, 0x69,
  0x7a, 0x61, 0x74, 0x69, 0x6f, 0x6e, 0x5f, 0x31, 0x30, 0x5f, 0x31, 0x2f,
  0x62, 0x61, 0x74, 0x63, 0x68, 0x6e, 0x6f, 0x72, 0x6d, 0x2f, 0x61, 0x64,
  0x64, 0x5f, 0x31, 0x3b, 0x73, 0x65, 0x71, 0x75, 0x65, 0x6e, 0x74, 0x69,
  0x61, 0x6c, 0x5f, 0x33, 0x5f, 0x31, 0x2f, 0x63, 0x6f, 0x6e, 0x76, 0x31,
  0x64, 0x5f, 0x31, 0x30, 0x5f, 0x31, 0x2f, 0x63, 0x6f, 0x6e, 0x76, 0x6f,
  0x6c, 0x75, 0x74, 0x69, 0x6f, 0x6e, 0x2f, 0x53, 0x71, 0x75, 0x65, 0x65,
  0x7a, 0x65, 0x3b, 0x73, 0x65, 0x71, 0x75, 0x65, 0x6e, 0x74, 0x69, 0x61,
  0x6c, 0x5f, 0x33, 0x5f, 0x31, 0x2f, 0x62, 0x61, 0x74, 0x63, 0x68, 0x5f,
  0x6e, 0x6f, 0x72, 0x6d, 0x61, 0x6c, 0x69, 0x7a, 0x61, 0x74, 0x69, 0x6f,
  0x6e, 0x5f, 0x31, 0x30, 0x5f, 0x31, 0x2f, 0x62, 0x61, 0x74, 0x63, 0x68,
  0x6e, 0x6f, 0x72, 0x6d, 0x2f, 0x6d, 0x75, 0x6c, 0x5f, 0x31, 0x3b, 0x73,
  0x65, 0x71, 0x75, 0x65, 0x6e, 0x74, 0x69, 0x61, 0x6c, 0x5f, 0x33, 0x5f,
  0x31, 0x2f, 0x63, 0x6f, 0x6e, 0x76, 0x31, 0x64, 0x5f, 0x31, 0x30, 0x5f,
  0x31, 0x2f, 0x42, 0x69, 0x61, 0x73, 0x41, 0x64, 0x64, 0x3b, 0x3b, 0x73,
  0x65, 0x71, 0x75, 0x65, 0x6e, 0x74, 0x69, 0x61, 0x6c, 0x5f, 0x33, 0x5f,
  0x31, 0x2f, 0x63, 0x6f, 0x6e, 0x76, 0x31, 0x64, 0x5f, 0x31, 0x30, 0x5f,
  0x31, 0x2f, 0x63, 0x6f, 0x6e, 0x76, 0x6f, 0x6c, 0x75, 0x74, 0x69, 0x6f,
  0x6e, 0x00, 0x00, 0x00, 0x04, 0x00, 0x00, 0x00, 0x01, 0x00, 0x00, 0x00,
  0x01, 0x00, 0x00, 0x00, 0x7d, 0x00, 0x00, 0x00, 0x0c, 0x00, 0x00, 0x00,
  0x7a, 0xf4, 0xff, 0xff, 0x00, 0x00, 0x00, 0x01, 0x14, 0x00, 0x00, 0x00,
  0x34, 0x00, 0x00, 0x00, 0x10, 0x00, 0x00, 0x00, 0x00, 0x00, 0x00, 0x09,
  0x34, 0x01, 0x00, 0x00, 0x64, 0xf4, 0xff, 0xff, 0x08, 0x00, 0x00, 0x00,
  0x14, 0x00, 0x00, 0x00, 0x01, 0x00, 0x00, 0x00, 0x80, 0xff, 0xff, 0xff,
  0xff, 0xff, 0xff, 0xff, 0x00, 0x00, 0x00, 0x00, 0x01, 0x00, 0x00, 0x00,
  0x4d, 0x8a, 0xc7, 0x3d, 0x07, 0x01, 0x00, 0x00, 0x73, 0x65, 0x71, 0x75,
  0x65, 0x6e, 0x74, 0x69, 0x61, 0x6c, 0x5f, 0x33, 0x5f, 0x31, 0x2f, 0x61,
  0x63, 0x74, 0x69, 0x76, 0x61, 0x74, 0x69, 0x6f, 0x6e, 0x5f, 0x39, 0x5f,
  0x31, 0x2f, 0x52, 0x65, 0x6c, 0x75, 0x3b, 0x73, 0x65, 0x71, 0x75, 0x65,
  0x6e, 0x74, 0x69, 0x61, 0x6c, 0x5f, 0x33, 0x5f, 0x31, 0x2f, 0x62, 0x61,
  0x74, 0x63, 0x68, 0x5f, 0x6e, 0x6f, 0x72, 0x6d, 0x61, 0x6c, 0x69, 0x7a,
  0x61, 0x74, 0x69, 0x6f, 0x6e, 0x5f, 0x39, 0x5f, 0x31, 0x2f, 0x62, 0x61,
  0x74, 0x63, 0x68, 0x6e, 0x6f, 0x72, 0x6d, 0x2f, 0x61, 0x64, 0x64, 0x5f,
  0x31, 0x3b, 0x73, 0x65, 0x71, 0x75, 0x65, 0x6e, 0x74, 0x69, 0x61, 0x6c,
  0x5f, 0x33, 0x5f, 0x31, 0x2f, 0x63, 0x6f, 0x6e, 0x76, 0x31, 0x64, 0x5f,
  0x39, 0x5f, 0x31, 0x2f, 0x63, 0x6f, 0x6e, 0x76, 0x6f, 0x6c, 0x75, 0x74,
  0x69, 0x6f, 0x6e, 0x2f, 0x53, 0x71, 0x75, 0x65, 0x65, 0x7a, 0x65, 0x3b,
  0x73, 0x65, 0x71, 0x75, 0x65, 0x6e, 0x74, 0x69, 0x61, 0x6c, 0x5f, 0x33,
  0x5f, 0x31, 0x2f, 0x62, 0x61, 0x74, 0x63, 0x68, 0x5f, 0x6e, 0x6f, 0x72,
  0x6d, 0x61, 0x6c, 0x69, 0x7a, 0x61, 0x74, 0x69, 0x6f, 0x6e, 0x5f, 0x39,
  0x5f, 0x31, 0x2f, 0x62, 0x61, 0x74, 0x63, 0x68, 0x6e, 0x6f, 0x72, 0x6d,
  0x2f, 0x6d, 0x75, 0x6c, 0x5f, 0x31, 0x3b, 0x73, 0x65, 0x71, 0x75, 0x65,
  0x6e, 0x74, 0x69, 0x61, 0x6c, 0x5f, 0x33, 0x5f, 0x31, 0x2f, 0x63, 0x6f,
  0x6e, 0x76, 0x31, 0x64, 0x5f, 0x39, 0x5f, 0x31, 0x2f, 0x42, 0x69, 0x61,
  0x73, 0x41, 0x64, 0x64, 0x3b, 0x3b, 0x73, 0x65, 0x71, 0x75, 0x65, 0x6e,
  0x74, 0x69, 0x61, 0x6c, 0x5f, 0x33, 0x5f, 0x31, 0x2f, 0x63, 0x6f, 0x6e,
  0x76, 0x31, 0x64, 0x5f, 0x39, 0x5f, 0x31, 0x2f, 0x63, 0x6f, 0x6e, 0x76,
  0x6f, 0x6c, 0x75, 0x74, 0x69, 0x6f, 0x6e, 0x00, 0x04, 0x00, 0x00, 0x00,
  0x01, 0x00, 0x00, 0x00, 0x01, 0x00, 0x00, 0x00, 0xfa, 0x00, 0x00, 0x00,
  0x10, 0x00, 0x00, 0x00, 0xda, 0xf5, 0xff, 0xff, 0x00, 0x00, 0x00, 0x01,
  0x14, 0x00, 0x00, 0x00, 0x30, 0x00, 0x00, 0x00, 0x0f, 0x00, 0x00, 0x00,
  0x00, 0x00, 0x00, 0x09, 0x5c, 0x00, 0x00, 0x00, 0xc4, 0xf5, 0xff, 0xff,
  0x08, 0x00, 0x00, 0x00, 0x10, 0x00, 0x00, 0x00, 0x01, 0x00, 0x00, 0x00,
  0x94, 0xff, 0xff, 0xff, 0xff, 0xff, 0xff, 0xff, 0x01, 0x00, 0x00, 0x00,
  0xd5, 0x2a, 0xfb, 0x3e, 0x31, 0x00, 0x00, 0x00, 0x73, 0x65, 0x71, 0x75,
  0x65, 0x6e, 0x74, 0x69, 0x61, 0x6c, 0x5f, 0x33, 0x5f, 0x31, 0x2f, 0x63,
  0x6f, 0x6e, 0x76, 0x31, 0x64, 0x5f, 0x39, 0x5f, 0x31, 0x2f, 0x63, 0x6f,
  0x6e, 0x76, 0x6f, 0x6c, 0x75, 0x74, 0x69, 0x6f, 0x6e, 0x2f, 0x45, 0x78,
  0x70, 0x61, 0x6e, 0x64, 0x44, 0x69, 0x6d, 0x73, 0x31, 0x00, 0x00, 0x00,
  0x04, 0x00, 0x00, 0x00, 0x01, 0x00, 0x00, 0x00, 0x01, 0x00, 0x00, 0x00,
  0xf4, 0x01, 0x00, 0x00, 0x06, 0x00, 0x00, 0x00, 0x62, 0xf6, 0xff, 0xff,
  0x00, 0x00, 0x00, 0x01, 0x14, 0x00, 0x00, 0x00, 0xe8, 0x00, 0x00, 0x00,
  0x0e, 0x00, 0x00, 0x00, 0x00, 0x00, 0x00, 0x09, 0xf4, 0x00, 0x00, 0x00,
  0x4c, 0xf6, 0xff, 0xff, 0x08, 0x00, 0x00, 0x00, 0x8c, 0x00, 0x00, 0x00,
  0x10, 0x00, 0x00, 0x00, 0x00, 0x00, 0x00, 0x00, 0x00, 0x00, 0x00, 0x00,
  0x00, 0x00, 0x00, 0x00, 0x00, 0x00, 0x00, 0x00, 0x00, 0x00, 0x00, 0x00,
  0x00, 0x00, 0x00, 0x00, 0x00, 0x00, 0x00, 0x00, 0x00, 0x00, 0x00, 0x00,
  0x00, 0x00, 0x00, 0x00, 0x00, 0x00, 0x00, 0x00, 0x00, 0x00, 0x00, 0x00,
  0x00, 0x00, 0x00, 0x00, 0x00, 0x00, 0x00, 0x00, 0x00, 0x00, 0x00, 0x00,
  0x00, 0x00, 0x00, 0x00, 0x00, 0x00, 0x00, 0x00, 0x00, 0x00, 0x00, 0x00,
  0x00, 0x00, 0x00, 0x00, 0x00, 0x00, 0x00, 0x00, 0x00, 0x00, 0x00, 0x00,
  0x00, 0x00, 0x00, 0x00, 0x00, 0x00, 0x00, 0x00, 0x00, 0x00, 0x00, 0x00,
  0x00, 0x00, 0x00, 0x00, 0x00, 0x00, 0x00, 0x00, 0x00, 0x00, 0x00, 0x00,
  0x00, 0x00, 0x00, 0x00, 0x00, 0x00, 0x00, 0x00, 0x00, 0x00, 0x00, 0x00,
  0x00, 0x00, 0x00, 0x00, 0x00, 0x00, 0x00, 0x00, 0x00, 0x00, 0x00, 0x00,
  0x00, 0x00, 0x00, 0x00, 0x10, 0x00, 0x00, 0x00, 0x84, 0x5c, 0x19, 0x3b,
  0xfd, 0x64, 0xc0, 0x3a, 0x4a, 0x87, 0xd3, 0x3a, 0xfe, 0x56, 0xdb, 0x3a,
  0x1b, 0x0f, 0x85, 0x3b, 0x6c, 0x98, 0xcb, 0x3a, 0x6c, 0xa6, 0xc5, 0x3a,
  0xa6, 0xd8, 0x0b, 0x3b, 0x4b, 0x04, 0x14, 0x3b, 0x66, 0xfb, 0x8f, 0x3a,
  0x1a, 0x2e, 0xb8, 0x3a, 0x50, 0x1d, 0xa6, 0x3a, 0xd1, 0x0d, 0xcc, 0x3a,
  0x52, 0xa3, 0x85, 0x3a, 0xf4, 0xc8, 0xeb, 0x3a, 0x79, 0xd3, 0xb4, 0x3a,
  0x12, 0x00, 0x00, 0x00, 0x74, 0x66, 0x6c, 0x2e, 0x70, 0x73, 0x65, 0x75,
  0x64, 0x6f, 0x5f, 0x71, 0x63, 0x6f, 0x6e, 0x73, 0x74, 0x39, 0x00, 0x00,
  0x04, 0x00, 0x00, 0x00, 0x10, 0x00, 0x00, 0x00, 0x01, 0x00, 0x00, 0x00,
  0x07, 0x00, 0x00, 0x00, 0x06, 0x00, 0x00, 0x00, 0x82, 0xf7, 0xff, 0xff,
  0x00, 0x00, 0x00, 0x01, 0x14, 0x00, 0x00, 0x00, 0xe4, 0x00, 0x00, 0x00,
  0x0d, 0x00, 0x00, 0x00, 0x00, 0x00, 0x00, 0x02, 0xf0, 0x00, 0x00, 0x00,
  0x6c, 0xf7, 0xff, 0xff, 0x08, 0x00, 0x00, 0x00, 0x88, 0x00, 0x00, 0x00,
  0x10, 0x00, 0x00, 0x00, 0x00, 0x00, 0x00, 0x00, 0x00, 0x00, 0x00, 0x00,
  0x00, 0x00, 0x00, 0x00, 0x00, 0x00, 0x00, 0x00, 0x00, 0x00, 0x00, 0x00,
  0x00, 0x00, 0x00, 0x00, 0x00, 0x00, 0x00, 0x00, 0x00, 0x00, 0x00, 0x00,
  0x00, 0x00, 0x00, 0x00, 0x00, 0x00, 0x00, 0x00, 0x00, 0x00, 0x00, 0x00,
  0x00, 0x00, 0x00, 0x00, 0x00, 0x00, 0x00, 0x00, 0x00, 0x00, 0x00, 0x00,
  0x00, 0x00, 0x00, 0x00, 0x00, 0x00, 0x00, 0x00, 0x00, 0x00, 0x00, 0x00,
  0x00, 0x00, 0x00, 0x00, 0x00, 0x00, 0x00, 0x00, 0x00, 0x00, 0x00, 0x00,
  0x00, 0x00, 0x00, 0x00, 0x00, 0x00, 0x00, 0x00, 0x00, 0x00, 0x00, 0x00,
  0x00, 0x00, 0x00, 0x00, 0x00, 0x00, 0x00, 0x00, 0x00, 0x00, 0x00, 0x00,
  0x00, 0x00, 0x00, 0x00, 0x00, 0x00, 0x00, 0x00, 0x00, 0x00, 0x00, 0x00,
  0x00, 0x00, 0x00, 0x00, 0x00, 0x00, 0x00, 0x00, 0x00, 0x00, 0x00, 0x00,
  0x10, 0x00, 0x00, 0x00, 0x5e, 0x77, 0x96, 0x3a, 0x35, 0xc3, 0x3c, 0x3a,
  0x0a, 0x89, 0x4f, 0x3a, 0xfe, 0x32, 0x57, 0x3a, 0x13, 0x8c, 0x02, 0x3b,
  0x82, 0xc0, 0x47, 0x3a, 0x3e, 0xeb, 0x41, 0x3a, 0xd1, 0x34, 0x89, 0x3a,
  0xf9, 0x38, 0x91, 0x3a, 0x94, 0x43, 0x0d, 0x3a, 0x04, 0xb4, 0x34, 0x3a,
  0x88, 0xfa, 0x22, 0x3a, 0xb0, 0x33, 0x48, 0x3a, 0x7d, 0x1d, 0x03, 0x3a,
  0x7a, 0x55, 0x67, 0x3a, 0x99, 0x69, 0x31, 0x3a, 0x12, 0x00, 0x00, 0x00,
  0x74, 0x66, 0x6c, 0x2e, 0x70, 0x73, 0x65, 0x75, 0x64, 0x6f, 0x5f, 0x71,
  0x63, 0x6f, 0x6e, 0x73, 0x74, 0x38, 0x00, 0x00, 0x01, 0x00, 0x00, 0x00,
  0x10, 0x00, 0x00, 0x00, 0x92, 0xf8, 0xff, 0xff, 0x00, 0x00, 0x00, 0x01,
  0x14, 0x00, 0x00, 0x00, 0xb8, 0x00, 0x00, 0x00, 0x0c, 0x00, 0x00, 0x00,
  0x00, 0x00, 0x00, 0x09, 0xc4, 0x00, 0x00, 0x00, 0x7c, 0xf8, 0xff, 0xff,
  0x08, 0x00, 0x00, 0x00, 0x6c, 0x00, 0x00, 0x00, 0x0c, 0x00, 0x00, 0x00,
  0x00, 0x00, 0x00, 0x00, 0x00, 0x00, 0x00, 0x00, 0x00, 0x00, 0x00, 0x00,
  0x00, 0x00, 0x00, 0x00, 0x00, 0x00, 0x00, 0x00, 0x00, 0x00, 0x00, 0x00,
  0x00, 0x00, 0x00, 0x00, 0x00, 0x00, 0x00, 0x00, 0x00, 0x00, 0x00, 0x00,
  0x00, 0x00, 0x00, 0x00, 0x00, 0x00, 0x00, 0x00, 0x00, 0x00, 0x00, 0x00,
  0x00, 0x00, 0x00, 0x00, 0x00, 0x00, 0x00, 0x00, 0x00, 0x00, 0x00, 0x00,
  0x00, 0x00, 0x00, 0x00, 0x00, 0x00, 0x00, 0x00, 0x00, 0x00, 0x00, 0x00,
  0x00, 0x00, 0x00, 0x00, 0x00, 0x00, 0x00, 0x00, 0x00, 0x00, 0x00, 0x00,
  0x00, 0x00, 0x00, 0x00, 0x00, 0x00, 0x00, 0x00, 0x00, 0x00, 0x00, 0x00,
  0x00, 0x00, 0x00, 0x00, 0x0c, 0x00, 0x00, 0x00, 0xad, 0x43, 0x59, 0x3b,
  0x4e, 0xae, 0x0f, 0x3b, 0xfc, 0x9f, 0x45, 0x3b, 0x21, 0x27, 0xee, 0x3a,
  0xe6, 0xfd, 0x1c, 0x3b, 0x81, 0x09, 0xc7, 0x3b, 0xaa, 0x95, 0xd5, 0x3a,
  0xb1, 0x07, 0x70, 0x3b, 0xda, 0xfa, 0x33, 0x3b, 0xc6, 0x4c, 0x8a, 0x3b,
  0x9a, 0x96, 0x42, 0x3b, 0xbf, 0xcc, 0x42, 0x3b, 0x12, 0x00, 0x00, 0x00,
  0x74, 0x66, 0x6c, 0x2e, 0x70, 0x73, 0x65, 0x75, 0x64, 0x6f, 0x5f, 0x71,
  0x63, 0x6f, 0x6e, 0x73, 0x74, 0x37, 0x00, 0x00, 0x04, 0x00, 0x00, 0x00,
  0x0c, 0x00, 0x00, 0x00, 0x01, 0x00, 0x00, 0x00, 0x05, 0x00, 0x00, 0x00,
  0x10, 0x00, 0x00, 0x00, 0x82, 0xf9, 0xff, 0xff, 0x00, 0x00, 0x00, 0x01,
  0x14, 0x00, 0x00, 0x00, 0xb4, 0x00, 0x00, 0x00, 0x0b, 0x00, 0x00, 0x00,
  0x00, 0x00, 0x00, 0x02, 0xc0, 0x00, 0x00, 0x00, 0x6c, 0xf9, 0xff, 0xff,
  0x08, 0x00, 0x00, 0x00, 0x68, 0x00, 0x00, 0x00, 0x0c, 0x00, 0x00, 0x00,
  0x00, 0x00, 0x00, 0x00, 0x00, 0x00, 0x00, 0x00, 0x00, 0x00, 0x00, 0x00,
  0x00, 0x00, 0x00, 0x00, 0x00, 0x00, 0x00, 0x00, 0x00, 0x00, 0x00, 0x00,
  0x00, 0x00, 0x00, 0x00, 0x00, 0x00, 0x00, 0x00, 0x00, 0x00, 0x00, 0x00,
  0x00, 0x00, 0x00, 0x00, 0x00, 0x00, 0x00, 0x00, 0x00, 0x00, 0x00, 0x00,
  0x00, 0x00, 0x00, 0x00, 0x00, 0x00, 0x00, 0x00, 0x00, 0x00, 0x00, 0x00,
  0x00, 0x00, 0x00, 0x00, 0x00, 0x00, 0x00, 0x00, 0x00, 0x00, 0x00, 0x00,
  0x00, 0x00, 0x00, 0x00, 0x00, 0x00, 0x00, 0x00, 0x00, 0x00, 0x00, 0x00,
  0x00, 0x00, 0x00, 0x00, 0x00, 0x00, 0x00, 0x00, 0x00, 0x00, 0x00, 0x00,
  0x0c, 0x00, 0x00, 0x00, 0xfb, 0x58, 0xa9, 0x39, 0x3c, 0xfc, 0x5f, 0x39,
  0x21, 0x0a, 0x9a, 0x39, 0x13, 0xa1, 0x39, 0x39, 0x5c, 0xbc, 0x74, 0x39,
  0xea, 0x23, 0x1b, 0x3a, 0xba, 0x7a, 0x26, 0x39, 0xa7, 0x17, 0xbb, 0x39,
  0x3b, 0x49, 0x8c, 0x39, 0xca, 0x98, 0xd7, 0x39, 0x31, 0xac, 0x97, 0x39,
  0x65, 0xd6, 0x97, 0x39, 0x12, 0x00, 0x00, 0x00, 0x74, 0x66, 0x6c, 0x2e,
  0x70, 0x73, 0x65, 0x75, 0x64, 0x6f, 0x5f, 0x71, 0x63, 0x6f, 0x6e, 0x73,
  0x74, 0x36, 0x00, 0x00, 0x01, 0x00, 0x00, 0x00, 0x0c, 0x00, 0x00, 0x00,
  0x62, 0xfa, 0xff, 0xff, 0x00, 0x00, 0x00, 0x01, 0x14, 0x00, 0x00, 0x00,
  0x88, 0x00, 0x00, 0x00, 0x0a, 0x00, 0x00, 0x00, 0x00, 0x00, 0x00, 0x09,
  0x94, 0x00, 0x00, 0x00, 0x4c, 0xfa, 0xff, 0xff, 0x08, 0x00, 0x00, 0x00,
  0x4c, 0x00, 0x00, 0x00, 0x08, 0x00, 0x00, 0x00, 0x00, 0x00, 0x00, 0x00,
  0x00, 0x00, 0x00, 0x00, 0x00, 0x00, 0x00, 0x00, 0x00, 0x00, 0x00, 0x00,
  0x00, 0x00, 0x00, 0x00, 0x00, 0x00, 0x00, 0x00, 0x00, 0x00, 0x00, 0x00,
  0x00, 0x00, 0x00, 0x00, 0x00, 0x00, 0x00, 0x00, 0x00, 0x00, 0x00, 0x00,
  0x00, 0x00, 0x00, 0x00, 0x00, 0x00, 0x00, 0x00, 0x00, 0x00, 0x00, 0x00,
  0x00, 0x00, 0x00, 0x00, 0x00, 0x00, 0x00, 0x00, 0x00, 0x00, 0x00, 0x00,
  0x00, 0x00, 0x00, 0x00, 0x08, 0x00, 0x00, 0x00, 0x61, 0xf9, 0x5b, 0x3c,
  0x86, 0xfd, 0x97, 0x3c, 0xe3, 0x5f, 0x02, 0x3c, 0xcf, 0x93, 0x78, 0x3c,
  0x36, 0xdb, 0x62, 0x3c, 0x66, 0x15, 0xac, 0x3c, 0x95, 0xe4, 0x2f, 0x3c,
  0xc4, 0x53, 0x65, 0x3c, 0x12, 0x00, 0x00, 0x00, 0x74, 0x66, 0x6c, 0x2e,
  0x70, 0x73, 0x65, 0x75, 0x64, 0x6f, 0x5f, 0x71, 0x63, 0x6f, 0x6e, 0x73,
  0x74, 0x35, 0x00, 0x00, 0x04, 0x00, 0x00, 0x00, 0x08, 0x00, 0x00, 0x00,
  0x01, 0x00, 0x00, 0x00, 0x03, 0x00, 0x00, 0x00, 0x0c, 0x00, 0x00, 0x00,
  0x22, 0xfb, 0xff, 0xff, 0x00, 0x00, 0x00, 0x01, 0x14, 0x00, 0x00, 0x00,
  0x84, 0x00, 0x00, 0x00, 0x09, 0x00, 0x00, 0x00, 0x00, 0x00, 0x00, 0x02,
  0x90, 0x00, 0x00, 0x00, 0x0c, 0xfb, 0xff, 0xff, 0x08, 0x00, 0x00, 0x00,
  0x48, 0x00, 0x00, 0x00, 0x08, 0x00, 0x00, 0x00, 0x00, 0x00, 0x00, 0x00,
  0x00, 0x00, 0x00, 0x00, 0x00, 0x00, 0x00, 0x00, 0x00, 0x00, 0x00, 0x00,
  0x00, 0x00, 0x00, 0x00, 0x00, 0x00, 0x00, 0x00, 0x00, 0x00, 0x00, 0x00,
  0x00, 0x00, 0x00, 0x00, 0x00, 0x00, 0x00, 0x00, 0x00, 0x00, 0x00, 0x00,
  0x00, 0x00, 0x00, 0x00, 0x00, 0x00, 0x00, 0x00, 0x00, 0x00, 0x00, 0x00,
  0x00, 0x00, 0x00, 0x00, 0x00, 0x00, 0x00, 0x00, 0x00, 0x00, 0x00, 0x00,
  0x08, 0x00, 0x00, 0x00, 0x51, 0xb0, 0x07, 0x3a, 0xdd, 0x81, 0x3b, 0x3a,
  0x22, 0xd7, 0xa0, 0x39, 0x15, 0x55, 0x19, 0x3a, 0x16, 0xef, 0x0b, 0x3a,
  0xc1, 0x4b, 0x54, 0x3a, 0xd2, 0xfe, 0xd8, 0x39, 0x45, 0x75, 0x0d, 0x3a,
  0x12, 0x00, 0x00, 0x00, 0x74, 0x66, 0x6c, 0x2e, 0x70, 0x73, 0x65, 0x75,
  0x64, 0x6f, 0x5f, 0x71, 0x63, 0x6f, 0x6e, 0x73, 0x74, 0x34, 0x00, 0x00,
  0x01, 0x00, 0x00, 0x00, 0x08, 0x00, 0x00, 0x00, 0xd2, 0xfb, 0xff, 0xff,
  0x00, 0x00, 0x00, 0x01, 0x14, 0x00, 0x00, 0x00, 0xe8, 0x00, 0x00, 0x00,
  0x08, 0x00, 0x00, 0x00, 0x00, 0x00, 0x00, 0x09, 0xf4, 0x00, 0x00, 0x00,
  0xbc, 0xfb, 0xff, 0xff, 0x08, 0x00, 0x00, 0x00, 0x8c, 0x00, 0x00, 0x00,
  0x10, 0x00, 0x00, 0x00, 0x00, 0x00, 0x00, 0x00, 0x00, 0x00, 0x00, 0x00,
  0x00, 0x00, 0x00, 0x00, 0x00, 0x00, 0x00, 0x00, 0x00, 0x00, 0x00, 0x00,
  0x00, 0x00, 0x00, 0x00, 0x00, 0x00, 0x00, 0x00, 0x00, 0x00, 0x00, 0x00,
  0x00, 0x00, 0x00, 0x00, 0x00, 0x00, 0x00, 0x00, 0x00, 0x00, 0x00, 0x00,
  0x00, 0x00, 0x00, 0x00, 0x00, 0x00, 0x00, 0x00, 0x00, 0x00, 0x00, 0x00,
  0x00, 0x00, 0x00, 0x00, 0x00, 0x00, 0x00, 0x00, 0x00, 0x00, 0x00, 0x00,
  0x00, 0x00, 0x00, 0x00, 0x00, 0x00, 0x00, 0x00, 0x00, 0x00, 0x00, 0x00,
  0x00, 0x00, 0x00, 0x00, 0x00, 0x00, 0x00, 0x00, 0x00, 0x00, 0x00, 0x00,
  0x00, 0x00, 0x00, 0x00, 0x00, 0x00, 0x00, 0x00, 0x00, 0x00, 0x00, 0x00,
  0x00, 0x00, 0x00, 0x00, 0x00, 0x00, 0x00, 0x00, 0x00, 0x00, 0x00, 0x00,
  0x00, 0x00, 0x00, 0x00, 0x00, 0x00, 0x00, 0x00, 0x00, 0x00, 0x00, 0x00,
  0x00, 0x00, 0x00, 0x00, 0x10, 0x00, 0x00, 0x00, 0x3f, 0xf1, 0x1b, 0x3c,
  0xfc, 0x1f, 0xc4, 0x3b, 0x6b, 0x32, 0x1f, 0x3c, 0x03, 0xa7, 0xb7, 0x3b,
  0x6d, 0xe5, 0xb8, 0x3b, 0xc7, 0xcb, 0xf9, 0x3b, 0x85, 0xdd, 0xda, 0x3b,
  0x05, 0x30, 0x0d, 0x3c, 0xa7, 0x9b, 0x01, 0x3c, 0x18, 0xbe, 0x06, 0x3c,
  0x5e, 0x34, 0x01, 0x3c, 0xa9, 0x9e, 0xa8, 0x3b, 0x91, 0x93, 0xfc, 0x3b,
  0x1d, 0x6e, 0x2a, 0x3c, 0x2f, 0xe8, 0xd2, 0x3b, 0xdf, 0x14, 0xe6, 0x3b,
  0x12, 0x00, 0x00, 0x00, 0x74, 0x66, 0x6c, 0x2e, 0x70, 0x73, 0x65, 0x75,
  0x64, 0x6f, 0x5f, 0x71, 0x63, 0x6f, 0x6e, 0x73, 0x74, 0x33, 0x00, 0x00,
  0x02, 0x00, 0x00, 0x00, 0x10, 0x00, 0x00, 0x00, 0x08, 0x00, 0x00, 0x00,
  0xea, 0xfc, 0xff, 0xff, 0x00, 0x00, 0x00, 0x01, 0x14, 0x00, 0x00, 0x00,
  0xe4, 0x00, 0x00, 0x00, 0x07, 0x00, 0x00, 0x00, 0x00, 0x00, 0x00, 0x02,
  0xf0, 0x00, 0x00, 0x00, 0xd4, 0xfc, 0xff, 0xff, 0x08, 0x00, 0x00, 0x00,
  0x88, 0x00, 0x00, 0x00, 0x10, 0x00, 0x00, 0x00, 0x00, 0x00, 0x00, 0x00,
  0x00, 0x00, 0x00, 0x00, 0x00, 0x00, 0x00, 0x00, 0x00, 0x00, 0x00, 0x00,
  0x00, 0x00, 0x00, 0x00, 0x00, 0x00, 0x00, 0x00, 0x00, 0x00, 0x00, 0x00,
  0x00, 0x00, 0x00, 0x00, 0x00, 0x00, 0x00, 0x00, 0x00, 0x00, 0x00, 0x00,
  0x00, 0x00, 0x00, 0x00, 0x00, 0x00, 0x00, 0x00, 0x00, 0x00, 0x00, 0x00,
  0x00, 0x00, 0x00, 0x00, 0x00, 0x00, 0x00, 0x00, 0x00, 0x00, 0x00, 0x00,
  0x00, 0x00, 0x00, 0x00, 0x00, 0x00, 0x00, 0x00, 0x00, 0x00, 0x00, 0x00,
  0x00, 0x00, 0x00, 0x00, 0x00, 0x00, 0x00, 0x00, 0x00, 0x00, 0x00, 0x00,
  0x00, 0x00, 0x00, 0x00, 0x00, 0x00, 0x00, 0x00, 0x00, 0x00, 0x00, 0x00,
  0x00, 0x00, 0x00, 0x00, 0x00, 0x00, 0x00, 0x00, 0x00, 0x00, 0x00, 0x00,
  0x00, 0x00, 0x00, 0x00, 0x00, 0x00, 0x00, 0x00, 0x00, 0x00, 0x00, 0x00,
  0x00, 0x00, 0x00, 0x00, 0x10, 0x00, 0x00, 0x00, 0x19, 0x4e, 0x20, 0x39,
  0x9f, 0x9c, 0xc9, 0x38, 0x94, 0xa6, 0x23, 0x39, 0x52, 0xca, 0xbc, 0x38,
  0xa5, 0x11, 0xbe, 0x38, 0x67, 0x64, 0x00, 0x39, 0x06, 0xfd, 0xe0, 0x38,
  0x33, 0x23, 0x11, 0x39, 0xe6, 0x3b, 0x05, 0x39, 0x1d, 0x83, 0x0a, 0x39,
  0xba, 0xd1, 0x04, 0x39, 0x4f, 0x56, 0xad, 0x38, 0x41, 0xd2, 0x01, 0x39,
  0xba, 0x32, 0x2f, 0x39, 0xb1, 0xce, 0xd8, 0x38, 0xb4, 0x84, 0xec, 0x38,
  0x12, 0x00, 0x00, 0x00, 0x74, 0x66, 0x6c, 0x2e, 0x70, 0x73, 0x65, 0x75,
  0x64, 0x6f, 0x5f, 0x71, 0x63, 0x6f, 0x6e, 0x73, 0x74, 0x32, 0x00, 0x00,
  0x01, 0x00, 0x00, 0x00, 0x10, 0x00, 0x00, 0x00, 0xfa, 0xfd, 0xff, 0xff,
  0x00, 0x00, 0x00, 0x01, 0x14, 0x00, 0x00, 0x00, 0x78, 0x00, 0x00, 0x00,
  0x06, 0x00, 0x00, 0x00, 0x00, 0x00, 0x00, 0x09, 0x84, 0x00, 0x00, 0x00,
  0xe4, 0xfd, 0xff, 0xff, 0x08, 0x00, 0x00, 0x00, 0x40, 0x00, 0x00, 0x00,
  0x07, 0x00, 0x00, 0x00, 0x00, 0x00, 0x00, 0x00, 0x00, 0x00, 0x00, 0x00,
  0x00, 0x00, 0x00, 0x00, 0x00, 0x00, 0x00, 0x00, 0x00, 0x00, 0x00, 0x00,
  0x00, 0x00, 0x00, 0x00, 0x00, 0x00, 0x00, 0x00, 0x00, 0x00, 0x00, 0x00,
  0x00, 0x00, 0x00, 0x00, 0x00, 0x00, 0x00, 0x00, 0x00, 0x00, 0x00, 0x00,
  0x00, 0x00, 0x00, 0x00, 0x00, 0x00, 0x00, 0x00, 0x00, 0x00, 0x00, 0x00,
  0x07, 0x00, 0x00, 0x00, 0xfa, 0xe9, 0x5a, 0x3d, 0x8e, 0x52, 0x30, 0x3d,
  0x34, 0xbd, 0x71, 0x3d, 0x5d, 0xb3, 0xa8, 0x3d, 0x71, 0xb0, 0x66, 0x3d,
  0x57, 0x94, 0x3a, 0x3d, 0x9f, 0x4a, 0x1c, 0x3d, 0x12, 0x00, 0x00, 0x00,
  0x74, 0x66, 0x6c, 0x2e, 0x70, 0x73, 0x65, 0x75, 0x64, 0x6f, 0x5f, 0x71,
  0x63, 0x6f, 0x6e, 0x73, 0x74, 0x31, 0x00, 0x00, 0x02, 0x00, 0x00, 0x00,
  0x07, 0x00, 0x00, 0x00, 0x10, 0x00, 0x00, 0x00, 0xa2, 0xfe, 0xff, 0xff,
  0x00, 0x00, 0x00, 0x01, 0x14, 0x00, 0x00, 0x00, 0x7c, 0x00, 0x00, 0x00,
  0x05, 0x00, 0x00, 0x00, 0x00, 0x00, 0x00, 0x02, 0x88, 0x00, 0x00, 0x00,
  0x8c, 0xfe, 0xff, 0xff, 0x08, 0x00, 0x00, 0x00, 0x44, 0x00, 0x00, 0x00,
  0x07, 0x00, 0x00, 0x00, 0x00, 0x00, 0x00, 0x00, 0x00, 0x00, 0x00, 0x00,
  0x00, 0x00, 0x00, 0x00, 0x00, 0x00, 0x00, 0x00, 0x00, 0x00, 0x00, 0x00,
  0x00, 0x00, 0x00, 0x00, 0x00, 0x00, 0x00, 0x00, 0x00, 0x00, 0x00, 0x00,
  0x00, 0x00, 0x00, 0x00, 0x00, 0x00, 0x00, 0x00, 0x00, 0x00, 0x00, 0x00,
  0x00, 0x00, 0x00, 0x00, 0x00, 0x00, 0x00, 0x00, 0x00, 0x00, 0x00, 0x00,
  0x00, 0x00, 0x00, 0x00, 0x07, 0x00, 0x00, 0x00, 0x9d, 0xda, 0x05, 0x3a,
  0x88, 0x9f, 0xd7, 0x39, 0x6e, 0xcf, 0x13, 0x3a, 0x70, 0x4d, 0x4e, 0x3a,
  0xcb, 0x0d, 0x0d, 0x3a, 0x94, 0x2a, 0xe4, 0x39, 0xa1, 0x20, 0xbf, 0x39,
  0x11, 0x00, 0x00, 0x00, 0x74, 0x66, 0x6c, 0x2e, 0x70, 0x73, 0x65, 0x75,
  0x64, 0x6f, 0x5f, 0x71, 0x63, 0x6f, 0x6e, 0x73, 0x74, 0x00, 0x00, 0x00,
  0x01, 0x00, 0x00, 0x00, 0x07, 0x00, 0x00, 0x00, 0x4a, 0xff, 0xff, 0xff,
  0x00, 0x00, 0x00, 0x01, 0x14, 0x00, 0x00, 0x00, 0x14, 0x00, 0x00, 0x00,
  0x04, 0x00, 0x00, 0x00, 0x00, 0x00, 0x00, 0x02, 0x1c, 0x00, 0x00, 0x00,
  0x8c, 0xff, 0xff, 0xff, 0x0f, 0x00, 0x00, 0x00, 0x61, 0x72, 0x69, 0x74,
  0x68, 0x2e, 0x63, 0x6f, 0x6e, 0x73, 0x74, 0x61, 0x6e, 0x74, 0x32, 0x00,
  0x00, 0x00, 0x00, 0x00, 0x82, 0xff, 0xff, 0xff, 0x00, 0x00, 0x00, 0x01,
  0x14, 0x00, 0x00, 0x00, 0x14, 0x00, 0x00, 0x00, 0x03, 0x00, 0x00, 0x00,
  0x00, 0x00, 0x00, 0x02, 0x1c, 0x00, 0x00, 0x00, 0xc4, 0xff, 0xff, 0xff,
  0x0f, 0x00, 0x00, 0x00, 0x61, 0x72, 0x69, 0x74, 0x68, 0x2e, 0x63, 0x6f,
  0x6e, 0x73, 0x74, 0x61, 0x6e, 0x74, 0x31, 0x00, 0x01, 0x00, 0x00, 0x00,
  0x03, 0x00, 0x00, 0x00, 0xbe, 0xff, 0xff, 0xff, 0x00, 0x00, 0x00, 0x01,
  0x18, 0x00, 0x00, 0x00, 0x18, 0x00, 0x00, 0x00, 0x02, 0x00, 0x00, 0x00,
  0x00, 0x00, 0x00, 0x02, 0x20, 0x00, 0x00, 0x00, 0x04, 0x00, 0x04, 0x00,
  0x04, 0x00, 0x00, 0x00, 0x0e, 0x00, 0x00, 0x00, 0x61, 0x72, 0x69, 0x74,
  0x68, 0x2e, 0x63, 0x6f, 0x6e, 0x73, 0x74, 0x61, 0x6e, 0x74, 0x00, 0x00,
  0x01, 0x00, 0x00, 0x00, 0x04, 0x00, 0x00, 0x00, 0x00, 0x00, 0x16, 0x00,
  0x1c, 0x00, 0x18, 0x00, 0x17, 0x00, 0x10, 0x00, 0x0c, 0x00, 0x08, 0x00,
  0x00, 0x00, 0x00, 0x00, 0x00, 0x00, 0x07, 0x00, 0x16, 0x00, 0x00, 0x00,
  0x00, 0x00, 0x00, 0x01, 0x20, 0x00, 0x00, 0x00, 0x40, 0x00, 0x00, 0x00,
  0x01, 0x00, 0x00, 0x00, 0x00, 0x00, 0x00, 0x09, 0x5c, 0x00, 0x00, 0x00,
  0x0c, 0x00, 0x0c, 0x00, 0x00, 0x00, 0x00, 0x00, 0x08, 0x00, 0x04, 0x00,
  0x0c, 0x00, 0x00, 0x00, 0x08, 0x00, 0x00, 0x00, 0x14, 0x00, 0x00, 0x00,
  0x01, 0x00, 0x00, 0x00, 0x94, 0xff, 0xff, 0xff, 0xff, 0xff, 0xff, 0xff,
  0x00, 0x00, 0x00, 0x00, 0x01, 0x00, 0x00, 0x00, 0xd5, 0x2a, 0xfb, 0x3e,
  0x21, 0x00, 0x00, 0x00, 0x73, 0x65, 0x72, 0x76, 0x69, 0x6e, 0x67, 0x5f,
  0x64, 0x65, 0x66, 0x61, 0x75, 0x6c, 0x74, 0x5f, 0x6b, 0x65, 0x72, 0x61,
  0x73, 0x5f, 0x74, 0x65, 0x6e, 0x73, 0x6f, 0x72, 0x5f, 0x34, 0x32, 0x3a,
  0x30, 0x00, 0x00, 0x00, 0x03, 0x00, 0x00, 0x00, 0x01, 0x00, 0x00, 0x00,
  0xf4, 0x01, 0x00, 0x00, 0x06, 0x00, 0x00, 0x00, 0x05, 0x00, 0x00, 0x00,
  0x6c, 0x00, 0x00, 0x00, 0x4c, 0x00, 0x00, 0x00, 0x2c, 0x00, 0x00, 0x00,
  0x18, 0x00, 0x00, 0x00, 0x04, 0x00, 0x00, 0x00, 0xd0, 0xff, 0xff, 0xff,
  0x19, 0x00, 0x00, 0x00, 0x02, 0x00, 0x00, 0x00, 0x00, 0x00, 0x00, 0x19,
  0xe0, 0xff, 0xff, 0xff, 0x09, 0x00, 0x00, 0x00, 0x04, 0x00, 0x00, 0x00,
  0x00, 0x00, 0x00, 0x09, 0xf0, 0xff, 0xff, 0xff, 0x28, 0x00, 0x00, 0x00,
  0x02, 0x00, 0x00, 0x00, 0x00, 0x00, 0x00, 0x28, 0x0c, 0x00, 0x10, 0x00,
  0x0f, 0x00, 0x00, 0x00, 0x08, 0x00, 0x04, 0x00, 0x0c, 0x00, 0x00, 0x00,
  0x03, 0x00, 0x00, 0x00, 0x03, 0x00, 0x00, 0x00, 0x00, 0x00, 0x00, 0x03,
  0x0c, 0x00, 0x0c, 0x00, 0x0b, 0x00, 0x00, 0x00, 0x00, 0x00, 0x04, 0x00,
  0x0c, 0x00, 0x00, 0x00, 0x16, 0x00, 0x00, 0x00, 0x00, 0x00, 0x00, 0x16
};
inline const unsigned int gesture_model_3_tflite_len = 8784;
