
inline const unsigned char gesture_model_3_tflite[] = {
  0x1c, 0x00, 0x00, 0x00, 0x54, 0x46, 0x4c, 0x33, 0x14, 0x00, 0x20, 0x00,
  0x1c, 0x00, 0x18, 0x00, 0x14, 0x00, 0x10, 0x00, 0x0c, 0x00, 0x00, 0x00,
  0x08, 0x00, 0x04, 0x00, 0x14, 0x00, 0x00, 0x00, 0x1c, 0x00, 0x00, 0x00,
  0x98, 0x00, 0x00, 0x00, 0x18, 0x01, 0x00, 0x00, 0x6c, 0x0c, 0x00, 0x00,
  0x7c, 0x0c, 0x00, 0x00, 0xa0, 0x21, 0x00, 0x00, 0x03, 0x00, 0x00, 0x00,
  0x01, 0x00, 0x00, 0x00, 0x10, 0x00, 0x00, 0x00, 0x00, 0x00, 0x0a, 0x00,
  0x10, 0x00, 0x0c, 0x00, 0x08, 0x00, 0x04, 0x00, 0x0a, 0x00, 0x00, 0x00,
  0x0c, 0x00, 0x00, 0x00, 0x1c, 0x00, 0x00, 0x00, 0x3c, 0x00, 0x00, 0x00,
  0x0f, 0x00, 0x00, 0x00, 0x73, 0x65, 0x72, 0x76, 0x69, 0x6e, 0x67, 0x5f,
  0x64, 0x65, 0x66, 0x61, 0x75, 0x6c, 0x74, 0x00, 0x01, 0x00, 0x00, 0x00,
  0x04, 0x00, 0x00, 0x00, 0x68, 0xff, 0xff, 0xff, 0x16, 0x00, 0x00, 0x00,
  0x04, 0x00, 0x00, 0x00, 0x08, 0x00, 0x00, 0x00, 0x6f, 0x75, 0x74, 0x70,
  0x75, 0x74, 0x5f, 0x30, 0x00, 0x00, 0x00, 0x00, 0x01, 0x00, 0x00, 0x00,
  0x04, 0x00, 0x00, 0x00, 0x76, 0xf3, 0xff, 0xff, 0x04, 0x00, 0x00, 0x00,
  0x0f, 0x00, 0x00, 0x00, 0x6b, 0x65, 0x72, 0x61, 0x73, 0x5f, 0x74, 0x65,
  0x6e, 0x73, 0x6f, 0x72, 0x5f, 0x34, 0x32, 0x00, 0x03, 0x00, 0x00, 0x00,
  0x5c, 0x00, 0x00, 0x00, 0x2c, 0x00, 0x00, 0x00, 0x04, 0x00, 0x00, 0x00,
  0xb8, 0xff, 0xff, 0xff, 0x1a, 0x00, 0x00, 0x00, 0x04, 0x00, 0x00, 0x00,
  0x13, 0x00, 0x00, 0x00, 0x43, 0x4f, 0x4e, 0x56, 0x45, 0x52, 0x53, 0x49,
  0x4f, 0x4e, 0x5f, 0x4d, 0x45, 0x54, 0x41, 0x44, 0x41, 0x54, 0x41, 0x00,
  0xdc, 0xff, 0xff, 0xff, 0x19, 0x00, 0x00, 0x00, 0x04, 0x00, 0x00, 0x00,
  0x13, 0x00, 0x00, 0x00, 0x6d, 0x69, 0x6e, 0x5f, 0x72, 0x75, 0x6e, 0x74,
  0x69, 0x6d, 0x65, 0x5f, 0x76, 0x65, 0x72, 0x73, 0x69, 0x6f, 0x6e, 0x00,
  0x08, 0x00, 0x0c, 0x00, 0x08, 0x00, 0x04, 0x00, 0x08, 0x00, 0x00, 0x00,
  0x18, 0x00, 0x00, 0x00, 0x04, 0x00, 0x00, 0x00, 0x13, 0x00, 0x00, 0x00,
  0x6d, 0x69, 0x6e, 0x5f, 0x72, 0x75, 0x6e, 0x74, 0x69, 0x6d, 0x65, 0x5f,
  0x76, 0x65, 0x72, 0x73, 0x69, 0x6f, 0x6e, 0x00, 0x1b, 0x00, 0x00, 0x00,
  0x50, 0x0b, 0x00, 0x00, 0x48, 0x0b, 0x00, 0x00, 0x28, 0x0b, 0x00, 0x00,
  0x0c, 0x0b, 0x00, 0x00, 0xf8, 0x0a, 0x00, 0x00, 0xcc, 0x0a, 0x00, 0x00,
  0x4c, 0x0a, 0x00, 0x00, 0xfc, 0x09, 0x00, 0x00, 0x6c, 0x09, 0x00, 0x00,
  0x3c, 0x09, 0x00, 0x00, 0x0c, 0x08, 0x00, 0x00, 0xcc, 0x07, 0x00, 0x00,
  0xfc, 0x03, 0x00, 0x00, 0xac, 0x03, 0x00, 0x00, 0xfc, 0x00, 0x00, 0x00,
  0xf4, 0x00, 0x00, 0x00, 0xec, 0x00, 0x00, 0x00, 0xe4, 0x00, 0x00, 0x00,
  0xdc, 0x00, 0x00, 0x00, 0xd4, 0x00, 0x00, 0x00, 0xcc, 0x00, 0x00, 0x00,
  0xc4, 0x00, 0x00, 0x00, 0xbc, 0x00, 0x00, 0x00, 0xb4, 0x00, 0x00, 0x00,
  0x94, 0x00, 0x00, 0x00, 0x74, 0x00, 0x00, 0x00, 0x04, 0x00, 0x00, 0x00,
  0x86, 0xf4, 0xff, 0xff, 0x04, 0x00, 0x00, 0x00, 0x60, 0x00, 0x00, 0x00,
  0x0c, 0x00, 0x00, 0x00, 0x08, 0x00, 0x0e, 0x00, 0x08, 0x00, 0x04, 0x00,
  0x08, 0x00, 0x00, 0x00, 0x10, 0x00, 0x00, 0x00, 0x28, 0x00, 0x00, 0x00,
  0x00, 0x00, 0x06, 0x00, 0x08, 0x00, 0x04, 0x00, 0x06, 0x00, 0x00, 0x00,
  0x04, 0x00, 0x00, 0x00, 0x01, 0x00, 0x00, 0x00, 0xeb, 0x03, 0x00, 0x00,
  0x0c, 0x00, 0x18, 0x00, 0x14, 0x00, 0x10, 0x00, 0x0c, 0x00, 0x04, 0x00,
  0x0c, 0x00, 0x00, 0x00, 0x90, 0x23, 0x1c, 0x91, 0xe1, 0x42, 0xe3, 0x7e,
  0x02, 0x00, 0x00, 0x00, 0x02, 0x00, 0x00, 0x00, 0x04, 0x00, 0x00, 0x00,
  0x06, 0x00, 0x00, 0x00, 0x32, 0x2e, 0x31, 0x39, 0x2e, 0x30, 0x00, 0x00,
  0xf2, 0xf4, 0xff, 0xff, 0x04, 0x00, 0x00, 0x00, 0x10, 0x00, 0x00, 0x00,
  0x00, 0x00, 0x00, 0x00, 0x00, 0x00, 0x00, 0x00, 0x00, 0x00, 0x00, 0x00,
  0x00, 0x00, 0x00, 0x00, 0x0e, 0xf5, 0xff, 0xff, 0x04, 0x00, 0x00, 0x00,
  0x10, 0x00, 0x00, 0x00, 0x31, 0x2e, 0x31, 0x34, 0x2e, 0x30, 0x00, 0x00,
  0x00, 0x00, 0x00, 0x00, 0x00, 0x00, 0x00, 0x00, 0x40, 0xe1, 0xff, 0xff,
  0x44, 0xe1, 0xff, 0xff, 0x48, 0xe1, 0xff, 0xff, 0x4c, 0xe1, 0xff, 0xff,
  0x50, 0xe1, 0xff, 0xff, 0x54, 0xe1, 0xff, 0xff, 0x58, 0xe1, 0xff, 0xff,
  0x5c, 0xe1, 0xff, 0xff, 0x60, 0xe1, 0xff, 0xff, 0x4e, 0xf5, 0xff, 0xff,
  0x04, 0x00, 0x00, 0x00, 0xa0, 0x02, 0x00, 0x00, 0xc4, 0x0d, 0x46, 0x06,
  0x22, 0x0a, 0xd2, 0x17, 0x15, 0xf5, 0x25, 0xfc, 0x06, 0xf9, 0x0e, 0xe2,
  0x2a, 0x0a, 0x06, 0xef, 0x07, 0xe5, 0x22, 0x10, 0x29, 0xf4, 0x07, 0xed,
  0x16, 0x16, 0x66, 0xef, 0xf9, 0x00, 0x30, 0x07, 0x7f, 0xf9, 0x09, 0x0f,
  0x2f, 0x08, 0x27, 0x58, 0x7f, 0xd0, 0xf3, 0xea, 0x3a, 0x2d, 0x48, 0xc6,
  0xfa, 0xec, 0x32, 0x45, 0x1f, 0xcb, 0xec, 0x1b, 0x2f, 0x25, 0x08, 0xec,
  0x01, 0x13, 0x36, 0x25, 0x01, 0xe2, 0xef, 0x1a, 0x35, 0x43, 0x00, 0x02,
  0xfe, 0x21, 0x05, 0x64, 0x31, 0x26, 0x12, 0x43, 0xee, 0xf3, 0xd8, 0x0a,
  0xb0, 0x81, 0x01, 0x06, 0xee, 0xee, 0xaa, 0x87, 0x13, 0xf2, 0xda, 0xd2,
  0xc6, 0x9d, 0x08, 0x0a, 0xe6, 0xd5, 0xe2, 0xa5, 0xf4, 0x0b, 0xdf, 0xe4,
  0xdf, 0xbc, 0x07, 0x08, 0xfa, 0xe5, 0xf9, 0xbe, 0xed, 0xe5, 0xed, 0xed,
  0xf9, 0xc1, 0x13, 0xb7, 0x7f, 0xc4, 0x30, 0xbe, 0x04, 0xb6, 0x62, 0xd5,
  0x0d, 0xca, 0x1a, 0xb7, 0x3e, 0xea, 0xf2, 0xde, 0x13, 0xc5, 0x21, 0xce,
  0xf1, 0xd6, 0x20, 0xf8, 0x25, 0xdd, 0xf8, 0xf0, 0x3c, 0xe3, 0x15, 0xee,
  0xf5, 0xdc, 0x50, 0xf3, 0x1b, 0xf8, 0xe8, 0xfd, 0x0c, 0x00, 0xfa, 0x10,
  0x03, 0x7f, 0x28, 0xee, 0x09, 0x0a, 0x00, 0x56, 0x11, 0x04, 0xeb, 0xeb,
  0x19, 0x46, 0xfa, 0x0a, 0xf2, 0xf9, 0xff, 0x11, 0xff, 0xe8, 0x0d, 0x05,
  0xeb, 0xe2, 0xfe, 0x02, 0x0e, 0xee, 0x0c, 0x92, 0xc1, 0xfc, 0x15, 0xfd,
  0xe7, 0x84, 0xd4, 0xe6, 0x4e, 0x11, 0xeb, 0xbb, 0xad, 0xd8, 0x26, 0x16,
  0xfb, 0xc4, 0xc5, 0xc2, 0x59, 0xf4, 0xdd, 0xee, 0xf4, 0xab, 0x28, 0xd9,
  0xdd, 0xe5, 0xc2, 0x8e, 0x20, 0xcc, 0xf1, 0xd2, 0xe6, 0x8e, 0xee, 0xbf,
  0xbb, 0xb8, 0xef, 0x81, 0x11, 0x8a, 0xa7, 0x95, 0x38, 0x04, 0x0d, 0xf1,
  0xf4, 0x81, 0x48, 0x2c, 0x1f, 0xdb, 0xe2, 0xb0, 0x36, 0x06, 0x1b, 0xc0,
  0x0c, 0x9e, 0x15, 0x16, 0x2d, 0xf8, 0x12, 0xbc, 0x06, 0x19, 0x40, 0x02,
  0x18, 0xd4, 0x00, 0x51, 0x4d, 0xff, 0x4c, 0xe9, 0x1e, 0x61, 0x22, 0x49,
  0x2f, 0x01, 0x16, 0xfe, 0xf9, 0xc5, 0xff, 0x29, 0x21, 0xfb, 0xcd, 0xd5,
  0x0c, 0x28, 0x09, 0x0a, 0xc3, 0xc5, 0xfb, 0x35, 0x01, 0x17, 0xab, 0xde,
  0xfb, 0x49, 0x11, 0x18, 0xc4, 0x00, 0xef, 0x4e, 0x1c, 0x0f, 0xee, 0x1f,
  0xe3, 0x6a, 0x1a, 0x21, 0xed, 0x4b, 0xe1, 0x7f, 0xda, 0xea, 0x24, 0x45,
  0x04, 0xba, 0xed, 0xe2, 0x2a, 0x45, 0x09, 0x93, 0xec, 0xe2, 0x31, 0x2f,
  0x32, 0xa0, 0x05, 0xfb, 0x26, 0x31, 0x39, 0x81, 0x0e, 0x06, 0xea, 0x01,
  0x57, 0xaf, 0x2d, 0xf3, 0xfd, 0xe1, 0x5a, 0x99, 0x26, 0xe5, 0xca, 0xd4,
  0x75, 0x90, 0x46, 0x10, 0x12, 0xd2, 0xdc, 0x7f, 0x3b, 0x20, 0x03, 0xe1,
  0xe5, 0x4c, 0x2c, 0x23, 0x27, 0xe7, 0xf9, 0x3b, 0xfb, 0x1f, 0x04, 0xd7,
  0xed, 0x44, 0x12, 0x08, 0x2d, 0xee, 0x00, 0x44, 0xf1, 0x0c, 0x0e, 0xaf,
  0xf8, 0x35, 0xfa, 0x0d, 0xf5, 0x8e, 0xe4, 0x21, 0x0a, 0xd0, 0xf0, 0x43,
  0x11, 0x72, 0x1a, 0xea, 0xcc, 0x35, 0xef, 0x7f, 0x27, 0xf2, 0xf2, 0x2e,
  0xfc, 0x71, 0x19, 0x08, 0xfd, 0xfe, 0xf9, 0x71, 0x22, 0x0f, 0xff, 0x39,
  0xe7, 0x64, 0x1f, 0x3c, 0x23, 0x17, 0xfe, 0x53, 0xff, 0x64, 0x45, 0x3d,
  0x01, 0x72, 0x5d, 0xa4, 0xf5, 0xfb, 0xa4, 0xc0, 0x62, 0xad, 0x09, 0xdb,
  0xb3, 0xbf, 0x55, 0xb0, 0x29, 0x03, 0xd7, 0xca, 0x3c, 0x8d, 0x3b, 0x0b,
  0xfd, 0xf8, 0x6f, 0x92, 0x34, 0x40, 0xf4, 0xed, 0x72, 0x9f, 0x77, 0x47,
  0xe4, 0xe5, 0x64, 0xe0, 0x7f, 0x4a, 0x07, 0xe6, 0xfb, 0x03, 0x1f, 0x16,
  0xf0, 0x7f, 0xdf, 0x09, 0x0b, 0xef, 0xef, 0x73, 0xfa, 0xf8, 0xfa, 0xfb,
  0x19, 0x6f, 0xfc, 0xd1, 0xf2, 0xff, 0x18, 0x64, 0x09, 0xc9, 0x00, 0xe9,
  0x03, 0x67, 0xfc, 0xef, 0xe6, 0x11, 0x34, 0x70, 0xec, 0xc6, 0xe5, 0x1e,
  0x27, 0x5a, 0x17, 0x50, 0x11, 0x39, 0xd2, 0x0c, 0x17, 0x1e, 0xe8, 0x0b,
  0xb9, 0x11, 0x10, 0x1d, 0xe8, 0x27, 0x93, 0x10, 0x0d, 0x10, 0xfd, 0x0a,
  0x91, 0x2a, 0xec, 0xef, 0x0c, 0x2a, 0x92, 0x0b, 0xf6, 0xed, 0x27, 0x56,
  0x81, 0x18, 0xc7, 0xe2, 0x43, 0x59, 0x8e, 0x13, 0xa9, 0xfb, 0x34, 0xc5,
  0x3b, 0x5c, 0xbf, 0xfb, 0xfe, 0xb5, 0x20, 0x6d, 0xbe, 0x1c, 0xe2, 0xc6,
  0x27, 0x66, 0xc0, 0x1c, 0xfc, 0xd7, 0x08, 0x56, 0xd7, 0x1b, 0xee, 0xdd,
  0x42, 0x66, 0xdd, 0x04, 0x10, 0xc6, 0x24, 0x68, 0xc4, 0x04, 0x08, 0xf2,
  0x3e, 0x7f, 0x31, 0xe4, 0x7f, 0x26, 0xf5, 0xf0, 0x1c, 0x02, 0x43, 0x17,
  0x05, 0xec, 0x06, 0xf5, 0x35, 0x1c, 0x03, 0x03, 0xfb, 0x05, 0x22, 0x16,
  0x06, 0xf7, 0xe1, 0x0c, 0xee, 0x1d, 0xf3, 0xf6, 0xc0, 0x0e, 0xd0, 0x29,
  0xec, 0x0c, 0xb2, 0xf3, 0xbf, 0x15, 0xe4, 0x2b, 0xfa, 0xf7, 0xff, 0xff,
  0x04, 0x00, 0x00, 0x00, 0x40, 0x00, 0x00, 0x00, 0xff, 0xfe, 0xff, 0xff,
  0x4f, 0xff, 0xff, 0xff, 0x74, 0x02, 0x00, 0x00, 0x65, 0xfe, 0xff, 0xff,
  0x11, 0x00, 0x00, 0x00, 0x28, 0x01, 0x00, 0x00, 0xfd, 0xfe, 0xff, 0xff,
  0x69, 0xfe, 0xff, 0xff, 0x67, 0x00, 0x00, 0x00, 0xfa, 0xfe, 0xff, 0xff,
  0x78, 0x03, 0x00, 0x00, 0xf5, 0xfd, 0xff, 0xff, 0x95, 0x00, 0x00, 0x00,
  0x63, 0xff, 0xff, 0xff, 0xe4, 0x03, 0x00, 0x00, 0x42, 0x00, 0x00, 0x00,
  0x46, 0xf8, 0xff, 0xff, 0x04, 0x00, 0x00, 0x00, 0xc0, 0x03, 0x00, 0x00,
  0x03, 0x0c, 0xf5, 0x05, 0x7f, 0x09, 0xf4, 0x0e, 0xe9, 0xb5, 0x30, 0x01,
  0x1e, 0x07, 0xf1, 0x1a, 0xf4, 0x1c, 0x0b, 0x10, 0x46, 0xf4, 0x17, 0x1e,
  0x09, 0xb9, 0xea, 0xfa, 0xfe, 0x05, 0x00, 0x2e, 0xf9, 0xff, 0x28, 0x07,
  0x2f, 0xde, 0x12, 0x05, 0x0e, 0xb2, 0xdf, 0xee, 0xcb, 0x06, 0xec, 0x14,
  0xf9, 0x04, 0xf9, 0xf8, 0x09, 0xd0, 0xc8, 0xff, 0xec, 0xe6, 0xa1, 0xfe,
  0x9f, 0xe1, 0xc2, 0x0c, 0xf0, 0x02, 0x00, 0xe5, 0xeb, 0xc5, 0xca, 0xf3,
  0xf2, 0x08, 0x88, 0xd8, 0x8f, 0xcd, 0xde, 0xf6, 0xfd, 0x6d, 0x19, 0x50,
  0xcd, 0x20, 0x2d, 0x03, 0x5a, 0xe1, 0xed, 0xe3, 0x81, 0xac, 0xd8, 0x1b,
  0xf9, 0x35, 0xf4, 0x2f, 0xd2, 0xf2, 0x1e, 0x1b, 0x3f, 0x00, 0xf4, 0xc1,
  0xc2, 0xe0, 0xfd, 0x16, 0xd2, 0x29, 0xdb, 0xec, 0xd2, 0xf6, 0xf5, 0xf8,
  0x07, 0xf3, 0xf2, 0xcf, 0xed, 0x18, 0x06, 0xfc, 0xe3, 0x0b, 0xe5, 0x06,
  0xf2, 0xe4, 0xeb, 0x21, 0x05, 0x3b, 0xfa, 0xc6, 0x32, 0x05, 0x33, 0xf9,
  0xca, 0xe6, 0xfb, 0xec, 0x06, 0xba, 0xd4, 0x23, 0x04, 0x1a, 0x36, 0xd3,
  0x5a, 0x21, 0x36, 0x1e, 0xbd, 0xef, 0x89, 0x8c, 0x35, 0xb1, 0xf2, 0x48,
  0x97, 0x79, 0x6b, 0xc8, 0xfa, 0x09, 0x15, 0xf0, 0xd1, 0xcb, 0xa4, 0xac,
  0x00, 0x0b, 0xfd, 0xf7, 0xdd, 0x40, 0x2c, 0xa1, 0x0c, 0xf0, 0xf0, 0xbf,
  0xa2, 0x8b, 0xc5, 0xf0, 0x05, 0x05, 0xf9, 0xe1, 0x13, 0x44, 0x1d, 0x9d,
  0x18, 0xd2, 0xfd, 0x95, 0xab, 0x84, 0x0f, 0xfc, 0x24, 0x2c, 0xf2, 0x1d,
  0x1d, 0x15, 0xde, 0x9e, 0xe5, 0x15, 0xde, 0x82, 0x9f, 0x81, 0x21, 0x04,
  0xd8, 0x03, 0xc9, 0xfd, 0x64, 0x9a, 0xbd, 0xbf, 0xf7, 0x18, 0xa1, 0x8b,
  0x0d, 0xd5, 0x6c, 0x99, 0xfe, 0x20, 0x20, 0xff, 0xf3, 0x0e, 0xd6, 0xce,
  0x47, 0x0b, 0x2d, 0xbf, 0x00, 0xc4, 0x32, 0xa8, 0x17, 0xee, 0x55, 0xfc,
  0xf6, 0x37, 0xd2, 0xfe, 0x44, 0xee, 0x29, 0xc0, 0x20, 0xe5, 0x27, 0xc2,
  0x1d, 0xed, 0x55, 0xea, 0xef, 0xea, 0x0e, 0xfc, 0x22, 0xcf, 0x05, 0xb0,
  0x39, 0xde, 0x0a, 0x0a, 0x0c, 0xc8, 0x39, 0xec, 0xeb, 0xe3, 0xf8, 0x01,
  0xfe, 0xa8, 0x01, 0xcc, 0x50, 0xca, 0xce, 0xf7, 0xcb, 0xc4, 0x28, 0xbd,
  0x28, 0xc6, 0xf3, 0x45, 0x04, 0x81, 0xd7, 0xd2, 0x9f, 0x04, 0x34, 0xc6,
  0x10, 0x0b, 0x6d, 0x0d, 0xe0, 0xd0, 0xa2, 0xec, 0xe9, 0x1e, 0xd2, 0xf0,
  0xe9, 0xe7, 0x00, 0xe3, 0xf1, 0x2a, 0x49, 0x16, 0xe3, 0xf1, 0xdc, 0xe2,
  0xe3, 0x2e, 0xe8, 0x0a, 0x0f, 0xe1, 0xf2, 0x03, 0xe5, 0xf3, 0x12, 0xf0,
  0xd5, 0xf8, 0xf7, 0xcf, 0xf4, 0x07, 0x0c, 0x25, 0x26, 0xf1, 0xb5, 0x06,
  0xd4, 0xc9, 0xfc, 0x18, 0xd2, 0xf6, 0x17, 0xd0, 0x1a, 0xf2, 0x22, 0xe8,
  0x3c, 0x0f, 0x81, 0x18, 0xfb, 0xca, 0xd0, 0xfb, 0xb5, 0xc9, 0x59, 0xc3,
  0x33, 0x0a, 0x4e, 0xdc, 0x06, 0x03, 0xd8, 0x81, 0x0e, 0xf3, 0xdf, 0x17,
  0xc0, 0xa5, 0x1d, 0x1b, 0x0b, 0xe1, 0x2e, 0xe7, 0x0b, 0x21, 0xc3, 0xb4,
  0x03, 0x0d, 0xd6, 0x00, 0xe3, 0xc9, 0x01, 0x2a, 0xf5, 0xe3, 0x12, 0xd5,
  0x14, 0x29, 0xbd, 0xc7, 0x04, 0x1d, 0xe2, 0xfb, 0xbe, 0xde, 0xff, 0x32,
  0x1a, 0xec, 0x34, 0xd3, 0x35, 0x0a, 0xca, 0xd0, 0x2e, 0x13, 0xd9, 0x0a,
  0xad, 0x1e, 0x2c, 0x3d, 0x1e, 0x00, 0x4f, 0xea, 0x0e, 0x0c, 0xba, 0xbd,
  0x23, 0x34, 0xc0, 0xec, 0x99, 0x10, 0x20, 0x47, 0x21, 0x16, 0x31, 0xcf,
  0x0c, 0x21, 0xbd, 0x08, 0x28, 0xee, 0xcc, 0x10, 0xd2, 0x43, 0x43, 0x18,
  0x18, 0x19, 0x06, 0x0a, 0x17, 0x05, 0xd2, 0xed, 0x28, 0xff, 0xc7, 0xff,
  0xea, 0x08, 0x03, 0x1e, 0x15, 0x10, 0xf9, 0xe0, 0x1f, 0xdc, 0xdf, 0xc9,
  0x40, 0xf0, 0xe3, 0xd3, 0xf0, 0xff, 0xf0, 0x0c, 0x0a, 0x21, 0x01, 0xe3,
  0x03, 0xc4, 0xc9, 0xc0, 0xf4, 0xd6, 0x0e, 0xbe, 0x14, 0x0c, 0xac, 0x03,
  0xcc, 0x15, 0xee, 0xcb, 0x1a, 0xbb, 0xbb, 0x81, 0x1f, 0xeb, 0x0e, 0x84,
  0x22, 0xe8, 0xaa, 0xda, 0xba, 0x25, 0x10, 0xf2, 0x32, 0x31, 0x45, 0x1f,
  0x84, 0xc3, 0x13, 0x69, 0x11, 0x29, 0xd6, 0xd5, 0xff, 0x07, 0x81, 0x15,
  0x13, 0x24, 0x1d, 0xf0, 0xc4, 0xc4, 0x10, 0x34, 0xe7, 0x19, 0xc8, 0xf4,
  0x07, 0x07, 0x82, 0x0f, 0x01, 0xff, 0x07, 0xfd, 0xf7, 0x1c, 0x00, 0x1b,
  0xfb, 0x03, 0xa6, 0xde, 0x36, 0xd0, 0x83, 0x1e, 0x08, 0xf3, 0x10, 0x13,
  0x36, 0x45, 0xe1, 0xe2, 0x0f, 0xed, 0xd5, 0xf4, 0x44, 0xb6, 0xab, 0x0c,
  0x00, 0xa6, 0x04, 0xff, 0x59, 0x53, 0xcb, 0xb2, 0xf3, 0xbf, 0xc8, 0xe3,
  0x3a, 0xdf, 0x98, 0x08, 0x15, 0x51, 0x45, 0x04, 0xb0, 0xcc, 0x17, 0x05,
  0x30, 0xc2, 0x25, 0x21, 0x36, 0xbf, 0x1d, 0xf5, 0xfc, 0x15, 0x31, 0xe1,
  0x9a, 0xdb, 0x0c, 0xfd, 0x39, 0xb8, 0xf3, 0x39, 0x1a, 0xbf, 0xfe, 0x05,
  0x01, 0x3c, 0x03, 0xde, 0xc5, 0xfd, 0x1c, 0xf9, 0x1f, 0xc5, 0xc2, 0x11,
  0x16, 0xe3, 0xd8, 0x2d, 0x10, 0x26, 0xf7, 0xda, 0xb3, 0x2b, 0xe1, 0xce,
  0xe8, 0xbd, 0xb0, 0x1a, 0x12, 0x1b, 0xfc, 0x14, 0xf7, 0x10, 0xe0, 0x09,
  0xc2, 0x60, 0xe7, 0xba, 0xd7, 0x04, 0x81, 0x4c, 0x24, 0x51, 0x04, 0xec,
  0x9f, 0xfe, 0x24, 0xdd, 0x36, 0xe1, 0xfa, 0xe6, 0x79, 0xc9, 0xc1, 0x0f,
  0x4a, 0xfa, 0x00, 0x55, 0xcc, 0x24, 0xe5, 0x93, 0xfc, 0xb1, 0xf1, 0xfa,
  0x2a, 0xe6, 0xe0, 0x04, 0x75, 0xdc, 0x0a, 0x1e, 0x19, 0x37, 0xce, 0xb1,
  0xd1, 0x93, 0xc1, 0x2f, 0x30, 0xee, 0xf5, 0xf5, 0x41, 0xc7, 0x1a, 0xcf,
  0x2e, 0x4a, 0xaa, 0xb9, 0xdd, 0xd2, 0xbe, 0x32, 0x6a, 0xf9, 0x22, 0xe3,
  0x33, 0xb4, 0x32, 0xbe, 0x57, 0x3d, 0xa7, 0xb6, 0x0d, 0xc0, 0xdb, 0x51,
  0x7f, 0xf9, 0x28, 0xc7, 0x12, 0xda, 0x02, 0x9c, 0xed, 0x04, 0xdf, 0xb2,
  0xf0, 0xf5, 0xea, 0x22, 0xc5, 0x0d, 0x2a, 0xe0, 0xcf, 0xcc, 0x29, 0xbf,
  0xdc, 0x0f, 0xfd, 0xd9, 0x0a, 0xe2, 0x06, 0x1e, 0xed, 0xf5, 0x2c, 0xf7,
  0xd0, 0xd0, 0x06, 0xc3, 0xbf, 0x14, 0xfb, 0x01, 0xd5, 0x0b, 0xff, 0x08,
  0xe8, 0xe5, 0x32, 0x01, 0xee, 0xf6, 0x0c, 0xee, 0xa6, 0x13, 0x12, 0x04,
  0xff, 0x1c, 0x29, 0xdf, 0xda, 0xfd, 0xfe, 0x11, 0xde, 0xfc, 0xfa, 0x12,
  0x81, 0xeb, 0x33, 0x03, 0xec, 0x4c, 0x4a, 0xdc, 0xfc, 0x0c, 0xca, 0x00,
  0xe2, 0xf8, 0x05, 0x14, 0xcb, 0x81, 0x01, 0xf2, 0xd8, 0x33, 0x06, 0xcc,
  0x30, 0xe1, 0xfe, 0xc7, 0xce, 0xd0, 0xce, 0xde, 0xe1, 0xcb, 0x31, 0xfa,
  0xfb, 0x1c, 0xeb, 0xf5, 0x09, 0xd6, 0x0d, 0xcb, 0xdd, 0xcd, 0xef, 0xc8,
  0xf3, 0xe9, 0x0f, 0xfa, 0xf9, 0x19, 0x01, 0xdf, 0xde, 0xe7, 0x11, 0xc1,
  0xe2, 0xdb, 0xff, 0xba, 0x04, 0x17, 0xff, 0xe0, 0xad, 0x08, 0x00, 0xfe,
  0xbe, 0xf3, 0x06, 0xd7, 0xe3, 0xd6, 0x0a, 0xbe, 0x1e, 0x3d, 0xfa, 0xe3,
  0xad, 0xfc, 0xfc, 0x08, 0xcc, 0x1a, 0x36, 0xf1, 0xfb, 0xdf, 0x2a, 0xb9,
  0x12, 0xfc, 0xff, 0xff, 0x04, 0x00, 0x00, 0x00, 0x30, 0x00, 0x00, 0x00,
  0x89, 0x04, 0x00, 0x00, 0x0c, 0xff, 0xff, 0xff, 0xa4, 0x06, 0x00, 0x00,
  0x97, 0x01, 0x00, 0x00, 0xe4, 0x02, 0x00, 0x00, 0x8c, 0x02, 0x00, 0x00,
  0x7e, 0x05, 0x00, 0x00, 0x4c, 0x03, 0x00, 0x00, 0x00, 0x00, 0x00, 0x00,
  0x84, 0xfd, 0xff, 0xff, 0x7b, 0x01, 0x00, 0x00, 0x38, 0x04, 0x00, 0x00,
  0x4e, 0xfc, 0xff, 0xff, 0x04, 0x00, 0x00, 0x00, 0x20, 0x01, 0x00, 0x00,
  0x12, 0x00, 0xe0, 0x32, 0xfc, 0x19, 0xdc, 0x02, 0xea, 0x07, 0xe1, 0xfd,
  0x43, 0x26, 0xdd, 0x17, 0xfd, 0x0f, 0xe8, 0x01, 0x07, 0x0b, 0xd1, 0x08,
  0x7f, 0x14, 0xd2, 0xef, 0x0d, 0xf2, 0x0f, 0x12, 0xf7, 0xe2, 0xe0, 0x0b,
  0xf5, 0xe3, 0x09, 0xf8, 0xdf, 0x0f, 0xfe, 0xa8, 0x05, 0x15, 0xea, 0xd2,
  0x41, 0x14, 0x1e, 0x03, 0xd3, 0xbc, 0x65, 0xb2, 0xea, 0x2d, 0xee, 0x22,
  0x28, 0x6a, 0xfa, 0xdb, 0xd8, 0x81, 0xe5, 0xc3, 0xd7, 0x03, 0x00, 0x10,
  0x35, 0xf2, 0x7f, 0x1e, 0xfc, 0xe0, 0x33, 0xb5, 0x39, 0x0d, 0xf5, 0xa5,
  0x54, 0x0f, 0xe2, 0x0d, 0x19, 0x09, 0xb9, 0xcc, 0x15, 0x18, 0xf5, 0xc2,
  0x5b, 0xec, 0x38, 0xdd, 0x45, 0xe2, 0x95, 0xe4, 0x29, 0xfe, 0x17, 0xe1,
  0x24, 0x74, 0xdb, 0xfb, 0x4a, 0xf6, 0xbc, 0x4c, 0x0e, 0xcd, 0x24, 0xe6,
  0x24, 0x47, 0x0e, 0x3f, 0x27, 0x4a, 0xf2, 0x3e, 0xe6, 0x9d, 0xf0, 0xf1,
  0x14, 0x1b, 0x2d, 0x45, 0x1f, 0x7f, 0x64, 0x23, 0xd4, 0xcf, 0xed, 0xd1,
  0x2e, 0xa5, 0x1b, 0x0d, 0x86, 0x36, 0x31, 0x1e, 0x68, 0xd2, 0x1e, 0xec,
  0xd6, 0x1b, 0xfa, 0xe5, 0x3c, 0xf1, 0xe3, 0x1a, 0x34, 0xf5, 0xe8, 0x1c,
  0x07, 0xe8, 0xd0, 0xc8, 0x7f, 0x1f, 0x09, 0x18, 0xf7, 0x7b, 0x0c, 0xf8,
  0x38, 0x6a, 0x09, 0x1b, 0x11, 0xef, 0xe0, 0xe4, 0xd8, 0x9f, 0xf0, 0x81,
  0xfb, 0x1f, 0x01, 0xeb, 0x63, 0x3b, 0xac, 0x1b, 0x2c, 0xca, 0xd3, 0x0e,
  0x56, 0xb9, 0x32, 0x17, 0x8d, 0xe5, 0x05, 0x0b, 0xbe, 0x4e, 0x09, 0x4e,
  0x31, 0x04, 0x29, 0xf0, 0xe2, 0x5e, 0xf8, 0x64, 0x7f, 0xf3, 0xe2, 0x35,
  0xda, 0x33, 0xfe, 0xde, 0xf6, 0x08, 0xe8, 0x22, 0x1e, 0x1b, 0xd3, 0x21,
  0x28, 0x0a, 0xdb, 0x85, 0x2b, 0xfe, 0x2e, 0xa8, 0x9e, 0xfa, 0xb0, 0x2e,
  0xdc, 0xfc, 0xaa, 0x4a, 0x42, 0x44, 0x55, 0x0f, 0x58, 0x17, 0x81, 0x45,
  0x28, 0xd9, 0xd7, 0x0c, 0x7a, 0xe5, 0x6e, 0xfe, 0xf7, 0xf0, 0xa3, 0xff,
  0x0d, 0xe0, 0xc7, 0xde, 0x7f, 0xb7, 0xa1, 0xe8, 0xc3, 0x14, 0xa3, 0xeb,
  0x7a, 0xfd, 0xff, 0xff, 0x04, 0x00, 0x00, 0x00, 0x20, 0x00, 0x00, 0x00,
  0x4b, 0xff, 0xff, 0xff, 0xea, 0x04, 0x00, 0x00, 0xd7, 0xff, 0xff, 0xff,
  0x55, 0xf7, 0xff, 0xff, 0xb1, 0xfc, 0xff, 0xff, 0x02, 0x00, 0x00, 0x00,
  0x3a, 0xfc, 0xff, 0xff, 0x0c, 0xfe, 0xff, 0xff, 0xa6, 0xfd, 0xff, 0xff,
  0x04, 0x00, 0x00, 0x00, 0x80, 0x00, 0x00, 0x00, 0x05, 0xab, 0x4c, 0x81,
  0x59, 0x4a, 0x41, 0x96, 0x29, 0x40, 0x81, 0xb0, 0xf3, 0xd2, 0x60, 0x76,
  0x99, 0x48, 0x26, 0x55, 0x1a, 0xcc, 0x81, 0x24, 0x6b, 0xa6, 0x55, 0xdf,
  0x81, 0x21, 0x1a, 0x34, 0xb9, 0x29, 0x07, 0x93, 0x7f, 0xd1, 0x3d, 0xf7,
  0x0c, 0x64, 0xb5, 0x7f, 0xa5, 0x8b, 0x9e, 0x7d, 0xc6, 0xbb, 0x7f, 0x22,
  0x05, 0x38, 0xad, 0xd2, 0xb3, 0x22, 0x7f, 0xd7, 0x24, 0xac, 0xbd, 0x2e,
  0x0e, 0x2c, 0x69, 0xcf, 0xe7, 0x81, 0xfd, 0x4f, 0x3f, 0xd3, 0x81, 0x24,
  0xde, 0x6b, 0x12, 0xec, 0x73, 0xba, 0x5a, 0xe9, 0x81, 0xee, 0x26, 0x31,
  0xee, 0xd4, 0x10, 0xe5, 0x5a, 0x5d, 0x02, 0x81, 0xea, 0x9a, 0x7f, 0x37,
  0xde, 0x56, 0xa4, 0xde, 0x7f, 0xbc, 0x00, 0xc3, 0xaf, 0x3e, 0x3a, 0x02,
  0xcb, 0x63, 0x81, 0x6f, 0x05, 0xed, 0x84, 0x04, 0x20, 0x3b, 0x81, 0xbf,
  0xf4, 0xd9, 0x4d, 0x66, 0x32, 0xfe, 0xff, 0xff, 0x04, 0x00, 0x00, 0x00,
  0x40, 0x00, 0x00, 0x00, 0x45, 0x04, 0x00, 0x00, 0x34, 0x04, 0x00, 0x00,
  0x3f, 0x06, 0x00, 0x00, 0x04, 0xf8, 0xff, 0xff, 0x62, 0x0b, 0x00, 0x00,
  0x5b, 0x03, 0x00, 0x00, 0x5d, 0x04, 0x00, 0x00, 0xb3, 0x06, 0x00, 0x00,
  0x32, 0x04, 0x00, 0x00, 0xcb, 0x00, 0x00, 0x00, 0x91, 0xfa, 0xff, 0xff,
  0x58, 0x03, 0x00, 0x00, 0xea, 0x04, 0x00, 0x00, 0x3b, 0xf9, 0xff, 0xff,
  0x72, 0x05, 0x00, 0x00, 0x8e, 0x04, 0x00, 0x00, 0x7e, 0xfe, 0xff, 0xff,
  0x04, 0x00, 0x00, 0x00, 0x70, 0x00, 0x00, 0x00, 0x16, 0x0d, 0x82, 0xb5,
  0x18, 0xaa, 0x88, 0xab, 0xbc, 0x07, 0xa1, 0x0e, 0x81, 0xfd, 0xd6, 0x10,
  0x23, 0xdc, 0x00, 0xc2, 0x21, 0x81, 0x1b, 0x1c, 0x12, 0x95, 0xa5, 0x15,
  0x05, 0xa2, 0xaf, 0xda, 0xa8, 0x1f, 0xbe, 0x20, 0xc5, 0x14, 0xa0, 0xa9,
  0x14, 0x0f, 0x1c, 0x81, 0xd3, 0x27, 0xb7, 0x1f, 0xa0, 0xb5, 0x18, 0x1d,
  0xa7, 0x1b, 0x1a, 0x14, 0x1f, 0x9b, 0x19, 0x81, 0x19, 0xe8, 0xc1, 0xb0,
  0xb3, 0x9d, 0x07, 0xba, 0xa6, 0x12, 0x07, 0xa1, 0x81, 0x10, 0x9e, 0x01,
  0x0a, 0xc9, 0x34, 0xb0, 0x14, 0x86, 0x9c, 0x18, 0xb4, 0xa1, 0x0e, 0xa2,
  0xae, 0x0e, 0x07, 0x16, 0x16, 0x27, 0xd0, 0x81, 0xc4, 0x1a, 0x1a, 0x9d,
  0x19, 0x1d, 0xc0, 0x1c, 0x18, 0xbd, 0xaf, 0xb8, 0x8e, 0x81, 0x40, 0x20,
  0xfa, 0xfe, 0xff, 0xff, 0x04, 0x00, 0x00, 0x00, 0x1c, 0x00, 0x00, 0x00,
  0x07, 0x0a, 0x00, 0x00, 0x29, 0xfe, 0xff, 0xff, 0x00, 0xf7, 0xff, 0xff,
  0xae, 0xf1, 0xff, 0xff, 0x8f, 0x09, 0x00, 0x00, 0xb2, 0x00, 0x00, 0x00,
  0xe4, 0xfb, 0xff, 0xff, 0x22, 0xff, 0xff, 0xff, 0x04, 0x00, 0x00, 0x00,
  0x04, 0x00, 0x00, 0x00, 0x01, 0x00, 0x00, 0x00, 0x32, 0xff, 0xff, 0xff,
  0x04, 0x00, 0x00, 0x00, 0x0c, 0x00, 0x00, 0x00, 0x01, 0x00, 0x00, 0x00,
  0x7d, 0x00, 0x00, 0x00, 0x08, 0x00, 0x00, 0x00, 0x4a, 0xff, 0xff, 0xff,
  0x04, 0x00, 0x00, 0x00, 0x10, 0x00, 0x00, 0x00, 0x01, 0x00, 0x00, 0x00,
  0x01, 0x00, 0x00, 0x00, 0xf4, 0x01, 0x00, 0x00, 0x06, 0x00, 0x00, 0x00,
  0x7c, 0xeb, 0xff, 0xff, 0x80, 0xeb, 0xff, 0xff, 0x0f, 0x00, 0x00, 0x00,
  0x4d, 0x4c, 0x49, 0x52, 0x20, 0x43, 0x6f, 0x6e, 0x76, 0x65, 0x72, 0x74,
  0x65, 0x64, 0x2e, 0x00, 0x01, 0x00, 0x00, 0x00, 0x14, 0x00, 0x00, 0x00,
  0x00, 0x00, 0x0e, 0x00, 0x18, 0x00, 0x14, 0x00, 0x10, 0x00, 0x0c, 0x00,
  0x08, 0x00, 0x04, 0x00, 0x0e, 0x00, 0x00, 0x00, 0x14, 0x00, 0x00, 0x00,
  0x1c, 0x00, 0x00, 0x00, 0x44, 0x02, 0x00, 0x00, 0x48, 0x02, 0x00, 0x00,
  0x4c, 0x02, 0x00, 0x00, 0x04, 0x00, 0x00, 0x00, 0x6d, 0x61, 0x69, 0x6e,
  0x00, 0x00, 0x00, 0x00, 0x09, 0x00, 0x00, 0x00, 0x08, 0x02, 0x00, 0x00,
  0xac, 0x01, 0x00, 0x00, 0x58, 0x01, 0x00, 0x00, 0x14, 0x01, 0x00, 0x00,
  0xf0, 0x00, 0x00, 0x00, 0xbc, 0x00, 0x00, 0x00, 0x78, 0x00, 0x00, 0x00,
  0x40, 0x00, 0x00, 0x00, 0x04, 0x00, 0x00, 0x00, 0x82, 0xfe, 0xff, 0xff,
  0x1c, 0x00, 0x00, 0x00, 0x00, 0x00, 0x00, 0x09, 0x1c, 0x00, 0x00, 0x00,
  0x20, 0x00, 0x00, 0x00, 0x04, 0x00, 0x00, 0x00, 0x00, 0x00, 0x06, 0x00,
  0x08, 0x00, 0x04, 0x00, 0x06, 0x00, 0x00, 0x00, 0x00, 0x00, 0x80, 0x3f,
  0x01, 0x00, 0x00, 0x00, 0x16, 0x00, 0x00, 0x00, 0x01, 0x00, 0x00, 0x00,
  0x15, 0x00, 0x00, 0x00, 0xba, 0xfe, 0xff, 0xff, 0x14, 0x00, 0x00, 0x00,
  0x00, 0x00, 0x00, 0x08, 0x10, 0x00, 0x00, 0x00, 0x14, 0x00, 0x00, 0x00,
  0x03, 0x00, 0x00, 0x00, 0x4c, 0xec, 0xff, 0xff, 0x01, 0x00, 0x00, 0x00,
  0x15, 0x00, 0x00, 0x00, 0x03, 0x00, 0x00, 0x00, 0x14, 0x00, 0x00, 0x00,
  0x05, 0x00, 0x00, 0x00, 0x04, 0x00, 0x00, 0x00, 0xee, 0xfe, 0xff, 0xff,
  0x1c, 0x00, 0x00, 0x00, 0x00, 0x00, 0x00, 0x08, 0x1c, 0x00, 0x00, 0x00,
  0x20, 0x00, 0x00, 0x00, 0x03, 0x00, 0x00, 0x00, 0x00, 0x00, 0x06, 0x00,
  0x08, 0x00, 0x07, 0x00, 0x06, 0x00, 0x00, 0x00, 0x00, 0x00, 0x00, 0x01,
  0x01, 0x00, 0x00, 0x00, 0x14, 0x00, 0x00, 0x00, 0x03, 0x00, 0x00, 0x00,
  0x13, 0x00, 0x00, 0x00, 0x07, 0x00, 0x00, 0x00, 0x06, 0x00, 0x00, 0x00,
  0x2e, 0xff, 0xff, 0xff, 0x14, 0x00, 0x00, 0x00, 0x00, 0x00, 0x00, 0x1b,
  0x10, 0x00, 0x00, 0x00, 0x14, 0x00, 0x00, 0x00, 0x02, 0x00, 0x00, 0x00,
  0xc0, 0xec, 0xff, 0xff, 0x01, 0x00, 0x00, 0x00, 0x13, 0x00, 0x00, 0x00,
  0x02, 0x00, 0x00, 0x00, 0x12, 0x00, 0x00, 0x00, 0x03, 0x00, 0x00, 0x00,
  0x02, 0xff, 0xff, 0xff, 0x08, 0x00, 0x00, 0x00, 0x0c, 0x00, 0x00, 0x00,
  0x01, 0x00, 0x00, 0x00, 0x12, 0x00, 0x00, 0x00, 0x02, 0x00, 0x00, 0x00,
  0x11, 0x00, 0x00, 0x00, 0x02, 0x00, 0x00, 0x00, 0x7e, 0xff, 0xff, 0xff,
  0x14, 0x00, 0x00, 0x00, 0x00, 0x00, 0x00, 0x01, 0x1c, 0x00, 0x00, 0x00,
  0x20, 0x00, 0x00, 0x00, 0x01, 0x00, 0x00, 0x00, 0x70, 0xff, 0xff, 0xff,
  0x00, 0x00, 0x00, 0x01, 0x01, 0x00, 0x00, 0x00, 0x01, 0x00, 0x00, 0x00,
  0x01, 0x00, 0x00, 0x00, 0x11, 0x00, 0x00, 0x00, 0x03, 0x00, 0x00, 0x00,
  0x10, 0x00, 0x00, 0x00, 0x09, 0x00, 0x00, 0x00, 0x08, 0x00, 0x00, 0x00,
  0xbe, 0xff, 0xff, 0xff, 0x14, 0x00, 0x00, 0x00, 0x00, 0x00, 0x00, 0x01,
  0x1c, 0x00, 0x00, 0x00, 0x20, 0x00, 0x00, 0x00, 0x01, 0x00, 0x00, 0x00,
  0xb0, 0xff, 0xff, 0xff, 0x00, 0x00, 0x00, 0x01, 0x01, 0x00, 0x00, 0x00,
  0x02, 0x00, 0x00, 0x00, 0x01, 0x00, 0x00, 0x00, 0x10, 0x00, 0x00, 0x00,
  0x03, 0x00, 0x00, 0x00, 0x0f, 0x00, 0x00, 0x00, 0x0b, 0x00, 0x00, 0x00,
  0x0a, 0x00, 0x00, 0x00, 0x00, 0x00, 0x0e, 0x00, 0x18, 0x00, 0x14, 0x00,
  0x10, 0x00, 0x0c, 0x00, 0x0b, 0x00, 0x04, 0x00, 0x0e, 0x00, 0x00, 0x00,
  0x20, 0x00, 0x00, 0x00, 0x00, 0x00, 0x00, 0x01, 0x28, 0x00, 0x00, 0x00,
  0x2c, 0x00, 0x00, 0x00, 0x01, 0x00, 0x00, 0x00, 0x0c, 0x00, 0x10, 0x00,
  0x00, 0x00, 0x0c, 0x00, 0x08, 0x00, 0x07, 0x00, 0x0c, 0x00, 0x00, 0x00,
  0x00, 0x00, 0x00, 0x01, 0x01, 0x00, 0x00, 0x00, 0x02, 0x00, 0x00, 0x00,
  0x01, 0x00, 0x00, 0x00, 0x0f, 0x00, 0x00, 0x00, 0x03, 0x00, 0x00, 0x00,
  0x0e, 0x00, 0x00, 0x00, 0x0d, 0x00, 0x00, 0x00, 0x0c, 0x00, 0x00, 0x00,
  0x00, 0x00, 0x0a, 0x00, 0x0c, 0x00, 0x00, 0x00, 0x08, 0x00, 0x04, 0x00,
  0x0a, 0x00, 0x00, 0x00, 0x08, 0x00, 0x00, 0x00, 0x0c, 0x00, 0x00, 0x00,
  0x01, 0x00, 0x00, 0x00, 0x0e, 0x00, 0x00, 0x00, 0x02, 0x00, 0x00, 0x00,
  0x00, 0x00, 0x00, 0x00, 0x01, 0x00, 0x00, 0x00, 0x01, 0x00, 0x00, 0x00,
  0x16, 0x00, 0x00, 0x00, 0x01, 0x00, 0x00, 0x00, 0x00, 0x00, 0x00, 0x00,
  0x17, 0x00, 0x00, 0x00, 0x28, 0x12, 0x00, 0x00, 0xcc, 0x11, 0x00, 0x00,
  0x8c, 0x11, 0x00, 0x00, 0x50, 0x11, 0x00, 0x00, 0xa4, 0x10, 0x00, 0x00,
  0xf8, 0x0f, 0x00, 0x00, 0xe4, 0x0e, 0x00, 0x00, 0xc8, 0x0d, 0x00, 0x00,
  0x14, 0x0d, 0x00, 0x00, 0x50, 0x0c, 0x00, 0x00, 0x6c, 0x0b, 0x00, 0x00,
  0x78, 0x0a, 0x00, 0x00, 0x64, 0x09, 0x00, 0x00, 0x40, 0x08, 0x00, 0x00,
  0xb4, 0x07, 0x00, 0x00, 0x50, 0x06, 0x00, 0x00, 0xe4, 0x04, 0x00, 0x00,
  0x78, 0x03, 0x00, 0x00, 0x3c, 0x02, 0x00, 0x00, 0xb8, 0x01, 0x00, 0x00,
  0x04, 0x01, 0x00, 0x00, 0x70, 0x00, 0x00, 0x00, 0x04, 0x00, 0x00, 0x00,
  0x4a, 0xee, 0xff, 0xff, 0x00, 0x00, 0x00, 0x01, 0x14, 0x00, 0x00, 0x00,
  0x30, 0x00, 0x00, 0x00, 0x17, 0x00, 0x00, 0x00, 0x00, 0x00, 0x00, 0x09,
  0x44, 0x00, 0x00, 0x00, 0x34, 0xee, 0xff, 0xff, 0x08, 0x00, 0x00, 0x00,
  0x10, 0x00, 0x00, 0x00, 0x01, 0x00, 0x00, 0x00, 0x80, 0xff, 0xff, 0xff,
  0xff, 0xff, 0xff, 0xff, 0x01, 0x00, 0x00, 0x00, 0x00, 0x00, 0x80, 0x3b,
  0x1b, 0x00, 0x00, 0x00, 0x53, 0x74, 0x61, 0x74, 0x65, 0x66, 0x75, 0x6c,
  0x50, 0x61, 0x72, 0x74, 0x69, 0x74, 0x69, 0x6f, 0x6e, 0x65, 0x64, 0x43,
  0x61, 0x6c, 0x6c, 0x5f, 0x31, 0x3a, 0x30, 0x00, 0x02, 0x00, 0x00, 0x00,
  0x01, 0x00, 0x00, 0x00, 0x07, 0x00, 0x00, 0x00, 0xb2, 0xee, 0xff, 0xff,
  0x00, 0x00, 0x00, 0x01, 0x14, 0x00, 0x00, 0x00, 0x30, 0x00, 0x00, 0x00,
  0x16, 0x00, 0x00, 0x00, 0x00, 0x00, 0x00, 0x09, 0x6c, 0x00, 0x00, 0x00,
  0x9c, 0xee, 0xff, 0xff, 0x08, 0x00, 0x00, 0x00, 0x10, 0x00, 0x00, 0x00,
  0x01, 0x00, 0x00, 0x00, 0x4f, 0x00, 0x00, 0x00, 0x00, 0x00, 0x00, 0x00,
  0x01, 0x00, 0x00, 0x00, 0xbc, 0xf5, 0xda, 0x3e, 0x40, 0x00, 0x00, 0x00,
  0x73, 0x65, 0x71, 0x75, 0x65, 0x6e, 0x74, 0x69, 0x61, 0x6c, 0x5f, 0x33,
  0x5f, 0x31, 0x2f, 0x64, 0x65, 0x6e, 0x73, 0x65, 0x5f, 0x37, 0x5f, 0x31,
  0x2f, 0x4d, 0x61, 0x74, 0x4d, 0x75, 0x6c, 0x3b, 0x73, 0x65, 0x71, 0x75,
  0x65, 0x6e, 0x74, 0x69, 0x61, 0x6c, 0x5f, 0x33, 0x5f, 0x31, 0x2f, 0x64,
  0x65, 0x6e, 0x73, 0x65, 0x5f, 0x37, 0x5f, 0x31, 0x2f, 0x42, 0x69, 0x61,
  0x73, 0x41, 0x64, 0x64, 0x00, 0x00, 0x00, 0x00, 0x02, 0x00, 0x00, 0x00,
  0x01, 0x00, 0x00, 0x00, 0x07, 0x00, 0x00, 0x00, 0x42, 0xef, 0xff, 0xff,
  0x00, 0x00, 0x00, 0x01, 0x14, 0x00, 0x00, 0x00, 0x34, 0x00, 0x00, 0x00,
  0x15, 0x00, 0x00, 0x00, 0x00, 0x00, 0x00, 0x09, 0x8c, 0x00, 0x00, 0x00,
  0x2c, 0xef, 0xff, 0xff, 0x08, 0x00, 0x00, 0x00, 0x14, 0x00, 0x00, 0x00,
  0x01, 0x00, 0x00, 0x00, 0x80, 0xff, 0xff, 0xff, 0xff, 0xff, 0xff, 0xff,
  0x00, 0x00, 0x00, 0x00, 0x01, 0x00, 0x00, 0x00, 0x0a, 0x53, 0x2c, 0x3c,
  0x5e, 0x00, 0x00, 0x00, 0x73, 0x65, 0x71, 0x75, 0x65, 0x6e, 0x74, 0x69,
  0x61, 0x6c, 0x5f, 0x33, 0x5f, 0x31, 0x2f, 0x64, 0x65, 0x6e, 0x73, 0x65,
  0x5f, 0x36, 0x5f, 0x31, 0x2f, 0x4d, 0x61, 0x74, 0x4d, 0x75, 0x6c, 0x3b,
  0x73, 0x65, 0x71, 0x75, 0x65, 0x6e, 0x74, 0x69, 0x61, 0x6c, 0x5f, 0x33,
  0x5f, 0x31, 0x2f, 0x64, 0x65, 0x6e, 0x73, 0x65, 0x5f, 0x36, 0x5f, 0x31,
  0x2f, 0x52, 0x65, 0x6c, 0x75, 0x3b, 0x73, 0x65, 0x71, 0x75, 0x65, 0x6e,
  0x74, 0x69, 0x61, 0x6c, 0x5f, 0x33, 0x5f, 0x31, 0x2f, 0x64, 0x65, 0x6e,
  0x73, 0x65, 0x5f, 0x36, 0x5f, 0x31, 0x2f, 0x42, 0x69, 0x61, 0x73, 0x41,
  0x64, 0x64, 0x00, 0x00, 0x02, 0x00, 0x00, 0x00, 0x01, 0x00, 0x00, 0x00,
  0x10, 0x00, 0x00, 0x00, 0xf2, 0xef, 0xff, 0xff, 0x00, 0x00, 0x00, 0x01,
  0x14, 0x00, 0x00, 0x00, 0x30, 0x00, 0x00, 0x00, 0x14, 0x00, 0x00, 0x00,
  0x00, 0x00, 0x00, 0x09, 0x5c, 0x00, 0x00, 0x00, 0xdc, 0xef, 0xff, 0xff,
  0x08, 0x00, 0x00, 0x00, 0x10, 0x00, 0x00, 0x00, 0x01, 0x00, 0x00, 0x00,
  0x80, 0xff, 0xff, 0xff, 0xff, 0xff, 0xff, 0xff, 0x01, 0x00, 0x00, 0x00,
  0xba, 0x88, 0x6e, 0x3c, 0x30, 0x00, 0x00, 0x00, 0x73, 0x65, 0x71, 0x75,
  0x65, 0x6e, 0x74, 0x69, 0x61, 0x6c, 0x5f, 0x33, 0x5f, 0x31, 0x2f, 0x67,
  0x6c, 0x6f, 0x62, 0x61, 0x6c, 0x5f, 0x61, 0x76, 0x65, 0x72, 0x61, 0x67,
  0x65, 0x5f, 0x70, 0x6f, 0x6f, 0x6c, 0x69, 0x6e, 0x67, 0x31, 0x64, 0x5f,
  0x33, 0x5f, 0x31, 0x2f, 0x4d, 0x65, 0x61, 0x6e, 0x00, 0x00, 0x00, 0x00,
  0x02, 0x00, 0x00, 0x00, 0x01, 0x00, 0x00, 0x00, 0x08, 0x00, 0x00, 0x00,
  0x72, 0xf0, 0xff, 0xff, 0x00, 0x00, 0x00, 0x01, 0x14, 0x00, 0x00, 0x00,
  0x30, 0x00, 0x00, 0x00, 0x13, 0x00, 0x00, 0x00, 0x00, 0x00, 0x00, 0x09,
  0x10, 0x01, 0x00, 0x00, 0x5c, 0xf0, 0xff, 0xff, 0x08, 0x00, 0x00, 0x00,
  0x10, 0x00, 0x00, 0x00, 0x01, 0x00, 0x00, 0x00, 0x80, 0xff, 0xff, 0xff,
  0xff, 0xff, 0xff, 0xff, 0x01, 0x00, 0x00, 0x00, 0x4c, 0xe0, 0x8f, 0x3e,
  0xe6, 0x00, 0x00, 0x00, 0x73, 0x65, 0x71, 0x75, 0x65, 0x6e, 0x74, 0x69,
  0x61, 0x6c, 0x5f, 0x33, 0x5f, 0x31, 0x2f, 0x61, 0x63, 0x74, 0x69, 0x76,
  0x61, 0x74, 0x69, 0x6f, 0x6e, 0x5f, 0x31, 0x31, 0x5f, 0x31, 0x2f, 0x52,
  0x65, 0x6c, 0x75, 0x3b, 0x73, 0x65, 0x71, 0x75, 0x65, 0x6e, 0x74, 0x69,
  0x61, 0x6c, 0x5f, 0x33, 0x5f, 0x31, 0x2f, 0x62, 0x61, 0x74, 0x63, 0x68,
  0x5f, 0x6e, 0x6f, 0x72, 0x6d, 0x61, 0x6c, 0x69, 0x7a, 0x61, 0x74, 0x69,
  0x6f, 0x6e, 0x5f, 0x31, 0x31, 0x5f, 0x31, 0x2f, 0x62, 0x61, 0x74, 0x63,
  0x68, 0x6e, 0x6f, 0x72, 0x6d, 0x2f, 0x61, 0x64, 0x64, 0x5f, 0x31, 0x3b,
  0x73, 0x65, 0x71, 0x75, 0x65, 0x6e, 0x74, 0x69, 0x61, 0x6c, 0x5f, 0x33,
  0x5f, 0x31, 0x2f, 0x63, 0x6f, 0x6e, 0x76, 0x31, 0x64, 0x5f, 0x31, 0x31,
  0x5f, 0x31, 0x2f, 0x63, 0x6f, 0x6e, 0x76, 0x6f, 0x6c, 0x75, 0x74, 0x69,
  0x6f, 0x6e, 0x2f, 0x53, 0x71, 0x75, 0x65, 0x65, 0x7a, 0x65, 0x3b, 0x73,
  0x65, 0x71, 0x75, 0x65, 0x6e, 0x74, 0x69, 0x61, 0x6c, 0x5f, 0x33, 0x5f,
  0x31, 0x2f, 0x62, 0x61, 0x74, 0x63, 0x68, 0x5f, 0x6e, 0x6f, 0x72, 0x6d,
  0x61, 0x6c, 0x69, 0x7a, 0x61, 0x74, 0x69, 0x6f, 0x6e, 0x5f, 0x31, 0x31,
  0x5f, 0x31, 0x2f, 0x62, 0x61, 0x74, 0x63, 0x68, 0x6e, 0x6f, 0x72, 0x6d,
  0x2f, 0x6d, 0x75, 0x6c, 0x5f, 0x31, 0x3b, 0x73, 0x65, 0x71, 0x75, 0x65,
  0x6e, 0x74, 0x69, 0x61, 0x6c, 0x5f, 0x33, 0x5f, 0x31, 0x2f, 0x63, 0x6f,
  0x6e, 0x76, 0x31, 0x64, 0x5f, 0x31, 0x31, 0x5f, 0x31, 0x2f, 0x42, 0x69,
  0x61, 0x73, 0x41, 0x64, 0x64, 0x3b, 0x00, 0x00, 0x03, 0x00, 0x00, 0x00,
  0x01, 0x00, 0x00, 0x00, 0x7d, 0x00, 0x00, 0x00, 0x08, 0x00, 0x00, 0x00,
  0xaa, 0xf1, 0xff, 0xff, 0x00, 0x00, 0x00, 0x01, 0x14, 0x00, 0x00, 0x00,
  0x34, 0x00, 0x00, 0x00, 0x12, 0x00, 0x00, 0x00, 0x00, 0x00, 0x00, 0x09,
  0x3c, 0x01, 0x00, 0x00, 0x94, 0xf1, 0xff, 0xff, 0x08, 0x00, 0x00, 0x00,
  0x14, 0x00, 0x00, 0x00, 0x01, 0x00, 0x00, 0x00, 0x80, 0xff, 0xff, 0xff,
  0xff, 0xff, 0xff, 0xff, 0x00, 0x00, 0x00, 0x00, 0x01, 0x00, 0x00, 0x00,
  0x4c, 0xe0, 0x8f, 0x3e, 0x0d, 0x01, 0x00, 0x00, 0x73, 0x65, 0x71, 0x75,
  0x65, 0x6e, 0x74, 0x69, 0x61, 0x6c, 0x5f, 0x33, 0x5f, 0x31, 0x2f, 0x61,
  0x63, 0x74, 0x69, 0x76, 0x61, 0x74, 0x69, 0x6f, 0x6e, 0x5f, 0x31, 0x31,
  0x5f, 0x31, 0x2f, 0x52, 0x65, 0x6c, 0x75, 0x3b, 0x73, 0x65, 0x71, 0x75,
  0x65, 0x6e, 0x74, 0x69, 0x61, 0x6c, 0x5f, 0x33, 0x5f, 0x31, 0x2f, 0x62,
  0x61, 0x74, 0x63, 0x68, 0x5f, 0x6e, 0x6f, 0x72, 0x6d, 0x61, 0x6c, 0x69,
  0x7a, 0x61, 0x74, 0x69, 0x6f, 0x6e, 0x5f, 0x31, 0x31, 0x5f, 0x31, 0x2f,
  0x62, 0x61, 0x74, 0x63, 0x68, 0x6e, 0x6f, 0x72, 0x6d, 0x2f, 0x61, 0x64,
  0x64, 0x5f, 0x31, 0x3b, 0x73, 0x65, 0x71, 0x75, 0x65, 0x6e, 0x74, 0x69,
  0x61, 0x6c, 0x5f, 0x33, 0x5f, 0x31, 0x2f, 0x63, 0x6f, 0x6e, 0x76, 0x31,
  0x64, 0x5f, 0x31, 0x31, 0x5f, 0x31, 0x2f, 0x63, 0x6f, 0x6e, 0x76, 0x6f,
  0x6c, 0x75, 0x74, 0x69, 0x6f, 0x6e, 0x2f, 0x53, 0x71, 0x75, 0x65, 0x65,
  0x7a, 0x65, 0x3b, 0x73, 0x65, 0x71, 0x75, 0x65, 0x6e, 0x74, 0x69, 0x61,
  0x6c, 0x5f, 0x33, 0x5f, 0x31, 0x2f, 0x62, 0x61, 0x74, 0x63, 0x68, 0x5f,
  0x6e, 0x6f, 0x72, 0x6d, 0x61, 0x6c, 0x69, 0x7a, 0x61, 0x74, 0x69, 0x6f,
  0x6e, 0x5f, 0x31, 0x31, 0x5f, 0x31, 0x2f, 0x62, 0x61, 0x74, 0x63, 0x68,
  0x6e, 0x6f, 0x72, 0x6d, 0x2f, 0x6d, 0x75, 0x6c, 0x5f, 0x31, 0x3b, 0x73,
  0x65, 0x71, 0x75, 0x65, 0x6e, 0x74, 0x69, 0x61, 0x6c, 0x5f, 0x33, 0x5f,
  0x31, 0x2f, 0x63, 0x6f, 0x6e, 0x76, 0x31, 0x64, 0x5f, 0x31, 0x31, 0x5f,
  0x31, 0x2f, 0x42, 0x69, 0x61, 0x73, 0x41, 0x64, 0x64, 0x3b, 0x3b, 0x73,
  0x65, 0x71, 0x75, 0x65, 0x6e, 0x74, 0x69, 0x61, 0x6c, 0x5f, 0x33, 0x5f,
  0x31, 0x2f, 0x63, 0x6f, 0x6e, 0x76, 0x31, 0x64, 0x5f, 0x31, 0x31, 0x5f,
  0x31, 0x2f, 0x63, 0x6f, 0x6e, 0x76, 0x6f, 0x6c, 0x75, 0x74, 0x69, 0x6f,
  0x6e, 0x00, 0x00, 0x00, 0x04, 0x00, 0x00, 0x00, 0x01, 0x00, 0x00, 0x00,
  0x01, 0x00, 0x00, 0x00, 0x7d, 0x00, 0x00, 0x00, 0x08, 0x00, 0x00, 0x00,
  0x12, 0xf3, 0xff, 0xff, 0x00, 0x00, 0x00, 0x01, 0x14, 0x00, 0x00, 0x00,
  0x34, 0x00, 0x00, 0x00, 0x11, 0x00, 0x00, 0x00, 0x00, 0x00, 0x00, 0x09,
  0x3c, 0x01, 0x00, 0x00, 0xfc, 0xf2, 0xff, 0xff, 0x08, 0x00, 0x00, 0x00,
  0x14, 0x00, 0x00, 0x00, 0x01, 0x00, 0x00, 0x00, 0x80, 0xff, 0xff, 0xff,
  0xff, 0xff, 0xff, 0xff, 0x00, 0x00, 0x00, 0x00, 0x01, 0x00, 0x00, 0x00,
  0xcb, 0xb4, 0x9b, 0x3d, 0x0d, 0x01, 0x00, 0x00, 0x73, 0x65, 0x71, 0x75,
  0x65, 0x6e, 0x74, 0x69, 0x61, 0x6c, 0x5f, 0x33, 0x5f, 0x31, 0x2f, 0x61,
  0x63, 0x74, 0x69, 0x76, 0x61, 0x74, 0x69, 0x6f, 0x6e, 0x5f, 0x31, 0x30,
  0x5f, 0x31, 0x2f, 0x52, 0x65, 0x6c, 0x75, 0x3b, 0x73, 0x65, 0x71, 0x75,
  0x65, 0x6e, 0x74, 0x69, 0x61, 0x6c, 0x5f, 0x33, 0x5f, 0x31, 0x2f, 0x62,
  0x61, 0x74, 0x63, 0x68, 0x5f, 0x6e, 0x6f, 0x72, 0x6d, 0x61, 0x6c, 0x69,
  0x7a, 0x61, 0x74, 0x69, 0x6f, 0x6e, 0x5f, 0x31, 0x30, 0x5f, 0x31, 0x2f,
  0x62, 0x61, 0x74, 0x63, 0x68, 0x6e, 0x6f, 0x72, 0x6d, 0x2f, 0x61, 0x64,
  0x64, 0x5f, 0x31, 0x3b, 0x73, 0x65, 0x71, 0x75, 0x65, 0x6e, 0x74, 0x69,
  0x61, 0x6c, 0x5f, 0x33, 0x5f, 0x31, 0x2f, 0x63, 0x6f, 0x6e, 0x76, 0x31,
  0x64, 0x5f, 0x31, 0x30, 0x5f, 0x31, 0x2f, 0x63, 0x6f, 0x6e, 0x76, 0x6f,
  0x6c, 0x75, 0x74, 0x69, 0x6f, 0x6e, 0x2f, 0x53, 0x71, 0x75, 0x65, 0x65,
  0x7a, 0x65, 0x3b, 0x73, 0x65, 0x71, 0x75, 0x65, 0x6e, 0x74, 0x69, 0x61,
  0x6c, 0x5f, 0x33, 0x5f, 0x31, 0x2f, 0x62, 0x61, 0x74, 0x63, 0x68, 0x5f,
  0x6e, 0x6f, 0x72, 0x6d, 0x61, 0x6c, 0x69, 0x7a, 0x61, 0x74, 0x69, 0x6f,
  0x6e, 0x5f, 0x31, 0x30, 0x5f, 0x31, 0x2f, 0x62, 0x61, 0x74, 0x63, 0x68,
  0x6e, 0x6f, 0x72, 0x6d, 0x2f, 0x6d, 0x75, 0x6c, 0x5f, 0x31, 0x3b, 0x73,
  0x65, 0x71, 0x75, 0x65, 0x6e, 0x74, 0x69, 0x61, 0x6c, 0x5f, 0x33, 0x5f,
  0x31, 0x2f, 0x63, 0x6f, 0x6e, 0x76, 0x31, 0x64, 0x5f, 0x31, 0x30, 0x5f,
  0x31, 0x2f, 0x42, 0x69, 0x61, 0x73, 0x41, 0x64, 0x64, 0x3b, 0x3b, 0x73,
  0x65, 0x71, 0x75, 0x65, 0x6e, 0x74, 0x69, 0x61, 0x6c, 0x5f, 0x33, 0x5f,
  0x31, 0x2f, 0x63, 0x6f, 0x6e, 0x76, 0x31, 0x64, 0x5f, 0x31, 0x30, 0x5f,
  0x31, 0x2f, 0x63, 0x6f, 0x6e, 0x76, 0x6f, 0x6c, 0x75, 0x74, 0x69, 0x6f,
  0x6e, 0x00, 0x00, 0x00, 0x04, 0x00, 0x00, 0x00, 0x01, 0x00, 0x00, 0x00,
  0x01, 0x00, 0x00, 0x00, 0x7d, 0x00, 0x00, 0x00, 0x0c, 0x00, 0x00, 0x00,
  0x7a, 0xf4, 0xff, 0xff, 0x00, 0x00, 0x00, 0x01, 0x14, 0x00, 0x00, 0x00,
  0x34, 0x00, 0x00, 0x00, 0x10, 0x00, 0x00, 0x00, 0x00, 0x00, 0x00, 0x09,
  0x34, 0x01, 0x00, 0x00, 0x64, 0xf4, 0xff, 0xff, 0x08, 0x00, 0x00, 0x00,
  0x14, 0x00, 0x00, 0x00, 0x01, 0x00, 0x00, 0x00, 0x80, 0xff, 0xff, 0xff,
  0xff, 0xff, 0xff, 0xff, 0x00, 0x00, 0x00, 0x00, 0x01, 0x00, 0x00, 0x00,
  0x31, 0x9d, 0x78, 0x3e, 0x07, 0x01, 0x00, 0x00, 0x73, 0x65, 0x71, 0x75,
  0x65, 0x6e, 0x74, 0x69, 0x61, 0x6c, 0x5f, 0x33, 0x5f, 0x31, 0x2f, 0x61,
  0x63, 0x74, 0x69, 0x76, 0x61, 0x74, 0x69, 0x6f, 0x6e, 0x5f, 0x39, 0x5f,
  0x31, 0x2f, 0x52, 0x65, 0x6c, 0x75, 0x3b, 0x73, 0x65, 0x71, 0x75, 0x65,
  0x6e, 0x74, 0x69, 0x61, 0x6c, 0x5f, 0x33, 0x5f, 0x31, 0x2f, 0x62, 0x61,
  0x74, 0x63, 0x68, 0x5f, 0x6e, 0x6f, 0x72, 0x6d, 0x61, 0x6c, 0x69, 0x7a,
  0x61, 0x74, 0x69, 0x6f, 0x6e, 0x5f, 0x39, 0x5f, 0x31, 0x2f, 0x62, 0x61,
  0x74, 0x63, 0x68, 0x6e, 0x6f, 0x72, 0x6d, 0x2f, 0x61, 0x64, 0x64, 0x5f,
  0x31, 0x3b, 0x73, 0x65, 0x71, 0x75, 0x65, 0x6e, 0x74, 0x69, 0x61, 0x6c,
  0x5f, 0x33, 0x5f, 0x31, 0x2f, 0x63, 0x6f, 0x6e, 0x76, 0x31, 0x64, 0x5f,
  0x39, 0x5f, 0x31, 0x2f, 0x63, 0x6f, 0x6e, 0x76, 0x6f, 0x6c, 0x75, 0x74,
  0x69, 0x6f, 0x6e, 0x2f, 0x53, 0x71, 0x75, 0x65, 0x65, 0x7a, 0x65, 0x3b,
  0x73, 0x65, 0x71, 0x75, 0x65, 0x6e, 0x74, 0x69, 0x61, 0x6c, 0x5f, 0x33,
  0x5f, 0x31, 0x2f, 0x62, 0x61, 0x74, 0x63, 0x68, 0x5f, 0x6e, 0x6f, 0x72,
  0x6d, 0x61, 0x6c, 0x69, 0x7a, 0x61, 0x74, 0x69, 0x6f, 0x6e, 0x5f, 0x39,
  0x5f, 0x31, 0x2f, 0x62, 0x61, 0x74, 0x63, 0x68, 0x6e, 0x6f, 0x72, 0x6d,
  0x2f, 0x6d, 0x75, 0x6c, 0x5f, 0x31, 0x3b, 0x73, 0x65, 0x71, 0x75, 0x65,
  0x6e, 0x74, 0x69, 0x61, 0x6c, 0x5f, 0x33, 0x5f, 0x31, 0x2f, 0x63, 0x6f,
  0x6e, 0x76, 0x31, 0x64, 0x5f, 0x39, 0x5f, 0x31, 0x2f, 0x42, 0x69, 0x61,
  0x73, 0x41, 0x64, 0x64, 0x3b, 0x3b, 0x73, 0x65, 0x71, 0x75, 0x65, 0x6e,
  0x74, 0x69, 0x61, 0x6c, 0x5f, 0x33, 0x5f, 0x31, 0x2f, 0x63, 0x6f, 0x6e,
  0x76, 0x31, 0x64, 0x5f, 0x39, 0x5f, 0x31, 0x2f, 0x63, 0x6f, 0x6e, 0x76,
  0x6f, 0x6c, 0x75, 0x74, 0x69, 0x6f, 0x6e, 0x00, 0x04, 0x00, 0x00, 0x00,
  0x01, 0x00, 0x00, 0x00, 0x01, 0x00, 0x00, 0x00, 0xfa, 0x00, 0x00, 0x00,
  0x10, 0x00, 0x00, 0x00, 0xda, 0xf5, 0xff, 0xff, 0x00, 0x00, 0x00, 0x01,
  0x14, 0x00, 0x00, 0x00, 0x30, 0x00, 0x00, 0x00, 0x0f, 0x00, 0x00, 0x00,
  0x00, 0x00, 0x00, 0x09, 0x5c, 0x00, 0x00, 0x00, 0xc4, 0xf5, 0xff, 0xff,
  0x08, 0x00, 0x00, 0x00, 0x10, 0x00, 0x00, 0x00, 0x01, 0x00, 0x00, 0x00,
  0x90, 0xff, 0xff, 0xff, 0xff, 0xff, 0xff, 0xff, 0x01, 0x00, 0x00, 0x00,
  0xc1, 0xb9, 0x1c, 0x3f, 0x31, 0x00, 0x00, 0x00, 0x73, 0x65, 0x71, 0x75,
  0x65, 0x6e, 0x74, 0x69, 0x61, 0x6c, 0x5f, 0x33, 0x5f, 0x31, 0x2f, 0x63,
  0x6f, 0x6e, 0x76, 0x31, 0x64, 0x5f, 0x39, 0x5f, 0x31, 0x2f, 0x63, 0x6f,
  0x6e, 0x76, 0x6f, 0x6c, 0x75, 0x74, 0x69, 0x6f, 0x6e, 0x2f, 0x45, 0x78,
  0x70, 0x61, 0x6e, 0x64, 0x44, 0x69, 0x6d, 0x73, 0x31, 0x00, 0x00, 0x00,
  0x04, 0x00, 0x00, 0x00, 0x01, 0x00, 0x00, 0x00, 0x01, 0x00, 0x00, 0x00,
  0xf4, 0x01, 0x00, 0x00, 0x06, 0x00, 0x00, 0x00, 0x62, 0xf6, 0xff, 0xff,
  0x00, 0x00, 0x00, 0x01, 0x14, 0x00, 0x00, 0x00, 0xe8, 0x00, 0x00, 0x00,
  0x0e, 0x00, 0x00, 0x00, 0x00, 0x00, 0x00, 0x09, 0xf4, 0x00, 0x00, 0x00,
  0x4c, 0xf6, 0xff, 0xff, 0x08, 0x00, 0x00, 0x00, 0x8c, 0x00, 0x00, 0x00,
  0x10, 0x00, 0x00, 0x00, 0x00, 0x00, 0x00, 0x00, 0x00, 0x00, 0x00, 0x00,
  0x00, 0x00, 0x00, 0x00, 0x00, 0x00, 0x00, 0x00, 0x00, 0x00, 0x00, 0x00,
  0x00, 0x00, 0x00, 0x00, 0x00, 0x00, 0x00, 0x00, 0x00, 0x00, 0x00, 0x00,
  0x00, 0x00, 0x00, 0x00, 0x00, 0x00, 0x00, 0x00, 0x00, 0x00, 0x00, 0x00,
  0x00, 0x00, 0x00, 0x00, 0x00, 0x00, 0x00, 0x00, 0x00, 0x00, 0x00, 0x00,
  0x00, 0x00, 0x00, 0x00, 0x00, 0x00, 0x00, 0x00, 0x00, 0x00, 0x00, 0x00,
  0x00, 0x00, 0x00, 0x00, 0x00, 0x00, 0x00, 0x00, 0x00, 0x00, 0x00, 0x00,
  0x00, 0x00, 0x00, 0x00, 0x00, 0x00, 0x00, 0x00, 0x00, 0x00, 0x00, 0x00,
  0x00, 0x00, 0x00, 0x00, 0x00, 0x00, 0x00, 0x00, 0x00, 0x00, 0x00, 0x00,
  0x00, 0x00, 0x00, 0x00, 0x00, 0x00, 0x00, 0x00, 0x00, 0x00, 0x00, 0x00,
  0x00, 0x00, 0x00, 0x00, 0x00, 0x00, 0x00, 0x00, 0x00, 0x00, 0x00, 0x00,
  0x00, 0x00, 0x00, 0x00, 0x10, 0x00, 0x00, 0x00, 0xc3, 0x09, 0x23, 0x3b,
  0xe7, 0xe1, 0x02, 0x3b, 0xb7, 0xa4, 0x9c, 0x3a, 0xac, 0x56, 0xfa, 0x3a,
  0xec, 0x00, 0x50, 0x3c, 0xdc, 0xda, 0x83, 0x3a, 0x20, 0x55, 0xb2, 0x3a,
  0x3e, 0x87, 0xa9, 0x3a, 0xdf, 0x71, 0x9e, 0x3a, 0xad, 0x0a, 0xfe, 0x3a,
  0x2e, 0xfc, 0xbf, 0x3a, 0xef, 0x93, 0x88, 0x3a, 0x0d, 0x18, 0xdc, 0x3a,
  0x18, 0x81, 0x9e, 0x3a, 0xa3, 0xbf, 0x43, 0x3a, 0x95, 0x73, 0x30, 0x3b,
  0x12, 0x00, 0x00, 0x00, 0x74, 0x66, 0x6c, 0x2e, 0x70, 0x73, 0x65, 0x75,
  0x64, 0x6f, 0x5f, 0x71, 0x63, 0x6f, 0x6e, 0x73, 0x74, 0x39, 0x00, 0x00,
  0x04, 0x00, 0x00, 0x00, 0x10, 0x00, 0x00, 0x00, 0x01, 0x00, 0x00, 0x00,
  0x07, 0x00, 0x00, 0x00, 0x06, 0x00, 0x00, 0x00, 0x82, 0xf7, 0xff, 0xff,
  0x00, 0x00, 0x00, 0x01, 0x14, 0x00, 0x00, 0x00, 0xe4, 0x00, 0x00, 0x00,
  0x0d, 0x00, 0x00, 0x00, 0x00, 0x00, 0x00, 0x02, 0xf0, 0x00, 0x00, 0x00,
  0x6c, 0xf7, 0xff, 0xff, 0x08, 0x00, 0x00, 0x00, 0x88, 0x00, 0x00, 0x00,
  0x10, 0x00, 0x00, 0x00, 0x00, 0x00, 0x00, 0x00, 0x00, 0x00, 0x00, 0x00,
  0x00, 0x00, 0x00, 0x00, 0x00, 0x00, 0x00, 0x00, 0x00, 0x00, 0x00, 0x00,
  0x00, 0x00, 0x00, 0x00, 0x00, 0x00, 0x00, 0x00, 0x00, 0x00, 0x00, 0x00,
  0x00, 0x00, 0x00, 0x00, 0x00, 0x00, 0x00, 0x00, 0x00, 0x00, 0x00, 0x00,
  0x00, 0x00, 0x00, 0x00, 0x00, 0x00, 0x00, 0x00, 0x00, 0x00, 0x00, 0x00,
  0x00, 0x00, 0x00, 0x00, 0x00, 0x00, 0x00, 0x00, 0x00, 0x00, 0x00, 0x00,
  0x00, 0x00, 0x00, 0x00, 0x00, 0x00, 0x00, 0x00, 0x00, 0x00, 0x00, 0x00,
  0x00, 0x00, 0x00, 0x00, 0x00, 0x00, 0x00, 0x00, 0x00, 0x00, 0x00, 0x00,
  0x00, 0x00, 0x00, 0x00, 0x00, 0x00, 0x00, 0x00, 0x00, 0x00, 0x00, 0x00,
  0x00, 0x00, 0x00, 0x00, 0x00, 0x00, 0x00, 0x00, 0x00, 0x00, 0x00, 0x00,
  0x00, 0x00, 0x00, 0x00, 0x00, 0x00, 0x00, 0x00, 0x00, 0x00, 0x00, 0x00,
  0x10, 0x00, 0x00, 0x00, 0x80, 0xa0, 0xc7, 0x3a, 0x41, 0x41, 0xa0, 0x3a,
  0x11, 0xcc, 0x3f, 0x3a, 0x76, 0x42, 0x99, 0x3a, 0xfb, 0xae, 0xfe, 0x3b,
  0x15, 0x72, 0x21, 0x3a, 0x8b, 0x5a, 0x5a, 0x3a, 0xd9, 0x92, 0x4f, 0x3a,
  0xb7, 0x00, 0x42, 0x3a, 0xd7, 0x86, 0x9b, 0x3a, 0xf4, 0x11, 0x6b, 0x3a,
  0x7f, 0x3a, 0x27, 0x3a, 0x5b, 0xbe, 0x86, 0x3a, 0x5b, 0x13, 0x42, 0x3a,
  0xa1, 0xad, 0xef, 0x39, 0xef, 0x0c, 0xd8, 0x3a, 0x12, 0x00, 0x00, 0x00,
  0x74, 0x66, 0x6c, 0x2e, 0x70, 0x73, 0x65, 0x75, 0x64, 0x6f, 0x5f, 0x71,
  0x63, 0x6f, 0x6e, 0x73, 0x74, 0x38, 0x00, 0x00, 0x01, 0x00, 0x00, 0x00,
  0x10, 0x00, 0x00, 0x00, 0x92, 0xf8, 0xff, 0xff, 0x00, 0x00, 0x00, 0x01,
  0x14, 0x00, 0x00, 0x00, 0xb8, 0x00, 0x00, 0x00, 0x0c, 0x00, 0x00, 0x00,
  0x00, 0x00, 0x00, 0x09, 0xc4, 0x00, 0x00, 0x00, 0x7c, 0xf8, 0xff, 0xff,
  0x08, 0x00, 0x00, 0x00, 0x6c, 0x00, 0x00, 0x00, 0x0c, 0x00, 0x00, 0x00,
  0x00, 0x00, 0x00, 0x00, 0x00, 0x00, 0x00, 0x00, 0x00, 0x00, 0x00, 0x00,
  0x00, 0x00, 0x00, 0x00, 0x00, 0x00, 0x00, 0x00, 0x00, 0x00, 0x00, 0x00,
  0x00, 0x00, 0x00, 0x00, 0x00, 0x00, 0x00, 0x00, 0x00, 0x00, 0x00, 0x00,
  0x00, 0x00, 0x00, 0x00, 0x00, 0x00, 0x00, 0x00, 0x00, 0x00, 0x00, 0x00,
  0x00, 0x00, 0x00, 0x00, 0x00, 0x00, 0x00, 0x00, 0x00, 0x00, 0x00, 0x00,
  0x00, 0x00, 0x00, 0x00, 0x00, 0x00, 0x00, 0x00, 0x00, 0x00, 0x00, 0x00,
  0x00, 0x00, 0x00, 0x00, 0x00, 0x00, 0x00, 0x00, 0x00, 0x00, 0x00, 0x00,
  0x00, 0x00, 0x00, 0x00, 0x00, 0x00, 0x00, 0x00, 0x00, 0x00, 0x00, 0x00,
  0x00, 0x00, 0x00, 0x00, 0x0c, 0x00, 0x00, 0x00, 0xe8, 0x01, 0x2a, 0x3b,
  0x30, 0x87, 0x3d, 0x3b, 0x74, 0xe5, 0xe5, 0x3a, 0x97, 0x3b, 0x00, 0x3b,
  0x42, 0x9b, 0x7b, 0x3b, 0x15, 0x16, 0xd3, 0x3a, 0xfa, 0x6b, 0x6b, 0x3b,
  0x24, 0x45, 0x21, 0x3b, 0x81, 0x50, 0x1a, 0x3b, 0x38, 0xd1, 0xde, 0x3a,
  0x74, 0x1f, 0x53, 0x3b, 0x02, 0xa5, 0x1a, 0x3b, 0x12, 0x00, 0x00, 0x00,
  0x74, 0x66, 0x6c, 0x2e, 0x70, 0x73, 0x65, 0x75, 0x64, 0x6f, 0x5f, 0x71,
  0x63, 0x6f, 0x6e, 0x73, 0x74, 0x37, 0x00, 0x00, 0x04, 0x00, 0x00, 0x00,
  0x0c, 0x00, 0x00, 0x00, 0x01, 0x00, 0x00, 0x00, 0x05, 0x00, 0x00, 0x00,
  0x10, 0x00, 0x00, 0x00, 0x82, 0xf9, 0xff, 0xff, 0x00, 0x00, 0x00, 0x01,
  0x14, 0x00, 0x00, 0x00, 0xb4, 0x00, 0x00, 0x00, 0x0b, 0x00, 0x00, 0x00,
  0x00, 0x00, 0x00, 0x02, 0xc0, 0x00, 0x00, 0x00, 0x6c, 0xf9, 0xff, 0xff,
  0x08, 0x00, 0x00, 0x00, 0x68, 0x00, 0x00, 0x00, 0x0c, 0x00, 0x00, 0x00,
  0x00, 0x00, 0x00, 0x00, 0x00, 0x00, 0x00, 0x00, 0x00, 0x00, 0x00, 0x00,
  0x00, 0x00, 0x00, 0x00, 0x00, 0x00, 0x00, 0x00, 0x00, 0x00, 0x00, 0x00,
  0x00, 0x00, 0x00, 0x00, 0x00, 0x00, 0x00, 0x00, 0x00, 0x00, 0x00, 0x00,
  0x00, 0x00, 0x00, 0x00, 0x00, 0x00, 0x00, 0x00, 0x00, 0x00, 0x00, 0x00,
  0x00, 0x00, 0x00, 0x00, 0x00, 0x00, 0x00, 0x00, 0x00, 0x00, 0x00, 0x00,
  0x00, 0x00, 0x00, 0x00, 0x00, 0x00, 0x00, 0x00, 0x00, 0x00, 0x00, 0x00,
  0x00, 0x00, 0x00, 0x00, 0x00, 0x00, 0x00, 0x00, 0x00, 0x00, 0x00, 0x00,
  0x00, 0x00, 0x00, 0x00, 0x00, 0x00, 0x00, 0x00, 0x00, 0x00, 0x00, 0x00,
  0x0c, 0x00, 0x00, 0x00, 0x3c, 0x1a, 0x25, 0x3a, 0x57, 0x0f, 0x38, 0x3a,
  0x72, 0x43, 0xdf, 0x39, 0xef, 0x10, 0xf9, 0x39, 0xe6, 0x58, 0x74, 0x3a,
  0x01, 0xff, 0xcc, 0x39, 0x28, 0xa1, 0x64, 0x3a, 0x01, 0x9e, 0x1c, 0x3a,
  0xbe, 0xdc, 0x15, 0x3a, 0x7f, 0x63, 0xd8, 0x39, 0x1b, 0x08, 0x4d, 0x3a,
  0xcf, 0x2e, 0x16, 0x3a, 0x12, 0x00, 0x00, 0x00, 0x74, 0x66, 0x6c, 0x2e,
  0x70, 0x73, 0x65, 0x75, 0x64, 0x6f, 0x5f, 0x71, 0x63, 0x6f, 0x6e, 0x73,
  0x74, 0x36, 0x00, 0x00, 0x01, 0x00, 0x00, 0x00, 0x0c, 0x00, 0x00, 0x00,
  0x62, 0xfa, 0xff, 0xff, 0x00, 0x00, 0x00, 0x01, 0x14, 0x00, 0x00, 0x00,
  0x88, 0x00, 0x00, 0x00, 0x0a, 0x00, 0x00, 0x00, 0x00, 0x00, 0x00, 0x09,
  0x94, 0x00, 0x00, 0x00, 0x4c, 0xfa, 0xff, 0xff, 0x08, 0x00, 0x00, 0x00,
  0x4c, 0x00, 0x00, 0x00, 0x08, 0x00, 0x00, 0x00, 0x00, 0x00, 0x00, 0x00,
  0x00, 0x00, 0x00, 0x00, 0x00, 0x00, 0x00, 0x00, 0x00, 0x00, 0x00, 0x00,
  0x00, 0x00, 0x00, 0x00, 0x00, 0x00, 0x00, 0x00, 0x00, 0x00, 0x00, 0x00,
  0x00, 0x00, 0x00, 0x00, 0x00, 0x00, 0x00, 0x00, 0x00, 0x00, 0x00, 0x00,
  0x00, 0x00, 0x00, 0x00, 0x00, 0x00, 0x00, 0x00, 0x00, 0x00, 0x00, 0x00,
  0x00, 0x00, 0x00, 0x00, 0x00, 0x00, 0x00, 0x00, 0x00, 0x00, 0x00, 0x00,
  0x00, 0x00, 0x00, 0x00, 0x08, 0x00, 0x00, 0x00, 0x94, 0x6e, 0xa1, 0x3c,
  0x5b, 0x29, 0x86, 0x3c, 0x11, 0x52, 0xb5, 0x3c, 0x24, 0x92, 0x73, 0x3c,
  0xf5, 0x07, 0xde, 0x3c, 0xd6, 0x4f, 0xc6, 0x3c, 0xf9, 0xa2, 0xd3, 0x3c,
  0x14, 0x76, 0x72, 0x3c, 0x12, 0x00, 0x00, 0x00, 0x74, 0x66, 0x6c, 0x2e,
  0x70, 0x73, 0x65, 0x75, 0x64, 0x6f, 0x5f, 0x71, 0x63, 0x6f, 0x6e, 0x73,
  0x74, 0x35, 0x00, 0x00, 0x04, 0x00, 0x00, 0x00, 0x08, 0x00, 0x00, 0x00,
  0x01, 0x00, 0x00, 0x00, 0x03, 0x00, 0x00, 0x00, 0x0c, 0x00, 0x00, 0x00,
  0x22, 0xfb, 0xff, 0xff, 0x00, 0x00, 0x00, 0x01, 0x14, 0x00, 0x00, 0x00,
  0x84, 0x00, 0x00, 0x00, 0x09, 0x00, 0x00, 0x00, 0x00, 0x00, 0x00, 0x02,
  0x90, 0x00, 0x00, 0x00, 0x0c, 0xfb, 0xff, 0xff, 0x08, 0x00, 0x00, 0x00,
  0x48, 0x00, 0x00, 0x00, 0x08, 0x00, 0x00, 0x00, 0x00, 0x00, 0x00, 0x00,
  0x00, 0x00, 0x00, 0x00, 0x00, 0x00, 0x00, 0x00, 0x00, 0x00, 0x00, 0x00,
  0x00, 0x00, 0x00, 0x00, 0x00, 0x00, 0x00, 0x00, 0x00, 0x00, 0x00, 0x00,
  0x00, 0x00, 0x00, 0x00, 0x00, 0x00, 0x00, 0x00, 0x00, 0x00, 0x00, 0x00,
  0x00, 0x00, 0x00, 0x00, 0x00, 0x00, 0x00, 0x00, 0x00, 0x00, 0x00, 0x00,
  0x00, 0x00, 0x00, 0x00, 0x00, 0x00, 0x00, 0x00, 0x00, 0x00, 0x00, 0x00,
  0x08, 0x00, 0x00, 0x00, 0xeb, 0x5f, 0xc4, 0x3a, 0x93, 0x33, 0xa3, 0x3a,
  0x7c, 0x91, 0xdc, 0x3a, 0x80, 0x25, 0x94, 0x3a, 0x9f, 0x0b, 0x07, 0x3b,
  0xc8, 0x3c, 0xf1, 0x3a, 0x23, 0xb9, 0x00, 0x3b, 0xb9, 0x78, 0x93, 0x3a,
  0x12, 0x00, 0x00, 0x00, 0x74, 0x66, 0x6c, 0x2e, 0x70, 0x73, 0x65, 0x75,
  0x64, 0x6f, 0x5f, 0x71, 0x63, 0x6f, 0x6e, 0x73, 0x74, 0x34, 0x00, 0x00,
  0x01, 0x00, 0x00, 0x00, 0x08, 0x00, 0x00, 0x00, 0xd2, 0xfb, 0xff, 0xff,
  0x00, 0x00, 0x00, 0x01, 0x14, 0x00, 0x00, 0x00, 0xe8, 0x00, 0x00, 0x00,
  0x08, 0x00, 0x00, 0x00, 0x00, 0x00, 0x00, 0x09, 0xf4, 0x00, 0x00, 0x00,
  0xbc, 0xfb, 0xff, 0xff, 0x08, 0x00, 0x00, 0x00, 0x8c, 0x00, 0x00, 0x00,
  0x10, 0x00, 0x00, 0x00, 0x00, 0x00, 0x00, 0x00, 0x00, 0x00, 0x00, 0x00,
  0x00, 0x00, 0x00, 0x00, 0x00, 0x00, 0x00, 0x00, 0x00, 0x00, 0x00, 0x00,
  0x00, 0x00, 0x00, 0x00, 0x00, 0x00, 0x00, 0x00, 0x00, 0x00, 0x00, 0x00,
  0x00, 0x00, 0x00, 0x00, 0x00, 0x00, 0x00, 0x00, 0x00, 0x00, 0x00, 0x00,
  0x00, 0x00, 0x00, 0x00, 0x00, 0x00, 0x00, 0x00, 0x00, 0x00, 0x00, 0x00,
  0x00, 0x00, 0x00, 0x00, 0x00, 0x00, 0x00, 0x00, 0x00, 0x00, 0x00, 0x00,
  0x00, 0x00, 0x00, 0x00, 0x00, 0x00, 0x00, 0x00, 0x00, 0x00, 0x00, 0x00,
  0x00, 0x00, 0x00, 0x00, 0x00, 0x00, 0x00, 0x00, 0x00, 0x00, 0x00, 0x00,
  0x00, 0x00, 0x00, 0x00, 0x00, 0x00, 0x00, 0x00, 0x00, 0x00, 0x00, 0x00,
  0x00, 0x00, 0x00, 0x00, 0x00, 0x00, 0x00, 0x00, 0x00, 0x00, 0x00, 0x00,
  0x00, 0x00, 0x00, 0x00, 0x00, 0x00, 0x00, 0x00, 0x00, 0x00, 0x00, 0x00,
  0x00, 0x00, 0x00, 0x00, 0x10, 0x00, 0x00, 0x00, 0x83, 0x21, 0x0b, 0x3c,
  0xff, 0x4a, 0xed, 0x3b, 0x1a, 0xda, 0x0f, 0x3c, 0x19, 0x13, 0xec, 0x3b,
  0xa2, 0xe9, 0x0f, 0x3c, 0x84, 0x8c, 0xc8, 0x3b, 0x8d, 0xad, 0x13, 0x3c,
  0x87, 0x29, 0x17, 0x3c, 0xb5, 0x9f, 0x0a, 0x3c, 0x3a, 0x38, 0x15, 0x3c,
  0x74, 0xd0, 0xe0, 0x3b, 0x11, 0x91, 0x1b, 0x3c, 0x02, 0x63, 0xf7, 0x3b,
  0xf6, 0x73, 0x11, 0x3c, 0xac, 0xd9, 0x08, 0x3c, 0xf2, 0x9e, 0x03, 0x3c,
  0x12, 0x00, 0x00, 0x00, 0x74, 0x66, 0x6c, 0x2e, 0x70, 0x73, 0x65, 0x75,
  0x64, 0x6f, 0x5f, 0x71, 0x63, 0x6f, 0x6e, 0x73, 0x74, 0x33, 0x00, 0x00,
  0x02, 0x00, 0x00, 0x00, 0x10, 0x00, 0x00, 0x00, 0x08, 0x00, 0x00, 0x00,
  0xea, 0xfc, 0xff, 0xff, 0x00, 0x00, 0x00, 0x01, 0x14, 0x00, 0x00, 0x00,
  0xe4, 0x00, 0x00, 0x00, 0x07, 0x00, 0x00, 0x00, 0x00, 0x00, 0x00, 0x02,
  0xf0, 0x00, 0x00, 0x00, 0xd4, 0xfc, 0xff, 0xff, 0x08, 0x00, 0x00, 0x00,
  0x88, 0x00, 0x00, 0x00, 0x10, 0x00, 0x00, 0x00, 0x00, 0x00, 0x00, 0x00,
  0x00, 0x00, 0x00, 0x00, 0x00, 0x00, 0x00, 0x00, 0x00, 0x00, 0x00, 0x00,
  0x00, 0x00, 0x00, 0x00, 0x00, 0x00, 0x00, 0x00, 0x00, 0x00, 0x00, 0x00,
  0x00, 0x00, 0x00, 0x00, 0x00, 0x00, 0x00, 0x00, 0x00, 0x00, 0x00, 0x00,
  0x00, 0x00, 0x00, 0x00, 0x00, 0x00, 0x00, 0x00, 0x00, 0x00, 0x00, 0x00,
  0x00, 0x00, 0x00, 0x00, 0x00, 0x00, 0x00, 0x00, 0x00, 0x00, 0x00, 0x00,
  0x00, 0x00, 0x00, 0x00, 0x00, 0x00, 0x00, 0x00, 0x00, 0x00, 0x00, 0x00,
  0x00, 0x00, 0x00, 0x00, 0x00, 0x00, 0x00, 0x00, 0x00, 0x00, 0x00, 0x00,
  0x00, 0x00, 0x00, 0x00, 0x00, 0x00, 0x00, 0x00, 0x00, 0x00, 0x00, 0x00,
  0x00, 0x00, 0x00, 0x00, 0x00, 0x00, 0x00, 0x00, 0x00, 0x00, 0x00, 0x00,
  0x00, 0x00, 0x00, 0x00, 0x00, 0x00, 0x00, 0x00, 0x00, 0x00, 0x00, 0x00,
  0x00, 0x00, 0x00, 0x00, 0x10, 0x00, 0x00, 0x00, 0x77, 0xa3, 0x01, 0x39,
  0x75, 0x1a, 0xdd, 0x38, 0x99, 0x09, 0x06, 0x39, 0xd7, 0xf7, 0xdb, 0x38,
  0x11, 0x18, 0x06, 0x39, 0xbf, 0xdd, 0xba, 0x38, 0x39, 0x9a, 0x09, 0x39,
  0x57, 0xd9, 0x0c, 0x39, 0x84, 0x2a, 0x01, 0x39, 0xf8, 0x09, 0x0b, 0x39,
  0xde, 0x79, 0xd1, 0x38, 0xf4, 0xf3, 0x10, 0x39, 0x2c, 0x82, 0xe6, 0x38,
  0x7e, 0x87, 0x07, 0x39, 0xea, 0x06, 0xff, 0x38, 0x22, 0x48, 0xf5, 0x38,
  0x12, 0x00, 0x00, 0x00, 0x74, 0x66, 0x6c, 0x2e, 0x70, 0x73, 0x65, 0x75,
  0x64, 0x6f, 0x5f, 0x71, 0x63, 0x6f, 0x6e, 0x73, 0x74, 0x32, 0x00, 0x00,
  0x01, 0x00, 0x00, 0x00, 0x10, 0x00, 0x00, 0x00, 0xfa, 0xfd, 0xff, 0xff,
  0x00, 0x00, 0x00, 0x01, 0x14, 0x00, 0x00, 0x00, 0x78, 0x00, 0x00, 0x00,
  0x06, 0x00, 0x00, 0x00, 0x00, 0x00, 0x00, 0x09, 0x84, 0x00, 0x00, 0x00,
  0xe4, 0xfd, 0xff, 0xff, 0x08, 0x00, 0x00, 0x00, 0x40, 0x00, 0x00, 0x00,
  0x07, 0x00, 0x00, 0x00, 0x00, 0x00, 0x00, 0x00, 0x00, 0x00, 0x00, 0x00,
  0x00, 0x00, 0x00, 0x00, 0x00, 0x00, 0x00, 0x00, 0x00, 0x00, 0x00, 0x00,
  0x00, 0x00, 0x00, 0x00, 0x00, 0x00, 0x00, 0x00, 0x00, 0x00, 0x00, 0x00,
  0x00, 0x00, 0x00, 0x00, 0x00, 0x00, 0x00, 0x00, 0x00, 0x00, 0x00, 0x00,
  0x00, 0x00, 0x00, 0x00, 0x00, 0x00, 0x00, 0x00, 0x00, 0x00, 0x00, 0x00,
  0x07, 0x00, 0x00, 0x00, 0xe7, 0xc0, 0x85, 0x3d, 0xb2, 0x1a, 0x61, 0x3d,
  0x32, 0x39, 0x6d, 0x3d, 0xdd, 0xf0, 0x7d, 0x3d, 0xa0, 0xb6, 0x79, 0x3d,
  0x08, 0x62, 0x59, 0x3d, 0x6e, 0x05, 0x39, 0x3d, 0x12, 0x00, 0x00, 0x00,
  0x74, 0x66, 0x6c, 0x2e, 0x70, 0x73, 0x65, 0x75, 0x64, 0x6f, 0x5f, 0x71,
  0x63, 0x6f, 0x6e, 0x73, 0x74, 0x31, 0x00, 0x00, 0x02, 0x00, 0x00, 0x00,
  0x07, 0x00, 0x00, 0x00, 0x10, 0x00, 0x00, 0x00, 0xa2, 0xfe, 0xff, 0xff,
  0x00, 0x00, 0x00, 0x01, 0x14, 0x00, 0x00, 0x00, 0x7c, 0x00, 0x00, 0x00,
  0x05, 0x00, 0x00, 0x00, 0x00, 0x00, 0x00, 0x02, 0x88, 0x00, 0x00, 0x00,
  0x8c, 0xfe, 0xff, 0xff, 0x08, 0x00, 0x00, 0x00, 0x44, 0x00, 0x00, 0x00,
  0x07, 0x00, 0x00, 0x00, 0x00, 0x00, 0x00, 0x00, 0x00, 0x00, 0x00, 0x00,
  0x00, 0x00, 0x00, 0x00, 0x00, 0x00, 0x00, 0x00, 0x00, 0x00, 0x00, 0x00,
  0x00, 0x00, 0x00, 0x00, 0x00, 0x00, 0x00, 0x00, 0x00, 0x00, 0x00, 0x00,
  0x00, 0x00, 0x00, 0x00, 0x00, 0x00, 0x00, 0x00, 0x00, 0x00, 0x00, 0x00,
  0x00, 0x00, 0x00, 0x00, 0x00, 0x00, 0x00, 0x00, 0x00, 0x00, 0x00, 0x00,
  0x00, 0x00, 0x00, 0x00, 0x07, 0x00, 0x00, 0x00, 0xfc, 0x11, 0x34, 0x3a,
  0xf4, 0x86, 0x17, 0x3a, 0x60, 0xaf, 0x1f, 0x3a, 0x33, 0xf0, 0x2a, 0x3a,
  0xb3, 0x17, 0x28, 0x3a, 0x61, 0x54, 0x12, 0x3a, 0x54, 0x17, 0xf9, 0x39,
  0x11, 0x00, 0x00, 0x00, 0x74, 0x66, 0x6c, 0x2e, 0x70, 0x73, 0x65, 0x75,
  0x64, 0x6f, 0x5f, 0x71, 0x63, 0x6f, 0x6e, 0x73, 0x74, 0x00, 0x00, 0x00,
  0x01, 0x00, 0x00, 0x00, 0x07, 0x00, 0x00, 0x00, 0x4a, 0xff, 0xff, 0xff,
  0x00, 0x00, 0x00, 0x01, 0x14, 0x00, 0x00, 0x00, 0x14, 0x00, 0x00, 0x00,
  0x04, 0x00, 0x00, 0x00, 0x00, 0x00, 0x00, 0x02, 0x1c, 0x00, 0x00, 0x00,
  0x8c, 0xff, 0xff, 0xff, 0x0f, 0x00, 0x00, 0x00, 0x61, 0x72, 0x69, 0x74,
  0x68, 0x2e, 0x63, 0x6f, 0x6e, 0x73, 0x74, 0x61, 0x6e, 0x74, 0x32, 0x00,
  0x00, 0x00, 0x00, 0x00, 0x82, 0xff, 0xff, 0xff, 0x00, 0x00, 0x00, 0x01,
  0x14, 0x00, 0x00, 0x00, 0x14, 0x00, 0x00, 0x00, 0x03, 0x00, 0x00, 0x00,
  0x00, 0x00, 0x00, 0x02, 0x1c, 0x00, 0x00, 0x00, 0xc4, 0xff, 0xff, 0xff,
  0x0f, 0x00, 0x00, 0x00, 0x61, 0x72, 0x69, 0x74, 0x68, 0x2e, 0x63, 0x6f,
  0x6e, 0x73, 0x74, 0x61, 0x6e, 0x74, 0x31, 0x00, 0x01, 0x00, 0x00, 0x00,
  0x03, 0x00, 0x00, 0x00, 0xbe, 0xff, 0xff, 0xff, 0x00, 0x00, 0x00, 0x01,
  0x18, 0x00, 0x00, 0x00, 0x18, 0x00, 0x00, 0x00, 0x02, 0x00, 0x00, 0x00,
  0x00, 0x00, 0x00, 0x02, 0x20, 0x00, 0x00, 0x00, 0x04, 0x00, 0x04, 0x00,
  0x04, 0x00, 0x00, 0x00, 0x0e, 0x00, 0x00, 0x00, 0x61, 0x72, 0x69, 0x74,
  0x68, 0x2e, 0x63, 0x6f, 0x6e, 0x73, 0x74, 0x61, 0x6e, 0x74, 0x00, 0x00,
  0x01, 0x00, 0x00, 0x00, 0x04, 0x00, 0x00, 0x00, 0x00, 0x00, 0x16, 0x00,
  0x1c, 0x00, 0x18, 0x00, 0x17, 0x00, 0x10, 0x00, 0x0c, 0x00, 0x08, 0x00,
  0x00, 0x00, 0x00, 0x00, 0x00, 0x00, 0x07, 0x00, 0x16, 0x00, 0x00, 0x00,
  0x00, 0x00, 0x00, 0x01, 0x20, 0x00, 0x00, 0x00, 0x40, 0x00, 0x00, 0x00,
  0x01, 0x00, 0x00, 0x00, 0x00, 0x00, 0x00, 0x09, 0x5c, 0x00, 0x00, 0x00,
  0x0c, 0x00, 0x0c, 0x00, 0x00, 0x00, 0x00, 0x00, 0x08, 0x00, 0x04, 0x00,
  0x0c, 0x00, 0x00, 0x00, 0x08, 0x00, 0x00, 0x00, 0x14, 0x00, 0x00, 0x00,
  0x01, 0x00, 0x00, 0x00, 0x90, 0xff, 0xff, 0xff, 0xff, 0xff, 0xff, 0xff,
  0x00, 0x00, 0x00, 0x00, 0x01, 0x00, 0x00, 0x00, 0xc1, 0xb9, 0x1c, 0x3f,
  0x21, 0x00, 0x00, 0x00, 0x73, 0x65, 0x72, 0x76, 0x69, 0x6e, 0x67, 0x5f,
  0x64, 0x65, 0x66, 0x61, 0x75, 0x6c, 0x74, 0x5f, 0x6b, 0x65, 0x72, 0x61,
  0x73, 0x5f, 0x74, 0x65, 0x6e, 0x73, 0x6f, 0x72, 0x5f, 0x34, 0x32, 0x3a,
  0x30, 0x00, 0x00, 0x00, 0x03, 0x00, 0x00, 0x00, 0x01, 0x00, 0x00, 0x00,
  0xf4, 0x01, 0x00, 0x00, 0x06, 0x00, 0x00, 0x00, 0x05, 0x00, 0x00, 0x00,
  0x6c, 0x00, 0x00, 0x00, 0x4c, 0x00, 0x00, 0x00, 0x2c, 0x00, 0x00, 0x00,
  0x18, 0x00, 0x00, 0x00, 0x04, 0x00, 0x00, 0x00, 0xd0, 0xff, 0xff, 0xff,
  0x19, 0x00, 0x00, 0x00, 0x02, 0x00, 0x00, 0x00, 0x00, 0x00, 0x00, 0x19,
  0xe0, 0xff, 0xff, 0xff, 0x09, 0x00, 0x00, 0x00, 0x04, 0x00, 0x00, 0x00,
  0x00, 0x00, 0x00, 0x09, 0xf0, 0xff, 0xff, 0xff, 0x28, 0x00, 0x00, 0x00,
  0x02, 0x00, 0x00, 0x00, 0x00, 0x00, 0x00, 0x28, 0x0c, 0x00, 0x10, 0x00,
  0x0f, 0x00, 0x00, 0x00, 0x08, 0x00, 0x04, 0x00, 0x0c, 0x00, 0x00, 0x00,
  0x03, 0x00, 0x00, 0x00, 0x03, 0x00, 0x00, 0x00, 0x00, 0x00, 0x00, 0x03,
  0x0c, 0x00, 0x0c, 0x00, 0x0b, 0x00, 0x00, 0x00, 0x00, 0x00, 0x04, 0x00,
  0x0c, 0x00, 0x00, 0x00, 0x16, 0x00, 0x00, 0x00, 0x00, 0x00, 0x00, 0x16
};
inline const unsigned int gesture_model_3_tflite_len = 8784;
