
inline const unsigned char gesture_model_0_tflite[] = {
  0x1c, 0x00, 0x00, 0x00, 0x54, 0x46, 0x4c, 0x33, 0x14, 0x00, 0x20, 0x00,
  0x1c, 0x00, 0x18, 0x00, 0x14, 0x00, 0x10, 0x00, 0x0c, 0x00, 0x00, 0x00,
  0x08, 0x00, 0x04, 0x00, 0x14, 0x00, 0x00, 0x00, 0x1c, 0x00, 0x00, 0x00,
  0x98, 0x00, 0x00, 0x00, 0x18, 0x01, 0x00, 0x00, 0x6c, 0x0c, 0x00, 0x00,
  0x7c, 0x0c, 0x00, 0x00, 0x30, 0x21, 0x00, 0x00, 0x03, 0x00, 0x00, 0x00,
  0x01, 0x00, 0x00, 0x00, 0x10, 0x00, 0x00, 0x00, 0x00, 0x00, 0x0a, 0x00,
  0x10, 0x00, 0x0c, 0x00, 0x08, 0x00, 0x04, 0x00, 0x0a, 0x00, 0x00, 0x00,
  0x0c, 0x00, 0x00, 0x00, 0x1c, 0x00, 0x00, 0x00, 0x3c, 0x00, 0x00, 0x00,
  0x0f, 0x00, 0x00, 0x00, 0x73, 0x65, 0x72, 0x76, 0x69, 0x6e, 0x67, 0x5f,
  0x64, 0x65, 0x66, 0x61, 0x75, 0x6c, 0x74, 0x00, 0x01, 0x00, 0x00, 0x00,
  0x04, 0x00, 0x00, 0x00, 0x68, 0xff, 0xff, 0xff, 0x16, 0x00, 0x00, 0x00,
  0x04, 0x00, 0x00, 0x00, 0x08, 0x00, 0x00, 0x00, 0x6f, 0x75, 0x74, 0x70,
  0x75, 0x74, 0x5f, 0x30, 0x00, 0x00, 0x00, 0x00, 0x01, 0x00, 0x00, 0x00,
  0x04, 0x00, 0x00, 0x00, 0x76, 0xf3, 0xff, 0xff, 0x04, 0x00, 0x00, 0x00,
  0x0c, 0x00, 0x00, 0x00, 0x6b, 0x65, 0x72, 0x61, 0x73, 0x5f, 0x74, 0x65,
  0x6e, 0x73, 0x6f, 0x72, 0x00, 0x00, 0x00, 0x00, 0x03, 0x00, 0x00, 0x00,
  0x5c, 0x00, 0x00, 0x00, 0x2c, 0x00, 0x00, 0x00, 0x04, 0x00, 0x00, 0x00,
  0xb8, 0xff, 0xff, 0xff, 0x1a, 0x00, 0x00, 0x00, 0x04, 0x00, 0x00, 0x00,
  0x13, 0x00, 0x00, 0x00, 0x43, 0x4f, 0x4e, 0x56, 0x45, 0x52, 0x53, 0x49,
  0x4f, 0x4e, 0x5f, 0x4d, 0x45, 0x54, 0x41, 0x44, 0x41, 0x54, 0x41, 0x00,
  0xdc, 0xff, 0xff, 0xff, 0x19, 0x00, 0x00, 0x00, 0x04, 0x00, 0x00, 0x00,
  0x13, 0x00, 0x00, 0x00, 0x6d, 0x69, 0x6e, 0x5f, 0x72, 0x75, 0x6e, 0x74,
  0x69, 0x6d, 0x65, 0x5f, 0x76, 0x65, 0x72, 0x73, 0x69, 0x6f, 0x6e, 0x00,
  0x08, 0x00, 0x0c, 0x00, 0x08, 0x00, 0x04, 0x00, 0x08, 0x00, 0x00, 0x00,
  0x18, 0x00, 0x00, 0x00, 0x04, 0x00, 0x00, 0x00, 0x13, 0x00, 0x00, 0x00,
  0x6d, 0x69, 0x6e, 0x5f, 0x72, 0x75, 0x6e, 0x74, 0x69, 0x6d, 0x65, 0x5f,
  0x76, 0x65, 0x72, 0x73, 0x69, 0x6f, 0x6e, 0x00, 0x1b, 0x00, 0x00, 0x00,
  0x50, 0x0b, 0x00, 0x00, 0x48, 0x0b, 0x00, 0x00, 0x28, 0x0b, 0x00, 0x00,
  0x0c, 0x0b, 0x00, 0x00, 0xf8, 0x0a, 0x00, 0x00, 0xcc, 0x0a, 0x00, 0x00,
  0x4c, 0x0a, 0x00, 0x00, 0xfc, 0x09, 0x00, 0x00, 0x6c, 0x09, 0x00, 0x00,
  0x3c, 0x09, 0x00, 0x00, 0x0c, 0x08, 0x00, 0x00, 0xcc, 0x07, 0x00, 0x00,
  0xfc, 0x03, 0x00, 0x00, 0xac, 0x03, 0x00, 0x00, 0xfc, 0x00, 0x00, 0x00,
  0xf4, 0x00, 0x00, 0x00, 0xec, 0x00, 0x00, 0x00, 0xe4, 0x00, 0x00, 0x00,
  0xdc, 0x00, 0x00, 0x00, 0xd4, 0x00, 0x00, 0x00, 0xcc, 0x00, 0x00, 0x00,
  0xc4, 0x00, 0x00, 0x00, 0xbc, 0x00, 0x00, 0x00, 0xb4, 0x00, 0x00, 0x00,
  0x94, 0x00, 0x00, 0x00, 0x74, 0x00, 0x00, 0x00, 0x04, 0x00, 0x00, 0x00,
  0x86, 0xf4, 0xff, 0xff, 0x04, 0x00, 0x00, 0x00, 0x60, 0x00, 0x00, 0x00,
  0x0c, 0x00, 0x00, 0x00, 0x08, 0x00, 0x0e, 0x00, 0x08, 0x00, 0x04, 0x00,
  0x08, 0x00, 0x00, 0x00, 0x10, 0x00, 0x00, 0x00, 0x28, 0x00, 0x00, 0x00,
  0x00, 0x00, 0x06, 0x00, 0x08, 0x00, 0x04, 0x00, 0x06, 0x00, 0x00, 0x00,
  0x04, 0x00, 0x00, 0x00, 0x01, 0x00, 0x00, 0x00, 0xeb, 0x03, 0x00, 0x00,
  0x0c, 0x00, 0x18, 0x00, 0x14, 0x00, 0x10, 0x00, 0x0c, 0x00, 0x04, 0x00,
  0x0c, 0x00, 0x00, 0x00, 0x90, 0x23, 0x1c, 0x91, 0xe1, 0x42, 0xe3, 0x7e,
  0x02, 0x00, 0x00, 0x00, 0x02, 0x00, 0x00, 0x00, 0x04, 0x00, 0x00, 0x00,
  0x06, 0x00, 0x00, 0x00, 0x32, 0x2e, 0x31, 0x39, 0x2e, 0x30, 0x00, 0x00,
  0xf2, 0xf4, 0xff, 0xff, 0x04, 0x00, 0x00, 0x00, 0x10, 0x00, 0x00, 0x00,
  0x00, 0x00, 0x00, 0x00, 0x00, 0x00, 0x00, 0x00, 0x00, 0x00, 0x00, 0x00,
  0x00, 0x00, 0x00, 0x00, 0x0e, 0xf5, 0xff, 0xff, 0x04, 0x00, 0x00, 0x00,
  0x10, 0x00, 0x00, 0x00, 0x31, 0x2e, 0x31, 0x34, 0x2e, 0x30, 0x00, 0x00,
  0x00, 0x00, 0x00, 0x00, 0x00, 0x00, 0x00, 0x00, 0xa8, 0xe1, 0xff, 0xff,
  0xac, 0xe1, 0xff, 0xff, 0xb0, 0xe1, 0xff, 0xff, 0xb4, 0xe1, 0xff, 0xff,
  0xb8, 0xe1, 0xff, 0xff, 0xbc, 0xe1, 0xff, 0xff, 0xc0, 0xe1, 0xff, 0xff,
  0xc4, 0xe1, 0xff, 0xff, 0xc8, 0xe1, 0xff, 0xff, 0x4e, 0xf5, 0xff, 0xff,
  0x04, 0x00, 0x00, 0x00, 0xa0, 0x02, 0x00, 0x00, 0x4a, 0x7f, 0x1e, 0xe9,
  0x1f, 0x03, 0x19, 0x70, 0x05, 0xe9, 0x07, 0x17, 0x22, 0x56, 0x14, 0xe6,
  0x0a, 0x32, 0xfb, 0x45, 0xfb, 0x0c, 0x13, 0x2d, 0xe0, 0x4c, 0xf1, 0x1b,
  0xeb, 0x4c, 0xfc, 0x48, 0xe0, 0x25, 0xe7, 0x31, 0xbd, 0x70, 0xec, 0x52,
  0xd8, 0x3b, 0x0f, 0xc8, 0xee, 0xe8, 0x29, 0x7f, 0xef, 0xec, 0xee, 0xfe,
  0x0c, 0x70, 0x17, 0xe7, 0xec, 0xf3, 0x1e, 0x52, 0x02, 0xfd, 0x02, 0x06,
  0x17, 0x4a, 0x01, 0x0d, 0xfb, 0x11, 0x09, 0x4d, 0x1d, 0x2a, 0xf9, 0x1f,
  0x04, 0x47, 0x06, 0x22, 0xeb, 0x3d, 0x03, 0x4d, 0x41, 0xed, 0x2c, 0x0a,
  0xae, 0xe4, 0x19, 0xe4, 0x33, 0x16, 0xd5, 0xd0, 0x0e, 0xdc, 0x38, 0x02,
  0xe3, 0xd4, 0x0b, 0xce, 0x51, 0x1e, 0x1a, 0xed, 0xff, 0xb0, 0x48, 0x02,
  0x21, 0xea, 0x03, 0x99, 0x5f, 0xdc, 0x2f, 0xd8, 0xdb, 0x95, 0x7f, 0xcf,
  0x28, 0xff, 0xf6, 0xd6, 0x2b, 0x3b, 0x11, 0x06, 0xff, 0xf9, 0x11, 0x15,
  0xf2, 0x17, 0xfa, 0x01, 0x16, 0x18, 0xe8, 0x1d, 0x08, 0x07, 0x0e, 0x07,
  0xd6, 0x38, 0x02, 0x18, 0xff, 0x0b, 0xce, 0x51, 0xfd, 0x20, 0xfd, 0x03,
  0xd4, 0x5f, 0xff, 0x21, 0xe9, 0x17, 0xd6, 0x7f, 0xc1, 0x45, 0x7f, 0xe2,
  0x44, 0xb9, 0xb6, 0x1f, 0x44, 0xf0, 0x20, 0xde, 0xd9, 0x11, 0x3a, 0xf0,
  0x09, 0xe4, 0xbc, 0x0a, 0x28, 0xdf, 0xf9, 0x13, 0xd2, 0x26, 0x33, 0x02,
  0xf8, 0x2d, 0xa4, 0x22, 0x2a, 0x11, 0xf2, 0x27, 0xa4, 0x36, 0x58, 0x30,
  0xd3, 0x56, 0x7f, 0x4b, 0x56, 0xe7, 0xd1, 0xd7, 0x59, 0x3a, 0x40, 0xe6,
  0xeb, 0xe3, 0x2c, 0x02, 0x2c, 0xe5, 0xf2, 0x0b, 0x2c, 0x05, 0x0e, 0xd8,
  0x00, 0x18, 0xf7, 0x05, 0x22, 0x02, 0xf1, 0x08, 0x12, 0x02, 0x3c, 0x1f,
  0xee, 0x3a, 0x09, 0x15, 0x56, 0x13, 0xae, 0x32, 0xe3, 0x27, 0xfb, 0x44,
  0x95, 0xef, 0x16, 0x3c, 0xf7, 0x23, 0xb1, 0xf8, 0x04, 0x32, 0xf0, 0x1d,
  0xf3, 0x18, 0xf3, 0x2e, 0xfb, 0x21, 0x16, 0x42, 0xeb, 0x38, 0xfb, 0xfe,
  0x2a, 0x61, 0x00, 0x4c, 0x0e, 0x10, 0x39, 0x6e, 0xee, 0x26, 0xf6, 0x21,
  0x3d, 0x7f, 0x02, 0x5a, 0x7f, 0x4e, 0xaf, 0x11, 0x04, 0x4d, 0x58, 0x1d,
  0xb5, 0x1d, 0x00, 0x32, 0x56, 0x09, 0xa9, 0x0e, 0xfb, 0x18, 0x38, 0xfa,
  0xc1, 0x0c, 0xf3, 0x0b, 0x32, 0xf5, 0xe1, 0xfc, 0xe0, 0xf9, 0x1b, 0xec,
  0xef, 0x00, 0xf3, 0xff, 0x06, 0xf3, 0xd9, 0xff, 0xe2, 0x16, 0xd2, 0x18,
  0x10, 0x81, 0xdf, 0x01, 0xea, 0x12, 0x0c, 0x97, 0x0d, 0xf9, 0xf7, 0x04,
  0xf8, 0xac, 0x08, 0x02, 0xf2, 0x05, 0x01, 0xbb, 0xfa, 0x03, 0x15, 0xf4,
  0xf4, 0xd2, 0x10, 0xe7, 0x2a, 0xfe, 0x01, 0xdc, 0x23, 0xf8, 0x25, 0xef,
  0xeb, 0xee, 0x2c, 0x7f, 0xff, 0x08, 0xcd, 0xf8, 0x2f, 0x6e, 0xf2, 0x17,
  0xe6, 0x0d, 0x0d, 0x43, 0x00, 0x04, 0xd4, 0x01, 0x32, 0x30, 0xff, 0xee,
  0xba, 0x0b, 0x04, 0x05, 0xe9, 0xd6, 0xb1, 0x15, 0x05, 0x04, 0xe5, 0xb4,
  0xb8, 0x0f, 0x01, 0xf5, 0xfb, 0xbc, 0xa4, 0x36, 0xea, 0xb0, 0xcd, 0xd1,
  0x81, 0x9d, 0xb4, 0xce, 0xed, 0xd7, 0xbb, 0xa8, 0xb1, 0xd1, 0x05, 0xa1,
  0xd4, 0xca, 0xd2, 0xbc, 0x37, 0xad, 0xf3, 0xfb, 0xbe, 0xea, 0x36, 0xd0,
  0xe7, 0x02, 0xbc, 0xeb, 0x5e, 0xa9, 0x19, 0x0e, 0xdb, 0xdc, 0x6d, 0xba,
  0x2e, 0x43, 0x18, 0xec, 0x63, 0xe7, 0xdb, 0x00, 0x29, 0x08, 0x49, 0xcd,
  0xfc, 0x1c, 0x12, 0x03, 0x33, 0xc9, 0xe0, 0x16, 0x14, 0x07, 0x01, 0xd6,
  0x11, 0x3c, 0x1c, 0x36, 0x02, 0xec, 0x02, 0x3d, 0xfc, 0x37, 0x0a, 0x21,
  0xfb, 0x69, 0xf1, 0x7e, 0x05, 0x5a, 0xfa, 0x7f, 0x12, 0x88, 0x0c, 0x09,
  0xf2, 0x52, 0x00, 0xa1, 0xe2, 0x06, 0xd4, 0x34, 0x0b, 0xd9, 0x11, 0x1d,
  0xc9, 0x07, 0x1c, 0xe4, 0x1b, 0x2b, 0xa1, 0xd6, 0x26, 0xfd, 0x35, 0x26,
  0xca, 0xc7, 0x07, 0x06, 0x3c, 0x43, 0xb3, 0xad, 0x03, 0x3c, 0x31, 0x0f,
  0xaf, 0x81, 0x46, 0xe3, 0xe8, 0x06, 0xde, 0x0f, 0x3d, 0xca, 0xed, 0x0e,
  0xe3, 0xfe, 0x1f, 0xe2, 0xec, 0x01, 0x13, 0xff, 0xfa, 0xf4, 0x1d, 0x11,
  0xf4, 0xe9, 0xf0, 0xfa, 0x2b, 0xf8, 0x03, 0xbe, 0xe5, 0xf5, 0x18, 0xf1,
  0xf3, 0xaa, 0xbe, 0xee, 0x47, 0xe1, 0xe6, 0x81, 0xf2, 0x7f, 0x2d, 0x12,
  0xff, 0xa0, 0xec, 0x49, 0x2a, 0xea, 0xff, 0xc0, 0x11, 0x42, 0x0b, 0xde,
  0xef, 0xe5, 0x21, 0x17, 0x04, 0xde, 0x20, 0xdc, 0x41, 0x25, 0x0f, 0x1b,
  0x27, 0xef, 0x44, 0x2a, 0x1c, 0x42, 0x2f, 0xf1, 0x4f, 0x39, 0x3e, 0x61,
  0x5e, 0x00, 0x27, 0x7b, 0xff, 0xdd, 0x07, 0x13, 0x23, 0x59, 0xdf, 0xe8,
  0x11, 0xf4, 0xdd, 0x20, 0x02, 0x10, 0xed, 0xfd, 0xdc, 0x1a, 0x0f, 0x2b,
  0xda, 0x00, 0xd9, 0xe3, 0x22, 0x44, 0xa1, 0x31, 0xbb, 0xdd, 0x17, 0x5a,
  0xaa, 0x05, 0xc8, 0x92, 0x5a, 0x7e, 0x81, 0x23, 0xfa, 0xf7, 0xff, 0xff,
  0x04, 0x00, 0x00, 0x00, 0x40, 0x00, 0x00, 0x00, 0x72, 0xfe, 0xff, 0xff,
  0x6e, 0x03, 0x00, 0x00, 0x58, 0xfe, 0xff, 0xff, 0xe6, 0x02, 0x00, 0x00,
  0xb3, 0xfe, 0xff, 0xff, 0x34, 0xff, 0xff, 0xff, 0x9c, 0x01, 0x00, 0x00,
  0x35, 0xfc, 0xff, 0xff, 0x43, 0x02, 0x00, 0x00, 0x1c, 0x01, 0x00, 0x00,
  0xd9, 0xfe, 0xff, 0xff, 0xd0, 0xff, 0xff, 0xff, 0xb8, 0xfd, 0xff, 0xff,
  0xde, 0xff, 0xff, 0xff, 0x93, 0x00, 0x00, 0x00, 0x1d, 0x00, 0x00, 0x00,
  0x46, 0xf8, 0xff, 0xff, 0x04, 0x00, 0x00, 0x00, 0xc0, 0x03, 0x00, 0x00,
  0xd8, 0x18, 0x68, 0xed, 0x2a, 0x38, 0x02, 0xc6, 0xf8, 0xc8, 0x91, 0xad,
  0xd7, 0xda, 0x53, 0x1c, 0xc0, 0xca, 0x5e, 0x08, 0x03, 0x2a, 0x38, 0xc1,
  0x0c, 0xf1, 0xaa, 0xb2, 0x0d, 0xf2, 0x3c, 0x29, 0xea, 0xb1, 0x3d, 0x08,
  0x01, 0x72, 0x43, 0xab, 0xd3, 0xf4, 0xb5, 0xc4, 0x07, 0x03, 0x43, 0x30,
  0xfa, 0xbb, 0x45, 0x13, 0x19, 0x5d, 0x5e, 0xa7, 0xf8, 0xee, 0xdf, 0xd9,
  0x39, 0x18, 0x29, 0x3c, 0x06, 0x81, 0x12, 0x22, 0xfa, 0x62, 0x69, 0xb4,
  0xb8, 0x00, 0xf0, 0xed, 0x43, 0x50, 0x1d, 0x77, 0x32, 0xe3, 0xec, 0x06,
  0x3d, 0x61, 0x0e, 0x1e, 0xc1, 0xf9, 0xd5, 0x09, 0xd3, 0xca, 0x5b, 0x1e,
  0x26, 0xec, 0xfc, 0x16, 0x2a, 0x2f, 0xfa, 0x15, 0xb5, 0xe5, 0xdb, 0x09,
  0xe0, 0xc9, 0x12, 0x15, 0x0e, 0xe1, 0xf9, 0x00, 0x19, 0x0d, 0xfe, 0xfa,
  0xae, 0x08, 0xfc, 0xe5, 0x01, 0xdf, 0x18, 0x10, 0x1a, 0xf6, 0xfe, 0xd3,
  0xfc, 0xf0, 0xfe, 0xe6, 0x98, 0xd3, 0x19, 0xee, 0x16, 0xef, 0x14, 0x07,
  0xf9, 0xda, 0xfa, 0xb5, 0x00, 0xdb, 0xd9, 0xd2, 0x81, 0xbf, 0x1d, 0xcb,
  0x40, 0xf7, 0xfb, 0x08, 0x04, 0x3b, 0xfb, 0x48, 0x04, 0x0b, 0x31, 0x18,
  0xe5, 0x15, 0x0c, 0x23, 0x32, 0xe6, 0x20, 0x25, 0xf1, 0x27, 0xfa, 0x22,
  0xf7, 0x07, 0x17, 0x03, 0xd1, 0xf6, 0x09, 0x09, 0x50, 0xfe, 0x28, 0x2f,
  0xd6, 0x10, 0xf4, 0x07, 0xe4, 0x18, 0xfe, 0xee, 0xee, 0xd2, 0xfc, 0x17,
  0x7d, 0x09, 0x2b, 0x11, 0xc0, 0xfb, 0xfe, 0xea, 0xd5, 0x37, 0xff, 0xe6,
  0xd9, 0xb4, 0xf7, 0x10, 0x5f, 0x2a, 0x3b, 0x0a, 0xb6, 0xe9, 0x02, 0xb6,
  0xd7, 0x37, 0xfc, 0xe0, 0xf3, 0x81, 0xde, 0x00, 0x21, 0x40, 0x27, 0xdf,
  0xf4, 0x7f, 0x01, 0xc1, 0xc6, 0xf8, 0xe7, 0x5b, 0xde, 0x0c, 0xfd, 0x3b,
  0xee, 0xc3, 0x08, 0xe8, 0x0c, 0x3f, 0x02, 0xdc, 0xca, 0xf4, 0xed, 0x47,
  0xe1, 0x0e, 0xf1, 0x13, 0xfa, 0xe6, 0xfc, 0xf6, 0x07, 0x30, 0xf4, 0xe2,
  0xc7, 0xc2, 0xe1, 0x38, 0xe2, 0xfd, 0xf5, 0x00, 0x0c, 0xf0, 0xc9, 0x11,
  0x04, 0x19, 0x04, 0x07, 0xb4, 0xa3, 0xfe, 0x23, 0xed, 0x10, 0xd2, 0xd8,
  0x21, 0xff, 0xa4, 0x39, 0xfa, 0x23, 0xf8, 0xf5, 0xa0, 0x9c, 0x00, 0x16,
  0x04, 0x23, 0xcb, 0xc1, 0x2e, 0x1a, 0x96, 0x2c, 0x11, 0xf7, 0x08, 0x03,
  0x2b, 0xcb, 0xa3, 0xaa, 0xe6, 0xf5, 0x21, 0xd6, 0xe3, 0xcc, 0xdc, 0x3d,
  0x28, 0x00, 0x0f, 0x08, 0x32, 0xee, 0xbc, 0xcc, 0xe9, 0xef, 0xe7, 0xe3,
  0xf3, 0xe9, 0xfd, 0x38, 0x29, 0xe6, 0x12, 0x06, 0x32, 0x0e, 0xb4, 0xd4,
  0xf1, 0x23, 0x04, 0xf6, 0xe4, 0x17, 0xf6, 0x2c, 0x1d, 0xe9, 0x25, 0xe7,
  0x24, 0xfc, 0x9f, 0xe6, 0x1c, 0x43, 0x10, 0xe8, 0xd3, 0x0f, 0xeb, 0x3a,
  0xfe, 0xec, 0x30, 0x91, 0x24, 0xf5, 0x81, 0xcb, 0x1c, 0x2c, 0x48, 0xd3,
  0xcb, 0x57, 0x06, 0x03, 0xd6, 0x25, 0x36, 0x33, 0x0e, 0xe6, 0xdf, 0x2b,
  0xb4, 0x81, 0x34, 0xee, 0x1d, 0x0c, 0xe5, 0xd8, 0xf1, 0x18, 0x22, 0x26,
  0xfb, 0xf0, 0xfb, 0x1b, 0xcb, 0xab, 0x19, 0xcc, 0x35, 0x20, 0x06, 0xe2,
  0xf0, 0xf7, 0xf1, 0x02, 0xef, 0xfb, 0x02, 0x07, 0xe9, 0xd6, 0x07, 0xf4,
  0x2d, 0x07, 0x07, 0xeb, 0xeb, 0x0f, 0xcf, 0x0c, 0xfb, 0xde, 0x25, 0xfa,
  0x00, 0x05, 0xf3, 0x07, 0x08, 0xf9, 0x35, 0xe3, 0xfa, 0x27, 0x97, 0x1e,
  0xe0, 0xf2, 0x4c, 0xf1, 0x09, 0x09, 0xe9, 0x29, 0xff, 0xf1, 0x59, 0xd5,
  0xee, 0x36, 0xd3, 0x24, 0x02, 0x93, 0xdf, 0x04, 0xc1, 0xcb, 0xeb, 0xe9,
  0x1c, 0xfd, 0x81, 0xf8, 0xfe, 0xf6, 0x06, 0xf0, 0xf2, 0xc7, 0xea, 0x03,
  0xea, 0xe9, 0x03, 0xf6, 0x02, 0xe9, 0xa9, 0xe7, 0xf9, 0xce, 0xff, 0xe8,
  0xf5, 0xed, 0x0a, 0xfa, 0x00, 0x01, 0x07, 0xf1, 0xf9, 0x0d, 0xfb, 0xe7,
  0x12, 0xab, 0xfb, 0xe9, 0xfd, 0x26, 0x1e, 0xe6, 0x1e, 0x29, 0xfb, 0x2b,
  0xea, 0xfc, 0x0f, 0xdc, 0x0a, 0xcb, 0xea, 0xdd, 0xfe, 0x55, 0x28, 0xdb,
  0x4a, 0x38, 0xe1, 0x45, 0xe9, 0xfd, 0x6e, 0xe3, 0xf6, 0xe6, 0x11, 0x08,
  0x5b, 0x7d, 0xf7, 0x38, 0xe9, 0xe5, 0xb7, 0x3b, 0x65, 0xb9, 0x3a, 0xdf,
  0xfe, 0xeb, 0x14, 0xd9, 0x2c, 0x77, 0xca, 0x24, 0xc4, 0xce, 0xd9, 0x26,
  0x4a, 0xf3, 0x35, 0xce, 0xfc, 0xd6, 0x12, 0x92, 0x04, 0x34, 0xb2, 0x25,
  0xe5, 0xe7, 0xda, 0xf8, 0x5e, 0xbe, 0x37, 0xf5, 0x16, 0xb9, 0xec, 0xa7,
  0xfd, 0xfd, 0xa0, 0x27, 0xcd, 0xe5, 0xd2, 0xc7, 0x2d, 0xf5, 0x42, 0xf7,
  0x33, 0x81, 0xd6, 0x9b, 0xee, 0xe4, 0xb7, 0x10, 0xd5, 0xc5, 0xd4, 0x87,
  0x65, 0xee, 0x4c, 0x02, 0x21, 0x06, 0x79, 0xbe, 0x02, 0x1d, 0xac, 0xe4,
  0xb6, 0xf5, 0x3f, 0x22, 0x1a, 0x3d, 0x0c, 0xac, 0x32, 0xde, 0x2f, 0xe3,
  0x03, 0x36, 0xec, 0xeb, 0xc2, 0x02, 0x44, 0x00, 0x0c, 0x0d, 0xed, 0xc5,
  0x40, 0xda, 0x0c, 0xef, 0x0c, 0x2f, 0xf1, 0xf2, 0xdd, 0x0a, 0x25, 0xf0,
  0xfc, 0xf7, 0x04, 0xc8, 0x62, 0xca, 0xf2, 0xff, 0x0f, 0x1a, 0x2a, 0xf8,
  0xe3, 0x1e, 0xf4, 0x1a, 0xf1, 0x9f, 0xeb, 0xc4, 0x53, 0xdc, 0xd0, 0x08,
  0x09, 0x09, 0x36, 0xfd, 0xbb, 0x2b, 0xf9, 0x19, 0xca, 0x81, 0x04, 0xe5,
  0xe7, 0x06, 0x13, 0x3a, 0x0b, 0x2a, 0x00, 0xf8, 0x81, 0xf5, 0xf6, 0x00,
  0xf1, 0xe8, 0xf2, 0x2b, 0x08, 0xfe, 0x01, 0x09, 0x07, 0x09, 0xf5, 0xf0,
  0x9d, 0xec, 0xfa, 0xfb, 0xf9, 0xe6, 0xf7, 0x10, 0x10, 0xef, 0xfd, 0xf3,
  0x04, 0x0c, 0x02, 0xf1, 0xda, 0xf9, 0xeb, 0xf0, 0x02, 0x0e, 0x02, 0x11,
  0x22, 0xcf, 0xef, 0xe6, 0x0e, 0x05, 0xe8, 0xf1, 0x01, 0xf7, 0xe0, 0xfa,
  0x15, 0x30, 0x12, 0x0f, 0x1b, 0xcd, 0xed, 0xc5, 0x24, 0xeb, 0x07, 0x03,
  0x34, 0xfd, 0xcf, 0x26, 0x1e, 0x6d, 0xf6, 0x04, 0xd5, 0xbd, 0x0c, 0x16,
  0xff, 0xcb, 0x28, 0x0c, 0x21, 0x11, 0x0c, 0x38, 0xfc, 0x81, 0x00, 0x1e,
  0xd3, 0xc0, 0x08, 0x14, 0xf5, 0xd5, 0x14, 0x0d, 0x18, 0x26, 0x0e, 0x1d,
  0x09, 0xbc, 0x13, 0xfd, 0xc4, 0x07, 0x1e, 0x1b, 0xe2, 0xd2, 0xe6, 0x21,
  0x10, 0x02, 0xfb, 0xfa, 0x3a, 0xf0, 0x05, 0x11, 0xae, 0x07, 0x09, 0x32,
  0xe5, 0xdb, 0xe4, 0x1a, 0x1d, 0xf2, 0xf4, 0xf8, 0x38, 0xdf, 0x3d, 0xe7,
  0xcd, 0x20, 0x0b, 0x21, 0xf1, 0xe5, 0xe0, 0x11, 0x29, 0x15, 0xcf, 0x05,
  0x1e, 0xe1, 0x7c, 0xe3, 0xfc, 0xc2, 0x0f, 0xda, 0xfc, 0x47, 0x30, 0x15,
  0x05, 0x0c, 0xff, 0x57, 0xb9, 0xc2, 0x1a, 0xe7, 0xfc, 0xdc, 0xfc, 0xfe,
  0xed, 0x20, 0x2d, 0xf5, 0x0d, 0x04, 0xed, 0x30, 0xbd, 0xe7, 0xe0, 0x0b,
  0xf9, 0xf5, 0x05, 0x02, 0xf7, 0x0e, 0x1a, 0xf1, 0x03, 0xfb, 0xf2, 0x04,
  0xf0, 0xe1, 0xe6, 0x03, 0xd4, 0x00, 0x0a, 0xe6, 0xf3, 0xfb, 0x09, 0xfa,
  0xfe, 0x00, 0xf9, 0xc8, 0x26, 0x07, 0xe7, 0x11, 0xe9, 0xe8, 0x0b, 0xd1,
  0xfa, 0xdf, 0x04, 0xfa, 0xff, 0x0c, 0xe7, 0x81, 0x3f, 0x3e, 0x06, 0x0a,
  0x12, 0xfc, 0xff, 0xff, 0x04, 0x00, 0x00, 0x00, 0x30, 0x00, 0x00, 0x00,
  0xd8, 0x01, 0x00, 0x00, 0xa6, 0x0b, 0x00, 0x00, 0x44, 0xfc, 0xff, 0xff,
  0x44, 0x02, 0x00, 0x00, 0x92, 0x04, 0x00, 0x00, 0x81, 0xff, 0xff, 0xff,
  0x71, 0x02, 0x00, 0x00, 0xac, 0x0c, 0x00, 0x00, 0x9c, 0x08, 0x00, 0x00,
  0x41, 0x04, 0x00, 0x00, 0xdf, 0xfc, 0xff, 0xff, 0x79, 0x02, 0x00, 0x00,
  0x4e, 0xfc, 0xff, 0xff, 0x04, 0x00, 0x00, 0x00, 0x20, 0x01, 0x00, 0x00,
  0x00, 0x7f, 0xea, 0x01, 0x0b, 0xe4, 0x3c, 0x46, 0xd5, 0xda, 0xdf, 0x6f,
  0xf1, 0xf1, 0x1e, 0x7c, 0x22, 0x2f, 0x13, 0x14, 0xef, 0xcb, 0xc5, 0xf7,
  0x3a, 0x9d, 0x16, 0x35, 0x6e, 0x7f, 0x3d, 0x2f, 0x28, 0xed, 0xc4, 0xff,
  0x0c, 0x7f, 0xd4, 0xe8, 0x04, 0xdb, 0x67, 0xc1, 0xd9, 0xe3, 0xfc, 0x30,
  0x1f, 0x17, 0xf8, 0x33, 0x1d, 0xff, 0x15, 0x0e, 0xda, 0x17, 0xe1, 0x0f,
  0x37, 0xf3, 0x08, 0x47, 0x5c, 0x20, 0x17, 0x52, 0xce, 0x3c, 0x03, 0x06,
  0x51, 0xe1, 0xcf, 0x65, 0x4e, 0x43, 0xf1, 0xf2, 0x51, 0x92, 0xfd, 0x81,
  0x10, 0x34, 0xcc, 0x28, 0x4a, 0xa5, 0xd8, 0x1c, 0x43, 0xe5, 0x1c, 0xbd,
  0xf6, 0x3d, 0x39, 0x08, 0x5d, 0x86, 0xd4, 0x07, 0x24, 0x6a, 0x3b, 0x9a,
  0xd5, 0xee, 0xee, 0xda, 0x42, 0x0c, 0x71, 0x22, 0x06, 0x5f, 0x25, 0x02,
  0xe8, 0xcb, 0xf7, 0xe9, 0x04, 0xec, 0x7f, 0xd9, 0xeb, 0x55, 0x4b, 0x36,
  0xe0, 0xd4, 0x3b, 0x35, 0x02, 0x22, 0x55, 0x29, 0xf7, 0x5f, 0x30, 0x3c,
  0x23, 0x8b, 0xe7, 0xf8, 0xff, 0xe3, 0xf9, 0x5a, 0x08, 0x1c, 0x61, 0x1a,
  0x18, 0x81, 0xb6, 0x33, 0xde, 0xef, 0xcd, 0x2e, 0x36, 0x0f, 0xe9, 0xe3,
  0xff, 0xe5, 0xa2, 0x70, 0xc4, 0x25, 0xd8, 0xe6, 0x24, 0x4f, 0x2d, 0x3b,
  0xcf, 0x15, 0x21, 0xc2, 0xc3, 0x81, 0xfa, 0x59, 0xe3, 0x01, 0x06, 0xc1,
  0xa7, 0x2d, 0xe1, 0x3a, 0xc6, 0xc6, 0x14, 0x18, 0xb6, 0xe3, 0xe8, 0x1d,
  0xc1, 0x23, 0x34, 0x6c, 0xe8, 0xd7, 0x02, 0x48, 0xa4, 0xfb, 0xeb, 0x0d,
  0x1c, 0xa0, 0x64, 0xf3, 0x27, 0x49, 0x00, 0x11, 0xeb, 0x4f, 0x30, 0x7f,
  0xfb, 0xc5, 0x46, 0xe4, 0x4f, 0xfd, 0xc0, 0xfe, 0xf6, 0x05, 0xc4, 0x11,
  0xb0, 0x01, 0xe7, 0x52, 0x5b, 0x23, 0xe1, 0xe9, 0x24, 0xa4, 0xa1, 0x49,
  0x8c, 0xef, 0x09, 0xc4, 0x30, 0x12, 0x4b, 0xf5, 0x19, 0xf1, 0xb6, 0x27,
  0xc0, 0xd8, 0x1b, 0xd3, 0xf0, 0x17, 0x45, 0xe9, 0x02, 0xc8, 0xff, 0xfe,
  0x1d, 0x35, 0x7f, 0xcb, 0xba, 0x17, 0x48, 0x27, 0x15, 0x02, 0xda, 0x1d,
  0x7a, 0xfd, 0xff, 0xff, 0x04, 0x00, 0x00, 0x00, 0x20, 0x00, 0x00, 0x00,
  0xc0, 0xf5, 0xff, 0xff, 0x52, 0xf2, 0xff, 0xff, 0x92, 0xf9, 0xff, 0xff,
  0x72, 0xfb, 0xff, 0xff, 0x5b, 0x02, 0x00, 0x00, 0x55, 0x08, 0x00, 0x00,
  0x1f, 0xff, 0xff, 0xff, 0xb9, 0x03, 0x00, 0x00, 0xa6, 0xfd, 0xff, 0xff,
  0x04, 0x00, 0x00, 0x00, 0x80, 0x00, 0x00, 0x00, 0xf2, 0xb3, 0x76, 0x21,
  0x81, 0xf0, 0xeb, 0x4f, 0x44, 0x81, 0x4b, 0xde, 0x3c, 0xbd, 0x47, 0xdd,
  0x8f, 0xe2, 0x30, 0xde, 0x7f, 0x6a, 0xf5, 0xc9, 0x17, 0x00, 0x92, 0x81,
  0xc5, 0x57, 0x56, 0x45, 0x1e, 0xfc, 0x78, 0x24, 0x81, 0xa9, 0xcb, 0x3e,
  0x7f, 0x5a, 0xaf, 0xa5, 0x04, 0xf8, 0xed, 0xc0, 0x2a, 0xf1, 0xb9, 0x81,
  0xbe, 0x40, 0x47, 0x54, 0x7f, 0x93, 0x7e, 0x8c, 0x9e, 0xd2, 0x1b, 0x2b,
  0xc2, 0xc5, 0xfd, 0x7f, 0x05, 0x9e, 0x33, 0x19, 0x5f, 0x14, 0x3b, 0xc6,
  0x7f, 0xdc, 0xe2, 0x85, 0xd6, 0x8e, 0x7f, 0x74, 0xee, 0x86, 0x22, 0x11,
  0x35, 0x41, 0x40, 0x9f, 0xec, 0x3c, 0x81, 0xf3, 0xa7, 0x7f, 0xab, 0x2f,
  0xe0, 0x55, 0xa7, 0x19, 0xf7, 0x43, 0x50, 0x15, 0xc2, 0x1b, 0x81, 0xf5,
  0x81, 0xdc, 0x3a, 0x79, 0x38, 0x2f, 0xf9, 0xa7, 0x5b, 0xfa, 0x40, 0xd0,
  0x7f, 0xe0, 0xf5, 0x88, 0x32, 0xfe, 0xff, 0xff, 0x04, 0x00, 0x00, 0x00,
  0x40, 0x00, 0x00, 0x00, 0x45, 0x01, 0x00, 0x00, 0x7b, 0xfd, 0xff, 0xff,
  0xe4, 0xff, 0xff, 0xff, 0x1b, 0x06, 0x00, 0x00, 0xb7, 0x02, 0x00, 0x00,
  0xf8, 0x00, 0x00, 0x00, 0xe0, 0x05, 0x00, 0x00, 0x62, 0xff, 0xff, 0xff,
  0x2d, 0x02, 0x00, 0x00, 0xbb, 0xfd, 0xff, 0xff, 0x38, 0x01, 0x00, 0x00,
  0xbc, 0x04, 0x00, 0x00, 0xee, 0x07, 0x00, 0x00, 0x1d, 0x05, 0x00, 0x00,
  0x42, 0x01, 0x00, 0x00, 0xd3, 0xfa, 0xff, 0xff, 0x7e, 0xfe, 0xff, 0xff,
  0x04, 0x00, 0x00, 0x00, 0x70, 0x00, 0x00, 0x00, 0x1b, 0x08, 0xa7, 0x17,
  0x14, 0x94, 0x1a, 0x23, 0x17, 0x81, 0x16, 0x8b, 0xb5, 0xa4, 0xb2, 0x93,
  0xa1, 0x14, 0xcf, 0x18, 0x98, 0x20, 0x19, 0x1b, 0x8d, 0x0e, 0x87, 0xf5,
  0x94, 0xaa, 0x81, 0x17, 0x1a, 0x81, 0xb9, 0x9a, 0x20, 0xc1, 0x9b, 0x93,
  0x24, 0x95, 0x1b, 0xc2, 0x1d, 0x15, 0x1a, 0xa0, 0x94, 0xa5, 0x9b, 0xab,
  0x12, 0x26, 0xab, 0x99, 0xba, 0x15, 0x81, 0x1c, 0x19, 0x20, 0xad, 0x18,
  0x1d, 0x15, 0x1c, 0xb6, 0x19, 0x9e, 0xcd, 0x2e, 0x81, 0x0a, 0x0f, 0x1d,
  0x81, 0x1b, 0x16, 0x11, 0x97, 0x17, 0x16, 0xc3, 0x81, 0xa6, 0xb5, 0xb3,
  0x15, 0x0c, 0x0d, 0x8e, 0xb4, 0x96, 0x1c, 0x15, 0xfe, 0x81, 0x2a, 0x29,
  0xaf, 0xb1, 0x26, 0xdc, 0xab, 0x96, 0x92, 0x18, 0x25, 0x09, 0x00, 0x86,
  0xfa, 0xfe, 0xff, 0xff, 0x04, 0x00, 0x00, 0x00, 0x1c, 0x00, 0x00, 0x00,
  0xa0, 0x02, 0x00, 0x00, 0xda, 0x04, 0x00, 0x00, 0x51, 0xfa, 0xff, 0xff,
  0x39, 0xfd, 0xff, 0xff, 0xa7, 0xef, 0xff, 0xff, 0x8d, 0x06, 0x00, 0x00,
  0xf5, 0x09, 0x00, 0x00, 0x22, 0xff, 0xff, 0xff, 0x04, 0x00, 0x00, 0x00,
  0x04, 0x00, 0x00, 0x00, 0x01, 0x00, 0x00, 0x00, 0x32, 0xff, 0xff, 0xff,
  0x04, 0x00, 0x00, 0x00, 0x0c, 0x00, 0x00, 0x00, 0x01, 0x00, 0x00, 0x00,
  0x7d, 0x00, 0x00, 0x00, 0x08, 0x00, 0x00, 0x00, 0x4a, 0xff, 0xff, 0xff,
  0x04, 0x00, 0x00, 0x00, 0x10, 0x00, 0x00, 0x00, 0x01, 0x00, 0x00, 0x00,
  0x01, 0x00, 0x00, 0x00, 0xf4, 0x01, 0x00, 0x00, 0x06, 0x00, 0x00, 0x00,
  0xe4, 0xeb, 0xff, 0xff, 0xe8, 0xeb, 0xff, 0xff, 0x0f, 0x00, 0x00, 0x00,
  0x4d, 0x4c, 0x49, 0x52, 0x20, 0x43, 0x6f, 0x6e, 0x76, 0x65, 0x72, 0x74,
  0x65, 0x64, 0x2e, 0x00, 0x01, 0x00, 0x00, 0x00, 0x14, 0x00, 0x00, 0x00,
  0x00, 0x00, 0x0e, 0x00, 0x18, 0x00, 0x14, 0x00, 0x10, 0x00, 0x0c, 0x00,
  0x08, 0x00, 0x04, 0x00, 0x0e, 0x00, 0x00, 0x00, 0x14, 0x00, 0x00, 0x00,
  0x1c, 0x00, 0x00, 0x00, 0x44, 0x02, 0x00, 0x00, 0x48, 0x02, 0x00, 0x00,
  0x4c, 0x02, 0x00, 0x00, 0x04, 0x00, 0x00, 0x00, 0x6d, 0x61, 0x69, 0x6e,
  0x00, 0x00, 0x00, 0x00, 0x09, 0x00, 0x00, 0x00, 0x08, 0x02, 0x00, 0x00,
  0xac, 0x01, 0x00, 0x00, 0x58, 0x01, 0x00, 0x00, 0x14, 0x01, 0x00, 0x00,
  0xf0, 0x00, 0x00, 0x00, 0xbc, 0x00, 0x00, 0x00, 0x78, 0x00, 0x00, 0x00,
  0x40, 0x00, 0x00, 0x00, 0x04, 0x00, 0x00, 0x00, 0x82, 0xfe, 0xff, 0xff,
  0x1c, 0x00, 0x00, 0x00, 0x00, 0x00, 0x00, 0x09, 0x1c, 0x00, 0x00, 0x00,
  0x20, 0x00, 0x00, 0x00, 0x04, 0x00, 0x00, 0x00, 0x00, 0x00, 0x06, 0x00,
  0x08, 0x00, 0x04, 0x00, 0x06, 0x00, 0x00, 0x00, 0x00, 0x00, 0x80, 0x3f,
  0x01, 0x00, 0x00, 0x00, 0x16, 0x00, 0x00, 0x00, 0x01, 0x00, 0x00, 0x00,
  0x15, 0x00, 0x00, 0x00, 0xba, 0xfe, 0xff, 0xff, 0x14, 0x00, 0x00, 0x00,
  0x00, 0x00, 0x00, 0x08, 0x10, 0x00, 0x00, 0x00, 0x14, 0x00, 0x00, 0x00,
  0x03, 0x00, 0x00, 0x00, 0xb4, 0xec, 0xff, 0xff, 0x01, 0x00, 0x00, 0x00,
  0x15, 0x00, 0x00, 0x00, 0x03, 0x00, 0x00, 0x00, 0x14, 0x00, 0x00, 0x00,
  0x05, 0x00, 0x00, 0x00, 0x04, 0x00, 0x00, 0x00, 0xee, 0xfe, 0xff, 0xff,
  0x1c, 0x00, 0x00, 0x00, 0x00, 0x00, 0x00, 0x08, 0x1c, 0x00, 0x00, 0x00,
  0x20, 0x00, 0x00, 0x00, 0x03, 0x00, 0x00, 0x00, 0x00, 0x00, 0x06, 0x00,
  0x08, 0x00, 0x07, 0x00, 0x06, 0x00, 0x00, 0x00, 0x00, 0x00, 0x00, 0x01,
  0x01, 0x00, 0x00, 0x00, 0x14, 0x00, 0x00, 0x00, 0x03, 0x00, 0x00, 0x00,
  0x13, 0x00, 0x00, 0x00, 0x07, 0x00, 0x00, 0x00, 0x06, 0x00, 0x00, 0x00,
  0x2e, 0xff, 0xff, 0xff, 0x14, 0x00, 0x00, 0x00, 0x00, 0x00, 0x00, 0x1b,
  0x10, 0x00, 0x00, 0x00, 0x14, 0x00, 0x00, 0x00, 0x02, 0x00, 0x00, 0x00,
  0x28, 0xed, 0xff, 0xff, 0x01, 0x00, 0x00, 0x00, 0x13, 0x00, 0x00, 0x00,
  0x02, 0x00, 0x00, 0x00, 0x12, 0x00, 0x00, 0x00, 0x03, 0x00, 0x00, 0x00,
  0x02, 0xff, 0xff, 0xff, 0x08, 0x00, 0x00, 0x00, 0x0c, 0x00, 0x00, 0x00,
  0x01, 0x00, 0x00, 0x00, 0x12, 0x00, 0x00, 0x00, 0x02, 0x00, 0x00, 0x00,
  0x11, 0x00, 0x00, 0x00, 0x02, 0x00, 0x00, 0x00, 0x7e, 0xff, 0xff, 0xff,
  0x14, 0x00, 0x00, 0x00, 0x00, 0x00, 0x00, 0x01, 0x1c, 0x00, 0x00, 0x00,
  0x20, 0x00, 0x00, 0x00, 0x01, 0x00, 0x00, 0x00, 0x70, 0xff, 0xff, 0xff,
  0x00, 0x00, 0x00, 0x01, 0x01, 0x00, 0x00, 0x00, 0x01, 0x00, 0x00, 0x00,
  0x01, 0x00, 0x00, 0x00, 0x11, 0x00, 0x00, 0x00, 0x03, 0x00, 0x00, 0x00,
  0x10, 0x00, 0x00, 0x00, 0x09, 0x00, 0x00, 0x00, 0x08, 0x00, 0x00, 0x00,
  0xbe, 0xff, 0xff, 0xff, 0x14, 0x00, 0x00, 0x00, 0x00, 0x00, 0x00, 0x01,
  0x1c, 0x00, 0x00, 0x00, 0x20, 0x00, 0x00, 0x00, 0x01, 0x00, 0x00, 0x00,
  0xb0, 0xff, 0xff, 0xff, 0x00, 0x00, 0x00, 0x01, 0x01, 0x00, 0x00, 0x00,
  0x02, 0x00, 0x00, 0x00, 0x01, 0x00, 0x00, 0x00, 0x10, 0x00, 0x00, 0x00,
  0x03, 0x00, 0x00, 0x00, 0x0f, 0x00, 0x00, 0x00, 0x0b, 0x00, 0x00, 0x00,
  0x0a, 0x00, 0x00, 0x00, 0x00, 0x00, 0x0e, 0x00, 0x18, 0x00, 0x14, 0x00,
  0x10, 0x00, 0x0c, 0x00, 0x0b, 0x00, 0x04, 0x00, 0x0e, 0x00, 0x00, 0x00,
  0x20, 0x00, 0x00, 0x00, 0x00, 0x00, 0x00, 0x01, 0x28, 0x00, 0x00, 0x00,
  0x2c, 0x00, 0x00, 0x00, 0x01, 0x00, 0x00, 0x00, 0x0c, 0x00, 0x10, 0x00,
  0x00, 0x00, 0x0c, 0x00, 0x08, 0x00, 0x07, 0x00, 0x0c, 0x00, 0x00, 0x00,
  0x00, 0x00, 0x00, 0x01, 0x01, 0x00, 0x00, 0x00, 0x02, 0x00, 0x00, 0x00,
  0x01, 0x00, 0x00, 0x00, 0x0f, 0x00, 0x00, 0x00, 0x03, 0x00, 0x00, 0x00,
  0x0e, 0x00, 0x00, 0x00, 0x0d, 0x00, 0x00, 0x00, 0x0c, 0x00, 0x00, 0x00,
  0x00, 0x00, 0x0a, 0x00, 0x0c, 0x00, 0x00, 0x00, 0x08, 0x00, 0x04, 0x00,
  0x0a, 0x00, 0x00, 0x00, 0x08, 0x00, 0x00, 0x00, 0x0c, 0x00, 0x00, 0x00,
  0x01, 0x00, 0x00, 0x00, 0x0e, 0x00, 0x00, 0x00, 0x02, 0x00, 0x00, 0x00,
  0x00, 0x00, 0x00, 0x00, 0x01, 0x00, 0x00, 0x00, 0x01, 0x00, 0x00, 0x00,
  0x16, 0x00, 0x00, 0x00, 0x01, 0x00, 0x00, 0x00, 0x00, 0x00, 0x00, 0x00,
  0x17, 0x00, 0x00, 0x00, 0xc0, 0x11, 0x00, 0x00, 0x64, 0x11, 0x00, 0x00,
  0x24, 0x11, 0x00, 0x00, 0xe8, 0x10, 0x00, 0x00, 0x3c, 0x10, 0x00, 0x00,
  0x90, 0x0f, 0x00, 0x00, 0x7c, 0x0e, 0x00, 0x00, 0x60, 0x0d, 0x00, 0x00,
  0xac, 0x0c, 0x00, 0x00, 0xe8, 0x0b, 0x00, 0x00, 0x04, 0x0b, 0x00, 0x00,
  0x10, 0x0a, 0x00, 0x00, 0xfc, 0x08, 0x00, 0x00, 0xd8, 0x07, 0x00, 0x00,
  0x4c, 0x07, 0x00, 0x00, 0x00, 0x06, 0x00, 0x00, 0xac, 0x04, 0x00, 0x00,
  0x58, 0x03, 0x00, 0x00, 0x2c, 0x02, 0x00, 0x00, 0xa8, 0x01, 0x00, 0x00,
  0x04, 0x01, 0x00, 0x00, 0x70, 0x00, 0x00, 0x00, 0x04, 0x00, 0x00, 0x00,
  0xb2, 0xee, 0xff, 0xff, 0x00, 0x00, 0x00, 0x01, 0x14, 0x00, 0x00, 0x00,
  0x30, 0x00, 0x00, 0x00, 0x17, 0x00, 0x00, 0x00, 0x00, 0x00, 0x00, 0x09,
  0x44, 0x00, 0x00, 0x00, 0x9c, 0xee, 0xff, 0xff, 0x08, 0x00, 0x00, 0x00,
  0x10, 0x00, 0x00, 0x00, 0x01, 0x00, 0x00, 0x00, 0x80, 0xff, 0xff, 0xff,
  0xff, 0xff, 0xff, 0xff, 0x01, 0x00, 0x00, 0x00, 0x00, 0x00, 0x80, 0x3b,
  0x1b, 0x00, 0x00, 0x00, 0x53, 0x74, 0x61, 0x74, 0x65, 0x66, 0x75, 0x6c,
  0x50, 0x61, 0x72, 0x74, 0x69, 0x74, 0x69, 0x6f, 0x6e, 0x65, 0x64, 0x43,
  0x61, 0x6c, 0x6c, 0x5f, 0x31, 0x3a, 0x30, 0x00, 0x02, 0x00, 0x00, 0x00,
  0x01, 0x00, 0x00, 0x00, 0x07, 0x00, 0x00, 0x00, 0x1a, 0xef, 0xff, 0xff,
  0x00, 0x00, 0x00, 0x01, 0x14, 0x00, 0x00, 0x00, 0x34, 0x00, 0x00, 0x00,
  0x16, 0x00, 0x00, 0x00, 0x00, 0x00, 0x00, 0x09, 0x6c, 0x00, 0x00, 0x00,
  0x04, 0xef, 0xff, 0xff, 0x08, 0x00, 0x00, 0x00, 0x14, 0x00, 0x00, 0x00,
  0x01, 0x00, 0x00, 0x00, 0x44, 0x00, 0x00, 0x00, 0x00, 0x00, 0x00, 0x00,
  0x00, 0x00, 0x00, 0x00, 0x01, 0x00, 0x00, 0x00, 0xbc, 0x9d, 0xb4, 0x3e,
  0x3c, 0x00, 0x00, 0x00, 0x73, 0x65, 0x71, 0x75, 0x65, 0x6e, 0x74, 0x69,
  0x61, 0x6c, 0x5f, 0x31, 0x2f, 0x64, 0x65, 0x6e, 0x73, 0x65, 0x5f, 0x31,
  0x5f, 0x32, 0x2f, 0x4d, 0x61, 0x74, 0x4d, 0x75, 0x6c, 0x3b, 0x73, 0x65,
  0x71, 0x75, 0x65, 0x6e, 0x74, 0x69, 0x61, 0x6c, 0x5f, 0x31, 0x2f, 0x64,
  0x65, 0x6e, 0x73, 0x65, 0x5f, 0x31, 0x5f, 0x32, 0x2f, 0x42, 0x69, 0x61,
  0x73, 0x41, 0x64, 0x64, 0x00, 0x00, 0x00, 0x00, 0x02, 0x00, 0x00, 0x00,
  0x01, 0x00, 0x00, 0x00, 0x07, 0x00, 0x00, 0x00, 0xaa, 0xef, 0xff, 0xff,
  0x00, 0x00, 0x00, 0x01, 0x14, 0x00, 0x00, 0x00, 0x30, 0x00, 0x00, 0x00,
  0x15, 0x00, 0x00, 0x00, 0x00, 0x00, 0x00, 0x09, 0x7c, 0x00, 0x00, 0x00,
  0x94, 0xef, 0xff, 0xff, 0x08, 0x00, 0x00, 0x00, 0x10, 0x00, 0x00, 0x00,
  0x01, 0x00, 0x00, 0x00, 0x80, 0xff, 0xff, 0xff, 0xff, 0xff, 0xff, 0xff,
  0x01, 0x00, 0x00, 0x00, 0x75, 0x71, 0x2a, 0x3c, 0x52, 0x00, 0x00, 0x00,
  0x73, 0x65, 0x71, 0x75, 0x65, 0x6e, 0x74, 0x69, 0x61, 0x6c, 0x5f, 0x31,
  0x2f, 0x64, 0x65, 0x6e, 0x73, 0x65, 0x5f, 0x31, 0x2f, 0x4d, 0x61, 0x74,
  0x4d, 0x75, 0x6c, 0x3b, 0x73, 0x65, 0x71, 0x75, 0x65, 0x6e, 0x74, 0x69,
  0x61, 0x6c, 0x5f, 0x31, 0x2f, 0x64, 0x65, 0x6e, 0x73, 0x65, 0x5f, 0x31,
  0x2f, 0x52, 0x65, 0x6c, 0x75, 0x3b, 0x73, 0x65, 0x71, 0x75, 0x65, 0x6e,
  0x74, 0x69, 0x61, 0x6c, 0x5f, 0x31, 0x2f, 0x64, 0x65, 0x6e, 0x73, 0x65,
  0x5f, 0x31, 0x2f, 0x42, 0x69, 0x61, 0x73, 0x41, 0x64, 0x64, 0x00, 0x00,
  0x02, 0x00, 0x00, 0x00, 0x01, 0x00, 0x00, 0x00, 0x10, 0x00, 0x00, 0x00,
  0x4a, 0xf0, 0xff, 0xff, 0x00, 0x00, 0x00, 0x01, 0x14, 0x00, 0x00, 0x00,
  0x34, 0x00, 0x00, 0x00, 0x14, 0x00, 0x00, 0x00, 0x00, 0x00, 0x00, 0x09,
  0x5c, 0x00, 0x00, 0x00, 0x34, 0xf0, 0xff, 0xff, 0x08, 0x00, 0x00, 0x00,
  0x14, 0x00, 0x00, 0x00, 0x01, 0x00, 0x00, 0x00, 0x80, 0xff, 0xff, 0xff,
  0xff, 0xff, 0xff, 0xff, 0x00, 0x00, 0x00, 0x00, 0x01, 0x00, 0x00, 0x00,
  0x42, 0x62, 0xa1, 0x3c, 0x2c, 0x00, 0x00, 0x00, 0x73, 0x65, 0x71, 0x75,
  0x65, 0x6e, 0x74, 0x69, 0x61, 0x6c, 0x5f, 0x31, 0x2f, 0x67, 0x6c, 0x6f,
  0x62, 0x61, 0x6c, 0x5f, 0x61, 0x76, 0x65, 0x72, 0x61, 0x67, 0x65, 0x5f,
  0x70, 0x6f, 0x6f, 0x6c, 0x69, 0x6e, 0x67, 0x31, 0x64, 0x5f, 0x31, 0x2f,
  0x4d, 0x65, 0x61, 0x6e, 0x00, 0x00, 0x00, 0x00, 0x02, 0x00, 0x00, 0x00,
  0x01, 0x00, 0x00, 0x00, 0x08, 0x00, 0x00, 0x00, 0xca, 0xf0, 0xff, 0xff,
  0x00, 0x00, 0x00, 0x01, 0x14, 0x00, 0x00, 0x00, 0x30, 0x00, 0x00, 0x00,
  0x13, 0x00, 0x00, 0x00, 0x00, 0x00, 0x00, 0x09, 0x00, 0x01, 0x00, 0x00,
  0xb4, 0xf0, 0xff, 0xff, 0x08, 0x00, 0x00, 0x00, 0x10, 0x00, 0x00, 0x00,
  0x01, 0x00, 0x00, 0x00, 0x80, 0xff, 0xff, 0xff, 0xff, 0xff, 0xff, 0xff,
  0x01, 0x00, 0x00, 0x00, 0xaf, 0x0a, 0xb9, 0x3d, 0xd7, 0x00, 0x00, 0x00,
  0x73, 0x65, 0x71, 0x75, 0x65, 0x6e, 0x74, 0x69, 0x61, 0x6c, 0x5f, 0x31,
  0x2f, 0x61, 0x63, 0x74, 0x69, 0x76, 0x61, 0x74, 0x69, 0x6f, 0x6e, 0x5f,
  0x32, 0x5f, 0x31, 0x2f, 0x52, 0x65, 0x6c, 0x75, 0x3b, 0x73, 0x65, 0x71,
  0x75, 0x65, 0x6e, 0x74, 0x69, 0x61, 0x6c, 0x5f, 0x31, 0x2f, 0x62, 0x61,
  0x74, 0x63, 0x68, 0x5f, 0x6e, 0x6f, 0x72, 0x6d, 0x61, 0x6c, 0x69, 0x7a,
  0x61, 0x74, 0x69, 0x6f, 0x6e, 0x5f, 0x32, 0x5f, 0x31, 0x2f, 0x62, 0x61,
  0x74, 0x63, 0x68, 0x6e, 0x6f, 0x72, 0x6d, 0x2f, 0x61, 0x64, 0x64, 0x5f,
  0x31, 0x3b, 0x73, 0x65, 0x71, 0x75, 0x65, 0x6e, 0x74, 0x69, 0x61, 0x6c,
  0x5f, 0x31, 0x2f, 0x63, 0x6f, 0x6e, 0x76, 0x31, 0x64, 0x5f, 0x32, 0x5f,
  0x31, 0x2f, 0x63, 0x6f, 0x6e, 0x76, 0x6f, 0x6c, 0x75, 0x74, 0x69, 0x6f,
  0x6e, 0x2f, 0x53, 0x71, 0x75, 0x65, 0x65, 0x7a, 0x65, 0x3b, 0x73, 0x65,
  0x71, 0x75, 0x65, 0x6e, 0x74, 0x69, 0x61, 0x6c, 0x5f, 0x31, 0x2f, 0x62,
  0x61, 0x74, 0x63, 0x68, 0x5f, 0x6e, 0x6f, 0x72, 0x6d, 0x61, 0x6c, 0x69,
  0x7a, 0x61, 0x74, 0x69, 0x6f, 0x6e, 0x5f, 0x32, 0x5f, 0x31, 0x2f, 0x62,
  0x61, 0x74, 0x63, 0x68, 0x6e, 0x6f, 0x72, 0x6d, 0x2f, 0x6d, 0x75, 0x6c,
  0x5f, 0x31, 0x3b, 0x73, 0x65, 0x71, 0x75, 0x65, 0x6e, 0x74, 0x69, 0x61,
  0x6c, 0x5f, 0x31, 0x2f, 0x63, 0x6f, 0x6e, 0x76, 0x31, 0x64, 0x5f, 0x32,
  0x5f, 0x31, 0x2f, 0x42, 0x69, 0x61, 0x73, 0x41, 0x64, 0x64, 0x3b, 0x00,
  0x03, 0x00, 0x00, 0x00, 0x01, 0x00, 0x00, 0x00, 0x7d, 0x00, 0x00, 0x00,
  0x08, 0x00, 0x00, 0x00, 0xf2, 0xf1, 0xff, 0xff, 0x00, 0x00, 0x00, 0x01,
  0x14, 0x00, 0x00, 0x00, 0x30, 0x00, 0x00, 0x00, 0x12, 0x00, 0x00, 0x00,
  0x00, 0x00, 0x00, 0x09, 0x24, 0x01, 0x00, 0x00, 0xdc, 0xf1, 0xff, 0xff,
  0x08, 0x00, 0x00, 0x00, 0x10, 0x00, 0x00, 0x00, 0x01, 0x00, 0x00, 0x00,
  0x80, 0xff, 0xff, 0xff, 0xff, 0xff, 0xff, 0xff, 0x01, 0x00, 0x00, 0x00,
  0xaf, 0x0a, 0xb9, 0x3d, 0xfb, 0x00, 0x00, 0x00, 0x73, 0x65, 0x71, 0x75,
  0x65, 0x6e, 0x74, 0x69, 0x61, 0x6c, 0x5f, 0x31, 0x2f, 0x61, 0x63, 0x74,
  0x69, 0x76, 0x61, 0x74, 0x69, 0x6f, 0x6e, 0x5f, 0x32, 0x5f, 0x31, 0x2f,
  0x52, 0x65, 0x6c, 0x75, 0x3b, 0x73, 0x65, 0x71, 0x75, 0x65, 0x6e, 0x74,
  0x69, 0x61, 0x6c, 0x5f, 0x31, 0x2f, 0x62, 0x61, 0x74, 0x63, 0x68, 0x5f,
  0x6e, 0x6f, 0x72, 0x6d, 0x61, 0x6c, 0x69, 0x7a, 0x61, 0x74, 0x69, 0x6f,
  0x6e, 0x5f, 0x32, 0x5f, 0x31, 0x2f, 0x62, 0x61, 0x74, 0x63, 0x68, 0x6e,
  0x6f, 0x72, 0x6d, 0x2f, 0x61, 0x64, 0x64, 0x5f, 0x31, 0x3b, 0x73, 0x65,
  0x71, 0x75, 0x65, 0x6e, 0x74, 0x69, 0x61, 0x6c, 0x5f, 0x31, 0x2f, 0x63,
  0x6f, 0x6e, 0x76, 0x31, 0x64, 0x5f, 0x32, 0x5f, 0x31, 0x2f, 0x63, 0x6f,
  0x6e, 0x76, 0x6f, 0x6c, 0x75, 0x74, 0x69, 0x6f, 0x6e, 0x2f, 0x53, 0x71,
  0x75, 0x65, 0x65, 0x7a, 0x65, 0x3b, 0x73, 0x65, 0x71, 0x75, 0x65, 0x6e,
  0x74, 0x69, 0x61, 0x6c, 0x5f, 0x31, 0x2f, 0x62, 0x61, 0x74, 0x63, 0x68,
  0x5f, 0x6e, 0x6f, 0x72, 0x6d, 0x61, 0x6c, 0x69, 0x7a, 0x61, 0x74, 0x69,
  0x6f, 0x6e, 0x5f, 0x32, 0x5f, 0x31, 0x2f, 0x62, 0x61, 0x74, 0x63, 0x68,
  0x6e, 0x6f, 0x72, 0x6d, 0x2f, 0x6d, 0x75, 0x6c, 0x5f, 0x31, 0x3b, 0x73,
  0x65, 0x71, 0x75, 0x65, 0x6e, 0x74, 0x69, 0x61, 0x6c, 0x5f, 0x31, 0x2f,
  0x63, 0x6f, 0x6e, 0x76, 0x31, 0x64, 0x5f, 0x32, 0x5f, 0x31, 0x2f, 0x42,
  0x69, 0x61, 0x73, 0x41, 0x64, 0x64, 0x3b, 0x3b, 0x73, 0x65, 0x71, 0x75,
  0x65, 0x6e, 0x74, 0x69, 0x61, 0x6c, 0x5f, 0x31, 0x2f, 0x63, 0x6f, 0x6e,
  0x76, 0x31, 0x64, 0x5f, 0x32, 0x5f, 0x31, 0x2f, 0x63, 0x6f, 0x6e, 0x76,
  0x6f, 0x6c, 0x75, 0x74, 0x69, 0x6f, 0x6e, 0x00, 0x04, 0x00, 0x00, 0x00,
  0x01, 0x00, 0x00, 0x00, 0x01, 0x00, 0x00, 0x00, 0x7d, 0x00, 0x00, 0x00,
  0x08, 0x00, 0x00, 0x00, 0x42, 0xf3, 0xff, 0xff, 0x00, 0x00, 0x00, 0x01,
  0x14, 0x00, 0x00, 0x00, 0x30, 0x00, 0x00, 0x00, 0x11, 0x00, 0x00, 0x00,
  0x00, 0x00, 0x00, 0x09, 0x24, 0x01, 0x00, 0x00, 0x2c, 0xf3, 0xff, 0xff,
  0x08, 0x00, 0x00, 0x00, 0x10, 0x00, 0x00, 0x00, 0x01, 0x00, 0x00, 0x00,
  0x80, 0xff, 0xff, 0xff, 0xff, 0xff, 0xff, 0xff, 0x01, 0x00, 0x00, 0x00,
  0xcb, 0xe0, 0x5a, 0x3d, 0xfb, 0x00, 0x00, 0x00, 0x73, 0x65, 0x71, 0x75,
  0x65, 0x6e, 0x74, 0x69, 0x61, 0x6c, 0x5f, 0x31, 0x2f, 0x61, 0x63, 0x74,
  0x69, 0x76, 0x61, 0x74, 0x69, 0x6f, 0x6e, 0x5f, 0x31, 0x5f, 0x32, 0x2f,
  0x52, 0x65, 0x6c, 0x75, 0x3b, 0x73, 0x65, 0x71, 0x75, 0x65, 0x6e, 0x74,
  0x69, 0x61, 0x6c, 0x5f, 0x31, 0x2f, 0x62, 0x61, 0x74, 0x63, 0x68, 0x5f,
  0x6e, 0x6f, 0x72, 0x6d, 0x61, 0x6c, 0x69, 0x7a, 0x61, 0x74, 0x69, 0x6f,
  0x6e, 0x5f, 0x31, 0x5f, 0x32, 0x2f, 0x62, 0x61, 0x74, 0x63, 0x68, 0x6e,
  0x6f, 0x72, 0x6d, 0x2f, 0x61, 0x64, 0x64, 0x5f, 0x31, 0x3b, 0x73, 0x65,
  0x71, 0x75, 0x65, 0x6e, 0x74, 0x69, 0x61, 0x6c, 0x5f, 0x31, 0x2f, 0x63,
  0x6f, 0x6e, 0x76, 0x31, 0x64, 0x5f, 0x31, 0x5f, 0x32, 0x2f, 0x63, 0x6f,
  0x6e, 0x76, 0x6f, 0x6c, 0x75, 0x74, 0x69, 0x6f, 0x6e, 0x2f, 0x53, 0x71,
  0x75, 0x65, 0x65, 0x7a, 0x65, 0x3b, 0x73, 0x65, 0x71, 0x75, 0x65, 0x6e,
  0x74, 0x69, 0x61, 0x6c, 0x5f, 0x31, 0x2f, 0x62, 0x61, 0x74, 0x63, 0x68,
  0x5f, 0x6e, 0x6f, 0x72, 0x6d, 0x61, 0x6c, 0x69, 0x7a, 0x61, 0x74, 0x69,
  0x6f, 0x6e, 0x5f, 0x31, 0x5f, 0x32, 0x2f, 0x62, 0x61, 0x74, 0x63, 0x68,
  0x6e, 0x6f, 0x72, 0x6d, 0x2f, 0x6d, 0x75, 0x6c, 0x5f, 0x31, 0x3b, 0x73,
  0x65, 0x71, 0x75, 0x65, 0x6e, 0x74, 0x69, 0x61, 0x6c, 0x5f, 0x31, 0x2f,
  0x63, 0x6f, 0x6e, 0x76, 0x31, 0x64, 0x5f, 0x31, 0x5f, 0x32, 0x2f, 0x42,
  0x69, 0x61, 0x73, 0x41, 0x64, 0x64, 0x3b, 0x3b, 0x73, 0x65, 0x71, 0x75,
  0x65, 0x6e, 0x74, 0x69, 0x61, 0x6c, 0x5f, 0x31, 0x2f, 0x63, 0x6f, 0x6e,
  0x76, 0x31, 0x64, 0x5f, 0x31, 0x5f, 0x32, 0x2f, 0x63, 0x6f, 0x6e, 0x76,
  0x6f, 0x6c, 0x75, 0x74, 0x69, 0x6f, 0x6e, 0x00, 0x04, 0x00, 0x00, 0x00,
  0x01, 0x00, 0x00, 0x00, 0x01, 0x00, 0x00, 0x00, 0x7d, 0x00, 0x00, 0x00,
  0x0c, 0x00, 0x00, 0x00, 0x92, 0xf4, 0xff, 0xff, 0x00, 0x00, 0x00, 0x01,
  0x14, 0x00, 0x00, 0x00, 0x34, 0x00, 0x00, 0x00, 0x10, 0x00, 0x00, 0x00,
  0x00, 0x00, 0x00, 0x09, 0x1c, 0x01, 0x00, 0x00, 0x7c, 0xf4, 0xff, 0xff,
  0x08, 0x00, 0x00, 0x00, 0x14, 0x00, 0x00, 0x00, 0x01, 0x00, 0x00, 0x00,
  0x80, 0xff, 0xff, 0xff, 0xff, 0xff, 0xff, 0xff, 0x00, 0x00, 0x00, 0x00,
  0x01, 0x00, 0x00, 0x00, 0x4b, 0x6e, 0x58, 0x3e, 0xef, 0x00, 0x00, 0x00,
  0x73, 0x65, 0x71, 0x75, 0x65, 0x6e, 0x74, 0x69, 0x61, 0x6c, 0x5f, 0x31,
  0x2f, 0x61, 0x63, 0x74, 0x69, 0x76, 0x61, 0x74, 0x69, 0x6f, 0x6e, 0x5f,
  0x31, 0x2f, 0x52, 0x65, 0x6c, 0x75, 0x3b, 0x73, 0x65, 0x71, 0x75, 0x65,
  0x6e, 0x74, 0x69, 0x61, 0x6c, 0x5f, 0x31, 0x2f, 0x62, 0x61, 0x74, 0x63,
  0x68, 0x5f, 0x6e, 0x6f, 0x72, 0x6d, 0x61, 0x6c, 0x69, 0x7a, 0x61, 0x74,
  0x69, 0x6f, 0x6e, 0x5f, 0x31, 0x2f, 0x62, 0x61, 0x74, 0x63, 0x68, 0x6e,
  0x6f, 0x72, 0x6d, 0x2f, 0x61, 0x64, 0x64, 0x5f, 0x31, 0x3b, 0x73, 0x65,
  0x71, 0x75, 0x65, 0x6e, 0x74, 0x69, 0x61, 0x6c, 0x5f, 0x31, 0x2f, 0x63,
  0x6f, 0x6e, 0x76, 0x31, 0x64, 0x5f, 0x31, 0x2f, 0x63, 0x6f, 0x6e, 0x76,
  0x6f, 0x6c, 0x75, 0x74, 0x69, 0x6f, 0x6e, 0x2f, 0x53, 0x71, 0x75, 0x65,
  0x65, 0x7a, 0x65, 0x3b, 0x73, 0x65, 0x71, 0x75, 0x65, 0x6e, 0x74, 0x69,
  0x61, 0x6c, 0x5f, 0x31, 0x2f, 0x62, 0x61, 0x74, 0x63, 0x68, 0x5f, 0x6e,
  0x6f, 0x72, 0x6d, 0x61, 0x6c, 0x69, 0x7a, 0x61, 0x74, 0x69, 0x6f, 0x6e,
  0x5f, 0x31, 0x2f, 0x62, 0x61, 0x74, 0x63, 0x68, 0x6e, 0x6f, 0x72, 0x6d,
  0x2f, 0x6d, 0x75, 0x6c, 0x5f, 0x31, 0x3b, 0x73, 0x65, 0x71, 0x75, 0x65,
  0x6e, 0x74, 0x69, 0x61, 0x6c, 0x5f, 0x31, 0x2f, 0x63, 0x6f, 0x6e, 0x76,
  0x31, 0x64, 0x5f, 0x31, 0x2f, 0x42, 0x69, 0x61, 0x73, 0x41, 0x64, 0x64,
  0x3b, 0x3b, 0x73, 0x65, 0x71, 0x75, 0x65, 0x6e, 0x74, 0x69, 0x61, 0x6c,
  0x5f, 0x31, 0x2f, 0x63, 0x6f, 0x6e, 0x76, 0x31, 0x64, 0x5f, 0x31, 0x2f,
  0x63, 0x6f, 0x6e, 0x76, 0x6f, 0x6c, 0x75, 0x74, 0x69, 0x6f, 0x6e, 0x00,
  0x04, 0x00, 0x00, 0x00, 0x01, 0x00, 0x00, 0x00, 0x01, 0x00, 0x00, 0x00,
  0xfa, 0x00, 0x00, 0x00, 0x10, 0x00, 0x00, 0x00, 0xda, 0xf5, 0xff, 0xff,
  0x00, 0x00, 0x00, 0x01, 0x14, 0x00, 0x00, 0x00, 0x34, 0x00, 0x00, 0x00,
  0x0f, 0x00, 0x00, 0x00, 0x00, 0x00, 0x00, 0x09, 0x5c, 0x00, 0x00, 0x00,
  0xc4, 0xf5, 0xff, 0xff, 0x08, 0x00, 0x00, 0x00, 0x14, 0x00, 0x00, 0x00,
  0x01, 0x00, 0x00, 0x00, 0x94, 0xff, 0xff, 0xff, 0xff, 0xff, 0xff, 0xff,
  0x00, 0x00, 0x00, 0x00, 0x01, 0x00, 0x00, 0x00, 0xd5, 0x2a, 0xfb, 0x3e,
  0x2d, 0x00, 0x00, 0x00, 0x73, 0x65, 0x71, 0x75, 0x65, 0x6e, 0x74, 0x69,
  0x61, 0x6c, 0x5f, 0x31, 0x2f, 0x63, 0x6f, 0x6e, 0x76, 0x31, 0x64, 0x5f,
  0x31, 0x2f, 0x63, 0x6f, 0x6e, 0x76, 0x6f, 0x6c, 0x75, 0x74, 0x69, 0x6f,
  0x6e, 0x2f, 0x45, 0x78, 0x70, 0x61, 0x6e, 0x64, 0x44, 0x69, 0x6d, 0x73,
  0x31, 0x00, 0x00, 0x00, 0x04, 0x00, 0x00, 0x00, 0x01, 0x00, 0x00, 0x00,
  0x01, 0x00, 0x00, 0x00, 0xf4, 0x01, 0x00, 0x00, 0x06, 0x00, 0x00, 0x00,
  0x62, 0xf6, 0xff, 0xff, 0x00, 0x00, 0x00, 0x01, 0x14, 0x00, 0x00, 0x00,
  0xe8, 0x00, 0x00, 0x00, 0x0e, 0x00, 0x00, 0x00, 0x00, 0x00, 0x00, 0x09,
  0xf4, 0x00, 0x00, 0x00, 0x4c, 0xf6, 0xff, 0xff, 0x08, 0x00, 0x00, 0x00,
  0x8c, 0x00, 0x00, 0x00, 0x10, 0x00, 0x00, 0x00, 0x00, 0x00, 0x00, 0x00,
  0x00, 0x00, 0x00, 0x00, 0x00, 0x00, 0x00, 0x00, 0x00, 0x00, 0x00, 0x00,
  0x00, 0x00, 0x00, 0x00, 0x00, 0x00, 0x00, 0x00, 0x00, 0x00, 0x00, 0x00,
  0x00, 0x00, 0x00, 0x00, 0x00, 0x00, 0x00, 0x00, 0x00, 0x00, 0x00, 0x00,
  0x00, 0x00, 0x00, 0x00, 0x00, 0x00, 0x00, 0x00, 0x00, 0x00, 0x00, 0x00,
  0x00, 0x00, 0x00, 0x00, 0x00, 0x00, 0x00, 0x00, 0x00, 0x00, 0x00, 0x00,
  0x00, 0x00, 0x00, 0x00, 0x00, 0x00, 0x00, 0x00, 0x00, 0x00, 0x00, 0x00,
  0x00, 0x00, 0x00, 0x00, 0x00, 0x00, 0x00, 0x00, 0x00, 0x00, 0x00, 0x00,
  0x00, 0x00, 0x00, 0x00, 0x00, 0x00, 0x00, 0x00, 0x00, 0x00, 0x00, 0x00,
  0x00, 0x00, 0x00, 0x00, 0x00, 0x00, 0x00, 0x00, 0x00, 0x00, 0x00, 0x00,
  0x00, 0x00, 0x00, 0x00, 0x00, 0x00, 0x00, 0x00, 0x00, 0x00, 0x00, 0x00,
  0x00, 0x00, 0x00, 0x00, 0x00, 0x00, 0x00, 0x00, 0x10, 0x00, 0x00, 0x00,
  0x3a, 0xcd, 0xb1, 0x3a, 0x2f, 0x3d, 0xcc, 0x3a, 0x05, 0x1c, 0xa4, 0x3a,
  0xd8, 0x49, 0xcb, 0x3a, 0x8a, 0x47, 0x79, 0x3a, 0xb0, 0x09, 0x22, 0x3b,
  0xab, 0xfe, 0xda, 0x3a, 0x3b, 0x4f, 0x9d, 0x3a, 0x0d, 0x56, 0x28, 0x3b,
  0xd3, 0x09, 0x97, 0x3a, 0xff, 0x4a, 0x58, 0x3a, 0xc8, 0x8f, 0x33, 0x3b,
  0x9c, 0xef, 0xf8, 0x3a, 0xbf, 0x0e, 0x93, 0x3b, 0x53, 0x6f, 0xed, 0x3a,
  0xb1, 0xfe, 0xbb, 0x3a, 0x12, 0x00, 0x00, 0x00, 0x74, 0x66, 0x6c, 0x2e,
  0x70, 0x73, 0x65, 0x75, 0x64, 0x6f, 0x5f, 0x71, 0x63, 0x6f, 0x6e, 0x73,
  0x74, 0x39, 0x00, 0x00, 0x04, 0x00, 0x00, 0x00, 0x10, 0x00, 0x00, 0x00,
  0x01, 0x00, 0x00, 0x00, 0x07, 0x00, 0x00, 0x00, 0x06, 0x00, 0x00, 0x00,
  0x82, 0xf7, 0xff, 0xff, 0x00, 0x00, 0x00, 0x01, 0x14, 0x00, 0x00, 0x00,
  0xe4, 0x00, 0x00, 0x00, 0x0d, 0x00, 0x00, 0x00, 0x00, 0x00, 0x00, 0x02,
  0xf0, 0x00, 0x00, 0x00, 0x6c, 0xf7, 0xff, 0xff, 0x08, 0x00, 0x00, 0x00,
  0x88, 0x00, 0x00, 0x00, 0x10, 0x00, 0x00, 0x00, 0x00, 0x00, 0x00, 0x00,
  0x00, 0x00, 0x00, 0x00, 0x00, 0x00, 0x00, 0x00, 0x00, 0x00, 0x00, 0x00,
  0x00, 0x00, 0x00, 0x00, 0x00, 0x00, 0x00, 0x00, 0x00, 0x00, 0x00, 0x00,
  0x00, 0x00, 0x00, 0x00, 0x00, 0x00, 0x00, 0x00, 0x00, 0x00, 0x00, 0x00,
  0x00, 0x00, 0x00, 0x00, 0x00, 0x00, 0x00, 0x00, 0x00, 0x00, 0x00, 0x00,
  0x00, 0x00, 0x00, 0x00, 0x00, 0x00, 0x00, 0x00, 0x00, 0x00, 0x00, 0x00,
  0x00, 0x00, 0x00, 0x00, 0x00, 0x00, 0x00, 0x00, 0x00, 0x00, 0x00, 0x00,
  0x00, 0x00, 0x00, 0x00, 0x00, 0x00, 0x00, 0x00, 0x00, 0x00, 0x00, 0x00,
  0x00, 0x00, 0x00, 0x00, 0x00, 0x00, 0x00, 0x00, 0x00, 0x00, 0x00, 0x00,
  0x00, 0x00, 0x00, 0x00, 0x00, 0x00, 0x00, 0x00, 0x00, 0x00, 0x00, 0x00,
  0x00, 0x00, 0x00, 0x00, 0x00, 0x00, 0x00, 0x00, 0x00, 0x00, 0x00, 0x00,
  0x00, 0x00, 0x00, 0x00, 0x10, 0x00, 0x00, 0x00, 0xf7, 0x71, 0x2e, 0x3a,
  0x29, 0x62, 0x48, 0x3a, 0xee, 0x02, 0x21, 0x3a, 0x6a, 0x73, 0x47, 0x3a,
  0xd9, 0x92, 0xf4, 0x39, 0x9c, 0xfa, 0x9e, 0x3a, 0x56, 0xdc, 0x56, 0x3a,
  0x01, 0x57, 0x1a, 0x3a, 0x89, 0x28, 0xa5, 0x3a, 0xe7, 0x2f, 0x14, 0x3a,
  0xb8, 0x35, 0xd4, 0x39, 0x04, 0x2c, 0xb0, 0x3a, 0x94, 0x3c, 0x74, 0x3a,
  0x10, 0x48, 0x10, 0x3b, 0xe0, 0xf3, 0x68, 0x3a, 0x2c, 0x72, 0x38, 0x3a,
  0x12, 0x00, 0x00, 0x00, 0x74, 0x66, 0x6c, 0x2e, 0x70, 0x73, 0x65, 0x75,
  0x64, 0x6f, 0x5f, 0x71, 0x63, 0x6f, 0x6e, 0x73, 0x74, 0x38, 0x00, 0x00,
  0x01, 0x00, 0x00, 0x00, 0x10, 0x00, 0x00, 0x00, 0x92, 0xf8, 0xff, 0xff,
  0x00, 0x00, 0x00, 0x01, 0x14, 0x00, 0x00, 0x00, 0xb8, 0x00, 0x00, 0x00,
  0x0c, 0x00, 0x00, 0x00, 0x00, 0x00, 0x00, 0x09, 0xc4, 0x00, 0x00, 0x00,
  0x7c, 0xf8, 0xff, 0xff, 0x08, 0x00, 0x00, 0x00, 0x6c, 0x00, 0x00, 0x00,
  0x0c, 0x00, 0x00, 0x00, 0x00, 0x00, 0x00, 0x00, 0x00, 0x00, 0x00, 0x00,
  0x00, 0x00, 0x00, 0x00, 0x00, 0x00, 0x00, 0x00, 0x00, 0x00, 0x00, 0x00,
  0x00, 0x00, 0x00, 0x00, 0x00, 0x00, 0x00, 0x00, 0x00, 0x00, 0x00, 0x00,
  0x00, 0x00, 0x00, 0x00, 0x00, 0x00, 0x00, 0x00, 0x00, 0x00, 0x00, 0x00,
  0x00, 0x00, 0x00, 0x00, 0x00, 0x00, 0x00, 0x00, 0x00, 0x00, 0x00, 0x00,
  0x00, 0x00, 0x00, 0x00, 0x00, 0x00, 0x00, 0x00, 0x00, 0x00, 0x00, 0x00,
  0x00, 0x00, 0x00, 0x00, 0x00, 0x00, 0x00, 0x00, 0x00, 0x00, 0x00, 0x00,
  0x00, 0x00, 0x00, 0x00, 0x00, 0x00, 0x00, 0x00, 0x00, 0x00, 0x00, 0x00,
  0x00, 0x00, 0x00, 0x00, 0x00, 0x00, 0x00, 0x00, 0x0c, 0x00, 0x00, 0x00,
  0xb1, 0x1a, 0xb3, 0x3a, 0xec, 0x5a, 0x51, 0x3b, 0x87, 0xb6, 0x0f, 0x3b,
  0x6d, 0x60, 0x28, 0x3b, 0xd3, 0x01, 0x34, 0x3b, 0xad, 0xbf, 0x97, 0x3b,
  0xa0, 0x74, 0x99, 0x3b, 0xc5, 0xfa, 0xcf, 0x3a, 0xfc, 0x61, 0x0f, 0x3b,
  0xe8, 0x8f, 0xa0, 0x3b, 0x8f, 0xa9, 0x97, 0x3b, 0x8b, 0x41, 0xfe, 0x3b,
  0x12, 0x00, 0x00, 0x00, 0x74, 0x66, 0x6c, 0x2e, 0x70, 0x73, 0x65, 0x75,
  0x64, 0x6f, 0x5f, 0x71, 0x63, 0x6f, 0x6e, 0x73, 0x74, 0x37, 0x00, 0x00,
  0x04, 0x00, 0x00, 0x00, 0x0c, 0x00, 0x00, 0x00, 0x01, 0x00, 0x00, 0x00,
  0x05, 0x00, 0x00, 0x00, 0x10, 0x00, 0x00, 0x00, 0x82, 0xf9, 0xff, 0xff,
  0x00, 0x00, 0x00, 0x01, 0x14, 0x00, 0x00, 0x00, 0xb4, 0x00, 0x00, 0x00,
  0x0b, 0x00, 0x00, 0x00, 0x00, 0x00, 0x00, 0x02, 0xc0, 0x00, 0x00, 0x00,
  0x6c, 0xf9, 0xff, 0xff, 0x08, 0x00, 0x00, 0x00, 0x68, 0x00, 0x00, 0x00,
  0x0c, 0x00, 0x00, 0x00, 0x00, 0x00, 0x00, 0x00, 0x00, 0x00, 0x00, 0x00,
  0x00, 0x00, 0x00, 0x00, 0x00, 0x00, 0x00, 0x00, 0x00, 0x00, 0x00, 0x00,
  0x00, 0x00, 0x00, 0x00, 0x00, 0x00, 0x00, 0x00, 0x00, 0x00, 0x00, 0x00,
  0x00, 0x00, 0x00, 0x00, 0x00, 0x00, 0x00, 0x00, 0x00, 0x00, 0x00, 0x00,
  0x00, 0x00, 0x00, 0x00, 0x00, 0x00, 0x00, 0x00, 0x00, 0x00, 0x00, 0x00,
  0x00, 0x00, 0x00, 0x00, 0x00, 0x00, 0x00, 0x00, 0x00, 0x00, 0x00, 0x00,
  0x00, 0x00, 0x00, 0x00, 0x00, 0x00, 0x00, 0x00, 0x00, 0x00, 0x00, 0x00,
  0x00, 0x00, 0x00, 0x00, 0x00, 0x00, 0x00, 0x00, 0x00, 0x00, 0x00, 0x00,
  0x00, 0x00, 0x00, 0x00, 0x0c, 0x00, 0x00, 0x00, 0xaf, 0x6b, 0x97, 0x39,
  0xea, 0xfe, 0x30, 0x3a, 0xd9, 0xff, 0xf2, 0x39, 0xe7, 0x59, 0x0e, 0x3a,
  0x18, 0x2f, 0x18, 0x3a, 0x1b, 0x4b, 0x80, 0x3a, 0x84, 0xbc, 0x81, 0x3a,
  0x31, 0xd5, 0xaf, 0x39, 0xe5, 0x70, 0xf2, 0x39, 0x99, 0xbe, 0x87, 0x3a,
  0x68, 0x38, 0x80, 0x3a, 0xd8, 0xf4, 0xd6, 0x3a, 0x12, 0x00, 0x00, 0x00,
  0x74, 0x66, 0x6c, 0x2e, 0x70, 0x73, 0x65, 0x75, 0x64, 0x6f, 0x5f, 0x71,
  0x63, 0x6f, 0x6e, 0x73, 0x74, 0x36, 0x00, 0x00, 0x01, 0x00, 0x00, 0x00,
  0x0c, 0x00, 0x00, 0x00, 0x62, 0xfa, 0xff, 0xff, 0x00, 0x00, 0x00, 0x01,
  0x14, 0x00, 0x00, 0x00, 0x88, 0x00, 0x00, 0x00, 0x0a, 0x00, 0x00, 0x00,
  0x00, 0x00, 0x00, 0x09, 0x94, 0x00, 0x00, 0x00, 0x4c, 0xfa, 0xff, 0xff,
  0x08, 0x00, 0x00, 0x00, 0x4c, 0x00, 0x00, 0x00, 0x08, 0x00, 0x00, 0x00,
  0x00, 0x00, 0x00, 0x00, 0x00, 0x00, 0x00, 0x00, 0x00, 0x00, 0x00, 0x00,
  0x00, 0x00, 0x00, 0x00, 0x00, 0x00, 0x00, 0x00, 0x00, 0x00, 0x00, 0x00,
  0x00, 0x00, 0x00, 0x00, 0x00, 0x00, 0x00, 0x00, 0x00, 0x00, 0x00, 0x00,
  0x00, 0x00, 0x00, 0x00, 0x00, 0x00, 0x00, 0x00, 0x00, 0x00, 0x00, 0x00,
  0x00, 0x00, 0x00, 0x00, 0x00, 0x00, 0x00, 0x00, 0x00, 0x00, 0x00, 0x00,
  0x00, 0x00, 0x00, 0x00, 0x00, 0x00, 0x00, 0x00, 0x08, 0x00, 0x00, 0x00,
  0x02, 0xa6, 0x34, 0x3c, 0xaa, 0x75, 0x6e, 0x3c, 0x9d, 0x22, 0x42, 0x3c,
  0x50, 0x21, 0x03, 0x3c, 0x67, 0x40, 0x4f, 0x3c, 0x03, 0x87, 0x44, 0x3c,
  0x4a, 0xc4, 0x1b, 0x3c, 0xf7, 0x53, 0x32, 0x3c, 0x12, 0x00, 0x00, 0x00,
  0x74, 0x66, 0x6c, 0x2e, 0x70, 0x73, 0x65, 0x75, 0x64, 0x6f, 0x5f, 0x71,
  0x63, 0x6f, 0x6e, 0x73, 0x74, 0x35, 0x00, 0x00, 0x04, 0x00, 0x00, 0x00,
  0x08, 0x00, 0x00, 0x00, 0x01, 0x00, 0x00, 0x00, 0x03, 0x00, 0x00, 0x00,
  0x0c, 0x00, 0x00, 0x00, 0x22, 0xfb, 0xff, 0xff, 0x00, 0x00, 0x00, 0x01,
  0x14, 0x00, 0x00, 0x00, 0x84, 0x00, 0x00, 0x00, 0x09, 0x00, 0x00, 0x00,
  0x00, 0x00, 0x00, 0x02, 0x90, 0x00, 0x00, 0x00, 0x0c, 0xfb, 0xff, 0xff,
  0x08, 0x00, 0x00, 0x00, 0x48, 0x00, 0x00, 0x00, 0x08, 0x00, 0x00, 0x00,
  0x00, 0x00, 0x00, 0x00, 0x00, 0x00, 0x00, 0x00, 0x00, 0x00, 0x00, 0x00,
  0x00, 0x00, 0x00, 0x00, 0x00, 0x00, 0x00, 0x00, 0x00, 0x00, 0x00, 0x00,
  0x00, 0x00, 0x00, 0x00, 0x00, 0x00, 0x00, 0x00, 0x00, 0x00, 0x00, 0x00,
  0x00, 0x00, 0x00, 0x00, 0x00, 0x00, 0x00, 0x00, 0x00, 0x00, 0x00, 0x00,
  0x00, 0x00, 0x00, 0x00, 0x00, 0x00, 0x00, 0x00, 0x00, 0x00, 0x00, 0x00,
  0x00, 0x00, 0x00, 0x00, 0x08, 0x00, 0x00, 0x00, 0xfe, 0x73, 0x1a, 0x3a,
  0x97, 0xe1, 0x4b, 0x3a, 0xf2, 0xfb, 0x25, 0x3a, 0x07, 0x3b, 0xe0, 0x39,
  0xd4, 0x32, 0x31, 0x3a, 0x8b, 0x07, 0x28, 0x3a, 0xee, 0x2d, 0x05, 0x3a,
  0x17, 0x78, 0x18, 0x3a, 0x12, 0x00, 0x00, 0x00, 0x74, 0x66, 0x6c, 0x2e,
  0x70, 0x73, 0x65, 0x75, 0x64, 0x6f, 0x5f, 0x71, 0x63, 0x6f, 0x6e, 0x73,
  0x74, 0x34, 0x00, 0x00, 0x01, 0x00, 0x00, 0x00, 0x08, 0x00, 0x00, 0x00,
  0xd2, 0xfb, 0xff, 0xff, 0x00, 0x00, 0x00, 0x01, 0x14, 0x00, 0x00, 0x00,
  0xe8, 0x00, 0x00, 0x00, 0x08, 0x00, 0x00, 0x00, 0x00, 0x00, 0x00, 0x09,
  0xf4, 0x00, 0x00, 0x00, 0xbc, 0xfb, 0xff, 0xff, 0x08, 0x00, 0x00, 0x00,
  0x8c, 0x00, 0x00, 0x00, 0x10, 0x00, 0x00, 0x00, 0x00, 0x00, 0x00, 0x00,
  0x00, 0x00, 0x00, 0x00, 0x00, 0x00, 0x00, 0x00, 0x00, 0x00, 0x00, 0x00,
  0x00, 0x00, 0x00, 0x00, 0x00, 0x00, 0x00, 0x00, 0x00, 0x00, 0x00, 0x00,
  0x00, 0x00, 0x00, 0x00, 0x00, 0x00, 0x00, 0x00, 0x00, 0x00, 0x00, 0x00,
  0x00, 0x00, 0x00, 0x00, 0x00, 0x00, 0x00, 0x00, 0x00, 0x00, 0x00, 0x00,
  0x00, 0x00, 0x00, 0x00, 0x00, 0x00, 0x00, 0x00, 0x00, 0x00, 0x00, 0x00,
  0x00, 0x00, 0x00, 0x00, 0x00, 0x00, 0x00, 0x00, 0x00, 0x00, 0x00, 0x00,
  0x00, 0x00, 0x00, 0x00, 0x00, 0x00, 0x00, 0x00, 0x00, 0x00, 0x00, 0x00,
  0x00, 0x00, 0x00, 0x00, 0x00, 0x00, 0x00, 0x00, 0x00, 0x00, 0x00, 0x00,
  0x00, 0x00, 0x00, 0x00, 0x00, 0x00, 0x00, 0x00, 0x00, 0x00, 0x00, 0x00,
  0x00, 0x00, 0x00, 0x00, 0x00, 0x00, 0x00, 0x00, 0x00, 0x00, 0x00, 0x00,
  0x00, 0x00, 0x00, 0x00, 0x00, 0x00, 0x00, 0x00, 0x10, 0x00, 0x00, 0x00,
  0xbe, 0xb8, 0x01, 0x3c, 0x2f, 0x0a, 0xf6, 0x3b, 0x7e, 0x95, 0x03, 0x3c,
  0x37, 0xfd, 0xd7, 0x3b, 0x90, 0xdf, 0xd6, 0x3b, 0x95, 0x09, 0xbd, 0x3b,
  0xd4, 0xf9, 0xec, 0x3b, 0x22, 0xbb, 0xd4, 0x3b, 0x66, 0x10, 0xed, 0x3b,
  0xc1, 0x9f, 0xb2, 0x3b, 0xd9, 0x77, 0xbc, 0x3b, 0x75, 0x05, 0xf8, 0x3b,
  0x73, 0xc2, 0xca, 0x3b, 0x5e, 0x43, 0xf0, 0x3b, 0xa4, 0x48, 0xd3, 0x3b,
  0x16, 0xa9, 0xbe, 0x3b, 0x12, 0x00, 0x00, 0x00, 0x74, 0x66, 0x6c, 0x2e,
  0x70, 0x73, 0x65, 0x75, 0x64, 0x6f, 0x5f, 0x71, 0x63, 0x6f, 0x6e, 0x73,
  0x74, 0x33, 0x00, 0x00, 0x02, 0x00, 0x00, 0x00, 0x10, 0x00, 0x00, 0x00,
  0x08, 0x00, 0x00, 0x00, 0xea, 0xfc, 0xff, 0xff, 0x00, 0x00, 0x00, 0x01,
  0x14, 0x00, 0x00, 0x00, 0xe4, 0x00, 0x00, 0x00, 0x07, 0x00, 0x00, 0x00,
  0x00, 0x00, 0x00, 0x02, 0xf0, 0x00, 0x00, 0x00, 0xd4, 0xfc, 0xff, 0xff,
  0x08, 0x00, 0x00, 0x00, 0x88, 0x00, 0x00, 0x00, 0x10, 0x00, 0x00, 0x00,
  0x00, 0x00, 0x00, 0x00, 0x00, 0x00, 0x00, 0x00, 0x00, 0x00, 0x00, 0x00,
  0x00, 0x00, 0x00, 0x00, 0x00, 0x00, 0x00, 0x00, 0x00, 0x00, 0x00, 0x00,
  0x00, 0x00, 0x00, 0x00, 0x00, 0x00, 0x00, 0x00, 0x00, 0x00, 0x00, 0x00,
  0x00, 0x00, 0x00, 0x00, 0x00, 0x00, 0x00, 0x00, 0x00, 0x00, 0x00, 0x00,
  0x00, 0x00, 0x00, 0x00, 0x00, 0x00, 0x00, 0x00, 0x00, 0x00, 0x00, 0x00,
  0x00, 0x00, 0x00, 0x00, 0x00, 0x00, 0x00, 0x00, 0x00, 0x00, 0x00, 0x00,
  0x00, 0x00, 0x00, 0x00, 0x00, 0x00, 0x00, 0x00, 0x00, 0x00, 0x00, 0x00,
  0x00, 0x00, 0x00, 0x00, 0x00, 0x00, 0x00, 0x00, 0x00, 0x00, 0x00, 0x00,
  0x00, 0x00, 0x00, 0x00, 0x00, 0x00, 0x00, 0x00, 0x00, 0x00, 0x00, 0x00,
  0x00, 0x00, 0x00, 0x00, 0x00, 0x00, 0x00, 0x00, 0x00, 0x00, 0x00, 0x00,
  0x00, 0x00, 0x00, 0x00, 0x00, 0x00, 0x00, 0x00, 0x10, 0x00, 0x00, 0x00,
  0xf3, 0x8d, 0x23, 0x39, 0xd7, 0x1a, 0x1b, 0x39, 0x0b, 0xe7, 0x25, 0x39,
  0x26, 0x29, 0x08, 0x39, 0x13, 0x75, 0x07, 0x39, 0x2a, 0x57, 0xee, 0x38,
  0x13, 0x64, 0x15, 0x39, 0x57, 0x1b, 0x06, 0x39, 0x4e, 0x72, 0x15, 0x39,
  0x0f, 0x36, 0xe1, 0x38, 0x6c, 0x9f, 0xed, 0x38, 0xa1, 0x5a, 0x1c, 0x39,
  0x3a, 0xa4, 0xff, 0x38, 0x96, 0x76, 0x17, 0x39, 0xc7, 0x31, 0x05, 0x39,
  0x09, 0x63, 0xf0, 0x38, 0x12, 0x00, 0x00, 0x00, 0x74, 0x66, 0x6c, 0x2e,
  0x70, 0x73, 0x65, 0x75, 0x64, 0x6f, 0x5f, 0x71, 0x63, 0x6f, 0x6e, 0x73,
  0x74, 0x32, 0x00, 0x00, 0x01, 0x00, 0x00, 0x00, 0x10, 0x00, 0x00, 0x00,
  0xfa, 0xfd, 0xff, 0xff, 0x00, 0x00, 0x00, 0x01, 0x14, 0x00, 0x00, 0x00,
  0x78, 0x00, 0x00, 0x00, 0x06, 0x00, 0x00, 0x00, 0x00, 0x00, 0x00, 0x09,
  0x84, 0x00, 0x00, 0x00, 0xe4, 0xfd, 0xff, 0xff, 0x08, 0x00, 0x00, 0x00,
  0x40, 0x00, 0x00, 0x00, 0x07, 0x00, 0x00, 0x00, 0x00, 0x00, 0x00, 0x00,
  0x00, 0x00, 0x00, 0x00, 0x00, 0x00, 0x00, 0x00, 0x00, 0x00, 0x00, 0x00,
  0x00, 0x00, 0x00, 0x00, 0x00, 0x00, 0x00, 0x00, 0x00, 0x00, 0x00, 0x00,
  0x00, 0x00, 0x00, 0x00, 0x00, 0x00, 0x00, 0x00, 0x00, 0x00, 0x00, 0x00,
  0x00, 0x00, 0x00, 0x00, 0x00, 0x00, 0x00, 0x00, 0x00, 0x00, 0x00, 0x00,
  0x00, 0x00, 0x00, 0x00, 0x07, 0x00, 0x00, 0x00, 0x09, 0x94, 0x5d, 0x3d,
  0xcf, 0x00, 0x68, 0x3d, 0x18, 0x50, 0x84, 0x3d, 0x90, 0x67, 0x7e, 0x3d,
  0x9a, 0x1a, 0x30, 0x3d, 0xe7, 0x76, 0x5f, 0x3d, 0x9c, 0x6f, 0x20, 0x3d,
  0x12, 0x00, 0x00, 0x00, 0x74, 0x66, 0x6c, 0x2e, 0x70, 0x73, 0x65, 0x75,
  0x64, 0x6f, 0x5f, 0x71, 0x63, 0x6f, 0x6e, 0x73, 0x74, 0x31, 0x00, 0x00,
  0x02, 0x00, 0x00, 0x00, 0x07, 0x00, 0x00, 0x00, 0x10, 0x00, 0x00, 0x00,
  0xa2, 0xfe, 0xff, 0xff, 0x00, 0x00, 0x00, 0x01, 0x14, 0x00, 0x00, 0x00,
  0x7c, 0x00, 0x00, 0x00, 0x05, 0x00, 0x00, 0x00, 0x00, 0x00, 0x00, 0x02,
  0x88, 0x00, 0x00, 0x00, 0x8c, 0xfe, 0xff, 0xff, 0x08, 0x00, 0x00, 0x00,
  0x44, 0x00, 0x00, 0x00, 0x07, 0x00, 0x00, 0x00, 0x00, 0x00, 0x00, 0x00,
  0x00, 0x00, 0x00, 0x00, 0x00, 0x00, 0x00, 0x00, 0x00, 0x00, 0x00, 0x00,
  0x00, 0x00, 0x00, 0x00, 0x00, 0x00, 0x00, 0x00, 0x00, 0x00, 0x00, 0x00,
  0x00, 0x00, 0x00, 0x00, 0x00, 0x00, 0x00, 0x00, 0x00, 0x00, 0x00, 0x00,
  0x00, 0x00, 0x00, 0x00, 0x00, 0x00, 0x00, 0x00, 0x00, 0x00, 0x00, 0x00,
  0x00, 0x00, 0x00, 0x00, 0x00, 0x00, 0x00, 0x00, 0x07, 0x00, 0x00, 0x00,
  0x82, 0x86, 0x13, 0x3a, 0x5c, 0x77, 0x1a, 0x3a, 0xa8, 0x2f, 0x30, 0x3a,
  0x86, 0x61, 0x29, 0x3a, 0x6d, 0x7f, 0xea, 0x39, 0xff, 0xc7, 0x14, 0x3a,
  0x70, 0xa2, 0xd5, 0x39, 0x11, 0x00, 0x00, 0x00, 0x74, 0x66, 0x6c, 0x2e,
  0x70, 0x73, 0x65, 0x75, 0x64, 0x6f, 0x5f, 0x71, 0x63, 0x6f, 0x6e, 0x73,
  0x74, 0x00, 0x00, 0x00, 0x01, 0x00, 0x00, 0x00, 0x07, 0x00, 0x00, 0x00,
  0x4a, 0xff, 0xff, 0xff, 0x00, 0x00, 0x00, 0x01, 0x14, 0x00, 0x00, 0x00,
  0x14, 0x00, 0x00, 0x00, 0x04, 0x00, 0x00, 0x00, 0x00, 0x00, 0x00, 0x02,
  0x1c, 0x00, 0x00, 0x00, 0x8c, 0xff, 0xff, 0xff, 0x0f, 0x00, 0x00, 0x00,
  0x61, 0x72, 0x69, 0x74, 0x68, 0x2e, 0x63, 0x6f, 0x6e, 0x73, 0x74, 0x61,
  0x6e, 0x74, 0x32, 0x00, 0x00, 0x00, 0x00, 0x00, 0x82, 0xff, 0xff, 0xff,
  0x00, 0x00, 0x00, 0x01, 0x14, 0x00, 0x00, 0x00, 0x14, 0x00, 0x00, 0x00,
  0x03, 0x00, 0x00, 0x00, 0x00, 0x00, 0x00, 0x02, 0x1c, 0x00, 0x00, 0x00,
  0xc4, 0xff, 0xff, 0xff, 0x0f, 0x00, 0x00, 0x00, 0x61, 0x72, 0x69, 0x74,
  0x68, 0x2e, 0x63, 0x6f, 0x6e, 0x73, 0x74, 0x61, 0x6e, 0x74, 0x31, 0x00,
  0x01, 0x00, 0x00, 0x00, 0x03, 0x00, 0x00, 0x00, 0xbe, 0xff, 0xff, 0xff,
  0x00, 0x00, 0x00, 0x01, 0x18, 0x00, 0x00, 0x00, 0x18, 0x00, 0x00, 0x00,
  0x02, 0x00, 0x00, 0x00, 0x00, 0x00, 0x00, 0x02, 0x20, 0x00, 0x00, 0x00,
  0x04, 0x00, 0x04, 0x00, 0x04, 0x00, 0x00, 0x00, 0x0e, 0x00, 0x00, 0x00,
  0x61, 0x72, 0x69, 0x74, 0x68, 0x2e, 0x63, 0x6f, 0x6e, 0x73, 0x74, 0x61,
  0x6e, 0x74, 0x00, 0x00, 0x01, 0x00, 0x00, 0x00, 0x04, 0x00, 0x00, 0x00,
  0x00, 0x00, 0x16, 0x00, 0x1c, 0x00, 0x18, 0x00, 0x17, 0x00, 0x10, 0x00,
  0x0c, 0x00, 0x08, 0x00, 0x00, 0x00, 0x00, 0x00, 0x00, 0x00, 0x07, 0x00,
  0x16, 0x00, 0x00, 0x00, 0x00, 0x00, 0x00, 0x01, 0x20, 0x00, 0x00, 0x00,
  0x3c, 0x00, 0x00, 0x00, 0x01, 0x00, 0x00, 0x00, 0x00, 0x00, 0x00, 0x09,
  0x54, 0x00, 0x00, 0x00, 0x0c, 0x00, 0x0c, 0x00, 0x00, 0x00, 0x00, 0x00,
  0x08, 0x00, 0x04, 0x00, 0x0c, 0x00, 0x00, 0x00, 0x08, 0x00, 0x00, 0x00,
  0x10, 0x00, 0x00, 0x00, 0x01, 0x00, 0x00, 0x00, 0x94, 0xff, 0xff, 0xff,
  0xff, 0xff, 0xff, 0xff, 0x01, 0x00, 0x00, 0x00, 0xd5, 0x2a, 0xfb, 0x3e,
  0x1e, 0x00, 0x00, 0x00, 0x73, 0x65, 0x72, 0x76, 0x69, 0x6e, 0x67, 0x5f,
  0x64, 0x65, 0x66, 0x61, 0x75, 0x6c, 0x74, 0x5f, 0x6b, 0x65, 0x72, 0x61,
  0x73, 0x5f, 0x74, 0x65, 0x6e, 0x73, 0x6f, 0x72, 0x3a, 0x30, 0x00, 0x00,
  0x03, 0x00, 0x00, 0x00, 0x01, 0x00, 0x00, 0x00, 0xf4, 0x01, 0x00, 0x00,
  0x06, 0x00, 0x00, 0x00, 0x05, 0x00, 0x00, 0x00, 0x6c, 0x00, 0x00, 0x00,
  0x4c, 0x00, 0x00, 0x00, 0x2c, 0x00, 0x00, 0x00, 0x18, 0x00, 0x00, 0x00,
  0x04, 0x00, 0x00, 0x00, 0xd0, 0xff, 0xff, 0xff, 0x19, 0x00, 0x00, 0x00,
  0x02, 0x00, 0x00, 0x00, 0x00, 0x00, 0x00, 0x19, 0xe0, 0xff, 0xff, 0xff,
  0x09, 0x00, 0x00, 0x00, 0x04, 0x00, 0x00, 0x00, 0x00, 0x00, 0x00, 0x09,
  0xf0, 0xff, 0xff, 0xff, 0x28, 0x00, 0x00, 0x00, 0x02, 0x00, 0x00, 0x00,
  0x00, 0x00, 0x00, 0x28, 0x0c, 0x00, 0x10, 0x00, 0x0f, 0x00, 0x00, 0x00,
  0x08, 0x00, 0x04, 0x00, 0x0c, 0x00, 0x00, 0x00, 0x03, 0x00, 0x00, 0x00,
  0x03, 0x00, 0x00, 0x00, 0x00, 0x00, 0x00, 0x03, 0x0c, 0x00, 0x0c, 0x00,
  0x0b, 0x00, 0x00, 0x00, 0x00, 0x00, 0x04, 0x00, 0x0c, 0x00, 0x00, 0x00,
  0x16, 0x00, 0x00, 0x00, 0x00, 0x00, 0x00, 0x16
};
inline const unsigned int gesture_model_0_tflite_len = 8672;
