
inline const unsigned char gesture_model_4_tflite[] = {
  0x1c, 0x00, 0x00, 0x00, 0x54, 0x46, 0x4c, 0x33, 0x14, 0x00, 0x20, 0x00,
  0x1c, 0x00, 0x18, 0x00, 0x14, 0x00, 0x10, 0x00, 0x0c, 0x00, 0x00, 0x00,
  0x08, 0x00, 0x04, 0x00, 0x14, 0x00, 0x00, 0x00, 0x1c, 0x00, 0x00, 0x00,
  0x98, 0x00, 0x00, 0x00, 0x18, 0x01, 0x00, 0x00, 0x6c, 0x0c, 0x00, 0x00,
  0x7c, 0x0c, 0x00, 0x00, 0xa8, 0x21, 0x00, 0x00, 0x03, 0x00, 0x00, 0x00,
  0x01, 0x00, 0x00, 0x00, 0x10, 0x00, 0x00, 0x00, 0x00, 0x00, 0x0a, 0x00,
  0x10, 0x00, 0x0c, 0x00, 0x08, 0x00, 0x04, 0x00, 0x0a, 0x00, 0x00, 0x00,
  0x0c, 0x00, 0x00, 0x00, 0x1c, 0x00, 0x00, 0x00, 0x3c, 0x00, 0x00, 0x00,
  0x0f, 0x00, 0x00, 0x00, 0x73, 0x65, 0x72, 0x76, 0x69, 0x6e, 0x67, 0x5f,
  0x64, 0x65, 0x66, 0x61, 0x75, 0x6c, 0x74, 0x00, 0x01, 0x00, 0x00, 0x00,
  0x04, 0x00, 0x00, 0x00, 0x68, 0xff, 0xff, 0xff, 0x16, 0x00, 0x00, 0x00,
  0x04, 0x00, 0x00, 0x00, 0x08, 0x00, 0x00, 0x00, 0x6f, 0x75, 0x74, 0x70,
  0x75, 0x74, 0x5f, 0x30, 0x00, 0x00, 0x00, 0x00, 0x01, 0x00, 0x00, 0x00,
  0x04, 0x00, 0x00, 0x00, 0x76, 0xf3, 0xff, 0xff, 0x04, 0x00, 0x00, 0x00,
  0x0f, 0x00, 0x00, 0x00, 0x6b, 0x65, 0x72, 0x61, 0x73, 0x5f, 0x74, 0x65,
  0x6e, 0x73, 0x6f, 0x72, 0x5f, 0x35, 0x36, 0x00, 0x03, 0x00, 0x00, 0x00,
  0x5c, 0x00, 0x00, 0x00, 0x2c, 0x00, 0x00, 0x00, 0x04, 0x00, 0x00, 0x00,
  0xb8, 0xff, 0xff, 0xff, 0x1a, 0x00, 0x00, 0x00, 0x04, 0x00, 0x00, 0x00,
  0x13, 0x00, 0x00, 0x00, 0x43, 0x4f, 0x4e, 0x56, 0x45, 0x52, 0x53, 0x49,
  0x4f, 0x4e, 0x5f, 0x4d, 0x45, 0x54, 0x41, 0x44, 0x41, 0x54, 0x41, 0x00,
  0xdc, 0xff, 0xff, 0xff, 0x19, 0x00, 0x00, 0x00, 0x04, 0x00, 0x00, 0x00,
  0x13, 0x00, 0x00, 0x00, 0x6d, 0x69, 0x6e, 0x5f, 0x72, 0x75, 0x6e, 0x74,
  0x69, 0x6d, 0x65, 0x5f, 0x76, 0x65, 0x72, 0x73, 0x69, 0x6f, 0x6e, 0x00,
  0x08, 0x00, 0x0c, 0x00, 0x08, 0x00, 0x04, 0x00, 0x08, 0x00, 0x00, 0x00,
  0x18, 0x00, 0x00, 0x00, 0x04, 0x00, 0x00, 0x00, 0x13, 0x00, 0x00, 0x00,
  0x6d, 0x69, 0x6e, 0x5f, 0x72, 0x75, 0x6e, 0x74, 0x69, 0x6d, 0x65, 0x5f,
  0x76, 0x65, 0x72, 0x73, 0x69, 0x6f, 0x6e, 0x00, 0x1b, 0x00, 0x00, 0x00,
  0x50, 0x0b, 0x00, 0x00, 0x48, 0x0b, 0x00, 0x00, 0x28, 0x0b, 0x00, 0x00,
  0x0c, 0x0b, 0x00, 0x00, 0xf8, 0x0a, 0x00, 0x00, 0xcc, 0x0a, 0x00, 0x00,
  0x4c, 0x0a, 0x00, 0x00, 0xfc, 0x09, 0x00, 0x00, 0x6c, 0x09, 0x00, 0x00,
  0x3c, 0x09, 0x00, 0x00, 0x0c, 0x08, 0x00, 0x00, 0xcc, 0x07, 0x00, 0x00,
  0xfc, 0x03, 0x00, 0x00, 0xac, 0x03, 0x00, 0x00, 0xfc, 0x00, 0x00, 0x00,
  0xf4, 0x00, 0x00, 0x00, 0xec, 0x00, 0x00, 0x00, 0xe4, 0x00, 0x00, 0x00,
  0xdc, 0x00, 0x00, 0x00, 0xd4, 0x00, 0x00, 0x00, 0xcc, 0x00, 0x00, 0x00,
  0xc4, 0x00, 0x00, 0x00, 0xbc, 0x00, 0x00, 0x00, 0xb4, 0x00, 0x00, 0x00,
  0x94, 0x00, 0x00, 0x00, 0x74, 0x00, 0x00, 0x00, 0x04, 0x00, 0x00, 0x00,
  0x86, 0xf4, 0xff, 0xff, 0x04, 0x00, 0x00, 0x00, 0x60, 0x00, 0x00, 0x00,
  0x0c, 0x00, 0x00, 0x00, 0x08, 0x00, 0x0e, 0x00, 0x08, 0x00, 0x04, 0x00,
  0x08, 0x00, 0x00, 0x00, 0x10, 0x00, 0x00, 0x00, 0x28, 0x00, 0x00, 0x00,
  0x00, 0x00, 0x06, 0x00, 0x08, 0x00, 0x04, 0x00, 0x06, 0x00, 0x00, 0x00,
  0x04, 0x00, 0x00, 0x00, 0x01, 0x00, 0x00, 0x00, 0xeb, 0x03, 0x00, 0x00,
  0x0c, 0x00, 0x18, 0x00, 0x14, 0x00, 0x10, 0x00, 0x0c, 0x00, 0x04, 0x00,
  0x0c, 0x00, 0x00, 0x00, 0x90, 0x23, 0x1c, 0x91, 0xe1, 0x42, 0xe3, 0x7e,
  0x02, 0x00, 0x00, 0x00, 0x02, 0x00, 0x00, 0x00, 0x04, 0x00, 0x00, 0x00,
  0x06, 0x00, 0x00, 0x00, 0x32, 0x2e, 0x31, 0x39, 0x2e, 0x30, 0x00, 0x00,
  0xf2, 0xf4, 0xff, 0xff, 0x04, 0x00, 0x00, 0x00, 0x10, 0x00, 0x00, 0x00,
  0x00, 0x00, 0x00, 0x00, 0x00, 0x00, 0x00, 0x00, 0x00, 0x00, 0x00, 0x00,
  0x00, 0x00, 0x00, 0x00, 0x0e, 0xf5, 0xff, 0xff, 0x04, 0x00, 0x00, 0x00,
  0x10, 0x00, 0x00, 0x00, 0x31, 0x2e, 0x31, 0x34, 0x2e, 0x30, 0x00, 0x00,
  0x00, 0x00, 0x00, 0x00, 0x00, 0x00, 0x00, 0x00, 0x38, 0xe1, 0xff, 0xff,
  0x3c, 0xe1, 0xff, 0xff, 0x40, 0xe1, 0xff, 0xff, 0x44, 0xe1, 0xff, 0xff,
  0x48, 0xe1, 0xff, 0xff, 0x4c, 0xe1, 0xff, 0xff, 0x50, 0xe1, 0xff, 0xff,
  0x54, 0xe1, 0xff, 0xff, 0x58, 0xe1, 0xff, 0xff, 0x4e, 0xf5, 0xff, 0xff,
  0x04, 0x00, 0x00, 0x00, 0xa0, 0x02, 0x00, 0x00, 0x28, 0xab, 0x7f, 0xdb,
  0x0e, 0xf8, 0x0b, 0xc1, 0x58, 0xd5, 0x13, 0xff, 0xfe, 0xdc, 0x34, 0xcd,
  0x25, 0x01, 0xff, 0xc9, 0x2c, 0xf6, 0x0f, 0x08, 0x08, 0xb2, 0x14, 0xe7,
  0x1c, 0x2b, 0xf1, 0xaf, 0x1a, 0xf1, 0x3d, 0x35, 0xf3, 0xa8, 0x16, 0xe9,
  0x21, 0x38, 0xa8, 0x01, 0x41, 0xfa, 0xe2, 0xea, 0x95, 0xe3, 0x40, 0xff,
  0xf1, 0xdd, 0xbb, 0xe4, 0x09, 0xe2, 0xfd, 0xf9, 0xaa, 0x01, 0x24, 0xd1,
  0x26, 0xfa, 0xa6, 0xfe, 0xf4, 0xe7, 0x23, 0xfb, 0xc2, 0x17, 0xea, 0xb0,
  0x13, 0x02, 0xcf, 0x1b, 0xe3, 0x81, 0x1e, 0x26, 0x62, 0x8d, 0x42, 0xf6,
  0x2e, 0x7d, 0x4c, 0xb2, 0x47, 0xf6, 0x29, 0x60, 0x21, 0xd5, 0x36, 0xee,
  0x25, 0x0e, 0x07, 0xee, 0x08, 0xff, 0xe9, 0xfc, 0xe4, 0x04, 0x1c, 0xfe,
  0xea, 0xf5, 0xe5, 0x34, 0x30, 0xf2, 0xa6, 0xa9, 0x81, 0x3a, 0x14, 0xf2,
  0x92, 0x96, 0xd9, 0x04, 0xca, 0xd6, 0xc3, 0x91, 0xce, 0xe0, 0xf5, 0xf7,
  0xc5, 0xb2, 0xd4, 0xc8, 0x03, 0x0b, 0x06, 0xcb, 0xf8, 0xb9, 0x0b, 0xf9,
  0xe6, 0xff, 0x1a, 0xa9, 0x4c, 0xf3, 0xfd, 0xed, 0x33, 0x81, 0x53, 0x06,
  0xea, 0x02, 0x48, 0x81, 0x47, 0xd9, 0xc0, 0xec, 0xda, 0xe5, 0xca, 0x9e,
  0xd5, 0xff, 0xd9, 0xeb, 0xf7, 0xbd, 0xdd, 0xf8, 0xfe, 0xef, 0x02, 0xfa,
  0xd0, 0x00, 0xf3, 0x07, 0x16, 0x07, 0xec, 0xed, 0xe2, 0x17, 0x60, 0xeb,
  0xd4, 0xd6, 0xf8, 0x2c, 0x6c, 0xf6, 0xee, 0xc5, 0x13, 0x02, 0x7f, 0xb6,
  0x03, 0xf2, 0x1f, 0xe9, 0x4e, 0x0d, 0x09, 0xe5, 0x54, 0xd9, 0x51, 0x16,
  0xdf, 0xe2, 0x5a, 0xb5, 0x42, 0x03, 0xfb, 0xe6, 0x7c, 0xc2, 0x1f, 0xfd,
  0xd7, 0x0f, 0x7f, 0xbc, 0x58, 0xeb, 0xe1, 0xf8, 0x72, 0x94, 0x6f, 0x00,
  0x0f, 0x03, 0x1b, 0xc7, 0x75, 0x2f, 0x0d, 0x36, 0x40, 0x7d, 0x14, 0x3d,
  0xff, 0x3c, 0x6a, 0x4f, 0xfe, 0x10, 0xea, 0x17, 0x40, 0x03, 0x09, 0x06,
  0xba, 0x1b, 0x28, 0xf4, 0x18, 0xff, 0xc8, 0x0f, 0x20, 0xf9, 0x06, 0x19,
  0x81, 0x17, 0xe2, 0xee, 0x2e, 0x42, 0x98, 0x16, 0xd7, 0xc8, 0x29, 0x6b,
  0x8c, 0x19, 0x07, 0xf2, 0xbc, 0xa3, 0xfe, 0x1e, 0x0d, 0xf1, 0xc6, 0xcb,
  0xef, 0x11, 0xf6, 0xe6, 0xdd, 0xf1, 0xfe, 0xdc, 0xea, 0xee, 0xf5, 0xec,
  0xe2, 0xb9, 0xd7, 0xef, 0x16, 0x04, 0x0b, 0xb0, 0xc8, 0x18, 0x21, 0x27,
  0x07, 0x88, 0xc7, 0x27, 0x4b, 0x1d, 0xfe, 0x81, 0xaa, 0x69, 0x7f, 0xf5,
  0xfa, 0x97, 0xe4, 0x30, 0x40, 0xdb, 0x44, 0xc8, 0xd0, 0x3b, 0x38, 0x0b,
  0x30, 0xe0, 0xfa, 0x48, 0xfc, 0xd9, 0x3f, 0x0c, 0x08, 0x29, 0xd7, 0xfd,
  0x6c, 0x16, 0x31, 0x4b, 0x9f, 0x0c, 0x79, 0x52, 0x59, 0x3f, 0xd3, 0x67,
  0x65, 0x7e, 0xd0, 0xb7, 0x0c, 0x28, 0xc0, 0x1b, 0xe6, 0xd6, 0x17, 0x0b,
  0xdc, 0x09, 0x06, 0xcd, 0xf4, 0x15, 0xf6, 0xfd, 0x05, 0xdf, 0x16, 0x01,
  0x1e, 0xe3, 0x18, 0xf0, 0xec, 0xf0, 0x52, 0xf4, 0x11, 0xf8, 0xee, 0xce,
  0x6b, 0xe3, 0x1d, 0x21, 0x12, 0xca, 0x7f, 0xd3, 0x53, 0x7f, 0x24, 0xd7,
  0xda, 0xd6, 0x1f, 0x55, 0x2f, 0xbd, 0xec, 0xea, 0x2e, 0x23, 0x0b, 0xae,
  0xf4, 0x03, 0x06, 0x0e, 0x07, 0xf5, 0xfa, 0xfe, 0xfc, 0x0f, 0x1b, 0x15,
  0xfb, 0x16, 0xe3, 0x15, 0xfc, 0x3c, 0x0e, 0x41, 0xed, 0xf9, 0x23, 0x59,
  0xed, 0x59, 0xcf, 0xf5, 0xfc, 0xd7, 0x33, 0x7f, 0xdc, 0xfb, 0xdb, 0xd6,
  0x24, 0x59, 0xfd, 0xfb, 0x02, 0xd7, 0x0b, 0x42, 0x00, 0x0c, 0xf6, 0x01,
  0x09, 0x38, 0x1c, 0xf8, 0x08, 0x04, 0x02, 0x4b, 0x35, 0x03, 0x19, 0x0d,
  0xf4, 0x40, 0x2b, 0xe8, 0x22, 0x1d, 0xfb, 0x43, 0xa2, 0x4f, 0x1b, 0xb9,
  0x04, 0xc6, 0xbc, 0x36, 0x05, 0xde, 0xf0, 0xd0, 0xf8, 0x1c, 0x03, 0xc5,
  0x0d, 0xcb, 0x1b, 0x1b, 0x10, 0xdb, 0x10, 0xdf, 0x46, 0x04, 0x1d, 0x19,
  0x1d, 0x0e, 0x46, 0x03, 0x17, 0x17, 0x42, 0x15, 0x4d, 0xda, 0xf7, 0x33,
  0x7f, 0x30, 0xdd, 0x34, 0x22, 0x21, 0x40, 0x81, 0x02, 0x0a, 0x29, 0x19,
  0x26, 0x9a, 0x0a, 0x14, 0x23, 0x01, 0x2a, 0xac, 0x1b, 0xe9, 0x12, 0x0b,
  0xfe, 0xbe, 0x11, 0xf6, 0xf9, 0xf0, 0x0c, 0xd3, 0x21, 0xe8, 0xeb, 0xe6,
  0x02, 0xdf, 0x00, 0xb7, 0xca, 0xc4, 0xed, 0xe9, 0x0a, 0xfd, 0xd8, 0x6a,
  0xea, 0xfc, 0x03, 0x21, 0xd8, 0x39, 0x09, 0xff, 0x1b, 0xfb, 0xd9, 0x21,
  0xfe, 0x08, 0x2d, 0xed, 0xef, 0x07, 0xfb, 0x30, 0x14, 0xfe, 0x06, 0xe4,
  0xfb, 0x59, 0x17, 0xe7, 0xe5, 0xc1, 0x29, 0x7f, 0x10, 0xd7, 0xe5, 0x89,
  0x20, 0x7d, 0x05, 0xd2, 0xfc, 0xfa, 0xe8, 0x81, 0x11, 0xf7, 0xfa, 0xe1,
  0xf4, 0x87, 0x14, 0xef, 0x0c, 0xf9, 0xe4, 0x93, 0x14, 0x04, 0x2d, 0xef,
  0xf3, 0x88, 0xf3, 0x0c, 0xfb, 0x08, 0xf4, 0xd6, 0xdb, 0x06, 0xf2, 0x0f,
  0xfb, 0xcd, 0xf2, 0x1c, 0xdd, 0x0a, 0xeb, 0xe0, 0xfa, 0xf7, 0xff, 0xff,
  0x04, 0x00, 0x00, 0x00, 0x40, 0x00, 0x00, 0x00, 0xd1, 0xfe, 0xff, 0xff,
  0xb7, 0xfd, 0xff, 0xff, 0xde, 0xff, 0xff, 0xff, 0x48, 0xff, 0xff, 0xff,
  0x90, 0xfc, 0xff, 0xff, 0x54, 0xfe, 0xff, 0xff, 0xbb, 0xff, 0xff, 0xff,
  0x1b, 0xff, 0xff, 0xff, 0xd7, 0xff, 0xff, 0xff, 0xf6, 0xff, 0xff, 0xff,
  0xd9, 0xff, 0xff, 0xff, 0x22, 0x00, 0x00, 0x00, 0x25, 0x00, 0x00, 0x00,
  0x37, 0xfe, 0xff, 0xff, 0xd9, 0xfe, 0xff, 0xff, 0xfd, 0xfe, 0xff, 0xff,
  0x46, 0xf8, 0xff, 0xff, 0x04, 0x00, 0x00, 0x00, 0xc0, 0x03, 0x00, 0x00,
  0x19, 0x05, 0x26, 0xd5, 0x23, 0xeb, 0x31, 0xdc, 0xfd, 0x27, 0x16, 0xf9,
  0xc8, 0xc7, 0x0d, 0x81, 0x1c, 0x22, 0x27, 0xdb, 0x10, 0xf9, 0xf7, 0xef,
  0x1a, 0x1b, 0xe3, 0xda, 0xdd, 0xd7, 0x11, 0xa5, 0x1e, 0x07, 0x13, 0xdb,
  0x19, 0xd9, 0xbf, 0x06, 0x1c, 0x37, 0xd2, 0xe9, 0xe7, 0xea, 0x08, 0xdb,
  0x0f, 0x09, 0xfc, 0xe4, 0x2c, 0xd9, 0xd0, 0x0d, 0xfd, 0x0a, 0xb7, 0xfa,
  0xd6, 0x05, 0xe7, 0xeb, 0xf4, 0x0e, 0xbf, 0xcc, 0x15, 0xd0, 0xcc, 0x0e,
  0xf2, 0x05, 0xd6, 0x16, 0xbc, 0x2c, 0xee, 0xfd, 0xa2, 0x14, 0x8b, 0xd0,
  0xe0, 0xb4, 0xc9, 0x0b, 0xab, 0xcf, 0x18, 0x23, 0x19, 0x15, 0xca, 0x42,
  0xd8, 0xfb, 0xe7, 0xf9, 0x0e, 0xd0, 0xd7, 0x03, 0xa4, 0xe1, 0xf9, 0x19,
  0x10, 0x04, 0xc7, 0x27, 0xed, 0x13, 0x07, 0x0a, 0x19, 0xf9, 0xf4, 0xec,
  0xbd, 0x04, 0xfe, 0xfd, 0xfc, 0x0e, 0xc7, 0xf7, 0x17, 0x13, 0x22, 0x22,
  0xfb, 0x34, 0x18, 0xd8, 0x9e, 0x1a, 0x07, 0xef, 0xf1, 0x2e, 0xc3, 0xfa,
  0x39, 0x3d, 0x16, 0x53, 0x10, 0x3e, 0x43, 0xb2, 0x81, 0x19, 0xf9, 0xd0,
  0xdc, 0x0b, 0xff, 0xf2, 0x35, 0x2a, 0x56, 0x04, 0xf8, 0x53, 0x18, 0xe7,
  0xf7, 0x10, 0xa1, 0xe2, 0xbf, 0x4c, 0x01, 0x26, 0x08, 0x10, 0x47, 0xe3,
  0x00, 0x20, 0x21, 0xda, 0x13, 0x0a, 0xd1, 0xaf, 0xdf, 0x40, 0xcb, 0x1f,
  0xf0, 0x37, 0x36, 0x1b, 0xfe, 0xe4, 0x26, 0xe9, 0x25, 0xfd, 0xf1, 0xbe,
  0x0a, 0x5b, 0xb7, 0xef, 0xda, 0x11, 0x01, 0xd4, 0xe9, 0xb9, 0x1f, 0xc0,
  0x46, 0xe1, 0xff, 0xe8, 0x0d, 0x0d, 0xa8, 0xda, 0xc2, 0x15, 0x0c, 0xce,
  0xe7, 0xa6, 0x17, 0xaf, 0x27, 0xd0, 0x34, 0xf5, 0x42, 0xe2, 0x81, 0xde,
  0x55, 0x40, 0x3f, 0x4f, 0x3c, 0x56, 0xa7, 0xd4, 0x69, 0xe1, 0xe5, 0x0b,
  0x7f, 0xec, 0xdf, 0x97, 0x22, 0x3a, 0x07, 0x1b, 0x0c, 0x28, 0xc7, 0xd2,
  0x3e, 0xb1, 0xe6, 0x1a, 0x3f, 0xf3, 0x2f, 0xbd, 0x05, 0x2b, 0x0b, 0xcc,
  0x01, 0x4d, 0x0d, 0xf1, 0xe9, 0xa2, 0xf8, 0x0a, 0xfa, 0xe7, 0x29, 0xde,
  0x05, 0xf0, 0x1b, 0xbb, 0xd2, 0x1e, 0x34, 0xd7, 0x0a, 0x83, 0x18, 0x01,
  0xea, 0xce, 0xe7, 0xef, 0x00, 0xe4, 0x24, 0x9d, 0xae, 0x06, 0x52, 0xf4,
  0xfb, 0x81, 0x19, 0xd5, 0xe0, 0xbd, 0xb3, 0xda, 0xe2, 0xf8, 0xff, 0x2d,
  0xf6, 0xfa, 0xc8, 0xf0, 0x17, 0xdf, 0x38, 0x81, 0xeb, 0x2f, 0xea, 0x38,
  0x0a, 0x07, 0xde, 0x2f, 0xf6, 0x09, 0xee, 0xd6, 0x02, 0x09, 0x1d, 0xbd,
  0x01, 0x31, 0xff, 0x29, 0x26, 0x1a, 0xed, 0xfe, 0xf8, 0x14, 0xff, 0xc7,
  0xe6, 0x05, 0x38, 0xe4, 0xd4, 0x03, 0xfc, 0x0d, 0x12, 0x29, 0xed, 0x09,
  0xe6, 0x1d, 0x0d, 0xcb, 0xd9, 0xf8, 0x37, 0xe9, 0xee, 0xde, 0xeb, 0xf5,
  0x25, 0x0d, 0xf5, 0xe3, 0xdc, 0x38, 0x09, 0xda, 0x05, 0x01, 0x26, 0xfe,
  0xf1, 0xb0, 0xde, 0xa6, 0x31, 0x05, 0x0e, 0xf6, 0xe6, 0x23, 0x00, 0x07,
  0xe0, 0x01, 0x13, 0xb6, 0x81, 0x09, 0xf6, 0x0a, 0x20, 0x1b, 0x02, 0xdf,
  0x02, 0x1b, 0xda, 0x0f, 0xe2, 0x1d, 0x17, 0xa2, 0xa7, 0x0a, 0x03, 0xf2,
  0x2a, 0x07, 0xfc, 0xff, 0x04, 0xf6, 0xcf, 0x04, 0xe6, 0x0f, 0xf7, 0xb4,
  0xc2, 0x07, 0xee, 0xf1, 0x14, 0x07, 0x08, 0xf7, 0x2a, 0xf1, 0xc5, 0x12,
  0xfc, 0x14, 0xed, 0xbc, 0xf6, 0xea, 0xf8, 0xf5, 0x0f, 0x14, 0xf1, 0xdf,
  0x2e, 0xf0, 0xc0, 0xf8, 0x1e, 0x0a, 0xe6, 0xc5, 0x1e, 0xe2, 0x06, 0xed,
  0x22, 0x50, 0x3d, 0x19, 0x03, 0x14, 0xa2, 0x00, 0xea, 0x08, 0xef, 0x5b,
  0xd6, 0xb0, 0x9f, 0xdf, 0xe9, 0x26, 0x45, 0xd4, 0x26, 0x29, 0xf6, 0x19,
  0xb4, 0xd3, 0xe6, 0x60, 0xf0, 0xd2, 0xcf, 0x10, 0xd9, 0xfa, 0x14, 0xc2,
  0x01, 0x47, 0x11, 0xf0, 0xb9, 0xc3, 0xfb, 0x24, 0xf1, 0xf3, 0xe6, 0x43,
  0xde, 0xf0, 0x33, 0x81, 0x00, 0x12, 0x18, 0xf4, 0xfc, 0x8f, 0x54, 0x0f,
  0x0d, 0x00, 0x10, 0x5f, 0xc8, 0xe2, 0xfe, 0x9c, 0x9c, 0xd4, 0x1e, 0xd0,
  0x1c, 0xa2, 0x43, 0x1f, 0x27, 0x06, 0x23, 0x44, 0x5c, 0xfd, 0x13, 0xd0,
  0x3b, 0x18, 0xfe, 0x0e, 0xbc, 0x29, 0x96, 0x1e, 0x15, 0xb2, 0xee, 0x06,
  0x16, 0x07, 0x0a, 0xfc, 0x07, 0xfc, 0xfa, 0x03, 0x1b, 0x0d, 0xd5, 0xd8,
  0x04, 0xba, 0xec, 0xd7, 0x26, 0x04, 0x1b, 0xf6, 0x4e, 0xeb, 0x04, 0xf2,
  0x0c, 0x07, 0x01, 0xbe, 0x06, 0xbe, 0xe5, 0xb1, 0x0d, 0x0f, 0x08, 0xfe,
  0x4f, 0x0a, 0x13, 0xe4, 0x37, 0x01, 0x0f, 0x98, 0xe3, 0xa6, 0xe1, 0xcc,
  0x13, 0x3e, 0xe7, 0xed, 0x7f, 0x20, 0x0f, 0xe4, 0x0f, 0xf9, 0x51, 0xaa,
  0xff, 0x96, 0x34, 0x8f, 0x39, 0xd2, 0x24, 0x94, 0xf7, 0x03, 0xb0, 0x15,
  0x01, 0x0c, 0x9e, 0x02, 0x23, 0xc6, 0xe5, 0xb9, 0x11, 0xd0, 0x07, 0x81,
  0xdc, 0xfd, 0xdc, 0xfe, 0x13, 0xf4, 0xdc, 0x00, 0x2f, 0xdd, 0x02, 0xce,
  0x09, 0xe4, 0xfc, 0xa7, 0xe2, 0x1c, 0xfc, 0xea, 0x14, 0xe9, 0xe8, 0xfe,
  0x29, 0x23, 0x1a, 0xb7, 0x0d, 0xe0, 0xf6, 0xef, 0x03, 0x16, 0xf3, 0xd3,
  0xec, 0xe8, 0x1c, 0x12, 0x2f, 0x1f, 0x1b, 0xb2, 0x3c, 0xcf, 0xdb, 0x2b,
  0xfb, 0x36, 0x03, 0xc1, 0x17, 0xe3, 0xf0, 0x2e, 0x2c, 0x28, 0x5b, 0xc0,
  0xe9, 0x22, 0x20, 0x0f, 0xfa, 0x03, 0x17, 0xda, 0x0f, 0x1e, 0x13, 0x30,
  0x03, 0x9c, 0x1a, 0xa2, 0xf4, 0x16, 0x04, 0x05, 0xdf, 0x24, 0x03, 0xf5,
  0x09, 0x19, 0x0e, 0x0f, 0x02, 0xdd, 0x11, 0xc4, 0xe4, 0x09, 0x0f, 0x09,
  0xe0, 0x14, 0x0d, 0x19, 0xee, 0x08, 0xed, 0x09, 0xfc, 0xed, 0xf2, 0x0f,
  0xe4, 0x0b, 0x04, 0xfb, 0xde, 0x07, 0xe6, 0xfe, 0xeb, 0xf6, 0xf6, 0xe2,
  0x11, 0x0e, 0x04, 0x2e, 0xe2, 0xd9, 0xfc, 0xf1, 0xee, 0x02, 0xd8, 0x18,
  0xfd, 0xfc, 0x10, 0xd6, 0x09, 0x16, 0xca, 0x7f, 0x37, 0xf0, 0xdc, 0x26,
  0x1c, 0x18, 0xc7, 0xe3, 0x12, 0xb5, 0x0f, 0x2b, 0x0b, 0x23, 0xcb, 0x01,
  0x3d, 0xf9, 0x06, 0x31, 0xf5, 0x01, 0xc6, 0xb4, 0xfc, 0xb8, 0x11, 0x35,
  0x00, 0x22, 0xce, 0xe5, 0x31, 0x28, 0x06, 0x12, 0xc4, 0xf7, 0xd8, 0xa1,
  0xfd, 0xcf, 0x16, 0x05, 0xf7, 0xfe, 0xef, 0xf1, 0x1a, 0x41, 0x24, 0x10,
  0xd1, 0xc9, 0xc6, 0x92, 0x01, 0xd1, 0x12, 0xf2, 0xe7, 0x2d, 0xc3, 0xed,
  0xe6, 0x3e, 0xf3, 0x01, 0xa1, 0x81, 0xa5, 0xc7, 0xb0, 0xac, 0x0f, 0xb2,
  0x14, 0x2f, 0xdb, 0x2b, 0x12, 0x87, 0xc4, 0xc4, 0x6e, 0x81, 0xe6, 0x67,
  0x21, 0xac, 0x2b, 0x40, 0x04, 0xf6, 0x12, 0x3f, 0x3e, 0xb6, 0xdc, 0x0a,
  0x66, 0xce, 0xeb, 0x28, 0x0a, 0xb5, 0x02, 0x03, 0x22, 0xfe, 0xcd, 0x00,
  0x2b, 0xc5, 0xd5, 0xee, 0xfe, 0xd4, 0x08, 0xcb, 0xf2, 0xfe, 0x25, 0xeb,
  0x30, 0xe8, 0xf4, 0x0e, 0x49, 0xc9, 0x02, 0xb0, 0xf7, 0xec, 0xf5, 0xe9,
  0xf0, 0x35, 0x95, 0xe4, 0x11, 0xf4, 0xf5, 0x07, 0x64, 0x8f, 0xe6, 0x96,
  0xb9, 0x05, 0xcc, 0xe0, 0xac, 0x48, 0x91, 0xea, 0x43, 0xea, 0x1a, 0x12,
  0x12, 0xfc, 0xff, 0xff, 0x04, 0x00, 0x00, 0x00, 0x30, 0x00, 0x00, 0x00,
  0x6e, 0x08, 0x00, 0x00, 0xae, 0x01, 0x00, 0x00, 0xc5, 0x05, 0x00, 0x00,
  0x8c, 0x00, 0x00, 0x00, 0x26, 0x02, 0x00, 0x00, 0xce, 0x06, 0x00, 0x00,
  0xfc, 0xfb, 0xff, 0xff, 0xb3, 0x06, 0x00, 0x00, 0x90, 0x02, 0x00, 0x00,
  0xc5, 0xfe, 0xff, 0xff, 0x51, 0x03, 0x00, 0x00, 0x0c, 0x00, 0x00, 0x00,
  0x4e, 0xfc, 0xff, 0xff, 0x04, 0x00, 0x00, 0x00, 0x20, 0x01, 0x00, 0x00,
  0xea, 0xcf, 0x3a, 0x8e, 0x17, 0x04, 0x2a, 0xd2, 0xbe, 0x68, 0x0e, 0x2b,
  0x06, 0xe5, 0x0d, 0xb5, 0x0d, 0xd3, 0xc0, 0x81, 0xd8, 0x28, 0xf6, 0x15,
  0x58, 0xdb, 0xbd, 0x28, 0xf5, 0x29, 0x3b, 0xbe, 0xfe, 0x32, 0x1c, 0x1d,
  0x32, 0x3c, 0x3c, 0x90, 0x1d, 0xbc, 0x27, 0xe4, 0x00, 0x7f, 0xb8, 0xd7,
  0x4d, 0xf7, 0x12, 0xd1, 0x02, 0xb5, 0xc0, 0xd0, 0x34, 0x5d, 0xbc, 0xcc,
  0x2c, 0xcb, 0x3c, 0x21, 0x3c, 0xba, 0xd8, 0xb8, 0xd3, 0xff, 0xc9, 0xa8,
  0xcb, 0x2d, 0x12, 0x1a, 0x5d, 0x0b, 0xa9, 0xd0, 0x03, 0x0a, 0xf4, 0x0f,
  0xf0, 0x03, 0xed, 0x11, 0xf0, 0xdf, 0x0c, 0xff, 0x06, 0x19, 0x07, 0xe2,
  0x1a, 0x19, 0xe1, 0xf7, 0x81, 0x23, 0x0c, 0xec, 0x00, 0x0c, 0x3c, 0xee,
  0xf1, 0xf2, 0x7f, 0xd8, 0xe5, 0xfd, 0xc2, 0xf9, 0xd1, 0x29, 0x25, 0x2e,
  0xef, 0x05, 0x2e, 0xec, 0xe5, 0xf7, 0xef, 0x0c, 0x0c, 0x1f, 0xbb, 0x19,
  0x3d, 0xde, 0xe0, 0xfa, 0xfa, 0xf5, 0x42, 0x22, 0x33, 0x25, 0xae, 0x0a,
  0x33, 0x83, 0xce, 0xf8, 0xa8, 0x27, 0x4b, 0x0d, 0xd5, 0x0c, 0xd4, 0x18,
  0xd5, 0xc0, 0x3b, 0xf1, 0xf2, 0x26, 0x27, 0xb9, 0xa3, 0x37, 0x1a, 0x38,
  0xc4, 0xa9, 0x62, 0xd1, 0x25, 0x18, 0x09, 0xce, 0xbc, 0x7f, 0x2b, 0xea,
  0xbc, 0xfc, 0xd2, 0x57, 0xeb, 0x7d, 0xec, 0x9b, 0x30, 0x1b, 0x37, 0xc2,
  0xdc, 0xf7, 0x06, 0x26, 0xec, 0x3e, 0xdb, 0xb8, 0xe9, 0x7f, 0x0e, 0x07,
  0xfa, 0xdf, 0x35, 0x0b, 0xf0, 0xfb, 0x17, 0xf3, 0x93, 0x74, 0x4d, 0x03,
  0xd7, 0x0b, 0x1c, 0x7f, 0x54, 0x01, 0xae, 0x41, 0x1a, 0x21, 0x0e, 0x44,
  0x5f, 0x13, 0xe1, 0x2f, 0x01, 0xc9, 0x3c, 0xe9, 0xe1, 0x27, 0x0f, 0xe7,
  0x20, 0xec, 0xf3, 0xd2, 0xdc, 0xb9, 0x59, 0x92, 0x82, 0xcb, 0x2a, 0x1c,
  0x7f, 0x0f, 0x0a, 0xf5, 0xd1, 0x0e, 0xeb, 0xe7, 0x38, 0x3d, 0xfe, 0xf8,
  0xd7, 0x11, 0xe6, 0x14, 0x14, 0x00, 0x2e, 0xbf, 0x21, 0x1b, 0x0b, 0xee,
  0xbd, 0xff, 0x0f, 0x2f, 0x31, 0x2e, 0x18, 0xc0, 0xce, 0xbb, 0x03, 0xca,
  0x7a, 0xfd, 0xff, 0xff, 0x04, 0x00, 0x00, 0x00, 0x20, 0x00, 0x00, 0x00,
  0xf7, 0x03, 0x00, 0x00, 0x1d, 0xfe, 0xff, 0xff, 0xf6, 0x01, 0x00, 0x00,
  0x65, 0xfd, 0xff, 0xff, 0x34, 0x03, 0x00, 0x00, 0x1f, 0x02, 0x00, 0x00,
  0x80, 0xfe, 0xff, 0xff, 0x5a, 0x00, 0x00, 0x00, 0xa6, 0xfd, 0xff, 0xff,
  0x04, 0x00, 0x00, 0x00, 0x80, 0x00, 0x00, 0x00, 0x65, 0x81, 0x66, 0xd9,
  0x1e, 0xe6, 0x17, 0xbd, 0x1a, 0x81, 0x50, 0xe0, 0x36, 0x5c, 0x24, 0xb9,
  0x22, 0x4f, 0x01, 0x89, 0xa8, 0xe2, 0xee, 0x7f, 0x17, 0x81, 0x4e, 0xda,
  0x17, 0x6d, 0x31, 0xc6, 0x6e, 0x4f, 0xc5, 0xe6, 0x08, 0x81, 0x2a, 0xd6,
  0xbd, 0xf7, 0xac, 0x38, 0x7f, 0x31, 0xa3, 0x15, 0xde, 0x2c, 0x51, 0x2e,
  0x81, 0xe0, 0x2e, 0xeb, 0x5b, 0xff, 0xf7, 0x18, 0x43, 0x9a, 0x29, 0x81,
  0x0b, 0xfb, 0x24, 0xc9, 0x82, 0x0a, 0xe4, 0x7f, 0x01, 0xf5, 0x98, 0xb7,
  0x33, 0x56, 0xb1, 0x7f, 0xf1, 0x76, 0x16, 0x35, 0xb2, 0xcd, 0x5e, 0x81,
  0xde, 0x39, 0x81, 0x0c, 0x41, 0x15, 0xb1, 0x45, 0x81, 0x0a, 0xf7, 0x3b,
  0xc2, 0x46, 0xd5, 0x59, 0xdc, 0x26, 0x4e, 0x30, 0x81, 0xdf, 0x29, 0xf4,
  0x7f, 0x14, 0xd3, 0xae, 0x08, 0xc3, 0x19, 0x01, 0x53, 0x71, 0x81, 0x8a,
  0xd2, 0xbf, 0xf2, 0x6c, 0x32, 0xfe, 0xff, 0xff, 0x04, 0x00, 0x00, 0x00,
  0x40, 0x00, 0x00, 0x00, 0x91, 0xff, 0xff, 0xff, 0x8c, 0xfc, 0xff, 0xff,
  0x11, 0x00, 0x00, 0x00, 0x57, 0xfd, 0xff, 0xff, 0x5e, 0x07, 0x00, 0x00,
  0x60, 0xfe, 0xff, 0xff, 0xdb, 0x0b, 0x00, 0x00, 0x1e, 0x05, 0x00, 0x00,
  0xa8, 0x00, 0x00, 0x00, 0x0f, 0xff, 0xff, 0xff, 0x64, 0x08, 0x00, 0x00,
  0xec, 0x04, 0x00, 0x00, 0xd3, 0x07, 0x00, 0x00, 0x6e, 0x0b, 0x00, 0x00,
  0x1b, 0x00, 0x00, 0x00, 0xe2, 0xfe, 0xff, 0xff, 0x7e, 0xfe, 0xff, 0xff,
  0x04, 0x00, 0x00, 0x00, 0x70, 0x00, 0x00, 0x00, 0x10, 0x07, 0x0f, 0x10,
  0x81, 0xcd, 0x12, 0x9c, 0x1d, 0x00, 0xc9, 0xbd, 0x0d, 0x12, 0xa2, 0xab,
  0x9d, 0x81, 0x2d, 0xb2, 0x0f, 0xa5, 0x15, 0x99, 0x2d, 0x13, 0xeb, 0x0b,
  0x0b, 0x14, 0x1d, 0x34, 0xd5, 0x17, 0xb6, 0x1a, 0x86, 0x19, 0xb5, 0xa2,
  0xcb, 0x18, 0x81, 0x15, 0x15, 0xc3, 0x8c, 0xd8, 0x81, 0xa7, 0x13, 0x90,
  0x17, 0x13, 0x91, 0x0b, 0xa4, 0x15, 0x07, 0x18, 0x9d, 0x90, 0x1d, 0x26,
  0x14, 0x06, 0xe0, 0x09, 0x0b, 0x97, 0x08, 0x11, 0xe5, 0x8a, 0x18, 0x81,
  0xa9, 0x06, 0x0c, 0xca, 0x1f, 0x0f, 0xb1, 0x0f, 0x08, 0x0b, 0x85, 0x19,
  0xb9, 0x07, 0x81, 0x04, 0xa5, 0x86, 0x16, 0xc0, 0x9a, 0x81, 0xc2, 0x83,
  0x04, 0x0a, 0x21, 0x0d, 0xcc, 0x9f, 0x36, 0x09, 0x0f, 0x1f, 0xa9, 0xb7,
  0xfa, 0xfe, 0xff, 0xff, 0x04, 0x00, 0x00, 0x00, 0x1c, 0x00, 0x00, 0x00,
  0xed, 0x01, 0x00, 0x00, 0x80, 0xf9, 0xff, 0xff, 0x53, 0xff, 0xff, 0xff,
  0xb0, 0xf6, 0xff, 0xff, 0xa8, 0x01, 0x00, 0x00, 0x3a, 0x05, 0x00, 0x00,
  0xfc, 0x04, 0x00, 0x00, 0x22, 0xff, 0xff, 0xff, 0x04, 0x00, 0x00, 0x00,
  0x04, 0x00, 0x00, 0x00, 0x01, 0x00, 0x00, 0x00, 0x32, 0xff, 0xff, 0xff,
  0x04, 0x00, 0x00, 0x00, 0x0c, 0x00, 0x00, 0x00, 0x01, 0x00, 0x00, 0x00,
  0x7d, 0x00, 0x00, 0x00, 0x08, 0x00, 0x00, 0x00, 0x4a, 0xff, 0xff, 0xff,
  0x04, 0x00, 0x00, 0x00, 0x10, 0x00, 0x00, 0x00, 0x01, 0x00, 0x00, 0x00,
  0x01, 0x00, 0x00, 0x00, 0xf4, 0x01, 0x00, 0x00, 0x06, 0x00, 0x00, 0x00,
  0x74, 0xeb, 0xff, 0xff, 0x78, 0xeb, 0xff, 0xff, 0x0f, 0x00, 0x00, 0x00,
  0x4d, 0x4c, 0x49, 0x52, 0x20, 0x43, 0x6f, 0x6e, 0x76, 0x65, 0x72, 0x74,
  0x65, 0x64, 0x2e, 0x00, 0x01, 0x00, 0x00, 0x00, 0x14, 0x00, 0x00, 0x00,
  0x00, 0x00, 0x0e, 0x00, 0x18, 0x00, 0x14, 0x00, 0x10, 0x00, 0x0c, 0x00,
  0x08, 0x00, 0x04, 0x00, 0x0e, 0x00, 0x00, 0x00, 0x14, 0x00, 0x00, 0x00,
  0x1c, 0x00, 0x00, 0x00, 0x44, 0x02, 0x00, 0x00, 0x48, 0x02, 0x00, 0x00,
  0x4c, 0x02, 0x00, 0x00, 0x04, 0x00, 0x00, 0x00, 0x6d, 0x61, 0x69, 0x6e,
  0x00, 0x00, 0x00, 0x00, 0x09, 0x00, 0x00, 0x00, 0x08, 0x02, 0x00, 0x00,
  0xac, 0x01, 0x00, 0x00, 0x58, 0x01, 0x00, 0x00, 0x14, 0x01, 0x00, 0x00,
  0xf0, 0x00, 0x00, 0x00, 0xbc, 0x00, 0x00, 0x00, 0x78, 0x00, 0x00, 0x00,
  0x40, 0x00, 0x00, 0x00, 0x04, 0x00, 0x00, 0x00, 0x82, 0xfe, 0xff, 0xff,
  0x1c, 0x00, 0x00, 0x00, 0x00, 0x00, 0x00, 0x09, 0x1c, 0x00, 0x00, 0x00,
  0x20, 0x00, 0x00, 0x00, 0x04, 0x00, 0x00, 0x00, 0x00, 0x00, 0x06, 0x00,
  0x08, 0x00, 0x04, 0x00, 0x06, 0x00, 0x00, 0x00, 0x00, 0x00, 0x80, 0x3f,
  0x01, 0x00, 0x00, 0x00, 0x16, 0x00, 0x00, 0x00, 0x01, 0x00, 0x00, 0x00,
  0x15, 0x00, 0x00, 0x00, 0xba, 0xfe, 0xff, 0xff, 0x14, 0x00, 0x00, 0x00,
  0x00, 0x00, 0x00, 0x08, 0x10, 0x00, 0x00, 0x00, 0x14, 0x00, 0x00, 0x00,
  0x03, 0x00, 0x00, 0x00, 0x44, 0xec, 0xff, 0xff, 0x01, 0x00, 0x00, 0x00,
  0x15, 0x00, 0x00, 0x00, 0x03, 0x00, 0x00, 0x00, 0x14, 0x00, 0x00, 0x00,
  0x05, 0x00, 0x00, 0x00, 0x04, 0x00, 0x00, 0x00, 0xee, 0xfe, 0xff, 0xff,
  0x1c, 0x00, 0x00, 0x00, 0x00, 0x00, 0x00, 0x08, 0x1c, 0x00, 0x00, 0x00,
  0x20, 0x00, 0x00, 0x00, 0x03, 0x00, 0x00, 0x00, 0x00, 0x00, 0x06, 0x00,
  0x08, 0x00, 0x07, 0x00, 0x06, 0x00, 0x00, 0x00, 0x00, 0x00, 0x00, 0x01,
  0x01, 0x00, 0x00, 0x00, 0x14, 0x00, 0x00, 0x00, 0x03, 0x00, 0x00, 0x00,
  0x13, 0x00, 0x00, 0x00, 0x07, 0x00, 0x00, 0x00, 0x06, 0x00, 0x00, 0x00,
  0x2e, 0xff, 0xff, 0xff, 0x14, 0x00, 0x00, 0x00, 0x00, 0x00, 0x00, 0x1b,
  0x10, 0x00, 0x00, 0x00, 0x14, 0x00, 0x00, 0x00, 0x02, 0x00, 0x00, 0x00,
  0xb8, 0xec, 0xff, 0xff, 0x01, 0x00, 0x00, 0x00, 0x13, 0x00, 0x00, 0x00,
  0x02, 0x00, 0x00, 0x00, 0x12, 0x00, 0x00, 0x00, 0x03, 0x00, 0x00, 0x00,
  0x02, 0xff, 0xff, 0xff, 0x08, 0x00, 0x00, 0x00, 0x0c, 0x00, 0x00, 0x00,
  0x01, 0x00, 0x00, 0x00, 0x12, 0x00, 0x00, 0x00, 0x02, 0x00, 0x00, 0x00,
  0x11, 0x00, 0x00, 0x00, 0x02, 0x00, 0x00, 0x00, 0x7e, 0xff, 0xff, 0xff,
  0x14, 0x00, 0x00, 0x00, 0x00, 0x00, 0x00, 0x01, 0x1c, 0x00, 0x00, 0x00,
  0x20, 0x00, 0x00, 0x00, 0x01, 0x00, 0x00, 0x00, 0x70, 0xff, 0xff, 0xff,
  0x00, 0x00, 0x00, 0x01, 0x01, 0x00, 0x00, 0x00, 0x01, 0x00, 0x00, 0x00,
  0x01, 0x00, 0x00, 0x00, 0x11, 0x00, 0x00, 0x00, 0x03, 0x00, 0x00, 0x00,
  0x10, 0x00, 0x00, 0x00, 0x09, 0x00, 0x00, 0x00, 0x08, 0x00, 0x00, 0x00,
  0xbe, 0xff, 0xff, 0xff, 0x14, 0x00, 0x00, 0x00, 0x00, 0x00, 0x00, 0x01,
  0x1c, 0x00, 0x00, 0x00, 0x20, 0x00, 0x00, 0x00, 0x01, 0x00, 0x00, 0x00,
  0xb0, 0xff, 0xff, 0xff, 0x00, 0x00, 0x00, 0x01, 0x01, 0x00, 0x00, 0x00,
  0x02, 0x00, 0x00, 0x00, 0x01, 0x00, 0x00, 0x00, 0x10, 0x00, 0x00, 0x00,
  0x03, 0x00, 0x00, 0x00, 0x0f, 0x00, 0x00, 0x00, 0x0b, 0x00, 0x00, 0x00,
  0x0a, 0x00, 0x00, 0x00, 0x00, 0x00, 0x0e, 0x00, 0x18, 0x00, 0x14, 0x00,
  0x10, 0x00, 0x0c, 0x00, 0x0b, 0x00, 0x04, 0x00, 0x0e, 0x00, 0x00, 0x00,
  0x20, 0x00, 0x00, 0x00, 0x00, 0x00, 0x00, 0x01, 0x28, 0x00, 0x00, 0x00,
  0x2c, 0x00, 0x00, 0x00, 0x01, 0x00, 0x00, 0x00, 0x0c, 0x00, 0x10, 0x00,
  0x00, 0x00, 0x0c, 0x00, 0x08, 0x00, 0x07, 0x00, 0x0c, 0x00, 0x00, 0x00,
  0x00, 0x00, 0x00, 0x01, 0x01, 0x00, 0x00, 0x00, 0x02, 0x00, 0x00, 0x00,
  0x01, 0x00, 0x00, 0x00, 0x0f, 0x00, 0x00, 0x00, 0x03, 0x00, 0x00, 0x00,
  0x0e, 0x00, 0x00, 0x00, 0x0d, 0x00, 0x00, 0x00, 0x0c, 0x00, 0x00, 0x00,
  0x00, 0x00, 0x0a, 0x00, 0x0c, 0x00, 0x00, 0x00, 0x08, 0x00, 0x04, 0x00,
  0x0a, 0x00, 0x00, 0x00, 0x08, 0x00, 0x00, 0x00, 0x0c, 0x00, 0x00, 0x00,
  0x01, 0x00, 0x00, 0x00, 0x0e, 0x00, 0x00, 0x00, 0x02, 0x00, 0x00, 0x00,
  0x00, 0x00, 0x00, 0x00, 0x01, 0x00, 0x00, 0x00, 0x01, 0x00, 0x00, 0x00,
  0x16, 0x00, 0x00, 0x00, 0x01, 0x00, 0x00, 0x00, 0x00, 0x00, 0x00, 0x00,
  0x17, 0x00, 0x00, 0x00, 0x30, 0x12, 0x00, 0x00, 0xd4, 0x11, 0x00, 0x00,
  0x94, 0x11, 0x00, 0x00, 0x58, 0x11, 0x00, 0x00, 0xac, 0x10, 0x00, 0x00,
  0x00, 0x10, 0x00, 0x00, 0xec, 0x0e, 0x00, 0x00, 0xd0, 0x0d, 0x00, 0x00,
  0x1c, 0x0d, 0x00, 0x00, 0x58, 0x0c, 0x00, 0x00, 0x74, 0x0b, 0x00, 0x00,
  0x80, 0x0a, 0x00, 0x00, 0x6c, 0x09, 0x00, 0x00, 0x48, 0x08, 0x00, 0x00,
  0xbc, 0x07, 0x00, 0x00, 0x50, 0x06, 0x00, 0x00, 0xe4, 0x04, 0x00, 0x00,
  0x78, 0x03, 0x00, 0x00, 0x3c, 0x02, 0x00, 0x00, 0xb8, 0x01, 0x00, 0x00,
  0x04, 0x01, 0x00, 0x00, 0x70, 0x00, 0x00, 0x00, 0x04, 0x00, 0x00, 0x00,
  0x42, 0xee, 0xff, 0xff, 0x00, 0x00, 0x00, 0x01, 0x14, 0x00, 0x00, 0x00,
  0x30, 0x00, 0x00, 0x00, 0x17, 0x00, 0x00, 0x00, 0x00, 0x00, 0x00, 0x09,
  0x44, 0x00, 0x00, 0x00, 0x2c, 0xee, 0xff, 0xff, 0x08, 0x00, 0x00, 0x00,
  0x10, 0x00, 0x00, 0x00, 0x01, 0x00, 0x00, 0x00, 0x80, 0xff, 0xff, 0xff,
  0xff, 0xff, 0xff, 0xff, 0x01, 0x00, 0x00, 0x00, 0x00, 0x00, 0x80, 0x3b,
  0x1b, 0x00, 0x00, 0x00, 0x53, 0x74, 0x61, 0x74, 0x65, 0x66, 0x75, 0x6c,
  0x50, 0x61, 0x72, 0x74, 0x69, 0x74, 0x69, 0x6f, 0x6e, 0x65, 0x64, 0x43,
  0x61, 0x6c, 0x6c, 0x5f, 0x31, 0x3a, 0x30, 0x00, 0x02, 0x00, 0x00, 0x00,
  0x01, 0x00, 0x00, 0x00, 0x07, 0x00, 0x00, 0x00, 0xaa, 0xee, 0xff, 0xff,
  0x00, 0x00, 0x00, 0x01, 0x14, 0x00, 0x00, 0x00, 0x30, 0x00, 0x00, 0x00,
  0x16, 0x00, 0x00, 0x00, 0x00, 0x00, 0x00, 0x09, 0x6c, 0x00, 0x00, 0x00,
  0x94, 0xee, 0xff, 0xff, 0x08, 0x00, 0x00, 0x00, 0x10, 0x00, 0x00, 0x00,
  0x01, 0x00, 0x00, 0x00, 0x3f, 0x00, 0x00, 0x00, 0x00, 0x00, 0x00, 0x00,
  0x01, 0x00, 0x00, 0x00, 0x0f, 0x4d, 0xb5, 0x3e, 0x40, 0x00, 0x00, 0x00,
  0x73, 0x65, 0x71, 0x75, 0x65, 0x6e, 0x74, 0x69, 0x61, 0x6c, 0x5f, 0x34,
  0x5f, 0x31, 0x2f, 0x64, 0x65, 0x6e, 0x73, 0x65, 0x5f, 0x39, 0x5f, 0x31,
  0x2f, 0x4d, 0x61, 0x74, 0x4d, 0x75, 0x6c, 0x3b, 0x73, 0x65, 0x71, 0x75,
  0x65, 0x6e, 0x74, 0x69, 0x61, 0x6c, 0x5f, 0x34, 0x5f, 0x31, 0x2f, 0x64,
  0x65, 0x6e, 0x73, 0x65, 0x5f, 0x39, 0x5f, 0x31, 0x2f, 0x42, 0x69, 0x61,
  0x73, 0x41, 0x64, 0x64, 0x00, 0x00, 0x00, 0x00, 0x02, 0x00, 0x00, 0x00,
  0x01, 0x00, 0x00, 0x00, 0x07, 0x00, 0x00, 0x00, 0x3a, 0xef, 0xff, 0xff,
  0x00, 0x00, 0x00, 0x01, 0x14, 0x00, 0x00, 0x00, 0x34, 0x00, 0x00, 0x00,
  0x15, 0x00, 0x00, 0x00, 0x00, 0x00, 0x00, 0x09, 0x8c, 0x00, 0x00, 0x00,
  0x24, 0xef, 0xff, 0xff, 0x08, 0x00, 0x00, 0x00, 0x14, 0x00, 0x00, 0x00,
  0x01, 0x00, 0x00, 0x00, 0x80, 0xff, 0xff, 0xff, 0xff, 0xff, 0xff, 0xff,
  0x00, 0x00, 0x00, 0x00, 0x01, 0x00, 0x00, 0x00, 0x14, 0x44, 0x30, 0x3c,
  0x5e, 0x00, 0x00, 0x00, 0x73, 0x65, 0x71, 0x75, 0x65, 0x6e, 0x74, 0x69,
  0x61, 0x6c, 0x5f, 0x34, 0x5f, 0x31, 0x2f, 0x64, 0x65, 0x6e, 0x73, 0x65,
  0x5f, 0x38, 0x5f, 0x31, 0x2f, 0x4d, 0x61, 0x74, 0x4d, 0x75, 0x6c, 0x3b,
  0x73, 0x65, 0x71, 0x75, 0x65, 0x6e, 0x74, 0x69, 0x61, 0x6c, 0x5f, 0x34,
  0x5f, 0x31, 0x2f, 0x64, 0x65, 0x6e, 0x73, 0x65, 0x5f, 0x38, 0x5f, 0x31,
  0x2f, 0x52, 0x65, 0x6c, 0x75, 0x3b, 0x73, 0x65, 0x71, 0x75, 0x65, 0x6e,
  0x74, 0x69, 0x61, 0x6c, 0x5f, 0x34, 0x5f, 0x31, 0x2f, 0x64, 0x65, 0x6e,
  0x73, 0x65, 0x5f, 0x38, 0x5f, 0x31, 0x2f, 0x42, 0x69, 0x61, 0x73, 0x41,
  0x64, 0x64, 0x00, 0x00, 0x02, 0x00, 0x00, 0x00, 0x01, 0x00, 0x00, 0x00,
  0x10, 0x00, 0x00, 0x00, 0xea, 0xef, 0xff, 0xff, 0x00, 0x00, 0x00, 0x01,
  0x14, 0x00, 0x00, 0x00, 0x30, 0x00, 0x00, 0x00, 0x14, 0x00, 0x00, 0x00,
  0x00, 0x00, 0x00, 0x09, 0x5c, 0x00, 0x00, 0x00, 0xd4, 0xef, 0xff, 0xff,
  0x08, 0x00, 0x00, 0x00, 0x10, 0x00, 0x00, 0x00, 0x01, 0x00, 0x00, 0x00,
  0x80, 0xff, 0xff, 0xff, 0xff, 0xff, 0xff, 0xff, 0x01, 0x00, 0x00, 0x00,
  0x7a, 0xcb, 0x89, 0x3c, 0x30, 0x00, 0x00, 0x00, 0x73, 0x65, 0x71, 0x75,
  0x65, 0x6e, 0x74, 0x69, 0x61, 0x6c, 0x5f, 0x34, 0x5f, 0x31, 0x2f, 0x67,
  0x6c, 0x6f, 0x62, 0x61, 0x6c, 0x5f, 0x61, 0x76, 0x65, 0x72, 0x61, 0x67,
  0x65, 0x5f, 0x70, 0x6f, 0x6f, 0x6c, 0x69, 0x6e, 0x67, 0x31, 0x64, 0x5f,
  0x34, 0x5f, 0x31, 0x2f, 0x4d, 0x65, 0x61, 0x6e, 0x00, 0x00, 0x00, 0x00,
  0x02, 0x00, 0x00, 0x00, 0x01, 0x00, 0x00, 0x00, 0x08, 0x00, 0x00, 0x00,
  0x6a, 0xf0, 0xff, 0xff, 0x00, 0x00, 0x00, 0x01, 0x14, 0x00, 0x00, 0x00,
  0x30, 0x00, 0x00, 0x00, 0x13, 0x00, 0x00, 0x00, 0x00, 0x00, 0x00, 0x09,
  0x10, 0x01, 0x00, 0x00, 0x54, 0xf0, 0xff, 0xff, 0x08, 0x00, 0x00, 0x00,
  0x10, 0x00, 0x00, 0x00, 0x01, 0x00, 0x00, 0x00, 0x80, 0xff, 0xff, 0xff,
  0xff, 0xff, 0xff, 0xff, 0x01, 0x00, 0x00, 0x00, 0x15, 0x21, 0x78, 0x3e,
  0xe6, 0x00, 0x00, 0x00, 0x73, 0x65, 0x71, 0x75, 0x65, 0x6e, 0x74, 0x69,
  0x61, 0x6c, 0x5f, 0x34, 0x5f, 0x31, 0x2f, 0x61, 0x63, 0x74, 0x69, 0x76,
  0x61, 0x74, 0x69, 0x6f, 0x6e, 0x5f, 0x31, 0x34, 0x5f, 0x31, 0x2f, 0x52,
  0x65, 0x6c, 0x75, 0x3b, 0x73, 0x65, 0x71, 0x75, 0x65, 0x6e, 0x74, 0x69,
  0x61, 0x6c, 0x5f, 0x34, 0x5f, 0x31, 0x2f, 0x62, 0x61, 0x74, 0x63, 0x68,
  0x5f, 0x6e, 0x6f, 0x72, 0x6d, 0x61, 0x6c, 0x69, 0x7a, 0x61, 0x74, 0x69,
  0x6f, 0x6e, 0x5f, 0x31, 0x34, 0x5f, 0x31, 0x2f, 0x62, 0x61, 0x74, 0x63,
  0x68, 0x6e, 0x6f, 0x72, 0x6d, 0x2f, 0x61, 0x64, 0x64, 0x5f, 0x31, 0x3b,
  0x73, 0x65, 0x71, 0x75, 0x65, 0x6e, 0x74, 0x69, 0x61, 0x6c, 0x5f, 0x34,
  0x5f, 0x31, 0x2f, 0x63, 0x6f, 0x6e, 0x76, 0x31, 0x64, 0x5f, 0x31, 0x34,
  0x5f, 0x31, 0x2f, 0x63, 0x6f, 0x6e, 0x76, 0x6f, 0x6c, 0x75, 0x74, 0x69,
  0x6f, 0x6e, 0x2f, 0x53, 0x71, 0x75, 0x65, 0x65, 0x7a, 0x65, 0x3b, 0x73,
  0x65, 0x71, 0x75, 0x65, 0x6e, 0x74, 0x69, 0x61, 0x6c, 0x5f, 0x34, 0x5f,
  0x31, 0x2f, 0x62, 0x61, 0x74, 0x63, 0x68, 0x5f, 0x6e, 0x6f, 0x72, 0x6d,
  0x61, 0x6c, 0x69, 0x7a, 0x61, 0x74, 0x69, 0x6f, 0x6e, 0x5f, 0x31, 0x34,
  0x5f, 0x31, 0x2f, 0x62, 0x61, 0x74, 0x63, 0x68, 0x6e, 0x6f, 0x72, 0x6d,
  0x2f, 0x6d, 0x75, 0x6c, 0x5f, 0x31, 0x3b, 0x73, 0x65, 0x71, 0x75, 0x65,
  0x6e, 0x74, 0x69, 0x61, 0x6c, 0x5f, 0x34, 0x5f, 0x31, 0x2f, 0x63, 0x6f,
  0x6e, 0x76, 0x31, 0x64, 0x5f, 0x31, 0x34, 0x5f, 0x31, 0x2f, 0x42, 0x69,
  0x61, 0x73, 0x41, 0x64, 0x64, 0x3b, 0x00, 0x00, 0x03, 0x00, 0x00, 0x00,
  0x01, 0x00, 0x00, 0x00, 0x7d, 0x00, 0x00, 0x00, 0x08, 0x00, 0x00, 0x00,
  0xa2, 0xf1, 0xff, 0xff, 0x00, 0x00, 0x00, 0x01, 0x14, 0x00, 0x00, 0x00,
  0x34, 0x00, 0x00, 0x00, 0x12, 0x00, 0x00, 0x00, 0x00, 0x00, 0x00, 0x09,
  0x3c, 0x01, 0x00, 0x00, 0x8c, 0xf1, 0xff, 0xff, 0x08, 0x00, 0x00, 0x00,
  0x14, 0x00, 0x00, 0x00, 0x01, 0x00, 0x00, 0x00, 0x80, 0xff, 0xff, 0xff,
  0xff, 0xff, 0xff, 0xff, 0x00, 0x00, 0x00, 0x00, 0x01, 0x00, 0x00, 0x00,
  0x15, 0x21, 0x78, 0x3e, 0x0d, 0x01, 0x00, 0x00, 0x73, 0x65, 0x71, 0x75,
  0x65, 0x6e, 0x74, 0x69, 0x61, 0x6c, 0x5f, 0x34, 0x5f, 0x31, 0x2f, 0x61,
  0x63, 0x74, 0x69, 0x76, 0x61, 0x74, 0x69, 0x6f, 0x6e, 0x5f, 0x31, 0x34,
  0x5f, 0x31, 0x2f, 0x52, 0x65, 0x6c, 0x75, 0x3b, 0x73, 0x65, 0x71, 0x75,
  0x65, 0x6e, 0x74, 0x69, 0x61, 0x6c, 0x5f, 0x34, 0x5f, 0x31, 0x2f, 0x62,
  0x61, 0x74, 0x63, 0x68, 0x5f, 0x6e, 0x6f, 0x72, 0x6d, 0x61, 0x6c, 0x69,
  0x7a, 0x61, 0x74, 0x69, 0x6f, 0x6e, 0x5f, 0x31, 0x34, 0x5f, 0x31, 0x2f,
  0x62, 0x61, 0x74, 0x63, 0x68, 0x6e, 0x6f, 0x72, 0x6d, 0x2f, 0x61, 0x64,
  0x64, 0x5f, 0x31, 0x3b, 0x73, 0x65, 0x71, 0x75, 0x65, 0x6e, 0x74, 0x69,
  0x61, 0x6c, 0x5f, 0x34, 0x5f, 0x31, 0x2f, 0x63, 0x6f, 0x6e, 0x76, 0x31,
  0x64, 0x5f, 0x31, 0x34, 0x5f, 0x31, 0x2f, 0x63, 0x6f, 0x6e, 0x76, 0x6f,
  0x6c, 0x75, 0x74, 0x69, 0x6f, 0x6e, 0x2f, 0x53, 0x71, 0x75, 0x65, 0x65,
  0x7a, 0x65, 0x3b, 0x73, 0x65, 0x71, 0x75, 0x65, 0x6e, 0x74, 0x69, 0x61,
  0x6c, 0x5f, 0x34, 0x5f, 0x31, 0x2f, 0x62, 0x61, 0x74, 0x63, 0x68, 0x5f,
  0x6e, 0x6f, 0x72, 0x6d, 0x61, 0x6c, 0x69, 0x7a, 0x61, 0x74, 0x69, 0x6f,
  0x6e, 0x5f, 0x31, 0x34, 0x5f, 0x31, 0x2f, 0x62, 0x61, 0x74, 0x63, 0x68,
  0x6e, 0x6f, 0x72, 0x6d, 0x2f, 0x6d, 0x75, 0x6c, 0x5f, 0x31, 0x3b, 0x73,
  0x65, 0x71, 0x75, 0x65, 0x6e, 0x74, 0x69, 0x61, 0x6c, 0x5f, 0x34, 0x5f,
  0x31, 0x2f, 0x63, 0x6f, 0x6e, 0x76, 0x31, 0x64, 0x5f, 0x31, 0x34, 0x5f,
  0x31, 0x2f, 0x42, 0x69, 0x61, 0x73, 0x41, 0x64, 0x64, 0x3b, 0x3b, 0x73,
  0x65, 0x71, 0x75, 0x65, 0x6e, 0x74, 0x69, 0x61, 0x6c, 0x5f, 0x34, 0x5f,
  0x31, 0x2f, 0x63, 0x6f, 0x6e, 0x76, 0x31, 0x64, 0x5f, 0x31, 0x34, 0x5f,
  0x31, 0x2f, 0x63, 0x6f, 0x6e, 0x76, 0x6f, 0x6c, 0x75, 0x74, 0x69, 0x6f,
  0x6e, 0x00, 0x00, 0x00, 0x04, 0x00, 0x00, 0x00, 0x01, 0x00, 0x00, 0x00,
  0x01, 0x00, 0x00, 0x00, 0x7d, 0x00, 0x00, 0x00, 0x08, 0x00, 0x00, 0x00,
  0x0a, 0xf3, 0xff, 0xff, 0x00, 0x00, 0x00, 0x01, 0x14, 0x00, 0x00, 0x00,
  0x34, 0x00, 0x00, 0x00, 0x11, 0x00, 0x00, 0x00, 0x00, 0x00, 0x00, 0x09,
  0x3c, 0x01, 0x00, 0x00, 0xf4, 0xf2, 0xff, 0xff, 0x08, 0x00, 0x00, 0x00,
  0x14, 0x00, 0x00, 0x00, 0x01, 0x00, 0x00, 0x00, 0x80, 0xff, 0xff, 0xff,
  0xff, 0xff, 0xff, 0xff, 0x00, 0x00, 0x00, 0x00, 0x01, 0x00, 0x00, 0x00,
  0xb3, 0xe6, 0xaa, 0x3d, 0x0d, 0x01, 0x00, 0x00, 0x73, 0x65, 0x71, 0x75,
  0x65, 0x6e, 0x74, 0x69, 0x61, 0x6c, 0x5f, 0x34, 0x5f, 0x31, 0x2f, 0x61,
  0x63, 0x74, 0x69, 0x76, 0x61, 0x74, 0x69, 0x6f, 0x6e, 0x5f, 0x31, 0x33,
  0x5f, 0x31, 0x2f, 0x52, 0x65, 0x6c, 0x75, 0x3b, 0x73, 0x65, 0x71, 0x75,
  0x65, 0x6e, 0x74, 0x69, 0x61, 0x6c, 0x5f, 0x34, 0x5f, 0x31, 0x2f, 0x62,
  0x61, 0x74, 0x63, 0x68, 0x5f, 0x6e, 0x6f, 0x72, 0x6d, 0x61, 0x6c, 0x69,
  0x7a, 0x61, 0x74, 0x69, 0x6f, 0x6e, 0x5f, 0x31, 0x33, 0x5f, 0x31, 0x2f,
  0x62, 0x61, 0x74, 0x63, 0x68, 0x6e, 0x6f, 0x72, 0x6d, 0x2f, 0x61, 0x64,
  0x64, 0x5f, 0x31, 0x3b, 0x73, 0x65, 0x71, 0x75, 0x65, 0x6e, 0x74, 0x69,
  0x61, 0x6c, 0x5f, 0x34, 0x5f, 0x31, 0x2f, 0x63, 0x6f, 0x6e, 0x76, 0x31,
  0x64, 0x5f, 0x31, 0x33, 0x5f, 0x31, 0x2f, 0x63, 0x6f, 0x6e, 0x76, 0x6f,
  0x6c, 0x75, 0x74, 0x69, 0x6f, 0x6e, 0x2f, 0x53, 0x71, 0x75, 0x65, 0x65,
  0x7a, 0x65, 0x3b, 0x73, 0x65, 0x71, 0x75, 0x65, 0x6e, 0x74, 0x69, 0x61,
  0x6c, 0x5f, 0x34, 0x5f, 0x31, 0x2f, 0x62, 0x61, 0x74, 0x63, 0x68, 0x5f,
  0x6e, 0x6f, 0x72, 0x6d, 0x61, 0x6c, 0x69, 0x7a, 0x61, 0x74, 0x69, 0x6f,
  0x6e, 0x5f, 0x31, 0x33, 0x5f, 0x31, 0x2f, 0x62, 0x61, 0x74, 0x63, 0x68,
  0x6e, 0x6f, 0x72, 0x6d, 0x2f, 0x6d, 0x75, 0x6c, 0x5f, 0x31, 0x3b, 0x73,
  0x65, 0x71, 0x75, 0x65, 0x6e, 0x74, 0x69, 0x61, 0x6c, 0x5f, 0x34, 0x5f,
  0x31, 0x2f, 0x63, 0x6f, 0x6e, 0x76, 0x31, 0x64, 0x5f, 0x31, 0x33, 0x5f,
  0x31, 0x2f, 0x42, 0x69, 0x61, 0x73, 0x41, 0x64, 0x64, 0x3b, 0x3b, 0x73,
  0x65, 0x71, 0x75, 0x65, 0x6e, 0x74, 0x69, 0x61, 0x6c, 0x5f, 0x34, 0x5f,
  0x31, 0x2f, 0x63, 0x6f, 0x6e, 0x76, 0x31, 0x64, 0x5f, 0x31, 0x33, 0x5f,
  0x31, 0x2f, 0x63, 0x6f, 0x6e, 0x76, 0x6f, 0x6c, 0x75, 0x74, 0x69, 0x6f,
  0x6e, 0x00, 0x00, 0x00, 0x04, 0x00, 0x00, 0x00, 0x01, 0x00, 0x00, 0x00,
  0x01, 0x00, 0x00, 0x00, 0x7d, 0x00, 0x00, 0x00, 0x0c, 0x00, 0x00, 0x00,
  0x72, 0xf4, 0xff, 0xff, 0x00, 0x00, 0x00, 0x01, 0x14, 0x00, 0x00, 0x00,
  0x34, 0x00, 0x00, 0x00, 0x10, 0x00, 0x00, 0x00, 0x00, 0x00, 0x00, 0x09,
  0x3c, 0x01, 0x00, 0x00, 0x5c, 0xf4, 0xff, 0xff, 0x08, 0x00, 0x00, 0x00,
  0x14, 0x00, 0x00, 0x00, 0x01, 0x00, 0x00, 0x00, 0x80, 0xff, 0xff, 0xff,
  0xff, 0xff, 0xff, 0xff, 0x00, 0x00, 0x00, 0x00, 0x01, 0x00, 0x00, 0x00,
  0x42, 0x6a, 0x2f, 0x3e, 0x0d, 0x01, 0x00, 0x00, 0x73, 0x65, 0x71, 0x75,
  0x65, 0x6e, 0x74, 0x69, 0x61, 0x6c, 0x5f, 0x34, 0x5f, 0x31, 0x2f, 0x61,
  0x63, 0x74, 0x69, 0x76, 0x61, 0x74, 0x69, 0x6f, 0x6e, 0x5f, 0x31, 0x32,
  0x5f, 0x31, 0x2f, 0x52, 0x65, 0x6c, 0x75, 0x3b, 0x73, 0x65, 0x71, 0x75,
  0x65, 0x6e, 0x74, 0x69, 0x61, 0x6c, 0x5f, 0x34, 0x5f, 0x31, 0x2f, 0x62,
  0x61, 0x74, 0x63, 0x68, 0x5f, 0x6e, 0x6f, 0x72, 0x6d, 0x61, 0x6c, 0x69,
  0x7a, 0x61, 0x74, 0x69, 0x6f, 0x6e, 0x5f, 0x31, 0x32, 0x5f, 0x31, 0x2f,
  0x62, 0x61, 0x74, 0x63, 0x68, 0x6e, 0x6f, 0x72, 0x6d, 0x2f, 0x61, 0x64,
  0x64, 0x5f, 0x31, 0x3b, 0x73, 0x65, 0x71, 0x75, 0x65, 0x6e, 0x74, 0x69,
  0x61, 0x6c, 0x5f, 0x34, 0x5f, 0x31, 0x2f, 0x63, 0x6f, 0x6e, 0x76, 0x31,
  0x64, 0x5f, 0x31, 0x32, 0x5f, 0x31, 0x2f, 0x63, 0x6f, 0x6e, 0x76, 0x6f,
  0x6c, 0x75, 0x74, 0x69, 0x6f, 0x6e, 0x2f, 0x53, 0x71, 0x75, 0x65, 0x65,
  0x7a, 0x65, 0x3b, 0x73, 0x65, 0x71, 0x75, 0x65, 0x6e, 0x74, 0x69, 0x61,
  0x6c, 0x5f, 0x34, 0x5f, 0x31, 0x2f, 0x62, 0x61, 0x74, 0x63, 0x68, 0x5f,
  0x6e, 0x6f, 0x72, 0x6d, 0x61, 0x6c, 0x69, 0x7a, 0x61, 0x74, 0x69, 0x6f,
  0x6e, 0x5f, 0x31, 0x32, 0x5f, 0x31, 0x2f, 0x62, 0x61, 0x74, 0x63, 0x68,
  0x6e, 0x6f, 0x72, 0x6d, 0x2f, 0x6d, 0x75, 0x6c, 0x5f, 0x31, 0x3b, 0x73,
  0x65, 0x71, 0x75, 0x65, 0x6e, 0x74, 0x69, 0x61, 0x6c, 0x5f, 0x34, 0x5f,
  0x31, 0x2f, 0x63, 0x6f, 0x6e, 0x76, 0x31, 0x64, 0x5f, 0x31, 0x32, 0x5f,
  0x31, 0x2f, 0x42, 0x69, 0x61, 0x73, 0x41, 0x64, 0x64, 0x3b, 0x3b, 0x73,
  0x65, 0x71, 0x75, 0x65, 0x6e, 0x74, 0x69, 0x61, 0x6c, 0x5f, 0x34, 0x5f,
  0x31, 0x2f, 0x63, 0x6f, 0x6e, 0x76, 0x31, 0x64, 0x5f, 0x31, 0x32, 0x5f,
  0x31, 0x2f, 0x63, 0x6f, 0x6e, 0x76, 0x6f, 0x6c, 0x75, 0x74, 0x69, 0x6f,
  0x6e, 0x00, 0x00, 0x00, 0x04, 0x00, 0x00, 0x00, 0x01, 0x00, 0x00, 0x00,
  0x01, 0x00, 0x00, 0x00, 0xfa, 0x00, 0x00, 0x00, 0x10, 0x00, 0x00, 0x00,
  0xda, 0xf5, 0xff, 0xff, 0x00, 0x00, 0x00, 0x01, 0x14, 0x00, 0x00, 0x00,
  0x30, 0x00, 0x00, 0x00, 0x0f, 0x00, 0x00, 0x00, 0x00, 0x00, 0x00, 0x09,
  0x5c, 0x00, 0x00, 0x00, 0xc4, 0xf5, 0xff, 0xff, 0x08, 0x00, 0x00, 0x00,
  0x10, 0x00, 0x00, 0x00, 0x01, 0x00, 0x00, 0x00, 0x90, 0xff, 0xff, 0xff,
  0xff, 0xff, 0xff, 0xff, 0x01, 0x00, 0x00, 0x00, 0xc1, 0xb9, 0x1c, 0x3f,
  0x32, 0x00, 0x00, 0x00, 0x73, 0x65, 0x71, 0x75, 0x65, 0x6e, 0x74, 0x69,
  0x61, 0x6c, 0x5f, 0x34, 0x5f, 0x31, 0x2f, 0x63, 0x6f, 0x6e, 0x76, 0x31,
  0x64, 0x5f, 0x31, 0x32, 0x5f, 0x31, 0x2f, 0x63, 0x6f, 0x6e, 0x76, 0x6f,
  0x6c, 0x75, 0x74, 0x69, 0x6f, 0x6e, 0x2f, 0x45, 0x78, 0x70, 0x61, 0x6e,
  0x64, 0x44, 0x69, 0x6d, 0x73, 0x31, 0x00, 0x00, 0x04, 0x00, 0x00, 0x00,
  0x01, 0x00, 0x00, 0x00, 0x01, 0x00, 0x00, 0x00, 0xf4, 0x01, 0x00, 0x00,
  0x06, 0x00, 0x00, 0x00, 0x62, 0xf6, 0xff, 0xff, 0x00, 0x00, 0x00, 0x01,
  0x14, 0x00, 0x00, 0x00, 0xe8, 0x00, 0x00, 0x00, 0x0e, 0x00, 0x00, 0x00,
  0x00, 0x00, 0x00, 0x09, 0xf4, 0x00, 0x00, 0x00, 0x4c, 0xf6, 0xff, 0xff,
  0x08, 0x00, 0x00, 0x00, 0x8c, 0x00, 0x00, 0x00, 0x10, 0x00, 0x00, 0x00,
  0x00, 0x00, 0x00, 0x00, 0x00, 0x00, 0x00, 0x00, 0x00, 0x00, 0x00, 0x00,
  0x00, 0x00, 0x00, 0x00, 0x00, 0x00, 0x00, 0x00, 0x00, 0x00, 0x00, 0x00,
  0x00, 0x00, 0x00, 0x00, 0x00, 0x00, 0x00, 0x00, 0x00, 0x00, 0x00, 0x00,
  0x00, 0x00, 0x00, 0x00, 0x00, 0x00, 0x00, 0x00, 0x00, 0x00, 0x00, 0x00,
  0x00, 0x00, 0x00, 0x00, 0x00, 0x00, 0x00, 0x00, 0x00, 0x00, 0x00, 0x00,
  0x00, 0x00, 0x00, 0x00, 0x00, 0x00, 0x00, 0x00, 0x00, 0x00, 0x00, 0x00,
  0x00, 0x00, 0x00, 0x00, 0x00, 0x00, 0x00, 0x00, 0x00, 0x00, 0x00, 0x00,
  0x00, 0x00, 0x00, 0x00, 0x00, 0x00, 0x00, 0x00, 0x00, 0x00, 0x00, 0x00,
  0x00, 0x00, 0x00, 0x00, 0x00, 0x00, 0x00, 0x00, 0x00, 0x00, 0x00, 0x00,
  0x00, 0x00, 0x00, 0x00, 0x00, 0x00, 0x00, 0x00, 0x00, 0x00, 0x00, 0x00,
  0x00, 0x00, 0x00, 0x00, 0x00, 0x00, 0x00, 0x00, 0x00, 0x00, 0x00, 0x00,
  0x10, 0x00, 0x00, 0x00, 0xb1, 0xff, 0xb8, 0x3a, 0xcd, 0x41, 0xa0, 0x3a,
  0x98, 0xe5, 0xed, 0x3a, 0xb9, 0xd2, 0xe6, 0x3a, 0xeb, 0x2a, 0x0a, 0x3b,
  0x46, 0x70, 0x8d, 0x3a, 0xf9, 0xd9, 0xc4, 0x3a, 0x5b, 0x63, 0xfe, 0x3a,
  0x31, 0x85, 0xb6, 0x3a, 0x27, 0x5c, 0x22, 0x3b, 0xaa, 0x1a, 0x4e, 0x3b,
  0x9b, 0xd1, 0x0e, 0x3b, 0x31, 0x0b, 0x1a, 0x3b, 0xba, 0xa8, 0x11, 0x3b,
  0xf8, 0xce, 0x00, 0x3b, 0x3f, 0x7c, 0x28, 0x3b, 0x12, 0x00, 0x00, 0x00,
  0x74, 0x66, 0x6c, 0x2e, 0x70, 0x73, 0x65, 0x75, 0x64, 0x6f, 0x5f, 0x71,
  0x63, 0x6f, 0x6e, 0x73, 0x74, 0x39, 0x00, 0x00, 0x04, 0x00, 0x00, 0x00,
  0x10, 0x00, 0x00, 0x00, 0x01, 0x00, 0x00, 0x00, 0x07, 0x00, 0x00, 0x00,
  0x06, 0x00, 0x00, 0x00, 0x82, 0xf7, 0xff, 0xff, 0x00, 0x00, 0x00, 0x01,
  0x14, 0x00, 0x00, 0x00, 0xe4, 0x00, 0x00, 0x00, 0x0d, 0x00, 0x00, 0x00,
  0x00, 0x00, 0x00, 0x02, 0xf0, 0x00, 0x00, 0x00, 0x6c, 0xf7, 0xff, 0xff,
  0x08, 0x00, 0x00, 0x00, 0x88, 0x00, 0x00, 0x00, 0x10, 0x00, 0x00, 0x00,
  0x00, 0x00, 0x00, 0x00, 0x00, 0x00, 0x00, 0x00, 0x00, 0x00, 0x00, 0x00,
  0x00, 0x00, 0x00, 0x00, 0x00, 0x00, 0x00, 0x00, 0x00, 0x00, 0x00, 0x00,
  0x00, 0x00, 0x00, 0x00, 0x00, 0x00, 0x00, 0x00, 0x00, 0x00, 0x00, 0x00,
  0x00, 0x00, 0x00, 0x00, 0x00, 0x00, 0x00, 0x00, 0x00, 0x00, 0x00, 0x00,
  0x00, 0x00, 0x00, 0x00, 0x00, 0x00, 0x00, 0x00, 0x00, 0x00, 0x00, 0x00,
  0x00, 0x00, 0x00, 0x00, 0x00, 0x00, 0x00, 0x00, 0x00, 0x00, 0x00, 0x00,
  0x00, 0x00, 0x00, 0x00, 0x00, 0x00, 0x00, 0x00, 0x00, 0x00, 0x00, 0x00,
  0x00, 0x00, 0x00, 0x00, 0x00, 0x00, 0x00, 0x00, 0x00, 0x00, 0x00, 0x00,
  0x00, 0x00, 0x00, 0x00, 0x00, 0x00, 0x00, 0x00, 0x00, 0x00, 0x00, 0x00,
  0x00, 0x00, 0x00, 0x00, 0x00, 0x00, 0x00, 0x00, 0x00, 0x00, 0x00, 0x00,
  0x00, 0x00, 0x00, 0x00, 0x00, 0x00, 0x00, 0x00, 0x10, 0x00, 0x00, 0x00,
  0x18, 0x84, 0x62, 0x3a, 0xc3, 0x38, 0x44, 0x3a, 0x87, 0xa4, 0x91, 0x3a,
  0xe5, 0x4f, 0x8d, 0x3a, 0xd1, 0x2c, 0xa9, 0x3a, 0x17, 0x2e, 0x2d, 0x3a,
  0x53, 0x07, 0x71, 0x3a, 0x21, 0xbd, 0x9b, 0x3a, 0x33, 0x7b, 0x5f, 0x3a,
  0xee, 0xcb, 0xc6, 0x3a, 0x98, 0x5b, 0xfc, 0x3a, 0xb7, 0xde, 0xae, 0x3a,
  0x30, 0x9d, 0xbc, 0x3a, 0x04, 0x59, 0xb2, 0x3a, 0x2c, 0xb7, 0x9d, 0x3a,
  0xee, 0x4b, 0xce, 0x3a, 0x12, 0x00, 0x00, 0x00, 0x74, 0x66, 0x6c, 0x2e,
  0x70, 0x73, 0x65, 0x75, 0x64, 0x6f, 0x5f, 0x71, 0x63, 0x6f, 0x6e, 0x73,
  0x74, 0x38, 0x00, 0x00, 0x01, 0x00, 0x00, 0x00, 0x10, 0x00, 0x00, 0x00,
  0x92, 0xf8, 0xff, 0xff, 0x00, 0x00, 0x00, 0x01, 0x14, 0x00, 0x00, 0x00,
  0xb8, 0x00, 0x00, 0x00, 0x0c, 0x00, 0x00, 0x00, 0x00, 0x00, 0x00, 0x09,
  0xc4, 0x00, 0x00, 0x00, 0x7c, 0xf8, 0xff, 0xff, 0x08, 0x00, 0x00, 0x00,
  0x6c, 0x00, 0x00, 0x00, 0x0c, 0x00, 0x00, 0x00, 0x00, 0x00, 0x00, 0x00,
  0x00, 0x00, 0x00, 0x00, 0x00, 0x00, 0x00, 0x00, 0x00, 0x00, 0x00, 0x00,
  0x00, 0x00, 0x00, 0x00, 0x00, 0x00, 0x00, 0x00, 0x00, 0x00, 0x00, 0x00,
  0x00, 0x00, 0x00, 0x00, 0x00, 0x00, 0x00, 0x00, 0x00, 0x00, 0x00, 0x00,
  0x00, 0x00, 0x00, 0x00, 0x00, 0x00, 0x00, 0x00, 0x00, 0x00, 0x00, 0x00,
  0x00, 0x00, 0x00, 0x00, 0x00, 0x00, 0x00, 0x00, 0x00, 0x00, 0x00, 0x00,
  0x00, 0x00, 0x00, 0x00, 0x00, 0x00, 0x00, 0x00, 0x00, 0x00, 0x00, 0x00,
  0x00, 0x00, 0x00, 0x00, 0x00, 0x00, 0x00, 0x00, 0x00, 0x00, 0x00, 0x00,
  0x00, 0x00, 0x00, 0x00, 0x00, 0x00, 0x00, 0x00, 0x00, 0x00, 0x00, 0x00,
  0x0c, 0x00, 0x00, 0x00, 0x5e, 0xf9, 0x5a, 0x3b, 0x8d, 0xb7, 0x5c, 0x3b,
  0xa6, 0xbc, 0x26, 0x3b, 0x65, 0x01, 0x14, 0x3b, 0xd5, 0xde, 0xb3, 0x3b,
  0x5a, 0x88, 0x1b, 0x3b, 0x9b, 0x60, 0x3f, 0x3b, 0x30, 0x1e, 0x3f, 0x3b,
  0x0f, 0x06, 0x0d, 0x3b, 0xc4, 0x83, 0x31, 0x3c, 0x29, 0xc4, 0x79, 0x3b,
  0x03, 0x26, 0x79, 0x3b, 0x12, 0x00, 0x00, 0x00, 0x74, 0x66, 0x6c, 0x2e,
  0x70, 0x73, 0x65, 0x75, 0x64, 0x6f, 0x5f, 0x71, 0x63, 0x6f, 0x6e, 0x73,
  0x74, 0x37, 0x00, 0x00, 0x04, 0x00, 0x00, 0x00, 0x0c, 0x00, 0x00, 0x00,
  0x01, 0x00, 0x00, 0x00, 0x05, 0x00, 0x00, 0x00, 0x10, 0x00, 0x00, 0x00,
  0x82, 0xf9, 0xff, 0xff, 0x00, 0x00, 0x00, 0x01, 0x14, 0x00, 0x00, 0x00,
  0xb4, 0x00, 0x00, 0x00, 0x0b, 0x00, 0x00, 0x00, 0x00, 0x00, 0x00, 0x02,
  0xc0, 0x00, 0x00, 0x00, 0x6c, 0xf9, 0xff, 0xff, 0x08, 0x00, 0x00, 0x00,
  0x68, 0x00, 0x00, 0x00, 0x0c, 0x00, 0x00, 0x00, 0x00, 0x00, 0x00, 0x00,
  0x00, 0x00, 0x00, 0x00, 0x00, 0x00, 0x00, 0x00, 0x00, 0x00, 0x00, 0x00,
  0x00, 0x00, 0x00, 0x00, 0x00, 0x00, 0x00, 0x00, 0x00, 0x00, 0x00, 0x00,
  0x00, 0x00, 0x00, 0x00, 0x00, 0x00, 0x00, 0x00, 0x00, 0x00, 0x00, 0x00,
  0x00, 0x00, 0x00, 0x00, 0x00, 0x00, 0x00, 0x00, 0x00, 0x00, 0x00, 0x00,
  0x00, 0x00, 0x00, 0x00, 0x00, 0x00, 0x00, 0x00, 0x00, 0x00, 0x00, 0x00,
  0x00, 0x00, 0x00, 0x00, 0x00, 0x00, 0x00, 0x00, 0x00, 0x00, 0x00, 0x00,
  0x00, 0x00, 0x00, 0x00, 0x00, 0x00, 0x00, 0x00, 0x00, 0x00, 0x00, 0x00,
  0x00, 0x00, 0x00, 0x00, 0x00, 0x00, 0x00, 0x00, 0x0c, 0x00, 0x00, 0x00,
  0x5b, 0x0b, 0x16, 0x3a, 0x16, 0x3d, 0x17, 0x3a, 0x55, 0x80, 0xe4, 0x39,
  0xc6, 0xd4, 0xca, 0x39, 0xf8, 0x7f, 0x76, 0x3a, 0x88, 0x25, 0xd5, 0x39,
  0x79, 0x22, 0x03, 0x3a, 0xf7, 0xf4, 0x02, 0x3a, 0x5a, 0x43, 0xc1, 0x39,
  0x83, 0x45, 0xf3, 0x3a, 0xc4, 0x24, 0x2b, 0x3a, 0x66, 0xb8, 0x2a, 0x3a,
  0x12, 0x00, 0x00, 0x00, 0x74, 0x66, 0x6c, 0x2e, 0x70, 0x73, 0x65, 0x75,
  0x64, 0x6f, 0x5f, 0x71, 0x63, 0x6f, 0x6e, 0x73, 0x74, 0x36, 0x00, 0x00,
  0x01, 0x00, 0x00, 0x00, 0x0c, 0x00, 0x00, 0x00, 0x62, 0xfa, 0xff, 0xff,
  0x00, 0x00, 0x00, 0x01, 0x14, 0x00, 0x00, 0x00, 0x88, 0x00, 0x00, 0x00,
  0x0a, 0x00, 0x00, 0x00, 0x00, 0x00, 0x00, 0x09, 0x94, 0x00, 0x00, 0x00,
  0x4c, 0xfa, 0xff, 0xff, 0x08, 0x00, 0x00, 0x00, 0x4c, 0x00, 0x00, 0x00,
  0x08, 0x00, 0x00, 0x00, 0x00, 0x00, 0x00, 0x00, 0x00, 0x00, 0x00, 0x00,
  0x00, 0x00, 0x00, 0x00, 0x00, 0x00, 0x00, 0x00, 0x00, 0x00, 0x00, 0x00,
  0x00, 0x00, 0x00, 0x00, 0x00, 0x00, 0x00, 0x00, 0x00, 0x00, 0x00, 0x00,
  0x00, 0x00, 0x00, 0x00, 0x00, 0x00, 0x00, 0x00, 0x00, 0x00, 0x00, 0x00,
  0x00, 0x00, 0x00, 0x00, 0x00, 0x00, 0x00, 0x00, 0x00, 0x00, 0x00, 0x00,
  0x00, 0x00, 0x00, 0x00, 0x00, 0x00, 0x00, 0x00, 0x00, 0x00, 0x00, 0x00,
  0x08, 0x00, 0x00, 0x00, 0x8a, 0xf8, 0x62, 0x3c, 0x80, 0x61, 0x5e, 0x3c,
  0xa4, 0xc4, 0xca, 0x3c, 0x50, 0xf4, 0xa0, 0x3c, 0x27, 0x05, 0x4e, 0x3c,
  0x54, 0x99, 0x28, 0x3c, 0xaf, 0x36, 0x97, 0x3c, 0x80, 0x81, 0xd1, 0x3c,
  0x12, 0x00, 0x00, 0x00, 0x74, 0x66, 0x6c, 0x2e, 0x70, 0x73, 0x65, 0x75,
  0x64, 0x6f, 0x5f, 0x71, 0x63, 0x6f, 0x6e, 0x73, 0x74, 0x35, 0x00, 0x00,
  0x04, 0x00, 0x00, 0x00, 0x08, 0x00, 0x00, 0x00, 0x01, 0x00, 0x00, 0x00,
  0x03, 0x00, 0x00, 0x00, 0x0c, 0x00, 0x00, 0x00, 0x22, 0xfb, 0xff, 0xff,
  0x00, 0x00, 0x00, 0x01, 0x14, 0x00, 0x00, 0x00, 0x84, 0x00, 0x00, 0x00,
  0x09, 0x00, 0x00, 0x00, 0x00, 0x00, 0x00, 0x02, 0x90, 0x00, 0x00, 0x00,
  0x0c, 0xfb, 0xff, 0xff, 0x08, 0x00, 0x00, 0x00, 0x48, 0x00, 0x00, 0x00,
  0x08, 0x00, 0x00, 0x00, 0x00, 0x00, 0x00, 0x00, 0x00, 0x00, 0x00, 0x00,
  0x00, 0x00, 0x00, 0x00, 0x00, 0x00, 0x00, 0x00, 0x00, 0x00, 0x00, 0x00,
  0x00, 0x00, 0x00, 0x00, 0x00, 0x00, 0x00, 0x00, 0x00, 0x00, 0x00, 0x00,
  0x00, 0x00, 0x00, 0x00, 0x00, 0x00, 0x00, 0x00, 0x00, 0x00, 0x00, 0x00,
  0x00, 0x00, 0x00, 0x00, 0x00, 0x00, 0x00, 0x00, 0x00, 0x00, 0x00, 0x00,
  0x00, 0x00, 0x00, 0x00, 0x00, 0x00, 0x00, 0x00, 0x08, 0x00, 0x00, 0x00,
  0x96, 0x85, 0x97, 0x3a, 0x26, 0x75, 0x94, 0x3a, 0x4f, 0x5d, 0x07, 0x3b,
  0x92, 0xe6, 0xd6, 0x3a, 0x15, 0x89, 0x89, 0x3a, 0x83, 0x1b, 0x61, 0x3a,
  0x2a, 0xe5, 0xc9, 0x3a, 0xcc, 0xdc, 0x0b, 0x3b, 0x12, 0x00, 0x00, 0x00,
  0x74, 0x66, 0x6c, 0x2e, 0x70, 0x73, 0x65, 0x75, 0x64, 0x6f, 0x5f, 0x71,
  0x63, 0x6f, 0x6e, 0x73, 0x74, 0x34, 0x00, 0x00, 0x01, 0x00, 0x00, 0x00,
  0x08, 0x00, 0x00, 0x00, 0xd2, 0xfb, 0xff, 0xff, 0x00, 0x00, 0x00, 0x01,
  0x14, 0x00, 0x00, 0x00, 0xe8, 0x00, 0x00, 0x00, 0x08, 0x00, 0x00, 0x00,
  0x00, 0x00, 0x00, 0x09, 0xf4, 0x00, 0x00, 0x00, 0xbc, 0xfb, 0xff, 0xff,
  0x08, 0x00, 0x00, 0x00, 0x8c, 0x00, 0x00, 0x00, 0x10, 0x00, 0x00, 0x00,
  0x00, 0x00, 0x00, 0x00, 0x00, 0x00, 0x00, 0x00, 0x00, 0x00, 0x00, 0x00,
  0x00, 0x00, 0x00, 0x00, 0x00, 0x00, 0x00, 0x00, 0x00, 0x00, 0x00, 0x00,
  0x00, 0x00, 0x00, 0x00, 0x00, 0x00, 0x00, 0x00, 0x00, 0x00, 0x00, 0x00,
  0x00, 0x00, 0x00, 0x00, 0x00, 0x00, 0x00, 0x00, 0x00, 0x00, 0x00, 0x00,
  0x00, 0x00, 0x00, 0x00, 0x00, 0x00, 0x00, 0x00, 0x00, 0x00, 0x00, 0x00,
  0x00, 0x00, 0x00, 0x00, 0x00, 0x00, 0x00, 0x00, 0x00, 0x00, 0x00, 0x00,
  0x00, 0x00, 0x00, 0x00, 0x00, 0x00, 0x00, 0x00, 0x00, 0x00, 0x00, 0x00,
  0x00, 0x00, 0x00, 0x00, 0x00, 0x00, 0x00, 0x00, 0x00, 0x00, 0x00, 0x00,
  0x00, 0x00, 0x00, 0x00, 0x00, 0x00, 0x00, 0x00, 0x00, 0x00, 0x00, 0x00,
  0x00, 0x00, 0x00, 0x00, 0x00, 0x00, 0x00, 0x00, 0x00, 0x00, 0x00, 0x00,
  0x00, 0x00, 0x00, 0x00, 0x00, 0x00, 0x00, 0x00, 0x00, 0x00, 0x00, 0x00,
  0x10, 0x00, 0x00, 0x00, 0x60, 0x9c, 0x2a, 0x3c, 0x33, 0xca, 0x0f, 0x3c,
  0x92, 0xf5, 0x12, 0x3c, 0xd6, 0x7d, 0x08, 0x3c, 0xad, 0xd2, 0x01, 0x3c,
  0x7d, 0x0b, 0xe6, 0x3b, 0x8c, 0xa7, 0x2f, 0x3c, 0xb3, 0xd2, 0x19, 0x3c,
  0x5f, 0xf1, 0x28, 0x3c, 0xaa, 0xe9, 0xf1, 0x3b, 0xe7, 0x1a, 0x1e, 0x3c,
  0x37, 0x16, 0xf7, 0x3b, 0x76, 0x3d, 0x1d, 0x3c, 0x3e, 0x4d, 0x37, 0x3c,
  0x6a, 0x63, 0x40, 0x3c, 0xaf, 0x61, 0xe9, 0x3b, 0x12, 0x00, 0x00, 0x00,
  0x74, 0x66, 0x6c, 0x2e, 0x70, 0x73, 0x65, 0x75, 0x64, 0x6f, 0x5f, 0x71,
  0x63, 0x6f, 0x6e, 0x73, 0x74, 0x33, 0x00, 0x00, 0x02, 0x00, 0x00, 0x00,
  0x10, 0x00, 0x00, 0x00, 0x08, 0x00, 0x00, 0x00, 0xea, 0xfc, 0xff, 0xff,
  0x00, 0x00, 0x00, 0x01, 0x14, 0x00, 0x00, 0x00, 0xe4, 0x00, 0x00, 0x00,
  0x07, 0x00, 0x00, 0x00, 0x00, 0x00, 0x00, 0x02, 0xf0, 0x00, 0x00, 0x00,
  0xd4, 0xfc, 0xff, 0xff, 0x08, 0x00, 0x00, 0x00, 0x88, 0x00, 0x00, 0x00,
  0x10, 0x00, 0x00, 0x00, 0x00, 0x00, 0x00, 0x00, 0x00, 0x00, 0x00, 0x00,
  0x00, 0x00, 0x00, 0x00, 0x00, 0x00, 0x00, 0x00, 0x00, 0x00, 0x00, 0x00,
  0x00, 0x00, 0x00, 0x00, 0x00, 0x00, 0x00, 0x00, 0x00, 0x00, 0x00, 0x00,
  0x00, 0x00, 0x00, 0x00, 0x00, 0x00, 0x00, 0x00, 0x00, 0x00, 0x00, 0x00,
  0x00, 0x00, 0x00, 0x00, 0x00, 0x00, 0x00, 0x00, 0x00, 0x00, 0x00, 0x00,
  0x00, 0x00, 0x00, 0x00, 0x00, 0x00, 0x00, 0x00, 0x00, 0x00, 0x00, 0x00,
  0x00, 0x00, 0x00, 0x00, 0x00, 0x00, 0x00, 0x00, 0x00, 0x00, 0x00, 0x00,
  0x00, 0x00, 0x00, 0x00, 0x00, 0x00, 0x00, 0x00, 0x00, 0x00, 0x00, 0x00,
  0x00, 0x00, 0x00, 0x00, 0x00, 0x00, 0x00, 0x00, 0x00, 0x00, 0x00, 0x00,
  0x00, 0x00, 0x00, 0x00, 0x00, 0x00, 0x00, 0x00, 0x00, 0x00, 0x00, 0x00,
  0x00, 0x00, 0x00, 0x00, 0x00, 0x00, 0x00, 0x00, 0x00, 0x00, 0x00, 0x00,
  0x10, 0x00, 0x00, 0x00, 0x95, 0xaa, 0x37, 0x39, 0xfe, 0xca, 0x1a, 0x39,
  0x74, 0x34, 0x1e, 0x39, 0xa9, 0xef, 0x12, 0x39, 0xdd, 0xc1, 0x0b, 0x39,
  0xfd, 0xa5, 0xf7, 0x38, 0x8f, 0x18, 0x3d, 0x39, 0x0a, 0x98, 0x25, 0x39,
  0xe8, 0xde, 0x35, 0x39, 0x54, 0x36, 0x02, 0x39, 0x21, 0x34, 0x2a, 0x39,
  0x48, 0xff, 0x04, 0x39, 0xbe, 0x45, 0x29, 0x39, 0x10, 0x54, 0x45, 0x39,
  0x3c, 0x1c, 0x4f, 0x39, 0x8d, 0x3d, 0xfb, 0x38, 0x12, 0x00, 0x00, 0x00,
  0x74, 0x66, 0x6c, 0x2e, 0x70, 0x73, 0x65, 0x75, 0x64, 0x6f, 0x5f, 0x71,
  0x63, 0x6f, 0x6e, 0x73, 0x74, 0x32, 0x00, 0x00, 0x01, 0x00, 0x00, 0x00,
  0x10, 0x00, 0x00, 0x00, 0xfa, 0xfd, 0xff, 0xff, 0x00, 0x00, 0x00, 0x01,
  0x14, 0x00, 0x00, 0x00, 0x78, 0x00, 0x00, 0x00, 0x06, 0x00, 0x00, 0x00,
  0x00, 0x00, 0x00, 0x09, 0x84, 0x00, 0x00, 0x00, 0xe4, 0xfd, 0xff, 0xff,
  0x08, 0x00, 0x00, 0x00, 0x40, 0x00, 0x00, 0x00, 0x07, 0x00, 0x00, 0x00,
  0x00, 0x00, 0x00, 0x00, 0x00, 0x00, 0x00, 0x00, 0x00, 0x00, 0x00, 0x00,
  0x00, 0x00, 0x00, 0x00, 0x00, 0x00, 0x00, 0x00, 0x00, 0x00, 0x00, 0x00,
  0x00, 0x00, 0x00, 0x00, 0x00, 0x00, 0x00, 0x00, 0x00, 0x00, 0x00, 0x00,
  0x00, 0x00, 0x00, 0x00, 0x00, 0x00, 0x00, 0x00, 0x00, 0x00, 0x00, 0x00,
  0x00, 0x00, 0x00, 0x00, 0x00, 0x00, 0x00, 0x00, 0x07, 0x00, 0x00, 0x00,
  0x63, 0x3f, 0x91, 0x3d, 0x66, 0x77, 0x32, 0x3d, 0x70, 0xcd, 0x93, 0x3d,
  0x6c, 0x3e, 0x95, 0x3d, 0x93, 0x5c, 0xab, 0x3d, 0x2a, 0x2c, 0x4b, 0x3d,
  0xc4, 0xc9, 0x4d, 0x3d, 0x12, 0x00, 0x00, 0x00, 0x74, 0x66, 0x6c, 0x2e,
  0x70, 0x73, 0x65, 0x75, 0x64, 0x6f, 0x5f, 0x71, 0x63, 0x6f, 0x6e, 0x73,
  0x74, 0x31, 0x00, 0x00, 0x02, 0x00, 0x00, 0x00, 0x07, 0x00, 0x00, 0x00,
  0x10, 0x00, 0x00, 0x00, 0xa2, 0xfe, 0xff, 0xff, 0x00, 0x00, 0x00, 0x01,
  0x14, 0x00, 0x00, 0x00, 0x7c, 0x00, 0x00, 0x00, 0x05, 0x00, 0x00, 0x00,
  0x00, 0x00, 0x00, 0x02, 0x88, 0x00, 0x00, 0x00, 0x8c, 0xfe, 0xff, 0xff,
  0x08, 0x00, 0x00, 0x00, 0x44, 0x00, 0x00, 0x00, 0x07, 0x00, 0x00, 0x00,
  0x00, 0x00, 0x00, 0x00, 0x00, 0x00, 0x00, 0x00, 0x00, 0x00, 0x00, 0x00,
  0x00, 0x00, 0x00, 0x00, 0x00, 0x00, 0x00, 0x00, 0x00, 0x00, 0x00, 0x00,
  0x00, 0x00, 0x00, 0x00, 0x00, 0x00, 0x00, 0x00, 0x00, 0x00, 0x00, 0x00,
  0x00, 0x00, 0x00, 0x00, 0x00, 0x00, 0x00, 0x00, 0x00, 0x00, 0x00, 0x00,
  0x00, 0x00, 0x00, 0x00, 0x00, 0x00, 0x00, 0x00, 0x00, 0x00, 0x00, 0x00,
  0x07, 0x00, 0x00, 0x00, 0x68, 0x04, 0x48, 0x3a, 0x18, 0xc3, 0xf5, 0x39,
  0x16, 0x89, 0x4b, 0x3a, 0x35, 0x85, 0x4d, 0x3a, 0x6e, 0xfa, 0x6b, 0x3a,
  0x64, 0xe4, 0x0b, 0x3a, 0x70, 0xb1, 0x0d, 0x3a, 0x11, 0x00, 0x00, 0x00,
  0x74, 0x66, 0x6c, 0x2e, 0x70, 0x73, 0x65, 0x75, 0x64, 0x6f, 0x5f, 0x71,
  0x63, 0x6f, 0x6e, 0x73, 0x74, 0x00, 0x00, 0x00, 0x01, 0x00, 0x00, 0x00,
  0x07, 0x00, 0x00, 0x00, 0x4a, 0xff, 0xff, 0xff, 0x00, 0x00, 0x00, 0x01,
  0x14, 0x00, 0x00, 0x00, 0x14, 0x00, 0x00, 0x00, 0x04, 0x00, 0x00, 0x00,
  0x00, 0x00, 0x00, 0x02, 0x1c, 0x00, 0x00, 0x00, 0x8c, 0xff, 0xff, 0xff,
  0x0f, 0x00, 0x00, 0x00, 0x61, 0x72, 0x69, 0x74, 0x68, 0x2e, 0x63, 0x6f,
  0x6e, 0x73, 0x74, 0x61, 0x6e, 0x74, 0x32, 0x00, 0x00, 0x00, 0x00, 0x00,
  0x82, 0xff, 0xff, 0xff, 0x00, 0x00, 0x00, 0x01, 0x14, 0x00, 0x00, 0x00,
  0x14, 0x00, 0x00, 0x00, 0x03, 0x00, 0x00, 0x00, 0x00, 0x00, 0x00, 0x02,
  0x1c, 0x00, 0x00, 0x00, 0xc4, 0xff, 0xff, 0xff, 0x0f, 0x00, 0x00, 0x00,
  0x61, 0x72, 0x69, 0x74, 0x68, 0x2e, 0x63, 0x6f, 0x6e, 0x73, 0x74, 0x61,
  0x6e, 0x74, 0x31, 0x00, 0x01, 0x00, 0x00, 0x00, 0x03, 0x00, 0x00, 0x00,
  0xbe, 0xff, 0xff, 0xff, 0x00, 0x00, 0x00, 0x01, 0x18, 0x00, 0x00, 0x00,
  0x18, 0x00, 0x00, 0x00, 0x02, 0x00, 0x00, 0x00, 0x00, 0x00, 0x00, 0x02,
  0x20, 0x00, 0x00, 0x00, 0x04, 0x00, 0x04, 0x00, 0x04, 0x00, 0x00, 0x00,
  0x0e, 0x00, 0x00, 0x00, 0x61, 0x72, 0x69, 0x74, 0x68, 0x2e, 0x63, 0x6f,
  0x6e, 0x73, 0x74, 0x61, 0x6e, 0x74, 0x00, 0x00, 0x01, 0x00, 0x00, 0x00,
  0x04, 0x00, 0x00, 0x00, 0x00, 0x00, 0x16, 0x00, 0x1c, 0x00, 0x18, 0x00,
  0x17, 0x00, 0x10, 0x00, 0x0c, 0x00, 0x08, 0x00, 0x00, 0x00, 0x00, 0x00,
  0x00, 0x00, 0x07, 0x00, 0x16, 0x00, 0x00, 0x00, 0x00, 0x00, 0x00, 0x01,
  0x20, 0x00, 0x00, 0x00, 0x40, 0x00, 0x00, 0x00, 0x01, 0x00, 0x00, 0x00,
  0x00, 0x00, 0x00, 0x09, 0x5c, 0x00, 0x00, 0x00, 0x0c, 0x00, 0x0c, 0x00,
  0x00, 0x00, 0x00, 0x00, 0x08, 0x00, 0x04, 0x00, 0x0c, 0x00, 0x00, 0x00,
  0x08, 0x00, 0x00, 0x00, 0x14, 0x00, 0x00, 0x00, 0x01, 0x00, 0x00, 0x00,
  0x90, 0xff, 0xff, 0xff, 0xff, 0xff, 0xff, 0xff, 0x00, 0x00, 0x00, 0x00,
  0x01, 0x00, 0x00, 0x00, 0xc1, 0xb9, 0x1c, 0x3f, 0x21, 0x00, 0x00, 0x00,
  0x73, 0x65, 0x72, 0x76, 0x69, 0x6e, 0x67, 0x5f, 0x64, 0x65, 0x66, 0x61,
  0x75, 0x6c, 0x74, 0x5f, 0x6b, 0x65, 0x72, 0x61, 0x73, 0x5f, 0x74, 0x65,
  0x6e, 0x73, 0x6f, 0x72, 0x5f, 0x35, 0x36, 0x3a, 0x30, 0x00, 0x00, 0x00,
  0x03, 0x00, 0x00, 0x00, 0x01, 0x00, 0x00, 0x00, 0xf4, 0x01, 0x00, 0x00,
  0x06, 0x00, 0x00, 0x00, 0x05, 0x00, 0x00, 0x00, 0x6c, 0x00, 0x00, 0x00,
  0x4c, 0x00, 0x00, 0x00, 0x2c, 0x00, 0x00, 0x00, 0x18, 0x00, 0x00, 0x00,
  0x04, 0x00, 0x00, 0x00, 0xd0, 0xff, 0xff, 0xff, 0x19, 0x00, 0x00, 0x00,
  0x02, 0x00, 0x00, 0x00, 0x00, 0x00, 0x00, 0x19, 0xe0, 0xff, 0xff, 0xff,
  0x09, 0x00, 0x00, 0x00, 0x04, 0x00, 0x00, 0x00, 0x00, 0x00, 0x00, 0x09,
  0xf0, 0xff, 0xff, 0xff, 0x28, 0x00, 0x00, 0x00, 0x02, 0x00, 0x00, 0x00,
  0x00, 0x00, 0x00, 0x28, 0x0c, 0x00, 0x10, 0x00, 0x0f, 0x00, 0x00, 0x00,
  0x08, 0x00, 0x04, 0x00, 0x0c, 0x00, 0x00, 0x00, 0x03, 0x00, 0x00, 0x00,
  0x03, 0x00, 0x00, 0x00, 0x00, 0x00, 0x00, 0x03, 0x0c, 0x00, 0x0c, 0x00,
  0x0b, 0x00, 0x00, 0x00, 0x00, 0x00, 0x04, 0x00, 0x0c, 0x00, 0x00, 0x00,
  0x16, 0x00, 0x00, 0x00, 0x00, 0x00, 0x00, 0x16
};
inline const unsigned int gesture_model_4_tflite_len = 8792;
