
inline const unsigned char gesture_model_1_tflite[] = {
  0x1c, 0x00, 0x00, 0x00, 0x54, 0x46, 0x4c, 0x33, 0x14, 0x00, 0x20, 0x00,
  0x1c, 0x00, 0x18, 0x00, 0x14, 0x00, 0x10, 0x00, 0x0c, 0x00, 0x00, 0x00,
  0x08, 0x00, 0x04, 0x00, 0x14, 0x00, 0x00, 0x00, 0x1c, 0x00, 0x00, 0x00,
  0x98, 0x00, 0x00, 0x00, 0x18, 0x01, 0x00, 0x00, 0x6c, 0x0c, 0x00, 0x00,
  0x7c, 0x0c, 0x00, 0x00, 0x90, 0x21, 0x00, 0x00, 0x03, 0x00, 0x00, 0x00,
  0x01, 0x00, 0x00, 0x00, 0x10, 0x00, 0x00, 0x00, 0x00, 0x00, 0x0a, 0x00,
  0x10, 0x00, 0x0c, 0x00, 0x08, 0x00, 0x04, 0x00, 0x0a, 0x00, 0x00, 0x00,
  0x0c, 0x00, 0x00, 0x00, 0x1c, 0x00, 0x00, 0x00, 0x3c, 0x00, 0x00, 0x00,
  0x0f, 0x00, 0x00, 0x00, 0x73, 0x65, 0x72, 0x76, 0x69, 0x6e, 0x67, 0x5f,
  0x64, 0x65, 0x66, 0x61, 0x75, 0x6c, 0x74, 0x00, 0x01, 0x00, 0x00, 0x00,
  0x04, 0x00, 0x00, 0x00, 0x68, 0xff, 0xff, 0xff, 0x16, 0x00, 0x00, 0x00,
  0x04, 0x00, 0x00, 0x00, 0x08, 0x00, 0x00, 0x00, 0x6f, 0x75, 0x74, 0x70,
  0x75, 0x74, 0x5f, 0x30, 0x00, 0x00, 0x00, 0x00, 0x01, 0x00, 0x00, 0x00,
  0x04, 0x00, 0x00, 0x00, 0x76, 0xf3, 0xff, 0xff, 0x04, 0x00, 0x00, 0x00,
  0x0f, 0x00, 0x00, 0x00, 0x6b, 0x65, 0x72, 0x61, 0x73, 0x5f, 0x74, 0x65,
  0x6e, 0x73, 0x6f, 0x72, 0x5f, 0x31, 0x34, 0x00, 0x03, 0x00, 0x00, 0x00,
  0x5c, 0x00, 0x00, 0x00, 0x2c, 0x00, 0x00, 0x00, 0x04, 0x00, 0x00, 0x00,
  0xb8, 0xff, 0xff, 0xff, 0x1a, 0x00, 0x00, 0x00, 0x04, 0x00, 0x00, 0x00,
  0x13, 0x00, 0x00, 0x00, 0x43, 0x4f, 0x4e, 0x56, 0x45, 0x52, 0x53, 0x49,
  0x4f, 0x4e, 0x5f, 0x4d, 0x45, 0x54, 0x41, 0x44, 0x41, 0x54, 0x41, 0x00,
  0xdc, 0xff, 0xff, 0xff, 0x19, 0x00, 0x00, 0x00, 0x04, 0x00, 0x00, 0x00,
  0x13, 0x00, 0x00, 0x00, 0x6d, 0x69, 0x6e, 0x5f, 0x72, 0x75, 0x6e, 0x74,
  0x69, 0x6d, 0x65, 0x5f, 0x76, 0x65, 0x72, 0x73, 0x69, 0x6f, 0x6e, 0x00,
  0x08, 0x00, 0x0c, 0x00, 0x08, 0x00, 0x04, 0x00, 0x08, 0x00, 0x00, 0x00,
  0x18, 0x00, 0x00, 0x00, 0x04, 0x00, 0x00, 0x00, 0x13, 0x00, 0x00, 0x00,
  0x6d, 0x69, 0x6e, 0x5f, 0x72, 0x75, 0x6e, 0x74, 0x69, 0x6d, 0x65, 0x5f,
  0x76, 0x65, 0x72, 0x73, 0x69, 0x6f, 0x6e, 0x00, 0x1b, 0x00, 0x00, 0x00,
  0x50, 0x0b, 0x00, 0x00, 0x48, 0x0b, 0x00, 0x00, 0x28, 0x0b, 0x00, 0x00,
  0x0c, 0x0b, 0x00, 0x00, 0xf8, 0x0a, 0x00, 0x00, 0xcc, 0x0a, 0x00, 0x00,
  0x4c, 0x0a, 0x00, 0x00, 0xfc, 0x09, 0x00, 0x00, 0x6c, 0x09, 0x00, 0x00,
  0x3c, 0x09, 0x00, 0x00, 0x0c, 0x08, 0x00, 0x00, 0xcc, 0x07, 0x00, 0x00,
  0xfc, 0x03, 0x00, 0x00, 0xac, 0x03, 0x00, 0x00, 0xfc, 0x00, 0x00, 0x00,
  0xf4, 0x00, 0x00, 0x00, 0xec, 0x00, 0x00, 0x00, 0xe4, 0x00, 0x00, 0x00,
  0xdc, 0x00, 0x00, 0x00, 0xd4, 0x00, 0x00, 0x00, 0xcc, 0x00, 0x00, 0x00,
  0xc4, 0x00, 0x00, 0x00, 0xbc, 0x00, 0x00, 0x00, 0xb4, 0x00, 0x00, 0x00,
  0x94, 0x00, 0x00, 0x00, 0x74, 0x00, 0x00, 0x00, 0x04, 0x00, 0x00, 0x00,
  0x86, 0xf4, 0xff, 0xff, 0x04, 0x00, 0x00, 0x00, 0x60, 0x00, 0x00, 0x00,
  0x0c, 0x00, 0x00, 0x00, 0x08, 0x00, 0x0e, 0x00, 0x08, 0x00, 0x04, 0x00,
  0x08, 0x00, 0x00, 0x00, 0x10, 0x00, 0x00, 0x00, 0x28, 0x00, 0x00, 0x00,
  0x00, 0x00, 0x06, 0x00, 0x08, 0x00, 0x04, 0x00, 0x06, 0x00, 0x00, 0x00,
  0x04, 0x00, 0x00, 0x00, 0x01, 0x00, 0x00, 0x00, 0xeb, 0x03, 0x00, 0x00,
  0x0c, 0x00, 0x18, 0x00, 0x14, 0x00, 0x10, 0x00, 0x0c, 0x00, 0x04, 0x00,
  0x0c, 0x00, 0x00, 0x00, 0x90, 0x23, 0x1c, 0x91, 0xe1, 0x42, 0xe3, 0x7e,
  0x02, 0x00, 0x00, 0x00, 0x02, 0x00, 0x00, 0x00, 0x04, 0x00, 0x00, 0x00,
  0x06, 0x00, 0x00, 0x00, 0x32, 0x2e, 0x31, 0x39, 0x2e, 0x30, 0x00, 0x00,
  0xf2, 0xf4, 0xff, 0xff, 0x04, 0x00, 0x00, 0x00, 0x10, 0x00, 0x00, 0x00,
  0x00, 0x00, 0x00, 0x00, 0x00, 0x00, 0x00, 0x00, 0x00, 0x00, 0x00, 0x00,
  0x00, 0x00, 0x00, 0x00, 0x0e, 0xf5, 0xff, 0xff, 0x04, 0x00, 0x00, 0x00,
  0x10, 0x00, 0x00, 0x00, 0x31, 0x2e, 0x31, 0x34, 0x2e, 0x30, 0x00, 0x00,
  0x00, 0x00, 0x00, 0x00, 0x00, 0x00, 0x00, 0x00, 0x50, 0xe1, 0xff, 0xff,
  0x54, 0xe1, 0xff, 0xff, 0x58, 0xe1, 0xff, 0xff, 0x5c, 0xe1, 0xff, 0xff,
  0x60, 0xe1, 0xff, 0xff, 0x64, 0xe1, 0xff, 0xff, 0x68, 0xe1, 0xff, 0xff,
  0x6c, 0xe1, 0xff, 0xff, 0x70, 0xe1, 0xff, 0xff, 0x4e, 0xf5, 0xff, 0xff,
  0x04, 0x00, 0x00, 0x00, 0xa0, 0x02, 0x00, 0x00, 0x05, 0x0c, 0x28, 0x16,
  0xda, 0x81, 0x25, 0xee, 0xf4, 0x0e, 0xcd, 0x8b, 0x29, 0xec, 0xff, 0x04,
  0xf0, 0x96, 0xff, 0xf2, 0xfe, 0xf5, 0xfb, 0x9f, 0x0a, 0xf0, 0xe2, 0xeb,
  0xfe, 0x9c, 0x07, 0xf7, 0xe5, 0xee, 0xfd, 0xa0, 0x09, 0xe9, 0xdd, 0x00,
  0x02, 0xb2, 0x11, 0x09, 0x1d, 0xe6, 0x17, 0x31, 0x06, 0x31, 0x31, 0xe6,
  0x10, 0x2a, 0x22, 0x35, 0x34, 0xcd, 0x0d, 0x0b, 0x42, 0x4c, 0x2c, 0xdd,
  0x08, 0x23, 0x33, 0x54, 0x1b, 0xf9, 0x01, 0x05, 0x4a, 0x76, 0x03, 0xfc,
  0xf9, 0xea, 0x29, 0x7f, 0x1c, 0x1a, 0xfb, 0xf6, 0x23, 0x81, 0xfc, 0x19,
  0x96, 0x4f, 0x12, 0xad, 0xcd, 0x2f, 0xbf, 0x4c, 0x11, 0xbd, 0xd9, 0x2d,
  0xf9, 0x31, 0x2b, 0xd0, 0x0e, 0x02, 0x12, 0xe3, 0x2d, 0x08, 0x27, 0x05,
  0x15, 0xfd, 0x03, 0x1d, 0x34, 0xe7, 0x22, 0xbe, 0x10, 0x45, 0x3a, 0xf3,
  0x5e, 0xb3, 0x12, 0xe2, 0x12, 0xf8, 0x02, 0x28, 0x0c, 0xe7, 0x03, 0xf6,
  0x15, 0x05, 0x0a, 0xe2, 0x09, 0xec, 0x0d, 0x05, 0x07, 0xe5, 0xfc, 0xfb,
  0x02, 0xe1, 0x0a, 0xfa, 0x0e, 0x00, 0xfc, 0xd7, 0x07, 0xf6, 0x10, 0x08,
  0xf8, 0xb7, 0x0f, 0x09, 0x19, 0x19, 0xe7, 0x81, 0x19, 0x38, 0xd2, 0x18,
  0x26, 0x7f, 0x11, 0x22, 0xe5, 0x05, 0xfb, 0x77, 0x04, 0x13, 0xfb, 0xfe,
  0x07, 0x68, 0xec, 0xe4, 0x0c, 0x09, 0x05, 0x6e, 0xfe, 0xd9, 0x0a, 0xf5,
  0x09, 0x52, 0xf1, 0xea, 0x05, 0xdf, 0x10, 0x3e, 0xf2, 0xcb, 0x05, 0xdd,
  0x0c, 0x29, 0x5e, 0xd8, 0xe9, 0x23, 0xad, 0xcd, 0x4a, 0x06, 0xf2, 0x14,
  0xab, 0xdc, 0x41, 0xe5, 0x19, 0x0f, 0xf2, 0xfd, 0x3c, 0xc1, 0x40, 0xf8,
  0xf6, 0xf9, 0x42, 0xbd, 0x41, 0x0f, 0xd3, 0xe7, 0x04, 0x94, 0x68, 0x08,
  0xfb, 0xdb, 0x11, 0xb7, 0x7f, 0xc4, 0xe1, 0xbc, 0x09, 0x03, 0x11, 0x5e,
  0x81, 0x68, 0xda, 0xf9, 0x26, 0x41, 0xb6, 0x34, 0xcc, 0x0e, 0x1d, 0x49,
  0xe6, 0x2b, 0xe0, 0x0e, 0xfd, 0x0b, 0x0d, 0x0e, 0xc4, 0xf3, 0xff, 0x0c,
  0x34, 0xdd, 0xf4, 0xc4, 0x13, 0xee, 0x70, 0xde, 0xf0, 0xcf, 0xe8, 0xc7,
  0x61, 0xae, 0x3c, 0x2b, 0xdd, 0x4c, 0xef, 0xe7, 0x37, 0x35, 0xf4, 0x4b,
  0xdc, 0x05, 0x33, 0x22, 0xdc, 0x14, 0xd5, 0xff, 0x1a, 0xff, 0x00, 0x31,
  0xb4, 0x1b, 0x1a, 0xe9, 0x21, 0x24, 0xa9, 0x0b, 0x0c, 0xf9, 0x1c, 0x29,
  0x81, 0x2c, 0xe3, 0xdd, 0x20, 0x23, 0x8b, 0x43, 0xf4, 0x43, 0x24, 0xe4,
  0x21, 0x81, 0xe0, 0x2c, 0x04, 0xf7, 0x15, 0xa1, 0x0f, 0x2f, 0x16, 0xe7,
  0x23, 0xc0, 0x04, 0x10, 0x12, 0xda, 0x25, 0xd9, 0x27, 0x03, 0x15, 0xf2,
  0x16, 0xf6, 0x1f, 0xde, 0xeb, 0xdb, 0x31, 0xfe, 0x44, 0xcf, 0xdd, 0xbf,
  0x46, 0x35, 0x69, 0x64, 0xe3, 0x45, 0xd2, 0x05, 0x34, 0x2d, 0xeb, 0x29,
  0xe8, 0x3c, 0x33, 0x33, 0x14, 0x2d, 0xb9, 0x44, 0x42, 0x0b, 0x03, 0x27,
  0xf0, 0x37, 0x2c, 0x21, 0x00, 0x08, 0xe3, 0x54, 0x16, 0x1d, 0x39, 0x3e,
  0xe4, 0x7f, 0xfa, 0x1c, 0x6f, 0x56, 0xeb, 0x49, 0xd3, 0xc5, 0xfa, 0xfc,
  0xd5, 0x11, 0xee, 0xcc, 0x20, 0x08, 0xd7, 0xf2, 0xdd, 0xde, 0x25, 0xea,
  0xde, 0x0e, 0xce, 0xda, 0x42, 0xec, 0xf2, 0xea, 0xd9, 0xf9, 0x25, 0xdc,
  0xe7, 0xdd, 0xd0, 0xdf, 0x1d, 0xbe, 0xd8, 0xe3, 0xec, 0x00, 0x2a, 0x81,
  0xb8, 0xb8, 0xe4, 0xbf, 0x24, 0xfd, 0x17, 0x01, 0xef, 0xc8, 0x03, 0xcd,
  0x22, 0x14, 0x28, 0xbe, 0x23, 0xd7, 0x33, 0x15, 0x40, 0xc9, 0x0d, 0xe6,
  0x3b, 0x2e, 0x5b, 0xdc, 0x06, 0x1c, 0x20, 0x30, 0x7f, 0x0d, 0x22, 0x4b,
  0x4a, 0x20, 0x4b, 0x1a, 0x5f, 0x64, 0x69, 0x4d, 0x2b, 0x09, 0x67, 0xdf,
  0xfb, 0x81, 0x59, 0x34, 0x37, 0xf8, 0x20, 0x87, 0x2f, 0x2a, 0x4a, 0xce,
  0x12, 0xbf, 0x49, 0x2b, 0x39, 0xfc, 0x08, 0xc7, 0x23, 0x1f, 0x27, 0x13,
  0x4d, 0x0f, 0xfc, 0x58, 0x1e, 0x31, 0x42, 0x0e, 0xfc, 0x5d, 0x1f, 0x5a,
  0x4d, 0x38, 0x54, 0xea, 0x4f, 0x09, 0xf5, 0x01, 0x3c, 0x06, 0x41, 0xfe,
  0xf5, 0xf2, 0x37, 0xe7, 0x32, 0xe8, 0xcc, 0x00, 0xf3, 0x02, 0x21, 0xf8,
  0xdf, 0x1a, 0xcc, 0x07, 0x02, 0x10, 0xe8, 0x11, 0xa0, 0xfb, 0xee, 0x10,
  0xda, 0x20, 0x81, 0x26, 0x02, 0x38, 0xf7, 0x0f, 0x05, 0x1d, 0xec, 0xe7,
  0x9b, 0x81, 0xf3, 0x04, 0xf9, 0xfb, 0xb9, 0x82, 0xd6, 0x17, 0x17, 0x36,
  0xb1, 0x9b, 0xf8, 0xfd, 0x0b, 0x21, 0xc8, 0xa3, 0xf1, 0xef, 0x08, 0x3d,
  0xc2, 0xc5, 0xe2, 0xcc, 0x05, 0x27, 0xb6, 0xba, 0xd2, 0xd1, 0x2c, 0xe9,
  0x9d, 0xe6, 0xb4, 0xd8, 0x53, 0x6a, 0x14, 0x03, 0xd1, 0xee, 0x3d, 0x5c,
  0x2d, 0x1f, 0xba, 0xd9, 0x2f, 0x2c, 0x4f, 0x0d, 0xf7, 0xe6, 0xf5, 0x2a,
  0x52, 0x20, 0x10, 0xed, 0xdc, 0x19, 0x55, 0x2e, 0x1b, 0xdf, 0x06, 0x08,
  0x7f, 0x2e, 0x10, 0xde, 0xfb, 0x08, 0x72, 0x4d, 0xfa, 0xf7, 0xff, 0xff,
  0x04, 0x00, 0x00, 0x00, 0x40, 0x00, 0x00, 0x00, 0x39, 0xff, 0xff, 0xff,
  0x10, 0xff, 0xff, 0xff, 0xd4, 0xfe, 0xff, 0xff, 0xec, 0xff, 0xff, 0xff,
  0xcf, 0xfe, 0xff, 0xff, 0x8d, 0xfe, 0xff, 0xff, 0xdd, 0xff, 0xff, 0xff,
  0x45, 0xff, 0xff, 0xff, 0x57, 0x00, 0x00, 0x00, 0x02, 0x01, 0x00, 0x00,
  0xf2, 0x00, 0x00, 0x00, 0x0a, 0xff, 0xff, 0xff, 0xd4, 0xff, 0xff, 0xff,
  0x01, 0x00, 0x00, 0x00, 0x91, 0x00, 0x00, 0x00, 0xab, 0xff, 0xff, 0xff,
  0x46, 0xf8, 0xff, 0xff, 0x04, 0x00, 0x00, 0x00, 0xc0, 0x03, 0x00, 0x00,
  0xcf, 0xe9, 0xe6, 0xf5, 0x81, 0x08, 0x39, 0xf4, 0x05, 0x01, 0xfb, 0x10,
  0x32, 0xe2, 0xd1, 0x28, 0xd0, 0x02, 0xf4, 0x13, 0x9c, 0x02, 0x04, 0xe4,
  0xf9, 0xdd, 0x0a, 0x03, 0x1c, 0xdf, 0xb5, 0x16, 0x01, 0xf4, 0xf4, 0x18,
  0xb0, 0xfc, 0xdb, 0xd2, 0xfc, 0xd3, 0x27, 0xed, 0x08, 0xd6, 0xe0, 0x05,
  0x02, 0x08, 0x00, 0x53, 0xc4, 0x06, 0xd2, 0xc8, 0xe5, 0xcc, 0x21, 0x03,
  0x04, 0xda, 0xe9, 0x09, 0xfd, 0x1b, 0x03, 0x45, 0xbc, 0x01, 0xdc, 0xcc,
  0xdb, 0xce, 0x01, 0xe4, 0xf4, 0xd6, 0xd7, 0x17, 0x07, 0xfa, 0x5d, 0x2b,
  0xe1, 0x0a, 0x00, 0xa8, 0xc0, 0xbf, 0x27, 0xe7, 0xf3, 0x13, 0x0f, 0xaf,
  0x2d, 0x01, 0x35, 0x13, 0x06, 0x0f, 0x0d, 0xd4, 0xe4, 0xcd, 0xfa, 0xe7,
  0x0d, 0x15, 0x20, 0xd3, 0xfa, 0x0b, 0x1b, 0xe4, 0x0b, 0xf8, 0x06, 0xd7,
  0x1e, 0xc3, 0x02, 0xca, 0x10, 0x1e, 0x26, 0xda, 0xff, 0x34, 0x0e, 0xc2,
  0xf8, 0xc8, 0x11, 0xf7, 0x1f, 0xd2, 0xac, 0xcd, 0x06, 0x25, 0xdb, 0xe9,
  0x0a, 0x26, 0x11, 0xb0, 0xfb, 0xd2, 0x0c, 0x14, 0x17, 0xe7, 0x81, 0xda,
  0x01, 0xf0, 0xea, 0x1a, 0xbe, 0x0b, 0x36, 0x44, 0xf5, 0x0b, 0xe7, 0xfa,
  0xd8, 0xe4, 0x2d, 0x1e, 0xe9, 0xe3, 0xa6, 0xed, 0xe4, 0x0c, 0x30, 0x2e,
  0xe5, 0xea, 0xd5, 0xf1, 0xbc, 0xf8, 0x0d, 0x1e, 0x22, 0xce, 0xc6, 0xf6,
  0xf2, 0xf4, 0x0e, 0xe3, 0xd6, 0xf6, 0xe1, 0xf7, 0xd2, 0xf5, 0xf4, 0xfe,
  0x31, 0xe5, 0xeb, 0xfd, 0xf5, 0x04, 0x0a, 0xd2, 0xd9, 0xf5, 0xf6, 0x11,
  0xbf, 0xf2, 0xee, 0xf1, 0x49, 0xdd, 0x0a, 0xf8, 0xbc, 0x2b, 0xf5, 0x81,
  0xc0, 0x20, 0x1d, 0x16, 0xb2, 0xf1, 0xf7, 0xb4, 0x25, 0xe1, 0x08, 0xf6,
  0xad, 0x26, 0xd8, 0xe7, 0x81, 0x4b, 0xf1, 0x12, 0xab, 0xf2, 0x3e, 0xf8,
  0x02, 0x24, 0x07, 0xb6, 0xae, 0x2a, 0xcb, 0x14, 0xba, 0x27, 0xee, 0xf0,
  0xf2, 0x1e, 0x08, 0xe7, 0x11, 0x05, 0x10, 0xfc, 0xc3, 0x15, 0xfb, 0x14,
  0xe2, 0x04, 0xe2, 0x06, 0x02, 0x08, 0xea, 0xee, 0xf1, 0xff, 0x02, 0x0f,
  0xc7, 0xe0, 0x11, 0x15, 0x38, 0xe9, 0x04, 0x14, 0x26, 0x16, 0xe7, 0xed,
  0xf4, 0xdc, 0xee, 0x00, 0xf4, 0xb4, 0xe7, 0x3a, 0x5e, 0xce, 0x22, 0x1b,
  0x12, 0x17, 0xf7, 0xd3, 0xeb, 0x18, 0xfe, 0x12, 0x3f, 0x3d, 0xb8, 0xf9,
  0x29, 0xd5, 0xe1, 0x4c, 0x4b, 0x36, 0x27, 0xd7, 0x65, 0xdc, 0x22, 0x5a,
  0x11, 0x1a, 0xbc, 0x0f, 0x1f, 0x94, 0xe5, 0x50, 0x3a, 0x11, 0x0b, 0xdb,
  0x17, 0xd8, 0x31, 0x1f, 0x10, 0xd0, 0x06, 0x20, 0x15, 0xb0, 0x20, 0x3e,
  0xfe, 0xf5, 0xe3, 0x04, 0xe8, 0xdd, 0x2f, 0xeb, 0xdd, 0xb4, 0x17, 0xe5,
  0xf9, 0xac, 0xfb, 0x29, 0x0d, 0xb8, 0xcd, 0x3b, 0x0e, 0xd8, 0xf5, 0xc1,
  0xca, 0x81, 0xf9, 0xf0, 0xd2, 0xed, 0x1e, 0xc2, 0xef, 0xbe, 0xc5, 0x25,
  0x5f, 0x13, 0xea, 0xe6, 0x27, 0x28, 0xd4, 0xae, 0x22, 0xf4, 0x97, 0xfe,
  0x2d, 0x0c, 0xcb, 0x36, 0x39, 0xf1, 0x19, 0xe4, 0xff, 0x0c, 0xf1, 0xcc,
  0x13, 0xec, 0xcb, 0x25, 0x1b, 0x11, 0xd3, 0x0b, 0x1a, 0xf1, 0x13, 0xe5,
  0xdf, 0xfd, 0x2b, 0xfd, 0x04, 0x21, 0x03, 0x03, 0x10, 0x0f, 0xf0, 0xff,
  0x11, 0x1f, 0xfe, 0xf0, 0xb8, 0xcb, 0x0f, 0x0a, 0xea, 0x0c, 0x35, 0x08,
  0xdd, 0x06, 0xff, 0xbd, 0xe4, 0x02, 0xfe, 0x02, 0xa5, 0x91, 0x07, 0x38,
  0x0e, 0x13, 0x4d, 0xe5, 0xc1, 0xcd, 0x2c, 0x81, 0xf3, 0xef, 0x08, 0x17,
  0x69, 0x05, 0x81, 0x30, 0xca, 0xbc, 0x1f, 0xa2, 0x3a, 0xb6, 0x36, 0x9a,
  0x14, 0x02, 0x2c, 0x2f, 0x51, 0x06, 0xad, 0xff, 0xe4, 0xc9, 0x05, 0xb2,
  0x13, 0xd3, 0xfb, 0xce, 0xf9, 0xfa, 0x31, 0x30, 0x37, 0x16, 0xb4, 0xf6,
  0x13, 0x03, 0x0e, 0xd2, 0x22, 0xed, 0xca, 0xe7, 0xf5, 0xd4, 0x17, 0x1c,
  0x25, 0x38, 0xb9, 0xfb, 0x26, 0x36, 0x06, 0xef, 0x0c, 0x05, 0x99, 0xef,
  0x1a, 0xe9, 0x21, 0x29, 0x3d, 0x4a, 0xea, 0x23, 0x2d, 0x65, 0x11, 0x05,
  0x0e, 0x25, 0x9a, 0x07, 0x04, 0xd5, 0x1f, 0x47, 0x9e, 0xc0, 0x0c, 0xed,
  0xf4, 0xc4, 0x29, 0x13, 0x9c, 0x15, 0x2b, 0x04, 0x0a, 0x10, 0xfa, 0x0d,
  0xc5, 0xc6, 0xee, 0x0b, 0x0c, 0xed, 0x30, 0x14, 0xda, 0xf3, 0x18, 0x04,
  0x0b, 0xd9, 0xd8, 0x20, 0xf2, 0xc6, 0xff, 0x09, 0xe8, 0xe2, 0x0c, 0xf0,
  0x05, 0xf3, 0x18, 0xfc, 0x3b, 0xc0, 0xa5, 0x14, 0x02, 0xea, 0xf6, 0x1c,
  0xf2, 0xe4, 0xef, 0xe1, 0x06, 0xdb, 0xee, 0x03, 0x19, 0xb2, 0xb0, 0x03,
  0x0f, 0xe1, 0x00, 0x35, 0x0b, 0xd3, 0xd8, 0xe7, 0x05, 0xc9, 0xb6, 0xf6,
  0x14, 0xa5, 0x81, 0xf5, 0xd6, 0x26, 0x52, 0x27, 0x35, 0x13, 0xe0, 0x05,
  0x02, 0x17, 0x21, 0xff, 0xf0, 0x33, 0x03, 0x03, 0xf0, 0x09, 0x2e, 0x1a,
  0x1f, 0x20, 0x0b, 0x0f, 0xeb, 0x05, 0x25, 0xed, 0xdd, 0x17, 0xfd, 0x17,
  0xe3, 0x00, 0x14, 0xe6, 0x0d, 0xfd, 0x0b, 0x00, 0xe3, 0xe1, 0x25, 0xf0,
  0xf1, 0xd5, 0xf6, 0x09, 0xe6, 0xe1, 0x01, 0xcd, 0xe2, 0xee, 0xf5, 0xeb,
  0xf1, 0xf1, 0x17, 0x01, 0x25, 0xdd, 0xee, 0x2c, 0xab, 0xde, 0x1b, 0x81,
  0xde, 0xba, 0xdc, 0xdc, 0xe0, 0xe0, 0xea, 0x19, 0x32, 0xba, 0xcf, 0x1f,
  0x6d, 0x09, 0x95, 0x25, 0xb6, 0x28, 0xa4, 0x4b, 0x01, 0x1a, 0xc3, 0xdb,
  0x44, 0x0a, 0xf9, 0xbb, 0x2c, 0x01, 0xb8, 0x0c, 0xdb, 0x24, 0xbd, 0x2d,
  0x0e, 0x1d, 0xf0, 0x03, 0x33, 0xe5, 0xfd, 0xbb, 0xfb, 0x1a, 0xcf, 0xee,
  0xc6, 0x09, 0x9c, 0x1c, 0xef, 0x16, 0xef, 0x01, 0x41, 0xe4, 0xea, 0xbf,
  0xf1, 0x00, 0xfd, 0x14, 0xa3, 0x32, 0xb0, 0x2e, 0x0f, 0x1f, 0x18, 0xe3,
  0x5b, 0xd0, 0xe7, 0xc5, 0x10, 0x2b, 0x1a, 0xf9, 0x81, 0xfb, 0xa1, 0x48,
  0x21, 0x42, 0x24, 0xe5, 0x67, 0xac, 0xca, 0xe5, 0xba, 0xb3, 0x12, 0x0e,
  0x81, 0x1e, 0x1b, 0xfe, 0x1a, 0xc7, 0x1f, 0xa6, 0xc9, 0xf3, 0xed, 0xf7,
  0xb8, 0xcf, 0x01, 0xef, 0x9c, 0x22, 0x0b, 0x00, 0x20, 0xee, 0x03, 0xd0,
  0xef, 0xfb, 0x0f, 0x04, 0xd8, 0xef, 0xf6, 0xe0, 0xb6, 0x0e, 0x07, 0x04,
  0x19, 0xe5, 0xef, 0xe8, 0x03, 0xee, 0x10, 0x26, 0xd1, 0x08, 0x1e, 0xd4,
  0xe4, 0x09, 0xf2, 0x35, 0x26, 0xfd, 0xea, 0xff, 0x1b, 0xf3, 0xff, 0x11,
  0xe0, 0x4d, 0x05, 0xd4, 0x27, 0x01, 0xd6, 0x23, 0x1e, 0x26, 0xfa, 0x49,
  0x2f, 0x0a, 0xe8, 0x27, 0xc3, 0x0a, 0xf1, 0x23, 0x3f, 0x10, 0xe1, 0x07,
  0x07, 0xb5, 0x00, 0xfd, 0x44, 0xe4, 0xc8, 0x2e, 0xf6, 0x1d, 0x02, 0x10,
  0x2f, 0x3a, 0x8d, 0x0e, 0xdb, 0xdc, 0x07, 0xfa, 0x3c, 0xe5, 0xde, 0xff,
  0x16, 0x18, 0x09, 0x18, 0x26, 0x20, 0x81, 0x2d, 0xda, 0x02, 0xf7, 0xf7,
  0x23, 0x19, 0xfa, 0xea, 0x21, 0x2b, 0xf9, 0xf6, 0x06, 0xfd, 0xb2, 0x23,
  0xd1, 0x06, 0xf1, 0x0b, 0x50, 0x36, 0x10, 0xf4, 0x11, 0x1c, 0x2d, 0xf7,
  0xfe, 0xcc, 0xcf, 0x2f, 0xba, 0x3f, 0xc9, 0xe0, 0x57, 0x6b, 0x31, 0x08,
  0x12, 0xfc, 0xff, 0xff, 0x04, 0x00, 0x00, 0x00, 0x30, 0x00, 0x00, 0x00,
  0x91, 0x04, 0x00, 0x00, 0x9d, 0x02, 0x00, 0x00, 0xf8, 0x05, 0x00, 0x00,
  0x1c, 0x02, 0x00, 0x00, 0x0a, 0xfe, 0xff, 0xff, 0xf1, 0x01, 0x00, 0x00,
  0x63, 0x00, 0x00, 0x00, 0x3c, 0x05, 0x00, 0x00, 0x55, 0x01, 0x00, 0x00,
  0xe6, 0xfd, 0xff, 0xff, 0xe0, 0x03, 0x00, 0x00, 0x4d, 0xfe, 0xff, 0xff,
  0x4e, 0xfc, 0xff, 0xff, 0x04, 0x00, 0x00, 0x00, 0x20, 0x01, 0x00, 0x00,
  0xee, 0xfd, 0xc4, 0xce, 0xdd, 0x28, 0x04, 0x7c, 0x29, 0xf0, 0x16, 0x23,
  0x08, 0xe9, 0xbd, 0x18, 0x11, 0x2f, 0x14, 0x20, 0xda, 0x01, 0xfe, 0x1a,
  0xf7, 0xec, 0xc0, 0x41, 0xf6, 0x4d, 0x14, 0xfd, 0x81, 0x1a, 0x17, 0x22,
  0xae, 0x19, 0xe8, 0x4a, 0xe5, 0x1c, 0x18, 0xfa, 0x00, 0x13, 0x81, 0x3a,
  0xe0, 0x22, 0xfd, 0x27, 0x15, 0xf8, 0x06, 0x28, 0x35, 0xfd, 0xcf, 0xd6,
  0xe6, 0x0f, 0x12, 0x10, 0x20, 0x22, 0x06, 0x46, 0x15, 0x38, 0xf8, 0xd5,
  0x14, 0x49, 0xe7, 0x31, 0x53, 0xd2, 0x22, 0xd8, 0x16, 0x36, 0xb7, 0x33,
  0x1c, 0x2f, 0xeb, 0x40, 0x29, 0xea, 0xff, 0xe6, 0x2d, 0xc7, 0xf1, 0x29,
  0x55, 0xf5, 0xc2, 0x4c, 0x22, 0x23, 0x09, 0x14, 0x1d, 0x81, 0xe1, 0x26,
  0x03, 0xfd, 0x33, 0x3b, 0x2a, 0x0b, 0x3e, 0xe7, 0xfb, 0xfa, 0x8e, 0xf0,
  0x18, 0xf3, 0x32, 0x07, 0xf2, 0xfb, 0x10, 0x09, 0x04, 0xe8, 0x81, 0x06,
  0x04, 0xf1, 0x39, 0xeb, 0xd7, 0x2c, 0x0d, 0x12, 0x5b, 0xf5, 0xcc, 0xec,
  0x12, 0xdf, 0xb7, 0x23, 0x1f, 0x18, 0xc1, 0x18, 0x0e, 0xad, 0xcc, 0x0b,
  0xfa, 0x4a, 0xd5, 0xf7, 0x13, 0x11, 0x0a, 0x07, 0xaf, 0x10, 0xc7, 0x00,
  0x2e, 0x7f, 0xca, 0x0d, 0x21, 0x4c, 0x08, 0xfb, 0x84, 0x08, 0x08, 0x19,
  0xe5, 0x1f, 0xe3, 0x7f, 0x0f, 0x47, 0xd9, 0xf8, 0xe4, 0x0f, 0x0a, 0x2e,
  0xef, 0x41, 0x0a, 0x28, 0xf5, 0x3c, 0xce, 0xf3, 0xd8, 0x1d, 0xf9, 0x0e,
  0xd5, 0x5c, 0xf0, 0xe6, 0x16, 0xe2, 0x22, 0x1d, 0x0f, 0xf6, 0x02, 0x25,
  0x2f, 0xca, 0xf7, 0xcf, 0xc9, 0x28, 0xd4, 0x26, 0x2b, 0xb2, 0x06, 0x06,
  0x10, 0x21, 0xea, 0xf5, 0xdb, 0x07, 0x0e, 0xdb, 0xfc, 0xd2, 0xe4, 0x20,
  0x00, 0x1b, 0xd3, 0x1a, 0x0e, 0x19, 0x7f, 0xc4, 0xfa, 0x04, 0x0d, 0x38,
  0xc5, 0x1e, 0xcf, 0xda, 0x7f, 0xd2, 0x67, 0xf1, 0xf7, 0x3a, 0x14, 0xd9,
  0xe3, 0x04, 0xc0, 0x04, 0xfd, 0x0c, 0x14, 0x2d, 0xe8, 0xfa, 0x36, 0xcd,
  0xf8, 0xcc, 0xe5, 0x3c, 0xa0, 0xe1, 0xd0, 0x3b, 0x01, 0xc8, 0x11, 0xcd,
  0x7a, 0xfd, 0xff, 0xff, 0x04, 0x00, 0x00, 0x00, 0x20, 0x00, 0x00, 0x00,
  0x3d, 0xfe, 0xff, 0xff, 0xa6, 0xfe, 0xff, 0xff, 0xd4, 0xfb, 0xff, 0xff,
  0xf4, 0xff, 0xff, 0xff, 0xc4, 0x01, 0x00, 0x00, 0xd0, 0xfc, 0xff, 0xff,
  0x36, 0x00, 0x00, 0x00, 0x04, 0x01, 0x00, 0x00, 0xa6, 0xfd, 0xff, 0xff,
  0x04, 0x00, 0x00, 0x00, 0x80, 0x00, 0x00, 0x00, 0x8e, 0x94, 0x23, 0xd3,
  0x7f, 0xbe, 0x60, 0x13, 0x81, 0x96, 0x1a, 0xd2, 0x75, 0xce, 0x73, 0x06,
  0xbc, 0x7f, 0x30, 0x37, 0x4b, 0xf6, 0x8c, 0xbd, 0x44, 0x4e, 0x81, 0xd2,
  0x3c, 0xf1, 0x26, 0xa7, 0x63, 0xc4, 0x3d, 0xc9, 0x8e, 0xdf, 0x88, 0x7f,
  0x23, 0x7f, 0xb6, 0x29, 0xf6, 0x1c, 0xdf, 0xb0, 0xaf, 0xca, 0x7f, 0x58,
  0xc2, 0x2c, 0x98, 0x7e, 0x09, 0xec, 0x8e, 0x07, 0xda, 0x19, 0x7f, 0xdc,
  0x20, 0x7f, 0xb3, 0x35, 0xfa, 0x1f, 0xe0, 0xaa, 0x1b, 0xea, 0x37, 0x81,
  0x54, 0xa4, 0xeb, 0x2e, 0x25, 0x00, 0xf8, 0x81, 0x33, 0xef, 0xf5, 0x15,
  0x2f, 0xe7, 0xc5, 0x16, 0x81, 0x1e, 0x32, 0x25, 0x81, 0xe4, 0x47, 0x34,
  0x17, 0x10, 0x04, 0x07, 0x07, 0x14, 0xcb, 0x1d, 0x81, 0x44, 0x1b, 0x20,
  0x0e, 0xca, 0x97, 0x0e, 0xf1, 0x1c, 0x7f, 0xe0, 0x7f, 0x3c, 0xa7, 0xc1,
  0xf8, 0xeb, 0xde, 0xea, 0x32, 0xfe, 0xff, 0xff, 0x04, 0x00, 0x00, 0x00,
  0x40, 0x00, 0x00, 0x00, 0x1e, 0xfa, 0xff, 0xff, 0xd4, 0xf8, 0xff, 0xff,
  0x5a, 0xfe, 0xff, 0xff, 0xde, 0xfe, 0xff, 0xff, 0x05, 0x13, 0x00, 0x00,
  0x14, 0xff, 0xff, 0xff, 0xd5, 0x0c, 0x00, 0x00, 0xf6, 0xfe, 0xff, 0xff,
  0x1b, 0xfd, 0xff, 0xff, 0xb6, 0x05, 0x00, 0x00, 0x74, 0x05, 0x00, 0x00,
  0x41, 0x0a, 0x00, 0x00, 0xdb, 0xfd, 0xff, 0xff, 0xd3, 0x08, 0x00, 0x00,
  0x5d, 0xfd, 0xff, 0xff, 0x59, 0x0b, 0x00, 0x00, 0x7e, 0xfe, 0xff, 0xff,
  0x04, 0x00, 0x00, 0x00, 0x70, 0x00, 0x00, 0x00, 0x0d, 0x14, 0x8c, 0xa4,
  0xbf, 0x81, 0x03, 0x1f, 0x8d, 0x9a, 0x91, 0x17, 0x0e, 0x15, 0x17, 0x90,
  0xaa, 0xca, 0xe6, 0x16, 0xcc, 0x29, 0xc8, 0x27, 0x22, 0x97, 0xb1, 0x1e,
  0x81, 0x1f, 0x19, 0x12, 0x1b, 0x1d, 0xba, 0x18, 0xb5, 0xb2, 0x81, 0x13,
  0xb2, 0x18, 0x19, 0xd4, 0xda, 0xae, 0x16, 0xfe, 0xd2, 0xca, 0x17, 0x1f,
  0xcf, 0x27, 0x91, 0x9e, 0x22, 0x1b, 0x19, 0xa6, 0x81, 0xa6, 0xa0, 0x19,
  0xaa, 0xb6, 0x13, 0xba, 0xe3, 0x11, 0x0f, 0xca, 0x0f, 0xb0, 0x81, 0xe0,
  0x0a, 0x04, 0xba, 0xc3, 0x13, 0x16, 0x11, 0xbf, 0xd2, 0xd2, 0x0b, 0xbe,
  0xd6, 0x0b, 0xdb, 0x81, 0x14, 0xb1, 0xc9, 0xa3, 0xa6, 0x83, 0xc8, 0xba,
  0x7f, 0xcf, 0x1d, 0xc1, 0xbf, 0x1a, 0x13, 0x1d, 0xbd, 0x1d, 0xc2, 0x1d,
  0xfa, 0xfe, 0xff, 0xff, 0x04, 0x00, 0x00, 0x00, 0x1c, 0x00, 0x00, 0x00,
  0xcb, 0xff, 0xff, 0xff, 0xd8, 0xf9, 0xff, 0xff, 0x50, 0xf8, 0xff, 0xff,
  0x37, 0xf8, 0xff, 0xff, 0xfb, 0x06, 0x00, 0x00, 0x10, 0x07, 0x00, 0x00,
  0x51, 0xfd, 0xff, 0xff, 0x22, 0xff, 0xff, 0xff, 0x04, 0x00, 0x00, 0x00,
  0x04, 0x00, 0x00, 0x00, 0x01, 0x00, 0x00, 0x00, 0x32, 0xff, 0xff, 0xff,
  0x04, 0x00, 0x00, 0x00, 0x0c, 0x00, 0x00, 0x00, 0x01, 0x00, 0x00, 0x00,
  0x7d, 0x00, 0x00, 0x00, 0x08, 0x00, 0x00, 0x00, 0x4a, 0xff, 0xff, 0xff,
  0x04, 0x00, 0x00, 0x00, 0x10, 0x00, 0x00, 0x00, 0x01, 0x00, 0x00, 0x00,
  0x01, 0x00, 0x00, 0x00, 0xf4, 0x01, 0x00, 0x00, 0x06, 0x00, 0x00, 0x00,
  0x8c, 0xeb, 0xff, 0xff, 0x90, 0xeb, 0xff, 0xff, 0x0f, 0x00, 0x00, 0x00,
  0x4d, 0x4c, 0x49, 0x52, 0x20, 0x43, 0x6f, 0x6e, 0x76, 0x65, 0x72, 0x74,
  0x65, 0x64, 0x2e, 0x00, 0x01, 0x00, 0x00, 0x00, 0x14, 0x00, 0x00, 0x00,
  0x00, 0x00, 0x0e, 0x00, 0x18, 0x00, 0x14, 0x00, 0x10, 0x00, 0x0c, 0x00,
  0x08, 0x00, 0x04, 0x00, 0x0e, 0x00, 0x00, 0x00, 0x14, 0x00, 0x00, 0x00,
  0x1c, 0x00, 0x00, 0x00, 0x44, 0x02, 0x00, 0x00, 0x48, 0x02, 0x00, 0x00,
  0x4c, 0x02, 0x00, 0x00, 0x04, 0x00, 0x00, 0x00, 0x6d, 0x61, 0x69, 0x6e,
  0x00, 0x00, 0x00, 0x00, 0x09, 0x00, 0x00, 0x00, 0x08, 0x02, 0x00, 0x00,
  0xac, 0x01, 0x00, 0x00, 0x58, 0x01, 0x00, 0x00, 0x14, 0x01, 0x00, 0x00,
  0xf0, 0x00, 0x00, 0x00, 0xbc, 0x00, 0x00, 0x00, 0x78, 0x00, 0x00, 0x00,
  0x40, 0x00, 0x00, 0x00, 0x04, 0x00, 0x00, 0x00, 0x82, 0xfe, 0xff, 0xff,
  0x1c, 0x00, 0x00, 0x00, 0x00, 0x00, 0x00, 0x09, 0x1c, 0x00, 0x00, 0x00,
  0x20, 0x00, 0x00, 0x00, 0x04, 0x00, 0x00, 0x00, 0x00, 0x00, 0x06, 0x00,
  0x08, 0x00, 0x04, 0x00, 0x06, 0x00, 0x00, 0x00, 0x00, 0x00, 0x80, 0x3f,
  0x01, 0x00, 0x00, 0x00, 0x16, 0x00, 0x00, 0x00, 0x01, 0x00, 0x00, 0x00,
  0x15, 0x00, 0x00, 0x00, 0xba, 0xfe, 0xff, 0xff, 0x14, 0x00, 0x00, 0x00,
  0x00, 0x00, 0x00, 0x08, 0x10, 0x00, 0x00, 0x00, 0x14, 0x00, 0x00, 0x00,
  0x03, 0x00, 0x00, 0x00, 0x5c, 0xec, 0xff, 0xff, 0x01, 0x00, 0x00, 0x00,
  0x15, 0x00, 0x00, 0x00, 0x03, 0x00, 0x00, 0x00, 0x14, 0x00, 0x00, 0x00,
  0x05, 0x00, 0x00, 0x00, 0x04, 0x00, 0x00, 0x00, 0xee, 0xfe, 0xff, 0xff,
  0x1c, 0x00, 0x00, 0x00, 0x00, 0x00, 0x00, 0x08, 0x1c, 0x00, 0x00, 0x00,
  0x20, 0x00, 0x00, 0x00, 0x03, 0x00, 0x00, 0x00, 0x00, 0x00, 0x06, 0x00,
  0x08, 0x00, 0x07, 0x00, 0x06, 0x00, 0x00, 0x00, 0x00, 0x00, 0x00, 0x01,
  0x01, 0x00, 0x00, 0x00, 0x14, 0x00, 0x00, 0x00, 0x03, 0x00, 0x00, 0x00,
  0x13, 0x00, 0x00, 0x00, 0x07, 0x00, 0x00, 0x00, 0x06, 0x00, 0x00, 0x00,
  0x2e, 0xff, 0xff, 0xff, 0x14, 0x00, 0x00, 0x00, 0x00, 0x00, 0x00, 0x1b,
  0x10, 0x00, 0x00, 0x00, 0x14, 0x00, 0x00, 0x00, 0x02, 0x00, 0x00, 0x00,
  0xd0, 0xec, 0xff, 0xff, 0x01, 0x00, 0x00, 0x00, 0x13, 0x00, 0x00, 0x00,
  0x02, 0x00, 0x00, 0x00, 0x12, 0x00, 0x00, 0x00, 0x03, 0x00, 0x00, 0x00,
  0x02, 0xff, 0xff, 0xff, 0x08, 0x00, 0x00, 0x00, 0x0c, 0x00, 0x00, 0x00,
  0x01, 0x00, 0x00, 0x00, 0x12, 0x00, 0x00, 0x00, 0x02, 0x00, 0x00, 0x00,
  0x11, 0x00, 0x00, 0x00, 0x02, 0x00, 0x00, 0x00, 0x7e, 0xff, 0xff, 0xff,
  0x14, 0x00, 0x00, 0x00, 0x00, 0x00, 0x00, 0x01, 0x1c, 0x00, 0x00, 0x00,
  0x20, 0x00, 0x00, 0x00, 0x01, 0x00, 0x00, 0x00, 0x70, 0xff, 0xff, 0xff,
  0x00, 0x00, 0x00, 0x01, 0x01, 0x00, 0x00, 0x00, 0x01, 0x00, 0x00, 0x00,
  0x01, 0x00, 0x00, 0x00, 0x11, 0x00, 0x00, 0x00, 0x03, 0x00, 0x00, 0x00,
  0x10, 0x00, 0x00, 0x00, 0x09, 0x00, 0x00, 0x00, 0x08, 0x00, 0x00, 0x00,
  0xbe, 0xff, 0xff, 0xff, 0x14, 0x00, 0x00, 0x00, 0x00, 0x00, 0x00, 0x01,
  0x1c, 0x00, 0x00, 0x00, 0x20, 0x00, 0x00, 0x00, 0x01, 0x00, 0x00, 0x00,
  0xb0, 0xff, 0xff, 0xff, 0x00, 0x00, 0x00, 0x01, 0x01, 0x00, 0x00, 0x00,
  0x02, 0x00, 0x00, 0x00, 0x01, 0x00, 0x00, 0x00, 0x10, 0x00, 0x00, 0x00,
  0x03, 0x00, 0x00, 0x00, 0x0f, 0x00, 0x00, 0x00, 0x0b, 0x00, 0x00, 0x00,
  0x0a, 0x00, 0x00, 0x00, 0x00, 0x00, 0x0e, 0x00, 0x18, 0x00, 0x14, 0x00,
  0x10, 0x00, 0x0c, 0x00, 0x0b, 0x00, 0x04, 0x00, 0x0e, 0x00, 0x00, 0x00,
  0x20, 0x00, 0x00, 0x00, 0x00, 0x00, 0x00, 0x01, 0x28, 0x00, 0x00, 0x00,
  0x2c, 0x00, 0x00, 0x00, 0x01, 0x00, 0x00, 0x00, 0x0c, 0x00, 0x10, 0x00,
  0x00, 0x00, 0x0c, 0x00, 0x08, 0x00, 0x07, 0x00, 0x0c, 0x00, 0x00, 0x00,
  0x00, 0x00, 0x00, 0x01, 0x01, 0x00, 0x00, 0x00, 0x02, 0x00, 0x00, 0x00,
  0x01, 0x00, 0x00, 0x00, 0x0f, 0x00, 0x00, 0x00, 0x03, 0x00, 0x00, 0x00,
  0x0e, 0x00, 0x00, 0x00, 0x0d, 0x00, 0x00, 0x00, 0x0c, 0x00, 0x00, 0x00,
  0x00, 0x00, 0x0a, 0x00, 0x0c, 0x00, 0x00, 0x00, 0x08, 0x00, 0x04, 0x00,
  0x0a, 0x00, 0x00, 0x00, 0x08, 0x00, 0x00, 0x00, 0x0c, 0x00, 0x00, 0x00,
  0x01, 0x00, 0x00, 0x00, 0x0e, 0x00, 0x00, 0x00, 0x02, 0x00, 0x00, 0x00,
  0x00, 0x00, 0x00, 0x00, 0x01, 0x00, 0x00, 0x00, 0x01, 0x00, 0x00, 0x00,
  0x16, 0x00, 0x00, 0x00, 0x01, 0x00, 0x00, 0x00, 0x00, 0x00, 0x00, 0x00,
  0x17, 0x00, 0x00, 0x00, 0x18, 0x12, 0x00, 0x00, 0xbc, 0x11, 0x00, 0x00,
  0x7c, 0x11, 0x00, 0x00, 0x40, 0x11, 0x00, 0x00, 0x94, 0x10, 0x00, 0x00,
  0xe8, 0x0f, 0x00, 0x00, 0xd4, 0x0e, 0x00, 0x00, 0xb8, 0x0d, 0x00, 0x00,
  0x04, 0x0d, 0x00, 0x00, 0x40, 0x0c, 0x00, 0x00, 0x5c, 0x0b, 0x00, 0x00,
  0x68, 0x0a, 0x00, 0x00, 0x54, 0x09, 0x00, 0x00, 0x30, 0x08, 0x00, 0x00,
  0xa4, 0x07, 0x00, 0x00, 0x40, 0x06, 0x00, 0x00, 0xdc, 0x04, 0x00, 0x00,
  0x78, 0x03, 0x00, 0x00, 0x3c, 0x02, 0x00, 0x00, 0xb8, 0x01, 0x00, 0x00,
  0x04, 0x01, 0x00, 0x00, 0x70, 0x00, 0x00, 0x00, 0x04, 0x00, 0x00, 0x00,
  0x5a, 0xee, 0xff, 0xff, 0x00, 0x00, 0x00, 0x01, 0x14, 0x00, 0x00, 0x00,
  0x30, 0x00, 0x00, 0x00, 0x17, 0x00, 0x00, 0x00, 0x00, 0x00, 0x00, 0x09,
  0x44, 0x00, 0x00, 0x00, 0x44, 0xee, 0xff, 0xff, 0x08, 0x00, 0x00, 0x00,
  0x10, 0x00, 0x00, 0x00, 0x01, 0x00, 0x00, 0x00, 0x80, 0xff, 0xff, 0xff,
  0xff, 0xff, 0xff, 0xff, 0x01, 0x00, 0x00, 0x00, 0x00, 0x00, 0x80, 0x3b,
  0x1b, 0x00, 0x00, 0x00, 0x53, 0x74, 0x61, 0x74, 0x65, 0x66, 0x75, 0x6c,
  0x50, 0x61, 0x72, 0x74, 0x69, 0x74, 0x69, 0x6f, 0x6e, 0x65, 0x64, 0x43,
  0x61, 0x6c, 0x6c, 0x5f, 0x31, 0x3a, 0x30, 0x00, 0x02, 0x00, 0x00, 0x00,
  0x01, 0x00, 0x00, 0x00, 0x07, 0x00, 0x00, 0x00, 0xc2, 0xee, 0xff, 0xff,
  0x00, 0x00, 0x00, 0x01, 0x14, 0x00, 0x00, 0x00, 0x30, 0x00, 0x00, 0x00,
  0x16, 0x00, 0x00, 0x00, 0x00, 0x00, 0x00, 0x09, 0x6c, 0x00, 0x00, 0x00,
  0xac, 0xee, 0xff, 0xff, 0x08, 0x00, 0x00, 0x00, 0x10, 0x00, 0x00, 0x00,
  0x01, 0x00, 0x00, 0x00, 0x38, 0x00, 0x00, 0x00, 0x00, 0x00, 0x00, 0x00,
  0x01, 0x00, 0x00, 0x00, 0x1d, 0x2c, 0xb9, 0x3e, 0x40, 0x00, 0x00, 0x00,
  0x73, 0x65, 0x71, 0x75, 0x65, 0x6e, 0x74, 0x69, 0x61, 0x6c, 0x5f, 0x31,
  0x5f, 0x31, 0x2f, 0x64, 0x65, 0x6e, 0x73, 0x65, 0x5f, 0x33, 0x5f, 0x31,
  0x2f, 0x4d, 0x61, 0x74, 0x4d, 0x75, 0x6c, 0x3b, 0x73, 0x65, 0x71, 0x75,
  0x65, 0x6e, 0x74, 0x69, 0x61, 0x6c, 0x5f, 0x31, 0x5f, 0x31, 0x2f, 0x64,
  0x65, 0x6e, 0x73, 0x65, 0x5f, 0x33, 0x5f, 0x31, 0x2f, 0x42, 0x69, 0x61,
  0x73, 0x41, 0x64, 0x64, 0x00, 0x00, 0x00, 0x00, 0x02, 0x00, 0x00, 0x00,
  0x01, 0x00, 0x00, 0x00, 0x07, 0x00, 0x00, 0x00, 0x52, 0xef, 0xff, 0xff,
  0x00, 0x00, 0x00, 0x01, 0x14, 0x00, 0x00, 0x00, 0x34, 0x00, 0x00, 0x00,
  0x15, 0x00, 0x00, 0x00, 0x00, 0x00, 0x00, 0x09, 0x8c, 0x00, 0x00, 0x00,
  0x3c, 0xef, 0xff, 0xff, 0x08, 0x00, 0x00, 0x00, 0x14, 0x00, 0x00, 0x00,
  0x01, 0x00, 0x00, 0x00, 0x80, 0xff, 0xff, 0xff, 0xff, 0xff, 0xff, 0xff,
  0x00, 0x00, 0x00, 0x00, 0x01, 0x00, 0x00, 0x00, 0x85, 0xfa, 0x2a, 0x3c,
  0x5e, 0x00, 0x00, 0x00, 0x73, 0x65, 0x71, 0x75, 0x65, 0x6e, 0x74, 0x69,
  0x61, 0x6c, 0x5f, 0x31, 0x5f, 0x31, 0x2f, 0x64, 0x65, 0x6e, 0x73, 0x65,
  0x5f, 0x32, 0x5f, 0x31, 0x2f, 0x4d, 0x61, 0x74, 0x4d, 0x75, 0x6c, 0x3b,
  0x73, 0x65, 0x71, 0x75, 0x65, 0x6e, 0x74, 0x69, 0x61, 0x6c, 0x5f, 0x31,
  0x5f, 0x31, 0x2f, 0x64, 0x65, 0x6e, 0x73, 0x65, 0x5f, 0x32, 0x5f, 0x31,
  0x2f, 0x52, 0x65, 0x6c, 0x75, 0x3b, 0x73, 0x65, 0x71, 0x75, 0x65, 0x6e,
  0x74, 0x69, 0x61, 0x6c, 0x5f, 0x31, 0x5f, 0x31, 0x2f, 0x64, 0x65, 0x6e,
  0x73, 0x65, 0x5f, 0x32, 0x5f, 0x31, 0x2f, 0x42, 0x69, 0x61, 0x73, 0x41,
  0x64, 0x64, 0x00, 0x00, 0x02, 0x00, 0x00, 0x00, 0x01, 0x00, 0x00, 0x00,
  0x10, 0x00, 0x00, 0x00, 0x02, 0xf0, 0xff, 0xff, 0x00, 0x00, 0x00, 0x01,
  0x14, 0x00, 0x00, 0x00, 0x30, 0x00, 0x00, 0x00, 0x14, 0x00, 0x00, 0x00,
  0x00, 0x00, 0x00, 0x09, 0x5c, 0x00, 0x00, 0x00, 0xec, 0xef, 0xff, 0xff,
  0x08, 0x00, 0x00, 0x00, 0x10, 0x00, 0x00, 0x00, 0x01, 0x00, 0x00, 0x00,
  0x80, 0xff, 0xff, 0xff, 0xff, 0xff, 0xff, 0xff, 0x01, 0x00, 0x00, 0x00,
  0x3d, 0x43, 0x6d, 0x3c, 0x30, 0x00, 0x00, 0x00, 0x73, 0x65, 0x71, 0x75,
  0x65, 0x6e, 0x74, 0x69, 0x61, 0x6c, 0x5f, 0x31, 0x5f, 0x31, 0x2f, 0x67,
  0x6c, 0x6f, 0x62, 0x61, 0x6c, 0x5f, 0x61, 0x76, 0x65, 0x72, 0x61, 0x67,
  0x65, 0x5f, 0x70, 0x6f, 0x6f, 0x6c, 0x69, 0x6e, 0x67, 0x31, 0x64, 0x5f,
  0x31, 0x5f, 0x31, 0x2f, 0x4d, 0x65, 0x61, 0x6e, 0x00, 0x00, 0x00, 0x00,
  0x02, 0x00, 0x00, 0x00, 0x01, 0x00, 0x00, 0x00, 0x08, 0x00, 0x00, 0x00,
  0x82, 0xf0, 0xff, 0xff, 0x00, 0x00, 0x00, 0x01, 0x14, 0x00, 0x00, 0x00,
  0x34, 0x00, 0x00, 0x00, 0x13, 0x00, 0x00, 0x00, 0x00, 0x00, 0x00, 0x09,
  0x10, 0x01, 0x00, 0x00, 0x6c, 0xf0, 0xff, 0xff, 0x08, 0x00, 0x00, 0x00,
  0x14, 0x00, 0x00, 0x00, 0x01, 0x00, 0x00, 0x00, 0x80, 0xff, 0xff, 0xff,
  0xff, 0xff, 0xff, 0xff, 0x00, 0x00, 0x00, 0x00, 0x01, 0x00, 0x00, 0x00,
  0x38, 0xf9, 0x51, 0x3e, 0xe1, 0x00, 0x00, 0x00, 0x73, 0x65, 0x71, 0x75,
  0x65, 0x6e, 0x74, 0x69, 0x61, 0x6c, 0x5f, 0x31, 0x5f, 0x31, 0x2f, 0x61,
  0x63, 0x74, 0x69, 0x76, 0x61, 0x74, 0x69, 0x6f, 0x6e, 0x5f, 0x35, 0x5f,
  0x31, 0x2f, 0x52, 0x65, 0x6c, 0x75, 0x3b, 0x73, 0x65, 0x71, 0x75, 0x65,
  0x6e, 0x74, 0x69, 0x61, 0x6c, 0x5f, 0x31, 0x5f, 0x31, 0x2f, 0x62, 0x61,
  0x74, 0x63, 0x68, 0x5f, 0x6e, 0x6f, 0x72, 0x6d, 0x61, 0x6c, 0x69, 0x7a,
  0x61, 0x74, 0x69, 0x6f, 0x6e, 0x5f, 0x35, 0x5f, 0x31, 0x2f, 0x62, 0x61,
  0x74, 0x63, 0x68, 0x6e, 0x6f, 0x72, 0x6d, 0x2f, 0x61, 0x64, 0x64, 0x5f,
  0x31, 0x3b, 0x73, 0x65, 0x71, 0x75, 0x65, 0x6e, 0x74, 0x69, 0x61, 0x6c,
  0x5f, 0x31, 0x5f, 0x31, 0x2f, 0x63, 0x6f, 0x6e, 0x76, 0x31, 0x64, 0x5f,
  0x35, 0x5f, 0x31, 0x2f, 0x63, 0x6f, 0x6e, 0x76, 0x6f, 0x6c, 0x75, 0x74,
  0x69, 0x6f, 0x6e, 0x2f, 0x53, 0x71, 0x75, 0x65, 0x65, 0x7a, 0x65, 0x3b,
  0x73, 0x65, 0x71, 0x75, 0x65, 0x6e, 0x74, 0x69, 0x61, 0x6c, 0x5f, 0x31,
  0x5f, 0x31, 0x2f, 0x62, 0x61, 0x74, 0x63, 0x68, 0x5f, 0x6e, 0x6f, 0x72,
  0x6d, 0x61, 0x6c, 0x69, 0x7a, 0x61, 0x74, 0x69, 0x6f, 0x6e, 0x5f, 0x35,
  0x5f, 0x31, 0x2f, 0x62, 0x61, 0x74, 0x63, 0x68, 0x6e, 0x6f, 0x72, 0x6d,
  0x2f, 0x6d, 0x75, 0x6c, 0x5f, 0x31, 0x3b, 0x73, 0x65, 0x71, 0x75, 0x65,
  0x6e, 0x74, 0x69, 0x61, 0x6c, 0x5f, 0x31, 0x5f, 0x31, 0x2f, 0x63, 0x6f,
  0x6e, 0x76, 0x31, 0x64, 0x5f, 0x35, 0x5f, 0x31, 0x2f, 0x42, 0x69, 0x61,
  0x73, 0x41, 0x64, 0x64, 0x3b, 0x00, 0x00, 0x00, 0x03, 0x00, 0x00, 0x00,
  0x01, 0x00, 0x00, 0x00, 0x7d, 0x00, 0x00, 0x00, 0x08, 0x00, 0x00, 0x00,
  0xba, 0xf1, 0xff, 0xff, 0x00, 0x00, 0x00, 0x01, 0x14, 0x00, 0x00, 0x00,
  0x34, 0x00, 0x00, 0x00, 0x12, 0x00, 0x00, 0x00, 0x00, 0x00, 0x00, 0x09,
  0x34, 0x01, 0x00, 0x00, 0xa4, 0xf1, 0xff, 0xff, 0x08, 0x00, 0x00, 0x00,
  0x14, 0x00, 0x00, 0x00, 0x01, 0x00, 0x00, 0x00, 0x80, 0xff, 0xff, 0xff,
  0xff, 0xff, 0xff, 0xff, 0x00, 0x00, 0x00, 0x00, 0x01, 0x00, 0x00, 0x00,
  0x38, 0xf9, 0x51, 0x3e, 0x07, 0x01, 0x00, 0x00, 0x73, 0x65, 0x71, 0x75,
  0x65, 0x6e, 0x74, 0x69, 0x61, 0x6c, 0x5f, 0x31, 0x5f, 0x31, 0x2f, 0x61,
  0x63, 0x74, 0x69, 0x76, 0x61, 0x74, 0x69, 0x6f, 0x6e, 0x5f, 0x35, 0x5f,
  0x31, 0x2f, 0x52, 0x65, 0x6c, 0x75, 0x3b, 0x73, 0x65, 0x71, 0x75, 0x65,
  0x6e, 0x74, 0x69, 0x61, 0x6c, 0x5f, 0x31, 0x5f, 0x31, 0x2f, 0x62, 0x61,
  0x74, 0x63, 0x68, 0x5f, 0x6e, 0x6f, 0x72, 0x6d, 0x61, 0x6c, 0x69, 0x7a,
  0x61, 0x74, 0x69, 0x6f, 0x6e, 0x5f, 0x35, 0x5f, 0x31, 0x2f, 0x62, 0x61,
  0x74, 0x63, 0x68, 0x6e, 0x6f, 0x72, 0x6d, 0x2f, 0x61, 0x64, 0x64, 0x5f,
  0x31, 0x3b, 0x73, 0x65, 0x71, 0x75, 0x65, 0x6e, 0x74, 0x69, 0x61, 0x6c,
  0x5f, 0x31, 0x5f, 0x31, 0x2f, 0x63, 0x6f, 0x6e, 0x76, 0x31, 0x64, 0x5f,
  0x35, 0x5f, 0x31, 0x2f, 0x63, 0x6f, 0x6e, 0x76, 0x6f, 0x6c, 0x75, 0x74,
  0x69, 0x6f, 0x6e, 0x2f, 0x53, 0x71, 0x75, 0x65, 0x65, 0x7a, 0x65, 0x3b,
  0x73, 0x65, 0x71, 0x75, 0x65, 0x6e, 0x74, 0x69, 0x61, 0x6c, 0x5f, 0x31,
  0x5f, 0x31, 0x2f, 0x62, 0x61, 0x74, 0x63, 0x68, 0x5f, 0x6e, 0x6f, 0x72,
  0x6d, 0x61, 0x6c, 0x69, 0x7a, 0x61, 0x74, 0x69, 0x6f, 0x6e, 0x5f, 0x35,
  0x5f, 0x31, 0x2f, 0x62, 0x61, 0x74, 0x63, 0x68, 0x6e, 0x6f, 0x72, 0x6d,
  0x2f, 0x6d, 0x75, 0x6c, 0x5f, 0x31, 0x3b, 0x73, 0x65, 0x71, 0x75, 0x65,
  0x6e, 0x74, 0x69, 0x61, 0x6c, 0x5f, 0x31, 0x5f, 0x31, 0x2f, 0x63, 0x6f,
  0x6e, 0x76, 0x31, 0x64, 0x5f, 0x35, 0x5f, 0x31, 0x2f, 0x42, 0x69, 0x61,
  0x73, 0x41, 0x64, 0x64, 0x3b, 0x3b, 0x73, 0x65, 0x71, 0x75, 0x65, 0x6e,
  0x74, 0x69, 0x61, 0x6c, 0x5f, 0x31, 0x5f, 0x31, 0x2f, 0x63, 0x6f, 0x6e,
  0x76, 0x31, 0x64, 0x5f, 0x35, 0x5f, 0x31, 0x2f, 0x63, 0x6f, 0x6e, 0x76,
  0x6f, 0x6c, 0x75, 0x74, 0x69, 0x6f, 0x6e, 0x00, 0x04, 0x00, 0x00, 0x00,
  0x01, 0x00, 0x00, 0x00, 0x01, 0x00, 0x00, 0x00, 0x7d, 0x00, 0x00, 0x00,
  0x08, 0x00, 0x00, 0x00, 0x1a, 0xf3, 0xff, 0xff, 0x00, 0x00, 0x00, 0x01,
  0x14, 0x00, 0x00, 0x00, 0x34, 0x00, 0x00, 0x00, 0x11, 0x00, 0x00, 0x00,
  0x00, 0x00, 0x00, 0x09, 0x34, 0x01, 0x00, 0x00, 0x04, 0xf3, 0xff, 0xff,
  0x08, 0x00, 0x00, 0x00, 0x14, 0x00, 0x00, 0x00, 0x01, 0x00, 0x00, 0x00,
  0x80, 0xff, 0xff, 0xff, 0xff, 0xff, 0xff, 0xff, 0x00, 0x00, 0x00, 0x00,
  0x01, 0x00, 0x00, 0x00, 0x9e, 0x7b, 0xc6, 0x3d, 0x07, 0x01, 0x00, 0x00,
  0x73, 0x65, 0x71, 0x75, 0x65, 0x6e, 0x74, 0x69, 0x61, 0x6c, 0x5f, 0x31,
  0x5f, 0x31, 0x2f, 0x61, 0x63, 0x74, 0x69, 0x76, 0x61, 0x74, 0x69, 0x6f,
  0x6e, 0x5f, 0x34, 0x5f, 0x31, 0x2f, 0x52, 0x65, 0x6c, 0x75, 0x3b, 0x73,
  0x65, 0x71, 0x75, 0x65, 0x6e, 0x74, 0x69, 0x61, 0x6c, 0x5f, 0x31, 0x5f,
  0x31, 0x2f, 0x62, 0x61, 0x74, 0x63, 0x68, 0x5f, 0x6e, 0x6f, 0x72, 0x6d,
  0x61, 0x6c, 0x69, 0x7a, 0x61, 0x74, 0x69, 0x6f, 0x6e, 0x5f, 0x34, 0x5f,
  0x31, 0x2f, 0x62, 0x61, 0x74, 0x63, 0x68, 0x6e, 0x6f, 0x72, 0x6d, 0x2f,
  0x61, 0x64, 0x64, 0x5f, 0x31, 0x3b, 0x73, 0x65, 0x71, 0x75, 0x65, 0x6e,
  0x74, 0x69, 0x61, 0x6c, 0x5f, 0x31, 0x5f, 0x31, 0x2f, 0x63, 0x6f, 0x6e,
  0x76, 0x31, 0x64, 0x5f, 0x34, 0x5f, 0x31, 0x2f, 0x63, 0x6f, 0x6e, 0x76,
  0x6f, 0x6c, 0x75, 0x74, 0x69, 0x6f, 0x6e, 0x2f, 0x53, 0x71, 0x75, 0x65,
  0x65, 0x7a, 0x65, 0x3b, 0x73, 0x65, 0x71, 0x75, 0x65, 0x6e, 0x74, 0x69,
  0x61, 0x6c, 0x5f, 0x31, 0x5f, 0x31, 0x2f, 0x62, 0x61, 0x74, 0x63, 0x68,
  0x5f, 0x6e, 0x6f, 0x72, 0x6d, 0x61, 0x6c, 0x69, 0x7a, 0x61, 0x74, 0x69,
  0x6f, 0x6e, 0x5f, 0x34, 0x5f, 0x31, 0x2f, 0x62, 0x61, 0x74, 0x63, 0x68,
  0x6e, 0x6f, 0x72, 0x6d, 0x2f, 0x6d, 0x75, 0x6c, 0x5f, 0x31, 0x3b, 0x73,
  0x65, 0x71, 0x75, 0x65, 0x6e, 0x74, 0x69, 0x61, 0x6c, 0x5f, 0x31, 0x5f,
  0x31, 0x2f, 0x63, 0x6f, 0x6e, 0x76, 0x31, 0x64, 0x5f, 0x34, 0x5f, 0x31,
  0x2f, 0x42, 0x69, 0x61, 0x73, 0x41, 0x64, 0x64, 0x3b, 0x3b, 0x73, 0x65,
  0x71, 0x75, 0x65, 0x6e, 0x74, 0x69, 0x61, 0x6c, 0x5f, 0x31, 0x5f, 0x31,
  0x2f, 0x63, 0x6f, 0x6e, 0x76, 0x31, 0x64, 0x5f, 0x34, 0x5f, 0x31, 0x2f,
  0x63, 0x6f, 0x6e, 0x76, 0x6f, 0x6c, 0x75, 0x74, 0x69, 0x6f, 0x6e, 0x00,
  0x04, 0x00, 0x00, 0x00, 0x01, 0x00, 0x00, 0x00, 0x01, 0x00, 0x00, 0x00,
  0x7d, 0x00, 0x00, 0x00, 0x0c, 0x00, 0x00, 0x00, 0x7a, 0xf4, 0xff, 0xff,
  0x00, 0x00, 0x00, 0x01, 0x14, 0x00, 0x00, 0x00, 0x34, 0x00, 0x00, 0x00,
  0x10, 0x00, 0x00, 0x00, 0x00, 0x00, 0x00, 0x09, 0x34, 0x01, 0x00, 0x00,
  0x64, 0xf4, 0xff, 0xff, 0x08, 0x00, 0x00, 0x00, 0x14, 0x00, 0x00, 0x00,
  0x01, 0x00, 0x00, 0x00, 0x80, 0xff, 0xff, 0xff, 0xff, 0xff, 0xff, 0xff,
  0x00, 0x00, 0x00, 0x00, 0x01, 0x00, 0x00, 0x00, 0xea, 0xb9, 0x52, 0x3e,
  0x07, 0x01, 0x00, 0x00, 0x73, 0x65, 0x71, 0x75, 0x65, 0x6e, 0x74, 0x69,
  0x61, 0x6c, 0x5f, 0x31, 0x5f, 0x31, 0x2f, 0x61, 0x63, 0x74, 0x69, 0x76,
  0x61, 0x74, 0x69, 0x6f, 0x6e, 0x5f, 0x33, 0x5f, 0x31, 0x2f, 0x52, 0x65,
  0x6c, 0x75, 0x3b, 0x73, 0x65, 0x71, 0x75, 0x65, 0x6e, 0x74, 0x69, 0x61,
  0x6c, 0x5f, 0x31, 0x5f, 0x31, 0x2f, 0x62, 0x61, 0x74, 0x63, 0x68, 0x5f,
  0x6e, 0x6f, 0x72, 0x6d, 0x61, 0x6c, 0x69, 0x7a, 0x61, 0x74, 0x69, 0x6f,
  0x6e, 0x5f, 0x33, 0x5f, 0x31, 0x2f, 0x62, 0x61, 0x74, 0x63, 0x68, 0x6e,
  0x6f, 0x72, 0x6d, 0x2f, 0x61, 0x64, 0x64, 0x5f, 0x31, 0x3b, 0x73, 0x65,
  0x71, 0x75, 0x65, 0x6e, 0x74, 0x69, 0x61, 0x6c, 0x5f, 0x31, 0x5f, 0x31,
  0x2f, 0x63, 0x6f, 0x6e, 0x76, 0x31, 0x64, 0x5f, 0x33, 0x5f, 0x31, 0x2f,
  0x63, 0x6f, 0x6e, 0x76, 0x6f, 0x6c, 0x75, 0x74, 0x69, 0x6f, 0x6e, 0x2f,
  0x53, 0x71, 0x75, 0x65, 0x65, 0x7a, 0x65, 0x3b, 0x73, 0x65, 0x71, 0x75,
  0x65, 0x6e, 0x74, 0x69, 0x61, 0x6c, 0x5f, 0x31, 0x5f, 0x31, 0x2f, 0x62,
  0x61, 0x74, 0x63, 0x68, 0x5f, 0x6e, 0x6f, 0x72, 0x6d, 0x61, 0x6c, 0x69,
  0x7a, 0x61, 0x74, 0x69, 0x6f, 0x6e, 0x5f, 0x33, 0x5f, 0x31, 0x2f, 0x62,
  0x61, 0x74, 0x63, 0x68, 0x6e, 0x6f, 0x72, 0x6d, 0x2f, 0x6d, 0x75, 0x6c,
  0x5f, 0x31, 0x3b, 0x73, 0x65, 0x71, 0x75, 0x65, 0x6e, 0x74, 0x69, 0x61,
  0x6c, 0x5f, 0x31, 0x5f, 0x31, 0x2f, 0x63, 0x6f, 0x6e, 0x76, 0x31, 0x64,
  0x5f, 0x33, 0x5f, 0x31, 0x2f, 0x42, 0x69, 0x61, 0x73, 0x41, 0x64, 0x64,
  0x3b, 0x3b, 0x73, 0x65, 0x71, 0x75, 0x65, 0x6e, 0x74, 0x69, 0x61, 0x6c,
  0x5f, 0x31, 0x5f, 0x31, 0x2f, 0x63, 0x6f, 0x6e, 0x76, 0x31, 0x64, 0x5f,
  0x33, 0x5f, 0x31, 0x2f, 0x63, 0x6f, 0x6e, 0x76, 0x6f, 0x6c, 0x75, 0x74,
  0x69, 0x6f, 0x6e, 0x00, 0x04, 0x00, 0x00, 0x00, 0x01, 0x00, 0x00, 0x00,
  0x01, 0x00, 0x00, 0x00, 0xfa, 0x00, 0x00, 0x00, 0x10, 0x00, 0x00, 0x00,
  0xda, 0xf5, 0xff, 0xff, 0x00, 0x00, 0x00, 0x01, 0x14, 0x00, 0x00, 0x00,
  0x30, 0x00, 0x00, 0x00, 0x0f, 0x00, 0x00, 0x00, 0x00, 0x00, 0x00, 0x09,
  0x5c, 0x00, 0x00, 0x00, 0xc4, 0xf5, 0xff, 0xff, 0x08, 0x00, 0x00, 0x00,
  0x10, 0x00, 0x00, 0x00, 0x01, 0x00, 0x00, 0x00, 0x90, 0xff, 0xff, 0xff,
  0xff, 0xff, 0xff, 0xff, 0x01, 0x00, 0x00, 0x00, 0xc1, 0xb9, 0x1c, 0x3f,
  0x31, 0x00, 0x00, 0x00, 0x73, 0x65, 0x71, 0x75, 0x65, 0x6e, 0x74, 0x69,
  0x61, 0x6c, 0x5f, 0x31, 0x5f, 0x31, 0x2f, 0x63, 0x6f, 0x6e, 0x76, 0x31,
  0x64, 0x5f, 0x33, 0x5f, 0x31, 0x2f, 0x63, 0x6f, 0x6e, 0x76, 0x6f, 0x6c,
  0x75, 0x74, 0x69, 0x6f, 0x6e, 0x2f, 0x45, 0x78, 0x70, 0x61, 0x6e, 0x64,
  0x44, 0x69, 0x6d, 0x73, 0x31, 0x00, 0x00, 0x00, 0x04, 0x00, 0x00, 0x00,
  0x01, 0x00, 0x00, 0x00, 0x01, 0x00, 0x00, 0x00, 0xf4, 0x01, 0x00, 0x00,
  0x06, 0x00, 0x00, 0x00, 0x62, 0xf6, 0xff, 0xff, 0x00, 0x00, 0x00, 0x01,
  0x14, 0x00, 0x00, 0x00, 0xe8, 0x00, 0x00, 0x00, 0x0e, 0x00, 0x00, 0x00,
  0x00, 0x00, 0x00, 0x09, 0xf4, 0x00, 0x00, 0x00, 0x4c, 0xf6, 0xff, 0xff,
  0x08, 0x00, 0x00, 0x00, 0x8c, 0x00, 0x00, 0x00, 0x10, 0x00, 0x00, 0x00,
  0x00, 0x00, 0x00, 0x00, 0x00, 0x00, 0x00, 0x00, 0x00, 0x00, 0x00, 0x00,
  0x00, 0x00, 0x00, 0x00, 0x00, 0x00, 0x00, 0x00, 0x00, 0x00, 0x00, 0x00,
  0x00, 0x00, 0x00, 0x00, 0x00, 0x00, 0x00, 0x00, 0x00, 0x00, 0x00, 0x00,
  0x00, 0x00, 0x00, 0x00, 0x00, 0x00, 0x00, 0x00, 0x00, 0x00, 0x00, 0x00,
  0x00, 0x00, 0x00, 0x00, 0x00, 0x00, 0x00, 0x00, 0x00, 0x00, 0x00, 0x00,
  0x00, 0x00, 0x00, 0x00, 0x00, 0x00, 0x00, 0x00, 0x00, 0x00, 0x00, 0x00,
  0x00, 0x00, 0x00, 0x00, 0x00, 0x00, 0x00, 0x00, 0x00, 0x00, 0x00, 0x00,
  0x00, 0x00, 0x00, 0x00, 0x00, 0x00, 0x00, 0x00, 0x00, 0x00, 0x00, 0x00,
  0x00, 0x00, 0x00, 0x00, 0x00, 0x00, 0x00, 0x00, 0x00, 0x00, 0x00, 0x00,
  0x00, 0x00, 0x00, 0x00, 0x00, 0x00, 0x00, 0x00, 0x00, 0x00, 0x00, 0x00,
  0x00, 0x00, 0x00, 0x00, 0x00, 0x00, 0x00, 0x00, 0x00, 0x00, 0x00, 0x00,
  0x10, 0x00, 0x00, 0x00, 0x60, 0xd4, 0xfa, 0x3a, 0x58, 0x6d, 0x0d, 0x3b,
  0x12, 0x3a, 0x32, 0x3b, 0x09, 0xcc, 0xa5, 0x3b, 0x68, 0x20, 0x14, 0x3b,
  0x16, 0xa0, 0xd5, 0x3a, 0xe6, 0xe0, 0x4c, 0x3b, 0xa2, 0xde, 0x9d, 0x3a,
  0x17, 0x2c, 0x01, 0x3b, 0x0b, 0xc6, 0x5f, 0x3a, 0xfa, 0xec, 0xd3, 0x3a,
  0x0b, 0x77, 0xc8, 0x3a, 0x8a, 0xc3, 0xaf, 0x3a, 0xe0, 0x43, 0x4b, 0x3b,
  0xf1, 0xb1, 0x8c, 0x3a, 0x43, 0xdc, 0x84, 0x3a, 0x12, 0x00, 0x00, 0x00,
  0x74, 0x66, 0x6c, 0x2e, 0x70, 0x73, 0x65, 0x75, 0x64, 0x6f, 0x5f, 0x71,
  0x63, 0x6f, 0x6e, 0x73, 0x74, 0x39, 0x00, 0x00, 0x04, 0x00, 0x00, 0x00,
  0x10, 0x00, 0x00, 0x00, 0x01, 0x00, 0x00, 0x00, 0x07, 0x00, 0x00, 0x00,
  0x06, 0x00, 0x00, 0x00, 0x82, 0xf7, 0xff, 0xff, 0x00, 0x00, 0x00, 0x01,
  0x14, 0x00, 0x00, 0x00, 0xe4, 0x00, 0x00, 0x00, 0x0d, 0x00, 0x00, 0x00,
  0x00, 0x00, 0x00, 0x02, 0xf0, 0x00, 0x00, 0x00, 0x6c, 0xf7, 0xff, 0xff,
  0x08, 0x00, 0x00, 0x00, 0x88, 0x00, 0x00, 0x00, 0x10, 0x00, 0x00, 0x00,
  0x00, 0x00, 0x00, 0x00, 0x00, 0x00, 0x00, 0x00, 0x00, 0x00, 0x00, 0x00,
  0x00, 0x00, 0x00, 0x00, 0x00, 0x00, 0x00, 0x00, 0x00, 0x00, 0x00, 0x00,
  0x00, 0x00, 0x00, 0x00, 0x00, 0x00, 0x00, 0x00, 0x00, 0x00, 0x00, 0x00,
  0x00, 0x00, 0x00, 0x00, 0x00, 0x00, 0x00, 0x00, 0x00, 0x00, 0x00, 0x00,
  0x00, 0x00, 0x00, 0x00, 0x00, 0x00, 0x00, 0x00, 0x00, 0x00, 0x00, 0x00,
  0x00, 0x00, 0x00, 0x00, 0x00, 0x00, 0x00, 0x00, 0x00, 0x00, 0x00, 0x00,
  0x00, 0x00, 0x00, 0x00, 0x00, 0x00, 0x00, 0x00, 0x00, 0x00, 0x00, 0x00,
  0x00, 0x00, 0x00, 0x00, 0x00, 0x00, 0x00, 0x00, 0x00, 0x00, 0x00, 0x00,
  0x00, 0x00, 0x00, 0x00, 0x00, 0x00, 0x00, 0x00, 0x00, 0x00, 0x00, 0x00,
  0x00, 0x00, 0x00, 0x00, 0x00, 0x00, 0x00, 0x00, 0x00, 0x00, 0x00, 0x00,
  0x00, 0x00, 0x00, 0x00, 0x00, 0x00, 0x00, 0x00, 0x10, 0x00, 0x00, 0x00,
  0x6b, 0x8f, 0x99, 0x3a, 0x81, 0x2a, 0xad, 0x3a, 0x6b, 0x39, 0xda, 0x3a,
  0x46, 0x01, 0x4b, 0x3b, 0x75, 0x5e, 0xb5, 0x3a, 0x8f, 0xc8, 0x82, 0x3a,
  0x6a, 0xdb, 0xfa, 0x3a, 0x6f, 0x4c, 0x41, 0x3a, 0x31, 0x29, 0x9e, 0x3a,
  0x0e, 0xff, 0x08, 0x3a, 0x2e, 0xbe, 0x81, 0x3a, 0x00, 0x74, 0x75, 0x3a,
  0x62, 0x35, 0x57, 0x3a, 0xb4, 0xe1, 0xf8, 0x3a, 0x0b, 0x45, 0x2c, 0x3a,
  0x40, 0xad, 0x22, 0x3a, 0x12, 0x00, 0x00, 0x00, 0x74, 0x66, 0x6c, 0x2e,
  0x70, 0x73, 0x65, 0x75, 0x64, 0x6f, 0x5f, 0x71, 0x63, 0x6f, 0x6e, 0x73,
  0x74, 0x38, 0x00, 0x00, 0x01, 0x00, 0x00, 0x00, 0x10, 0x00, 0x00, 0x00,
  0x92, 0xf8, 0xff, 0xff, 0x00, 0x00, 0x00, 0x01, 0x14, 0x00, 0x00, 0x00,
  0xb8, 0x00, 0x00, 0x00, 0x0c, 0x00, 0x00, 0x00, 0x00, 0x00, 0x00, 0x09,
  0xc4, 0x00, 0x00, 0x00, 0x7c, 0xf8, 0xff, 0xff, 0x08, 0x00, 0x00, 0x00,
  0x6c, 0x00, 0x00, 0x00, 0x0c, 0x00, 0x00, 0x00, 0x00, 0x00, 0x00, 0x00,
  0x00, 0x00, 0x00, 0x00, 0x00, 0x00, 0x00, 0x00, 0x00, 0x00, 0x00, 0x00,
  0x00, 0x00, 0x00, 0x00, 0x00, 0x00, 0x00, 0x00, 0x00, 0x00, 0x00, 0x00,
  0x00, 0x00, 0x00, 0x00, 0x00, 0x00, 0x00, 0x00, 0x00, 0x00, 0x00, 0x00,
  0x00, 0x00, 0x00, 0x00, 0x00, 0x00, 0x00, 0x00, 0x00, 0x00, 0x00, 0x00,
  0x00, 0x00, 0x00, 0x00, 0x00, 0x00, 0x00, 0x00, 0x00, 0x00, 0x00, 0x00,
  0x00, 0x00, 0x00, 0x00, 0x00, 0x00, 0x00, 0x00, 0x00, 0x00, 0x00, 0x00,
  0x00, 0x00, 0x00, 0x00, 0x00, 0x00, 0x00, 0x00, 0x00, 0x00, 0x00, 0x00,
  0x00, 0x00, 0x00, 0x00, 0x00, 0x00, 0x00, 0x00, 0x00, 0x00, 0x00, 0x00,
  0x0c, 0x00, 0x00, 0x00, 0x00, 0x4a, 0xee, 0x3a, 0x16, 0xd5, 0x94, 0x3b,
  0xf7, 0x13, 0x50, 0x3b, 0xca, 0x5f, 0xaf, 0x3b, 0x47, 0x96, 0x5f, 0x3b,
  0x80, 0xf4, 0x89, 0x3b, 0xab, 0x2c, 0xbd, 0x3a, 0x59, 0x3f, 0x37, 0x3b,
  0x7a, 0xd3, 0x8d, 0x3b, 0x8d, 0x89, 0xb4, 0x3a, 0x8a, 0x95, 0x8e, 0x3b,
  0xea, 0x89, 0x0a, 0x3b, 0x12, 0x00, 0x00, 0x00, 0x74, 0x66, 0x6c, 0x2e,
  0x70, 0x73, 0x65, 0x75, 0x64, 0x6f, 0x5f, 0x71, 0x63, 0x6f, 0x6e, 0x73,
  0x74, 0x37, 0x00, 0x00, 0x04, 0x00, 0x00, 0x00, 0x0c, 0x00, 0x00, 0x00,
  0x01, 0x00, 0x00, 0x00, 0x05, 0x00, 0x00, 0x00, 0x10, 0x00, 0x00, 0x00,
  0x82, 0xf9, 0xff, 0xff, 0x00, 0x00, 0x00, 0x01, 0x14, 0x00, 0x00, 0x00,
  0xb4, 0x00, 0x00, 0x00, 0x0b, 0x00, 0x00, 0x00, 0x00, 0x00, 0x00, 0x02,
  0xc0, 0x00, 0x00, 0x00, 0x6c, 0xf9, 0xff, 0xff, 0x08, 0x00, 0x00, 0x00,
  0x68, 0x00, 0x00, 0x00, 0x0c, 0x00, 0x00, 0x00, 0x00, 0x00, 0x00, 0x00,
  0x00, 0x00, 0x00, 0x00, 0x00, 0x00, 0x00, 0x00, 0x00, 0x00, 0x00, 0x00,
  0x00, 0x00, 0x00, 0x00, 0x00, 0x00, 0x00, 0x00, 0x00, 0x00, 0x00, 0x00,
  0x00, 0x00, 0x00, 0x00, 0x00, 0x00, 0x00, 0x00, 0x00, 0x00, 0x00, 0x00,
  0x00, 0x00, 0x00, 0x00, 0x00, 0x00, 0x00, 0x00, 0x00, 0x00, 0x00, 0x00,
  0x00, 0x00, 0x00, 0x00, 0x00, 0x00, 0x00, 0x00, 0x00, 0x00, 0x00, 0x00,
  0x00, 0x00, 0x00, 0x00, 0x00, 0x00, 0x00, 0x00, 0x00, 0x00, 0x00, 0x00,
  0x00, 0x00, 0x00, 0x00, 0x00, 0x00, 0x00, 0x00, 0x00, 0x00, 0x00, 0x00,
  0x00, 0x00, 0x00, 0x00, 0x00, 0x00, 0x00, 0x00, 0x0c, 0x00, 0x00, 0x00,
  0xc1, 0x25, 0xc4, 0x39, 0xc4, 0x05, 0x75, 0x3a, 0x7d, 0x47, 0x2b, 0x3a,
  0xf0, 0x5b, 0x90, 0x3a, 0xa6, 0x0b, 0x38, 0x3a, 0x82, 0x1d, 0x63, 0x3a,
  0x06, 0xb8, 0x9b, 0x39, 0x0b, 0xd7, 0x16, 0x3a, 0xf3, 0x7c, 0x69, 0x3a,
  0xf2, 0x9b, 0x94, 0x39, 0x6f, 0xbc, 0x6a, 0x3a, 0x7d, 0x13, 0xe4, 0x39,
  0x12, 0x00, 0x00, 0x00, 0x74, 0x66, 0x6c, 0x2e, 0x70, 0x73, 0x65, 0x75,
  0x64, 0x6f, 0x5f, 0x71, 0x63, 0x6f, 0x6e, 0x73, 0x74, 0x36, 0x00, 0x00,
  0x01, 0x00, 0x00, 0x00, 0x0c, 0x00, 0x00, 0x00, 0x62, 0xfa, 0xff, 0xff,
  0x00, 0x00, 0x00, 0x01, 0x14, 0x00, 0x00, 0x00, 0x88, 0x00, 0x00, 0x00,
  0x0a, 0x00, 0x00, 0x00, 0x00, 0x00, 0x00, 0x09, 0x94, 0x00, 0x00, 0x00,
  0x4c, 0xfa, 0xff, 0xff, 0x08, 0x00, 0x00, 0x00, 0x4c, 0x00, 0x00, 0x00,
  0x08, 0x00, 0x00, 0x00, 0x00, 0x00, 0x00, 0x00, 0x00, 0x00, 0x00, 0x00,
  0x00, 0x00, 0x00, 0x00, 0x00, 0x00, 0x00, 0x00, 0x00, 0x00, 0x00, 0x00,
  0x00, 0x00, 0x00, 0x00, 0x00, 0x00, 0x00, 0x00, 0x00, 0x00, 0x00, 0x00,
  0x00, 0x00, 0x00, 0x00, 0x00, 0x00, 0x00, 0x00, 0x00, 0x00, 0x00, 0x00,
  0x00, 0x00, 0x00, 0x00, 0x00, 0x00, 0x00, 0x00, 0x00, 0x00, 0x00, 0x00,
  0x00, 0x00, 0x00, 0x00, 0x00, 0x00, 0x00, 0x00, 0x00, 0x00, 0x00, 0x00,
  0x08, 0x00, 0x00, 0x00, 0x9a, 0xd7, 0xc2, 0x3c, 0x7c, 0x03, 0x8f, 0x3c,
  0x13, 0xf9, 0x98, 0x3c, 0x34, 0x65, 0x84, 0x3c, 0x6f, 0x15, 0x9e, 0x3c,
  0x4e, 0x6f, 0x40, 0x3c, 0xd7, 0x07, 0xd3, 0x3c, 0x5f, 0x86, 0x85, 0x3c,
  0x12, 0x00, 0x00, 0x00, 0x74, 0x66, 0x6c, 0x2e, 0x70, 0x73, 0x65, 0x75,
  0x64, 0x6f, 0x5f, 0x71, 0x63, 0x6f, 0x6e, 0x73, 0x74, 0x35, 0x00, 0x00,
  0x04, 0x00, 0x00, 0x00, 0x08, 0x00, 0x00, 0x00, 0x01, 0x00, 0x00, 0x00,
  0x03, 0x00, 0x00, 0x00, 0x0c, 0x00, 0x00, 0x00, 0x22, 0xfb, 0xff, 0xff,
  0x00, 0x00, 0x00, 0x01, 0x14, 0x00, 0x00, 0x00, 0x84, 0x00, 0x00, 0x00,
  0x09, 0x00, 0x00, 0x00, 0x00, 0x00, 0x00, 0x02, 0x90, 0x00, 0x00, 0x00,
  0x0c, 0xfb, 0xff, 0xff, 0x08, 0x00, 0x00, 0x00, 0x48, 0x00, 0x00, 0x00,
  0x08, 0x00, 0x00, 0x00, 0x00, 0x00, 0x00, 0x00, 0x00, 0x00, 0x00, 0x00,
  0x00, 0x00, 0x00, 0x00, 0x00, 0x00, 0x00, 0x00, 0x00, 0x00, 0x00, 0x00,
  0x00, 0x00, 0x00, 0x00, 0x00, 0x00, 0x00, 0x00, 0x00, 0x00, 0x00, 0x00,
  0x00, 0x00, 0x00, 0x00, 0x00, 0x00, 0x00, 0x00, 0x00, 0x00, 0x00, 0x00,
  0x00, 0x00, 0x00, 0x00, 0x00, 0x00, 0x00, 0x00, 0x00, 0x00, 0x00, 0x00,
  0x00, 0x00, 0x00, 0x00, 0x00, 0x00, 0x00, 0x00, 0x08, 0x00, 0x00, 0x00,
  0xd7, 0x10, 0x17, 0x3b, 0x82, 0xc3, 0xdd, 0x3a, 0x06, 0x35, 0xed, 0x3a,
  0x69, 0x4c, 0xcd, 0x3a, 0xd3, 0x21, 0xf5, 0x3a, 0x03, 0x33, 0x95, 0x3a,
  0xf7, 0x9d, 0x23, 0x3b, 0xcf, 0x0c, 0xcf, 0x3a, 0x12, 0x00, 0x00, 0x00,
  0x74, 0x66, 0x6c, 0x2e, 0x70, 0x73, 0x65, 0x75, 0x64, 0x6f, 0x5f, 0x71,
  0x63, 0x6f, 0x6e, 0x73, 0x74, 0x34, 0x00, 0x00, 0x01, 0x00, 0x00, 0x00,
  0x08, 0x00, 0x00, 0x00, 0xd2, 0xfb, 0xff, 0xff, 0x00, 0x00, 0x00, 0x01,
  0x14, 0x00, 0x00, 0x00, 0xe8, 0x00, 0x00, 0x00, 0x08, 0x00, 0x00, 0x00,
  0x00, 0x00, 0x00, 0x09, 0xf4, 0x00, 0x00, 0x00, 0xbc, 0xfb, 0xff, 0xff,
  0x08, 0x00, 0x00, 0x00, 0x8c, 0x00, 0x00, 0x00, 0x10, 0x00, 0x00, 0x00,
  0x00, 0x00, 0x00, 0x00, 0x00, 0x00, 0x00, 0x00, 0x00, 0x00, 0x00, 0x00,
  0x00, 0x00, 0x00, 0x00, 0x00, 0x00, 0x00, 0x00, 0x00, 0x00, 0x00, 0x00,
  0x00, 0x00, 0x00, 0x00, 0x00, 0x00, 0x00, 0x00, 0x00, 0x00, 0x00, 0x00,
  0x00, 0x00, 0x00, 0x00, 0x00, 0x00, 0x00, 0x00, 0x00, 0x00, 0x00, 0x00,
  0x00, 0x00, 0x00, 0x00, 0x00, 0x00, 0x00, 0x00, 0x00, 0x00, 0x00, 0x00,
  0x00, 0x00, 0x00, 0x00, 0x00, 0x00, 0x00, 0x00, 0x00, 0x00, 0x00, 0x00,
  0x00, 0x00, 0x00, 0x00, 0x00, 0x00, 0x00, 0x00, 0x00, 0x00, 0x00, 0x00,
  0x00, 0x00, 0x00, 0x00, 0x00, 0x00, 0x00, 0x00, 0x00, 0x00, 0x00, 0x00,
  0x00, 0x00, 0x00, 0x00, 0x00, 0x00, 0x00, 0x00, 0x00, 0x00, 0x00, 0x00,
  0x00, 0x00, 0x00, 0x00, 0x00, 0x00, 0x00, 0x00, 0x00, 0x00, 0x00, 0x00,
  0x00, 0x00, 0x00, 0x00, 0x00, 0x00, 0x00, 0x00, 0x00, 0x00, 0x00, 0x00,
  0x10, 0x00, 0x00, 0x00, 0x2e, 0x20, 0xec, 0x3b, 0xdf, 0x59, 0xef, 0x3b,
  0x50, 0xd5, 0xf0, 0x3b, 0x78, 0xc2, 0x11, 0x3c, 0xf5, 0xe6, 0xb5, 0x3b,
  0xde, 0xd0, 0x20, 0x3c, 0x36, 0x94, 0xdb, 0x3b, 0xdb, 0x49, 0x29, 0x3c,
  0xef, 0xa2, 0x20, 0x3c, 0x2c, 0xe1, 0x15, 0x3c, 0x07, 0x11, 0x29, 0x3c,
  0xe5, 0xda, 0x37, 0x3c, 0xe9, 0xbd, 0x47, 0x3c, 0xa9, 0x95, 0x42, 0x3c,
  0x34, 0xfc, 0x26, 0x3c, 0xd8, 0x4a, 0x0c, 0x3c, 0x12, 0x00, 0x00, 0x00,
  0x74, 0x66, 0x6c, 0x2e, 0x70, 0x73, 0x65, 0x75, 0x64, 0x6f, 0x5f, 0x71,
  0x63, 0x6f, 0x6e, 0x73, 0x74, 0x33, 0x00, 0x00, 0x02, 0x00, 0x00, 0x00,
  0x10, 0x00, 0x00, 0x00, 0x08, 0x00, 0x00, 0x00, 0xea, 0xfc, 0xff, 0xff,
  0x00, 0x00, 0x00, 0x01, 0x14, 0x00, 0x00, 0x00, 0xe4, 0x00, 0x00, 0x00,
  0x07, 0x00, 0x00, 0x00, 0x00, 0x00, 0x00, 0x02, 0xf0, 0x00, 0x00, 0x00,
  0xd4, 0xfc, 0xff, 0xff, 0x08, 0x00, 0x00, 0x00, 0x88, 0x00, 0x00, 0x00,
  0x10, 0x00, 0x00, 0x00, 0x00, 0x00, 0x00, 0x00, 0x00, 0x00, 0x00, 0x00,
  0x00, 0x00, 0x00, 0x00, 0x00, 0x00, 0x00, 0x00, 0x00, 0x00, 0x00, 0x00,
  0x00, 0x00, 0x00, 0x00, 0x00, 0x00, 0x00, 0x00, 0x00, 0x00, 0x00, 0x00,
  0x00, 0x00, 0x00, 0x00, 0x00, 0x00, 0x00, 0x00, 0x00, 0x00, 0x00, 0x00,
  0x00, 0x00, 0x00, 0x00, 0x00, 0x00, 0x00, 0x00, 0x00, 0x00, 0x00, 0x00,
  0x00, 0x00, 0x00, 0x00, 0x00, 0x00, 0x00, 0x00, 0x00, 0x00, 0x00, 0x00,
  0x00, 0x00, 0x00, 0x00, 0x00, 0x00, 0x00, 0x00, 0x00, 0x00, 0x00, 0x00,
  0x00, 0x00, 0x00, 0x00, 0x00, 0x00, 0x00, 0x00, 0x00, 0x00, 0x00, 0x00,
  0x00, 0x00, 0x00, 0x00, 0x00, 0x00, 0x00, 0x00, 0x00, 0x00, 0x00, 0x00,
  0x00, 0x00, 0x00, 0x00, 0x00, 0x00, 0x00, 0x00, 0x00, 0x00, 0x00, 0x00,
  0x00, 0x00, 0x00, 0x00, 0x00, 0x00, 0x00, 0x00, 0x00, 0x00, 0x00, 0x00,
  0x10, 0x00, 0x00, 0x00, 0xcf, 0xd7, 0xda, 0x38, 0x11, 0xd5, 0xdd, 0x38,
  0xbc, 0x34, 0xdf, 0x38, 0x52, 0x17, 0x07, 0x39, 0x98, 0x96, 0xa8, 0x38,
  0x9b, 0x0b, 0x15, 0x39, 0xe2, 0x81, 0xcb, 0x38, 0xd6, 0xe5, 0x1c, 0x39,
  0x08, 0xe1, 0x14, 0x39, 0xd3, 0xe8, 0x0a, 0x39, 0x2b, 0xb1, 0x1c, 0x39,
  0xf0, 0x65, 0x2a, 0x39, 0x47, 0x1f, 0x39, 0x39, 0xa9, 0x57, 0x34, 0x39,
  0x58, 0xc3, 0x1a, 0x39, 0x23, 0x06, 0x02, 0x39, 0x12, 0x00, 0x00, 0x00,
  0x74, 0x66, 0x6c, 0x2e, 0x70, 0x73, 0x65, 0x75, 0x64, 0x6f, 0x5f, 0x71,
  0x63, 0x6f, 0x6e, 0x73, 0x74, 0x32, 0x00, 0x00, 0x01, 0x00, 0x00, 0x00,
  0x10, 0x00, 0x00, 0x00, 0xfa, 0xfd, 0xff, 0xff, 0x00, 0x00, 0x00, 0x01,
  0x14, 0x00, 0x00, 0x00, 0x78, 0x00, 0x00, 0x00, 0x06, 0x00, 0x00, 0x00,
  0x00, 0x00, 0x00, 0x09, 0x84, 0x00, 0x00, 0x00, 0xe4, 0xfd, 0xff, 0xff,
  0x08, 0x00, 0x00, 0x00, 0x40, 0x00, 0x00, 0x00, 0x07, 0x00, 0x00, 0x00,
  0x00, 0x00, 0x00, 0x00, 0x00, 0x00, 0x00, 0x00, 0x00, 0x00, 0x00, 0x00,
  0x00, 0x00, 0x00, 0x00, 0x00, 0x00, 0x00, 0x00, 0x00, 0x00, 0x00, 0x00,
  0x00, 0x00, 0x00, 0x00, 0x00, 0x00, 0x00, 0x00, 0x00, 0x00, 0x00, 0x00,
  0x00, 0x00, 0x00, 0x00, 0x00, 0x00, 0x00, 0x00, 0x00, 0x00, 0x00, 0x00,
  0x00, 0x00, 0x00, 0x00, 0x00, 0x00, 0x00, 0x00, 0x07, 0x00, 0x00, 0x00,
  0xf6, 0x9b, 0x6c, 0x3d, 0x34, 0xf4, 0x30, 0x3d, 0x2c, 0x6b, 0x8d, 0x3d,
  0xc1, 0xdb, 0x77, 0x3d, 0x5f, 0x10, 0xa3, 0x3d, 0x83, 0xfd, 0x87, 0x3d,
  0xaf, 0xaa, 0x38, 0x3d, 0x12, 0x00, 0x00, 0x00, 0x74, 0x66, 0x6c, 0x2e,
  0x70, 0x73, 0x65, 0x75, 0x64, 0x6f, 0x5f, 0x71, 0x63, 0x6f, 0x6e, 0x73,
  0x74, 0x31, 0x00, 0x00, 0x02, 0x00, 0x00, 0x00, 0x07, 0x00, 0x00, 0x00,
  0x10, 0x00, 0x00, 0x00, 0xa2, 0xfe, 0xff, 0xff, 0x00, 0x00, 0x00, 0x01,
  0x14, 0x00, 0x00, 0x00, 0x7c, 0x00, 0x00, 0x00, 0x05, 0x00, 0x00, 0x00,
  0x00, 0x00, 0x00, 0x02, 0x88, 0x00, 0x00, 0x00, 0x8c, 0xfe, 0xff, 0xff,
  0x08, 0x00, 0x00, 0x00, 0x44, 0x00, 0x00, 0x00, 0x07, 0x00, 0x00, 0x00,
  0x00, 0x00, 0x00, 0x00, 0x00, 0x00, 0x00, 0x00, 0x00, 0x00, 0x00, 0x00,
  0x00, 0x00, 0x00, 0x00, 0x00, 0x00, 0x00, 0x00, 0x00, 0x00, 0x00, 0x00,
  0x00, 0x00, 0x00, 0x00, 0x00, 0x00, 0x00, 0x00, 0x00, 0x00, 0x00, 0x00,
  0x00, 0x00, 0x00, 0x00, 0x00, 0x00, 0x00, 0x00, 0x00, 0x00, 0x00, 0x00,
  0x00, 0x00, 0x00, 0x00, 0x00, 0x00, 0x00, 0x00, 0x00, 0x00, 0x00, 0x00,
  0x07, 0x00, 0x00, 0x00, 0x1d, 0x07, 0x1e, 0x3a, 0xaa, 0x5e, 0xec, 0x39,
  0x1f, 0xe7, 0x3c, 0x3a, 0x7c, 0x8a, 0x25, 0x3a, 0xe4, 0xd0, 0x59, 0x3a,
  0xda, 0xa6, 0x35, 0x3a, 0x1e, 0xac, 0xf6, 0x39, 0x11, 0x00, 0x00, 0x00,
  0x74, 0x66, 0x6c, 0x2e, 0x70, 0x73, 0x65, 0x75, 0x64, 0x6f, 0x5f, 0x71,
  0x63, 0x6f, 0x6e, 0x73, 0x74, 0x00, 0x00, 0x00, 0x01, 0x00, 0x00, 0x00,
  0x07, 0x00, 0x00, 0x00, 0x4a, 0xff, 0xff, 0xff, 0x00, 0x00, 0x00, 0x01,
  0x14, 0x00, 0x00, 0x00, 0x14, 0x00, 0x00, 0x00, 0x04, 0x00, 0x00, 0x00,
  0x00, 0x00, 0x00, 0x02, 0x1c, 0x00, 0x00, 0x00, 0x8c, 0xff, 0xff, 0xff,
  0x0f, 0x00, 0x00, 0x00, 0x61, 0x72, 0x69, 0x74, 0x68, 0x2e, 0x63, 0x6f,
  0x6e, 0x73, 0x74, 0x61, 0x6e, 0x74, 0x32, 0x00, 0x00, 0x00, 0x00, 0x00,
  0x82, 0xff, 0xff, 0xff, 0x00, 0x00, 0x00, 0x01, 0x14, 0x00, 0x00, 0x00,
  0x14, 0x00, 0x00, 0x00, 0x03, 0x00, 0x00, 0x00, 0x00, 0x00, 0x00, 0x02,
  0x1c, 0x00, 0x00, 0x00, 0xc4, 0xff, 0xff, 0xff, 0x0f, 0x00, 0x00, 0x00,
  0x61, 0x72, 0x69, 0x74, 0x68, 0x2e, 0x63, 0x6f, 0x6e, 0x73, 0x74, 0x61,
  0x6e, 0x74, 0x31, 0x00, 0x01, 0x00, 0x00, 0x00, 0x03, 0x00, 0x00, 0x00,
  0xbe, 0xff, 0xff, 0xff, 0x00, 0x00, 0x00, 0x01, 0x18, 0x00, 0x00, 0x00,
  0x18, 0x00, 0x00, 0x00, 0x02, 0x00, 0x00, 0x00, 0x00, 0x00, 0x00, 0x02,
  0x20, 0x00, 0x00, 0x00, 0x04, 0x00, 0x04, 0x00, 0x04, 0x00, 0x00, 0x00,
  0x0e, 0x00, 0x00, 0x00, 0x61, 0x72, 0x69, 0x74, 0x68, 0x2e, 0x63, 0x6f,
  0x6e, 0x73, 0x74, 0x61, 0x6e, 0x74, 0x00, 0x00, 0x01, 0x00, 0x00, 0x00,
  0x04, 0x00, 0x00, 0x00, 0x00, 0x00, 0x16, 0x00, 0x1c, 0x00, 0x18, 0x00,
  0x17, 0x00, 0x10, 0x00, 0x0c, 0x00, 0x08, 0x00, 0x00, 0x00, 0x00, 0x00,
  0x00, 0x00, 0x07, 0x00, 0x16, 0x00, 0x00, 0x00, 0x00, 0x00, 0x00, 0x01,
  0x20, 0x00, 0x00, 0x00, 0x40, 0x00, 0x00, 0x00, 0x01, 0x00, 0x00, 0x00,
  0x00, 0x00, 0x00, 0x09, 0x5c, 0x00, 0x00, 0x00, 0x0c, 0x00, 0x0c, 0x00,
  0x00, 0x00, 0x00, 0x00, 0x08, 0x00, 0x04, 0x00, 0x0c, 0x00, 0x00, 0x00,
  0x08, 0x00, 0x00, 0x00, 0x14, 0x00, 0x00, 0x00, 0x01, 0x00, 0x00, 0x00,
  0x90, 0xff, 0xff, 0xff, 0xff, 0xff, 0xff, 0xff, 0x00, 0x00, 0x00, 0x00,
  0x01, 0x00, 0x00, 0x00, 0xc1, 0xb9, 0x1c, 0x3f, 0x21, 0x00, 0x00, 0x00,
  0x73, 0x65, 0x72, 0x76, 0x69, 0x6e, 0x67, 0x5f, 0x64, 0x65, 0x66, 0x61,
  0x75, 0x6c, 0x74, 0x5f, 0x6b, 0x65, 0x72, 0x61, 0x73, 0x5f, 0x74, 0x65,
  0x6e, 0x73, 0x6f, 0x72, 0x5f, 0x31, 0x34, 0x3a, 0x30, 0x00, 0x00, 0x00,
  0x03, 0x00, 0x00, 0x00, 0x01, 0x00, 0x00, 0x00, 0xf4, 0x01, 0x00, 0x00,
  0x06, 0x00, 0x00, 0x00, 0x05, 0x00, 0x00, 0x00, 0x6c, 0x00, 0x00, 0x00,
  0x4c, 0x00, 0x00, 0x00, 0x2c, 0x00, 0x00, 0x00, 0x18, 0x00, 0x00, 0x00,
  0x04, 0x00, 0x00, 0x00, 0xd0, 0xff, 0xff, 0xff, 0x19, 0x00, 0x00, 0x00,
  0x02, 0x00, 0x00, 0x00, 0x00, 0x00, 0x00, 0x19, 0xe0, 0xff, 0xff, 0xff,
  0x09, 0x00, 0x00, 0x00, 0x04, 0x00, 0x00, 0x00, 0x00, 0x00, 0x00, 0x09,
  0xf0, 0xff, 0xff, 0xff, 0x28, 0x00, 0x00, 0x00, 0x02, 0x00, 0x00, 0x00,
  0x00, 0x00, 0x00, 0x28, 0x0c, 0x00, 0x10, 0x00, 0x0f, 0x00, 0x00, 0x00,
  0x08, 0x00, 0x04, 0x00, 0x0c, 0x00, 0x00, 0x00, 0x03, 0x00, 0x00, 0x00,
  0x03, 0x00, 0x00, 0x00, 0x00, 0x00, 0x00, 0x03, 0x0c, 0x00, 0x0c, 0x00,
  0x0b, 0x00, 0x00, 0x00, 0x00, 0x00, 0x04, 0x00, 0x0c, 0x00, 0x00, 0x00,
  0x16, 0x00, 0x00, 0x00, 0x00, 0x00, 0x00, 0x16
};
inline const unsigned int gesture_model_1_tflite_len = 8768;
