
inline const unsigned char gesture_model_4_tflite[] = {
  0x20, 0x00, 0x00, 0x00, 0x54, 0x46, 0x4c, 0x33, 0x00, 0x00, 0x00, 0x00,
  0x14, 0x00, 0x20, 0x00, 0x1c, 0x00, 0x18, 0x00, 0x14, 0x00, 0x10, 0x00,
  0x0c, 0x00, 0x00, 0x00, 0x08, 0x00, 0x04, 0x00, 0x14, 0x00, 0x00, 0x00,
  0x1c, 0x00, 0x00, 0x00, 0x9c, 0x00, 0x00, 0x00, 0x1c, 0x01, 0x00, 0x00,
  0x70, 0x0c, 0x00, 0x00, 0x80, 0x0c, 0x00, 0x00, 0xc4, 0x21, 0x00, 0x00,
  0x03, 0x00, 0x00, 0x00, 0x01, 0x00, 0x00, 0x00, 0x10, 0x00, 0x00, 0x00,
  0x00, 0x00, 0x0a, 0x00, 0x10, 0x00, 0x0c, 0x00, 0x08, 0x00, 0x04, 0x00,
  0x0a, 0x00, 0x00, 0x00, 0x0c, 0x00, 0x00, 0x00, 0x1c, 0x00, 0x00, 0x00,
  0x3c, 0x00, 0x00, 0x00, 0x0f, 0x00, 0x00, 0x00, 0x73, 0x65, 0x72, 0x76,
  0x69, 0x6e, 0x67, 0x5f, 0x64, 0x65, 0x66, 0x61, 0x75, 0x6c, 0x74, 0x00,
  0x01, 0x00, 0x00, 0x00, 0x04, 0x00, 0x00, 0x00, 0x64, 0xff, 0xff, 0xff,
  0x16, 0x00, 0x00, 0x00, 0x04, 0x00, 0x00, 0x00, 0x08, 0x00, 0x00, 0x00,
  0x6f, 0x75, 0x74, 0x70, 0x75, 0x74, 0x5f, 0x30, 0x00, 0x00, 0x00, 0x00,
  0x01, 0x00, 0x00, 0x00, 0x04, 0x00, 0x00, 0x00, 0x72, 0xf3, 0xff, 0xff,
  0x04, 0x00, 0x00, 0x00, 0x10, 0x00, 0x00, 0x00, 0x6b, 0x65, 0x72, 0x61,
  0x73, 0x5f, 0x74, 0x65, 0x6e, 0x73, 0x6f, 0x72, 0x5f, 0x31, 0x39, 0x36,
  0x00, 0x00, 0x00, 0x00, 0x03, 0x00, 0x00, 0x00, 0x5c, 0x00, 0x00, 0x00,
  0x2c, 0x00, 0x00, 0x00, 0x04, 0x00, 0x00, 0x00, 0xb8, 0xff, 0xff, 0xff,
  0x1a, 0x00, 0x00, 0x00, 0x04, 0x00, 0x00, 0x00, 0x13, 0x00, 0x00, 0x00,
  0x43, 0x4f, 0x4e, 0x56, 0x45, 0x52, 0x53, 0x49, 0x4f, 0x4e, 0x5f, 0x4d,
  0x45, 0x54, 0x41, 0x44, 0x41, 0x54, 0x41, 0x00, 0xdc, 0xff, 0xff, 0xff,
  0x19, 0x00, 0x00, 0x00, 0x04, 0x00, 0x00, 0x00, 0x13, 0x00, 0x00, 0x00,
  0x6d, 0x69, 0x6e, 0x5f, 0x72, 0x75, 0x6e, 0x74, 0x69, 0x6d, 0x65, 0x5f,
  0x76, 0x65, 0x72, 0x73, 0x69, 0x6f, 0x6e, 0x00, 0x08, 0x00, 0x0c, 0x00,
  0x08, 0x00, 0x04, 0x00, 0x08, 0x00, 0x00, 0x00, 0x18, 0x00, 0x00, 0x00,
  0x04, 0x00, 0x00, 0x00, 0x13, 0x00, 0x00, 0x00, 0x6d, 0x69, 0x6e, 0x5f,
  0x72, 0x75, 0x6e, 0x74, 0x69, 0x6d, 0x65, 0x5f, 0x76, 0x65, 0x72, 0x73,
  0x69, 0x6f, 0x6e, 0x00, 0x1b, 0x00, 0x00, 0x00, 0x50, 0x0b, 0x00, 0x00,
  0x48, 0x0b, 0x00, 0x00, 0x28, 0x0b, 0x00, 0x00, 0x0c, 0x0b, 0x00, 0x00,
  0xf8, 0x0a, 0x00, 0x00, 0xcc, 0x0a, 0x00, 0x00, 0x4c, 0x0a, 0x00, 0x00,
  0xfc, 0x09, 0x00, 0x00, 0x6c, 0x09, 0x00, 0x00, 0x3c, 0x09, 0x00, 0x00,
  0x0c, 0x08, 0x00, 0x00, 0xcc, 0x07, 0x00, 0x00, 0xfc, 0x03, 0x00, 0x00,
  0xac, 0x03, 0x00, 0x00, 0xfc, 0x00, 0x00, 0x00, 0xf4, 0x00, 0x00, 0x00,
  0xec, 0x00, 0x00, 0x00, 0xe4, 0x00, 0x00, 0x00, 0xdc, 0x00, 0x00, 0x00,
  0xd4, 0x00, 0x00, 0x00, 0xcc, 0x00, 0x00, 0x00, 0xc4, 0x00, 0x00, 0x00,
  0xbc, 0x00, 0x00, 0x00, 0xb4, 0x00, 0x00, 0x00, 0x94, 0x00, 0x00, 0x00,
  0x74, 0x00, 0x00, 0x00, 0x04, 0x00, 0x00, 0x00, 0x86, 0xf4, 0xff, 0xff,
  0x04, 0x00, 0x00, 0x00, 0x60, 0x00, 0x00, 0x00, 0x0c, 0x00, 0x00, 0x00,
  0x08, 0x00, 0x0e, 0x00, 0x08, 0x00, 0x04, 0x00, 0x08, 0x00, 0x00, 0x00,
  0x10, 0x00, 0x00, 0x00, 0x28, 0x00, 0x00, 0x00, 0x00, 0x00, 0x06, 0x00,
  0x08, 0x00, 0x04, 0x00, 0x06, 0x00, 0x00, 0x00, 0x04, 0x00, 0x00, 0x00,
  0x01, 0x00, 0x00, 0x00, 0xeb, 0x03, 0x00, 0x00, 0x0c, 0x00, 0x18, 0x00,
  0x14, 0x00, 0x10, 0x00, 0x0c, 0x00, 0x04, 0x00, 0x0c, 0x00, 0x00, 0x00,
  0x90, 0x23, 0x1c, 0x91, 0xe1, 0x42, 0xe3, 0x7e, 0x02, 0x00, 0x00, 0x00,
  0x02, 0x00, 0x00, 0x00, 0x04, 0x00, 0x00, 0x00, 0x06, 0x00, 0x00, 0x00,
  0x32, 0x2e, 0x31, 0x39, 0x2e, 0x30, 0x00, 0x00, 0xf2, 0xf4, 0xff, 0xff,
  0x04, 0x00, 0x00, 0x00, 0x10, 0x00, 0x00, 0x00, 0x00, 0x00, 0x00, 0x00,
  0x00, 0x00, 0x00, 0x00, 0x00, 0x00, 0x00, 0x00, 0x00, 0x00, 0x00, 0x00,
  0x0e, 0xf5, 0xff, 0xff, 0x04, 0x00, 0x00, 0x00, 0x10, 0x00, 0x00, 0x00,
  0x31, 0x2e, 0x31, 0x34, 0x2e, 0x30, 0x00, 0x00, 0x00, 0x00, 0x00, 0x00,
  0x00, 0x00, 0x00, 0x00, 0x20, 0xe1, 0xff, 0xff, 0x24, 0xe1, 0xff, 0xff,
  0x28, 0xe1, 0xff, 0xff, 0x2c, 0xe1, 0xff, 0xff, 0x30, 0xe1, 0xff, 0xff,
  0x34, 0xe1, 0xff, 0xff, 0x38, 0xe1, 0xff, 0xff, 0x3c, 0xe1, 0xff, 0xff,
  0x40, 0xe1, 0xff, 0xff, 0x4e, 0xf5, 0xff, 0xff, 0x04, 0x00, 0x00, 0x00,
  0xa0, 0x02, 0x00, 0x00, 0x07, 0xc4, 0x0a, 0xfe, 0x3f, 0x7f, 0xf6, 0xd5,
  0x16, 0xf5, 0x2d, 0x5f, 0x09, 0xe4, 0x0f, 0xf5, 0x2a, 0x4f, 0xf5, 0xed,
  0x00, 0xea, 0x1b, 0x40, 0x18, 0xf5, 0xf3, 0xff, 0x08, 0x1c, 0xfc, 0xeb,
  0xf1, 0xea, 0xe7, 0x11, 0x03, 0xe5, 0xdb, 0xed, 0xc1, 0x00, 0x56, 0x5b,
  0x7f, 0xca, 0xd4, 0xfd, 0x5f, 0x4a, 0x3e, 0xac, 0xe9, 0x00, 0x36, 0x34,
  0x25, 0xc0, 0xe2, 0x2d, 0x12, 0x26, 0x1d, 0xc8, 0xcd, 0x25, 0x1b, 0x2f,
  0x04, 0xea, 0xc3, 0x24, 0xfc, 0x20, 0xfa, 0xf3, 0xcc, 0x56, 0xef, 0x26,
  0xf7, 0x13, 0xe1, 0x68, 0x0e, 0xd7, 0xf6, 0xb6, 0xc9, 0xec, 0xcc, 0xe5,
  0x03, 0xb6, 0xe1, 0xe4, 0xc9, 0x07, 0x2a, 0xc2, 0xf2, 0xd5, 0xba, 0x2e,
  0x21, 0xc3, 0x1d, 0xd3, 0xbc, 0x4c, 0x01, 0xf0, 0x33, 0xcf, 0xf2, 0x5f,
  0x2b, 0xd4, 0x0f, 0xd5, 0xe9, 0x7f, 0x0f, 0xcd, 0x18, 0xb0, 0x98, 0x60,
  0x7a, 0x7f, 0xbd, 0x35, 0xab, 0x29, 0x36, 0x5a, 0xc8, 0x33, 0xde, 0x3d,
  0x44, 0x17, 0x8f, 0x35, 0xd8, 0x0d, 0x0a, 0x1a, 0x94, 0x2b, 0x08, 0x13,
  0xf6, 0x1d, 0x8b, 0x2b, 0xfa, 0x31, 0xff, 0xef, 0xd1, 0x33, 0xef, 0x37,
  0xf4, 0x09, 0xf9, 0x3c, 0xfa, 0x3d, 0x26, 0x1b, 0x12, 0xeb, 0xf1, 0x2d,
  0x16, 0x12, 0xf8, 0xf0, 0x0e, 0x23, 0x01, 0x2f, 0xf7, 0x18, 0x00, 0x03,
  0x05, 0x2c, 0x03, 0x37, 0xff, 0x02, 0xeb, 0x36, 0xf8, 0x39, 0xed, 0xf0,
  0xe0, 0x26, 0x1c, 0x6b, 0xfb, 0xef, 0xfa, 0x23, 0x18, 0x7f, 0x12, 0xfd,
  0x7c, 0xfc, 0x5a, 0xf2, 0x3e, 0xe3, 0x63, 0x10, 0x3a, 0xfc, 0x19, 0xf7,
  0x3c, 0x07, 0x34, 0xfb, 0x28, 0xf4, 0x4a, 0x0a, 0x4a, 0xee, 0x1e, 0xd9,
  0x5f, 0x12, 0x32, 0xd7, 0x63, 0xee, 0x5b, 0xe5, 0x2b, 0xc8, 0x56, 0xce,
  0x7f, 0xf5, 0x0e, 0xb7, 0xa2, 0x60, 0x0a, 0x24, 0x17, 0x81, 0xd5, 0x1c,
  0x00, 0xe9, 0x24, 0x9e, 0xef, 0x18, 0xff, 0xf4, 0x1c, 0xb5, 0xed, 0xff,
  0xe1, 0xe9, 0x12, 0xd8, 0x03, 0xe5, 0xf8, 0xf4, 0xf8, 0xe0, 0x3c, 0xda,
  0xee, 0xfc, 0x03, 0xfd, 0x3d, 0xdf, 0xfb, 0x2c, 0xe6, 0x11, 0x33, 0x43,
  0x73, 0xea, 0xbf, 0xeb, 0x31, 0x48, 0x52, 0xc9, 0xef, 0xec, 0x25, 0x3b,
  0x4a, 0xdc, 0x06, 0x02, 0x27, 0x1d, 0x50, 0xed, 0x03, 0x20, 0x2e, 0x2e,
  0x2d, 0x10, 0x2d, 0x02, 0x29, 0x40, 0x16, 0x3a, 0x32, 0x22, 0x1f, 0x5f,
  0x1b, 0x7f, 0x3d, 0x15, 0x09, 0xd7, 0xa8, 0xf3, 0xe1, 0x5a, 0xf5, 0xcc,
  0xbc, 0x02, 0xf3, 0x6a, 0x00, 0x10, 0xdc, 0x0b, 0xd1, 0x51, 0x0e, 0x03,
  0xfa, 0x13, 0xf9, 0x61, 0x15, 0x4d, 0x38, 0x22, 0xfb, 0x5f, 0xfe, 0x4b,
  0x16, 0x01, 0xeb, 0x76, 0x05, 0x7f, 0x4c, 0xff, 0x0a, 0x78, 0x09, 0x0b,
  0xfe, 0xad, 0x02, 0xb9, 0x02, 0x12, 0xfa, 0xe0, 0x08, 0xb9, 0xe9, 0x0b,
  0xff, 0xea, 0xf9, 0xc8, 0x02, 0xfe, 0x1b, 0x0b, 0x00, 0xbe, 0x20, 0xdd,
  0x12, 0x17, 0xee, 0xae, 0x00, 0xea, 0x0f, 0x1f, 0xda, 0x9a, 0x15, 0xd7,
  0xfd, 0xfc, 0xc1, 0x81, 0x27, 0xa0, 0x01, 0xfd, 0xbf, 0x58, 0x0e, 0xd0,
  0x0e, 0x05, 0xcf, 0x20, 0x25, 0xd5, 0x08, 0x1f, 0xcc, 0xf8, 0x02, 0xf0,
  0x34, 0xfe, 0xd4, 0xd9, 0x1f, 0xfa, 0x44, 0x15, 0xd1, 0xa6, 0x23, 0x1e,
  0x30, 0x12, 0xf6, 0x8d, 0x02, 0x46, 0x46, 0x02, 0xfd, 0x81, 0xc9, 0xd1,
  0xb8, 0xeb, 0x2c, 0xea, 0xd0, 0xcc, 0xde, 0xf3, 0x08, 0xca, 0xd5, 0xa9,
  0xee, 0xcf, 0xf2, 0xc1, 0xec, 0xde, 0xfb, 0xf9, 0xdf, 0xd6, 0xea, 0xb4,
  0x09, 0xda, 0x95, 0xca, 0xdf, 0x99, 0x17, 0x00, 0x81, 0x9d, 0xf0, 0x94,
  0x30, 0xcf, 0x89, 0x87, 0x33, 0xbf, 0xd7, 0xf6, 0xe9, 0x2a, 0xf9, 0xd0,
  0xfe, 0x04, 0xf2, 0x16, 0xf1, 0xcf, 0x0b, 0x15, 0xec, 0x00, 0xff, 0xe1,
  0x0b, 0x14, 0xff, 0xdc, 0xfa, 0xe7, 0x32, 0x0a, 0xf3, 0xc2, 0x06, 0x01,
  0x32, 0x08, 0x08, 0x99, 0x12, 0x05, 0x2d, 0xda, 0xec, 0x81, 0xce, 0xf3,
  0x7f, 0x0c, 0xe9, 0xe6, 0xb8, 0xe8, 0x78, 0xf1, 0xef, 0xec, 0xc1, 0xf9,
  0x74, 0xd4, 0xef, 0xf2, 0xa0, 0xd8, 0x5c, 0xc1, 0xea, 0xfb, 0xa7, 0xea,
  0x56, 0xbf, 0xef, 0x14, 0xab, 0xe3, 0x3c, 0xa1, 0xe2, 0x1d, 0xc4, 0xd6,
  0x61, 0xd3, 0x00, 0x0a, 0x1c, 0xbe, 0x11, 0xf3, 0x02, 0x11, 0x20, 0xd1,
  0x16, 0xee, 0xf1, 0x1c, 0x1f, 0xb9, 0x21, 0xea, 0xf1, 0x13, 0x1f, 0xba,
  0x37, 0xfc, 0x04, 0x23, 0x17, 0xbb, 0x48, 0xe8, 0xfb, 0x24, 0x1c, 0xc5,
  0x65, 0xf9, 0xff, 0x16, 0x23, 0xa3, 0x7f, 0xeb, 0xe1, 0x1e, 0xf9, 0xf7,
  0xf1, 0xf0, 0x0b, 0x7f, 0x0c, 0xf9, 0x07, 0xf1, 0x0d, 0x4f, 0x0a, 0xed,
  0x03, 0xd6, 0x05, 0x50, 0x09, 0x05, 0x1b, 0xe4, 0x12, 0x22, 0x2e, 0x1b,
  0x2d, 0xed, 0xfe, 0x0c, 0x1d, 0x1a, 0x46, 0x01, 0xf1, 0x09, 0x46, 0x3a,
  0x42, 0x11, 0xf3, 0xf1, 0xfa, 0xf7, 0xff, 0xff, 0x04, 0x00, 0x00, 0x00,
  0x40, 0x00, 0x00, 0x00, 0xc9, 0xfc, 0xff, 0xff, 0xfb, 0xf8, 0xff, 0xff,
  0x9d, 0xf8, 0xff, 0xff, 0xbd, 0xee, 0xff, 0xff, 0x78, 0x0f, 0x00, 0x00,
  0xaa, 0xf9, 0xff, 0xff, 0xbe, 0xfc, 0xff, 0xff, 0x54, 0xf9, 0xff, 0xff,
  0xc3, 0xfa, 0xff, 0xff, 0x03, 0xfd, 0xff, 0xff, 0x61, 0xfc, 0xff, 0xff,
  0x89, 0x00, 0x00, 0x00, 0xb5, 0xfd, 0xff, 0xff, 0xf0, 0xf4, 0xff, 0xff,
  0x23, 0xf6, 0xff, 0xff, 0xea, 0xf8, 0xff, 0xff, 0x46, 0xf8, 0xff, 0xff,
  0x04, 0x00, 0x00, 0x00, 0xc0, 0x03, 0x00, 0x00, 0xb5, 0x02, 0xc6, 0x87,
  0x0a, 0xdf, 0x73, 0xc7, 0xed, 0x03, 0xcb, 0xec, 0xbe, 0x8c, 0xf4, 0x0c,
  0xc2, 0x19, 0xcd, 0xdc, 0xeb, 0xaf, 0x48, 0xb7, 0xf9, 0xfa, 0xd9, 0x0a,
  0xcd, 0xc7, 0xfe, 0xfa, 0xcc, 0x0b, 0xce, 0x23, 0x02, 0xb6, 0x0c, 0xed,
  0xfe, 0xf0, 0xf2, 0x23, 0x15, 0xf7, 0x10, 0x07, 0xf7, 0x25, 0xc4, 0x20,
  0xe4, 0xd7, 0xc4, 0x00, 0xf9, 0xfa, 0x14, 0x30, 0x37, 0x08, 0x53, 0x0c,
  0x2b, 0x17, 0xc4, 0x38, 0xe9, 0x0f, 0x81, 0x08, 0xfb, 0x16, 0x52, 0x45,
  0x5b, 0x12, 0x4b, 0x1f, 0x81, 0xd5, 0x2d, 0xd5, 0xf0, 0xcf, 0x21, 0xfa,
  0xf2, 0x2a, 0xde, 0x23, 0x05, 0x0c, 0x14, 0xdf, 0xc2, 0xd0, 0x0f, 0xc3,
  0x13, 0xee, 0x06, 0xf8, 0x00, 0x26, 0xe2, 0x0d, 0xd8, 0x0d, 0x19, 0xdb,
  0xe2, 0xc9, 0x1f, 0xbe, 0x0e, 0xef, 0x05, 0x19, 0x1e, 0x01, 0xd6, 0x0f,
  0xed, 0x0f, 0x14, 0x02, 0xf4, 0xe2, 0x1f, 0xb7, 0x38, 0xfc, 0x13, 0x0c,
  0x18, 0x1a, 0xde, 0xf6, 0xd9, 0x29, 0x24, 0x01, 0xe6, 0xec, 0x13, 0xbe,
  0x4c, 0x0e, 0xf4, 0x2e, 0x26, 0x0c, 0xdd, 0xd6, 0xef, 0x28, 0x24, 0x2a,
  0x41, 0x61, 0x03, 0x0a, 0xf3, 0x3e, 0xac, 0xf8, 0x4b, 0xa3, 0xdd, 0xc0,
  0xb2, 0x3c, 0x3d, 0x64, 0x32, 0x2f, 0xf5, 0x2c, 0xce, 0x00, 0xed, 0xec,
  0xfe, 0xb0, 0x06, 0xdc, 0xa2, 0x3a, 0x0e, 0x3b, 0xf6, 0xed, 0xf1, 0x14,
  0xf3, 0x00, 0xf9, 0x18, 0xc7, 0xa8, 0x25, 0x09, 0xb2, 0x15, 0x35, 0xf2,
  0xe2, 0xf3, 0xfc, 0xeb, 0xec, 0xe9, 0x0a, 0x2d, 0xa5, 0x9c, 0x1f, 0x1b,
  0xbe, 0xf2, 0x1b, 0xee, 0xb1, 0xae, 0xf2, 0xe8, 0xfe, 0xe2, 0x29, 0x40,
  0x9f, 0x81, 0x23, 0x33, 0xd0, 0xae, 0x16, 0xb6, 0x27, 0xe5, 0xe5, 0x06,
  0xf5, 0xfe, 0xf8, 0xbd, 0x01, 0x81, 0xfe, 0x1b, 0xff, 0x03, 0xff, 0x0a,
  0x00, 0xee, 0xe7, 0xfd, 0xfc, 0xfa, 0xfd, 0xce, 0xf8, 0xa3, 0x08, 0x0e,
  0x06, 0xee, 0x0a, 0x17, 0xed, 0xe5, 0xee, 0xf8, 0xf8, 0xfd, 0xff, 0xda,
  0x17, 0xc8, 0x12, 0x1a, 0x19, 0xec, 0xfb, 0x03, 0xce, 0xdf, 0xf9, 0x11,
  0x0f, 0xfe, 0x03, 0xff, 0x0a, 0xf6, 0x1a, 0x00, 0x03, 0xe3, 0xf3, 0x00,
  0xd6, 0xd2, 0xf9, 0x11, 0x12, 0xfd, 0x04, 0x0c, 0x1f, 0x19, 0x22, 0xfa,
  0x13, 0xe9, 0xd0, 0xef, 0x32, 0xb8, 0x32, 0x0b, 0x0f, 0x9d, 0x1a, 0x09,
  0x09, 0xa3, 0x09, 0xcd, 0xdc, 0xee, 0x60, 0x05, 0x7a, 0xd9, 0x1b, 0xd6,
  0x1f, 0xad, 0x1c, 0x32, 0x02, 0xb9, 0xf9, 0xdd, 0xd4, 0xf6, 0x7a, 0xff,
  0x6d, 0xd3, 0x11, 0xbc, 0x18, 0xca, 0x42, 0x5c, 0xf5, 0xba, 0xf2, 0xc8,
  0xe9, 0xf3, 0x65, 0x13, 0x54, 0xd8, 0x17, 0xb3, 0x39, 0xfa, 0x2e, 0x6c,
  0xfe, 0x99, 0x0c, 0xc0, 0xc5, 0xd2, 0x5c, 0x0a, 0x58, 0xb6, 0x1d, 0xe5,
  0x56, 0xe0, 0x2a, 0x7f, 0x18, 0xaa, 0x0a, 0xa0, 0xce, 0xac, 0x1d, 0x22,
  0x44, 0xc6, 0x2c, 0x82, 0xc0, 0xd1, 0xb0, 0x0d, 0xfe, 0xe4, 0x0a, 0x2e,
  0x15, 0xef, 0x49, 0x18, 0x28, 0xd3, 0x1b, 0xa8, 0xdb, 0xe6, 0xc3, 0x15,
  0xf7, 0xfd, 0x11, 0x25, 0x28, 0xeb, 0x09, 0x1b, 0xf0, 0xf0, 0x1e, 0xf5,
  0xf9, 0xe3, 0xb7, 0xf3, 0x09, 0x00, 0x11, 0x05, 0xfa, 0xf1, 0x00, 0xe9,
  0xfc, 0x0c, 0x08, 0x27, 0x22, 0xde, 0xdf, 0x04, 0x17, 0xec, 0x01, 0xea,
  0xb8, 0xe5, 0xe9, 0xea, 0xff, 0x2f, 0x13, 0x27, 0x54, 0xd5, 0xe0, 0xf5,
  0x25, 0xd0, 0xb8, 0xc4, 0x81, 0x07, 0xe6, 0xad, 0x83, 0x5d, 0x0c, 0x2d,
  0xf8, 0x12, 0xec, 0x42, 0xab, 0x13, 0x04, 0x01, 0x3d, 0xdc, 0x0a, 0x19,
  0x97, 0x04, 0x23, 0x0c, 0x0e, 0x1f, 0x13, 0x14, 0xdd, 0xf6, 0xc6, 0x09,
  0xff, 0xcf, 0x08, 0x05, 0xc7, 0xe3, 0xf8, 0x0b, 0x20, 0x0f, 0x29, 0xce,
  0xf3, 0xf3, 0x98, 0xf6, 0xe1, 0xd7, 0x03, 0xfd, 0xd8, 0xb9, 0xf7, 0x11,
  0xdb, 0x00, 0x1a, 0x9d, 0xde, 0xfb, 0xad, 0xef, 0xea, 0xd7, 0x12, 0xe7,
  0x0d, 0xd7, 0xe4, 0xf7, 0xd5, 0xde, 0x13, 0x81, 0xcd, 0x09, 0xca, 0xfd,
  0xcf, 0xeb, 0x2d, 0xcb, 0xfe, 0x2a, 0xf9, 0xe6, 0x3d, 0x2e, 0x51, 0x54,
  0xf2, 0x1c, 0xb7, 0xca, 0xc9, 0x07, 0xe1, 0xc2, 0xea, 0x3e, 0x06, 0xf6,
  0x25, 0x11, 0x15, 0xff, 0xfc, 0x07, 0xe0, 0xde, 0xe7, 0xfc, 0xe6, 0xcd,
  0xe7, 0x27, 0xfb, 0xff, 0x19, 0x1f, 0x0b, 0xec, 0x0c, 0x24, 0xe5, 0xd0,
  0x0f, 0xec, 0xf8, 0xdf, 0xe4, 0x21, 0xf3, 0xff, 0x0a, 0x34, 0xf2, 0xbf,
  0x0b, 0x22, 0xf3, 0xb6, 0x0f, 0xe3, 0xef, 0xe0, 0xbc, 0xf3, 0xeb, 0x19,
  0x1a, 0x32, 0x1a, 0xc8, 0x21, 0x34, 0xe4, 0x81, 0x2a, 0xd2, 0xda, 0xdb,
  0xf2, 0x8f, 0x93, 0x28, 0x1e, 0x07, 0x72, 0x9c, 0x81, 0x1d, 0x29, 0x03,
  0xe6, 0xfe, 0x00, 0xe9, 0xce, 0xe3, 0x92, 0x29, 0x30, 0xf7, 0x35, 0xf6,
  0xb4, 0xf9, 0x43, 0x14, 0xf4, 0xed, 0x03, 0x16, 0xff, 0xed, 0xa8, 0xf7,
  0x17, 0x04, 0x02, 0xee, 0xcc, 0xfe, 0x30, 0xf8, 0xe9, 0xee, 0x18, 0x0b,
  0xfe, 0xf2, 0xbc, 0xd9, 0xfc, 0xfb, 0xef, 0x03, 0xaf, 0xc0, 0x0c, 0xcb,
  0xc3, 0x32, 0x27, 0x2c, 0x29, 0xe6, 0xc4, 0xca, 0xc2, 0x19, 0xeb, 0x2f,
  0x89, 0x8c, 0x05, 0xec, 0xba, 0x4b, 0x79, 0x36, 0xd1, 0x29, 0xfc, 0x1c,
  0x43, 0x03, 0x9c, 0x0e, 0xff, 0x07, 0x00, 0x03, 0xe4, 0xdd, 0xc5, 0xe3,
  0xc6, 0x32, 0x0d, 0xfd, 0x3c, 0x12, 0xb5, 0x09, 0xfd, 0x18, 0x2a, 0xf1,
  0x00, 0xdd, 0xcd, 0xdb, 0xfc, 0x03, 0xf8, 0xdc, 0x0e, 0x28, 0xe9, 0x05,
  0xda, 0x21, 0x11, 0xf7, 0x00, 0xf6, 0xd0, 0xde, 0x26, 0x04, 0x0a, 0xb2,
  0xfc, 0x37, 0xfe, 0xef, 0xcc, 0x10, 0x27, 0xe3, 0x0b, 0x16, 0xe4, 0xca,
  0x50, 0xe4, 0xf5, 0x81, 0xe7, 0x59, 0x22, 0xec, 0xac, 0x1e, 0x18, 0xee,
  0x0e, 0x2b, 0xfc, 0xa9, 0x72, 0x33, 0xe0, 0xe8, 0x1c, 0xb3, 0x81, 0xb6,
  0x37, 0xe7, 0x4f, 0xb5, 0x00, 0x88, 0xf5, 0x00, 0x21, 0x0b, 0xe4, 0xf4,
  0x0c, 0xb7, 0xb4, 0xd7, 0x3a, 0xd4, 0x4f, 0xae, 0x1e, 0xb7, 0xdf, 0x04,
  0x26, 0x09, 0xe9, 0x0e, 0xd7, 0xe3, 0xd9, 0xe8, 0x2a, 0xff, 0x3e, 0xc7,
  0x33, 0xdb, 0xfc, 0x06, 0x19, 0xef, 0xe2, 0x2b, 0xba, 0xfb, 0xf5, 0xbf,
  0x2a, 0x04, 0x52, 0x0e, 0x41, 0x00, 0xda, 0x09, 0x07, 0x00, 0xe5, 0x2f,
  0x8b, 0xf7, 0xf4, 0xe4, 0x0c, 0x2c, 0x30, 0x55, 0x54, 0x05, 0x00, 0x1f,
  0x2b, 0xea, 0xff, 0xfe, 0xa4, 0x28, 0x18, 0x09, 0xa7, 0x3e, 0x19, 0xee,
  0x37, 0x12, 0xf0, 0xae, 0x2b, 0xf6, 0xf0, 0xfd, 0xc6, 0x16, 0x37, 0x2f,
  0xd0, 0x1d, 0x01, 0xfe, 0x0b, 0x11, 0xf8, 0xd6, 0x1b, 0x00, 0x08, 0xee,
  0xcc, 0x00, 0xff, 0x1b, 0xf2, 0x04, 0xe3, 0xf6, 0xf0, 0x0c, 0xfd, 0xfa,
  0x03, 0x20, 0x08, 0xef, 0x03, 0xf5, 0xfa, 0x23, 0xf4, 0xda, 0xe8, 0xdd,
  0xb6, 0x05, 0xf0, 0x01, 0x16, 0x19, 0xf5, 0xd9, 0x47, 0xda, 0xea, 0x15,
  0x12, 0xb7, 0xb9, 0xc4, 0x81, 0xe8, 0xde, 0xff, 0x12, 0xfc, 0xff, 0xff,
  0x04, 0x00, 0x00, 0x00, 0x30, 0x00, 0x00, 0x00, 0x9f, 0x06, 0x00, 0x00,
  0x08, 0x01, 0x00, 0x00, 0x6e, 0x21, 0x00, 0x00, 0x61, 0x0d, 0x00, 0x00,
  0x84, 0xee, 0xff, 0xff, 0xcc, 0x08, 0x00, 0x00, 0xd5, 0x1d, 0x00, 0x00,
  0x84, 0xf2, 0xff, 0xff, 0x76, 0x12, 0x00, 0x00, 0x06, 0xfe, 0xff, 0xff,
  0xea, 0x06, 0x00, 0x00, 0xa9, 0x0f, 0x00, 0x00, 0x4e, 0xfc, 0xff, 0xff,
  0x04, 0x00, 0x00, 0x00, 0x20, 0x01, 0x00, 0x00, 0xec, 0xd4, 0x30, 0x12,
  0x3f, 0xc8, 0x02, 0x81, 0xfc, 0xf9, 0x43, 0x16, 0xf8, 0x14, 0xd6, 0x1b,
  0xef, 0xd3, 0x07, 0xd6, 0xfd, 0xf4, 0xfd, 0x12, 0xf0, 0x15, 0xc6, 0x21,
  0xea, 0x9b, 0x02, 0xec, 0xd8, 0x10, 0xd2, 0x56, 0xc7, 0x36, 0x39, 0x81,
  0xdf, 0x5c, 0xe1, 0x16, 0x73, 0xa6, 0x03, 0x3a, 0xcc, 0xc9, 0xf1, 0xe0,
  0x94, 0xfa, 0xbc, 0x54, 0x4f, 0xc7, 0x43, 0x2c, 0xeb, 0x42, 0x9b, 0xfe,
  0xbb, 0xd2, 0xb5, 0x2e, 0x15, 0x98, 0x17, 0x08, 0x24, 0xf3, 0xf9, 0xfe,
  0xdf, 0xf7, 0xfb, 0xe0, 0x28, 0xef, 0x2e, 0x19, 0xf3, 0xfd, 0xb0, 0xcc,
  0xbe, 0xf8, 0xfa, 0xf5, 0x19, 0xe0, 0x27, 0x32, 0xdd, 0x03, 0x81, 0xc9,
  0xe0, 0xfd, 0x1a, 0x06, 0x4f, 0x17, 0x13, 0x03, 0xc8, 0xc5, 0x81, 0x70,
  0x11, 0x19, 0x0c, 0xed, 0x06, 0x33, 0xfc, 0xe7, 0x0e, 0xaa, 0xd2, 0x08,
  0x4f, 0x46, 0x04, 0x06, 0xe0, 0x02, 0xec, 0x3c, 0xf5, 0xc2, 0x05, 0x9e,
  0x49, 0x52, 0x1b, 0x31, 0xfb, 0x39, 0xec, 0x42, 0x4b, 0xe4, 0x35, 0xb2,
  0x4b, 0x1c, 0x7c, 0x09, 0xd5, 0xfb, 0x0d, 0x81, 0x25, 0x20, 0x16, 0xe7,
  0x0a, 0x07, 0x18, 0x9d, 0xcc, 0xff, 0xf9, 0xb6, 0x38, 0x57, 0xf9, 0xac,
  0x05, 0xdf, 0xee, 0xa9, 0xc5, 0x17, 0xb9, 0x0a, 0xbb, 0x2f, 0xe4, 0x90,
  0xbb, 0x81, 0x40, 0x46, 0xfc, 0x0b, 0x00, 0xcc, 0xe3, 0x3d, 0x12, 0xd0,
  0xc9, 0xd2, 0x62, 0xf0, 0x05, 0x13, 0x26, 0x02, 0x1b, 0x10, 0x30, 0xf9,
  0xea, 0xae, 0x46, 0x07, 0x75, 0x36, 0x64, 0x47, 0xb0, 0x08, 0x3c, 0xde,
  0x1e, 0x43, 0xec, 0x39, 0x2d, 0xe1, 0x12, 0x1a, 0xfd, 0xd7, 0x38, 0xca,
  0x18, 0x0e, 0x81, 0xff, 0xb2, 0x9b, 0x29, 0x38, 0xe0, 0x30, 0x3b, 0x4b,
  0xc7, 0x5f, 0xa8, 0x21, 0xd1, 0x87, 0xee, 0x25, 0xec, 0xb5, 0x12, 0x31,
  0xdc, 0xc5, 0x25, 0xd1, 0xea, 0x42, 0x7f, 0xed, 0xe5, 0xce, 0x01, 0xd1,
  0xfa, 0xeb, 0xf9, 0xe0, 0xd9, 0xf2, 0x08, 0x31, 0xab, 0x63, 0x4d, 0x4d,
  0xdd, 0xe2, 0x49, 0xd4, 0x03, 0xb7, 0xc1, 0x51, 0x7a, 0xfd, 0xff, 0xff,
  0x04, 0x00, 0x00, 0x00, 0x20, 0x00, 0x00, 0x00, 0xcb, 0xfe, 0xff, 0xff,
  0x43, 0x0e, 0x00, 0x00, 0x83, 0x0d, 0x00, 0x00, 0x84, 0x00, 0x00, 0x00,
  0x63, 0x05, 0x00, 0x00, 0xd1, 0x03, 0x00, 0x00, 0x61, 0x09, 0x00, 0x00,
  0x08, 0x01, 0x00, 0x00, 0xa6, 0xfd, 0xff, 0xff, 0x04, 0x00, 0x00, 0x00,
  0x80, 0x00, 0x00, 0x00, 0xd0, 0x05, 0xd2, 0x65, 0x92, 0x92, 0x7f, 0x1b,
  0x0c, 0x2d, 0x7f, 0x61, 0xdd, 0x0a, 0x93, 0x9f, 0x13, 0x93, 0x25, 0x7f,
  0xa8, 0xf3, 0x15, 0xf4, 0xa5, 0x81, 0xcc, 0x3e, 0x18, 0x3d, 0xf0, 0x2b,
  0x72, 0xbe, 0xbb, 0xa7, 0x7f, 0xf0, 0xc0, 0x26, 0x59, 0x7f, 0x45, 0xd4,
  0xea, 0xb1, 0x15, 0xd5, 0x81, 0x73, 0x3d, 0xa4, 0x8e, 0x62, 0xb0, 0x38,
  0xcb, 0x24, 0x34, 0x64, 0x81, 0xbb, 0x6f, 0xd1, 0x85, 0xcd, 0x7f, 0x46,
  0x4c, 0x3a, 0xeb, 0xa1, 0xe0, 0xc6, 0x72, 0x7f, 0x96, 0x6e, 0x8b, 0x12,
  0x7f, 0x45, 0x75, 0xd7, 0x7c, 0xd4, 0x8b, 0x92, 0x81, 0xde, 0xad, 0x19,
  0x13, 0xe1, 0x5a, 0x2d, 0x81, 0x12, 0x11, 0x16, 0x31, 0xee, 0x4c, 0xd1,
  0x77, 0x81, 0xec, 0x52, 0x66, 0xcf, 0x10, 0xc3, 0x81, 0x66, 0x1b, 0xcd,
  0x56, 0xd7, 0x28, 0xbe, 0x70, 0x44, 0x81, 0xb3, 0xc0, 0x99, 0x31, 0x5c,
  0x32, 0xfe, 0xff, 0xff, 0x04, 0x00, 0x00, 0x00, 0x40, 0x00, 0x00, 0x00,
  0xa9, 0x03, 0x00, 0x00, 0x56, 0x03, 0x00, 0x00, 0x5f, 0xff, 0xff, 0xff,
  0x75, 0x03, 0x00, 0x00, 0x9d, 0x10, 0x00, 0x00, 0x37, 0x02, 0x00, 0x00,
  0xf0, 0xff, 0xff, 0xff, 0x58, 0xfe, 0xff, 0xff, 0xbf, 0xf1, 0xff, 0xff,
  0xb5, 0xff, 0xff, 0xff, 0x84, 0x08, 0x00, 0x00, 0x9b, 0x03, 0x00, 0x00,
  0xb9, 0xf8, 0xff, 0xff, 0xed, 0x06, 0x00, 0x00, 0xaa, 0xfd, 0xff, 0xff,
  0x26, 0x15, 0x00, 0x00, 0x7e, 0xfe, 0xff, 0xff, 0x04, 0x00, 0x00, 0x00,
  0x70, 0x00, 0x00, 0x00, 0x9f, 0x81, 0x91, 0x0f, 0x14, 0xa9, 0xa5, 0x88,
  0x1b, 0xa3, 0x0e, 0x12, 0x17, 0x10, 0x1a, 0x92, 0x1b, 0x07, 0x1e, 0x18,
  0x92, 0x81, 0xca, 0x14, 0x16, 0x19, 0xa5, 0x13, 0x0e, 0x07, 0xd0, 0x94,
  0xb4, 0xc6, 0xb0, 0x92, 0x1b, 0x13, 0xa6, 0xbc, 0xb3, 0xa0, 0x19, 0x81,
  0xa9, 0x15, 0xcf, 0x1a, 0x1a, 0x18, 0x18, 0xa6, 0xcb, 0x15, 0xb4, 0x17,
  0xa7, 0x13, 0x10, 0x90, 0xa7, 0x11, 0x81, 0x13, 0x19, 0xa7, 0xae, 0xae,
  0xb5, 0x06, 0x0a, 0x17, 0xaf, 0x9e, 0x97, 0x14, 0x15, 0x81, 0x16, 0x0d,
  0xbb, 0x1b, 0xc1, 0xbc, 0xaa, 0x06, 0x18, 0x00, 0x1a, 0x10, 0x12, 0xa6,
  0x0b, 0xa9, 0x15, 0x81, 0xc5, 0xbb, 0xd3, 0x1e, 0x0d, 0x81, 0x22, 0x92,
  0xb8, 0x17, 0x92, 0x03, 0xa1, 0x8e, 0x9e, 0x09, 0xfa, 0xfe, 0xff, 0xff,
  0x04, 0x00, 0x00, 0x00, 0x1c, 0x00, 0x00, 0x00, 0xa6, 0xff, 0xff, 0xff,
  0xff, 0xf5, 0xff, 0xff, 0x62, 0x05, 0x00, 0x00, 0x5f, 0xf2, 0xff, 0xff,
  0x33, 0x02, 0x00, 0x00, 0x3a, 0xfe, 0xff, 0xff, 0x88, 0x11, 0x00, 0x00,
  0x22, 0xff, 0xff, 0xff, 0x04, 0x00, 0x00, 0x00, 0x04, 0x00, 0x00, 0x00,
  0x01, 0x00, 0x00, 0x00, 0x32, 0xff, 0xff, 0xff, 0x04, 0x00, 0x00, 0x00,
  0x0c, 0x00, 0x00, 0x00, 0x01, 0x00, 0x00, 0x00, 0x7d, 0x00, 0x00, 0x00,
  0x08, 0x00, 0x00, 0x00, 0x4a, 0xff, 0xff, 0xff, 0x04, 0x00, 0x00, 0x00,
  0x10, 0x00, 0x00, 0x00, 0x01, 0x00, 0x00, 0x00, 0x01, 0x00, 0x00, 0x00,
  0xf4, 0x01, 0x00, 0x00, 0x06, 0x00, 0x00, 0x00, 0x5c, 0xeb, 0xff, 0xff,
  0x60, 0xeb, 0xff, 0xff, 0x0f, 0x00, 0x00, 0x00, 0x4d, 0x4c, 0x49, 0x52,
  0x20, 0x43, 0x6f, 0x6e, 0x76, 0x65, 0x72, 0x74, 0x65, 0x64, 0x2e, 0x00,
  0x01, 0x00, 0x00, 0x00, 0x14, 0x00, 0x00, 0x00, 0x00, 0x00, 0x0e, 0x00,
  0x18, 0x00, 0x14, 0x00, 0x10, 0x00, 0x0c, 0x00, 0x08, 0x00, 0x04, 0x00,
  0x0e, 0x00, 0x00, 0x00, 0x14, 0x00, 0x00, 0x00, 0x1c, 0x00, 0x00, 0x00,
  0x44, 0x02, 0x00, 0x00, 0x48, 0x02, 0x00, 0x00, 0x4c, 0x02, 0x00, 0x00,
  0x04, 0x00, 0x00, 0x00, 0x6d, 0x61, 0x69, 0x6e, 0x00, 0x00, 0x00, 0x00,
  0x09, 0x00, 0x00, 0x00, 0x08, 0x02, 0x00, 0x00, 0xac, 0x01, 0x00, 0x00,
  0x58, 0x01, 0x00, 0x00, 0x14, 0x01, 0x00, 0x00, 0xf0, 0x00, 0x00, 0x00,
  0xbc, 0x00, 0x00, 0x00, 0x78, 0x00, 0x00, 0x00, 0x40, 0x00, 0x00, 0x00,
  0x04, 0x00, 0x00, 0x00, 0x82, 0xfe, 0xff, 0xff, 0x1c, 0x00, 0x00, 0x00,
  0x00, 0x00, 0x00, 0x09, 0x1c, 0x00, 0x00, 0x00, 0x20, 0x00, 0x00, 0x00,
  0x04, 0x00, 0x00, 0x00, 0x00, 0x00, 0x06, 0x00, 0x08, 0x00, 0x04, 0x00,
  0x06, 0x00, 0x00, 0x00, 0x00, 0x00, 0x80, 0x3f, 0x01, 0x00, 0x00, 0x00,
  0x16, 0x00, 0x00, 0x00, 0x01, 0x00, 0x00, 0x00, 0x15, 0x00, 0x00, 0x00,
  0xba, 0xfe, 0xff, 0xff, 0x14, 0x00, 0x00, 0x00, 0x00, 0x00, 0x00, 0x08,
  0x10, 0x00, 0x00, 0x00, 0x14, 0x00, 0x00, 0x00, 0x03, 0x00, 0x00, 0x00,
  0x2c, 0xec, 0xff, 0xff, 0x01, 0x00, 0x00, 0x00, 0x15, 0x00, 0x00, 0x00,
  0x03, 0x00, 0x00, 0x00, 0x14, 0x00, 0x00, 0x00, 0x05, 0x00, 0x00, 0x00,
  0x04, 0x00, 0x00, 0x00, 0xee, 0xfe, 0xff, 0xff, 0x1c, 0x00, 0x00, 0x00,
  0x00, 0x00, 0x00, 0x08, 0x1c, 0x00, 0x00, 0x00, 0x20, 0x00, 0x00, 0x00,
  0x03, 0x00, 0x00, 0x00, 0x00, 0x00, 0x06, 0x00, 0x08, 0x00, 0x07, 0x00,
  0x06, 0x00, 0x00, 0x00, 0x00, 0x00, 0x00, 0x01, 0x01, 0x00, 0x00, 0x00,
  0x14, 0x00, 0x00, 0x00, 0x03, 0x00, 0x00, 0x00, 0x13, 0x00, 0x00, 0x00,
  0x07, 0x00, 0x00, 0x00, 0x06, 0x00, 0x00, 0x00, 0x2e, 0xff, 0xff, 0xff,
  0x14, 0x00, 0x00, 0x00, 0x00, 0x00, 0x00, 0x1b, 0x10, 0x00, 0x00, 0x00,
  0x14, 0x00, 0x00, 0x00, 0x02, 0x00, 0x00, 0x00, 0xa0, 0xec, 0xff, 0xff,
  0x01, 0x00, 0x00, 0x00, 0x13, 0x00, 0x00, 0x00, 0x02, 0x00, 0x00, 0x00,
  0x12, 0x00, 0x00, 0x00, 0x03, 0x00, 0x00, 0x00, 0x02, 0xff, 0xff, 0xff,
  0x08, 0x00, 0x00, 0x00, 0x0c, 0x00, 0x00, 0x00, 0x01, 0x00, 0x00, 0x00,
  0x12, 0x00, 0x00, 0x00, 0x02, 0x00, 0x00, 0x00, 0x11, 0x00, 0x00, 0x00,
  0x02, 0x00, 0x00, 0x00, 0x7e, 0xff, 0xff, 0xff, 0x14, 0x00, 0x00, 0x00,
  0x00, 0x00, 0x00, 0x01, 0x1c, 0x00, 0x00, 0x00, 0x20, 0x00, 0x00, 0x00,
  0x01, 0x00, 0x00, 0x00, 0x70, 0xff, 0xff, 0xff, 0x00, 0x00, 0x00, 0x01,
  0x01, 0x00, 0x00, 0x00, 0x01, 0x00, 0x00, 0x00, 0x01, 0x00, 0x00, 0x00,
  0x11, 0x00, 0x00, 0x00, 0x03, 0x00, 0x00, 0x00, 0x10, 0x00, 0x00, 0x00,
  0x09, 0x00, 0x00, 0x00, 0x08, 0x00, 0x00, 0x00, 0xbe, 0xff, 0xff, 0xff,
  0x14, 0x00, 0x00, 0x00, 0x00, 0x00, 0x00, 0x01, 0x1c, 0x00, 0x00, 0x00,
  0x20, 0x00, 0x00, 0x00, 0x01, 0x00, 0x00, 0x00, 0xb0, 0xff, 0xff, 0xff,
  0x00, 0x00, 0x00, 0x01, 0x01, 0x00, 0x00, 0x00, 0x02, 0x00, 0x00, 0x00,
  0x01, 0x00, 0x00, 0x00, 0x10, 0x00, 0x00, 0x00, 0x03, 0x00, 0x00, 0x00,
  0x0f, 0x00, 0x00, 0x00, 0x0b, 0x00, 0x00, 0x00, 0x0a, 0x00, 0x00, 0x00,
  0x00, 0x00, 0x0e, 0x00, 0x18, 0x00, 0x14, 0x00, 0x10, 0x00, 0x0c, 0x00,
  0x0b, 0x00, 0x04, 0x00, 0x0e, 0x00, 0x00, 0x00, 0x20, 0x00, 0x00, 0x00,
  0x00, 0x00, 0x00, 0x01, 0x28, 0x00, 0x00, 0x00, 0x2c, 0x00, 0x00, 0x00,
  0x01, 0x00, 0x00, 0x00, 0x0c, 0x00, 0x10, 0x00, 0x00, 0x00, 0x0c, 0x00,
  0x08, 0x00, 0x07, 0x00, 0x0c, 0x00, 0x00, 0x00, 0x00, 0x00, 0x00, 0x01,
  0x01, 0x00, 0x00, 0x00, 0x02, 0x00, 0x00, 0x00, 0x01, 0x00, 0x00, 0x00,
  0x0f, 0x00, 0x00, 0x00, 0x03, 0x00, 0x00, 0x00, 0x0e, 0x00, 0x00, 0x00,
  0x0d, 0x00, 0x00, 0x00, 0x0c, 0x00, 0x00, 0x00, 0x00, 0x00, 0x0a, 0x00,
  0x0c, 0x00, 0x00, 0x00, 0x08, 0x00, 0x04, 0x00, 0x0a, 0x00, 0x00, 0x00,
  0x08, 0x00, 0x00, 0x00, 0x0c, 0x00, 0x00, 0x00, 0x01, 0x00, 0x00, 0x00,
  0x0e, 0x00, 0x00, 0x00, 0x02, 0x00, 0x00, 0x00, 0x00, 0x00, 0x00, 0x00,
  0x01, 0x00, 0x00, 0x00, 0x01, 0x00, 0x00, 0x00, 0x16, 0x00, 0x00, 0x00,
  0x01, 0x00, 0x00, 0x00, 0x00, 0x00, 0x00, 0x00, 0x17, 0x00, 0x00, 0x00,
  0x48, 0x12, 0x00, 0x00, 0xec, 0x11, 0x00, 0x00, 0xac, 0x11, 0x00, 0x00,
  0x70, 0x11, 0x00, 0x00, 0xc4, 0x10, 0x00, 0x00, 0x18, 0x10, 0x00, 0x00,
  0x04, 0x0f, 0x00, 0x00, 0xe8, 0x0d, 0x00, 0x00, 0x34, 0x0d, 0x00, 0x00,
  0x70, 0x0c, 0x00, 0x00, 0x8c, 0x0b, 0x00, 0x00, 0x98, 0x0a, 0x00, 0x00,
  0x84, 0x09, 0x00, 0x00, 0x60, 0x08, 0x00, 0x00, 0xd4, 0x07, 0x00, 0x00,
  0x68, 0x06, 0x00, 0x00, 0xfc, 0x04, 0x00, 0x00, 0x90, 0x03, 0x00, 0x00,
  0x4c, 0x02, 0x00, 0x00, 0xc8, 0x01, 0x00, 0x00, 0x0c, 0x01, 0x00, 0x00,
  0x70, 0x00, 0x00, 0x00, 0x04, 0x00, 0x00, 0x00, 0x2a, 0xee, 0xff, 0xff,
  0x00, 0x00, 0x00, 0x01, 0x14, 0x00, 0x00, 0x00, 0x30, 0x00, 0x00, 0x00,
  0x17, 0x00, 0x00, 0x00, 0x00, 0x00, 0x00, 0x09, 0x44, 0x00, 0x00, 0x00,
  0x14, 0xee, 0xff, 0xff, 0x08, 0x00, 0x00, 0x00, 0x10, 0x00, 0x00, 0x00,
  0x01, 0x00, 0x00, 0x00, 0x80, 0xff, 0xff, 0xff, 0xff, 0xff, 0xff, 0xff,
  0x01, 0x00, 0x00, 0x00, 0x00, 0x00, 0x80, 0x3b, 0x1b, 0x00, 0x00, 0x00,
  0x53, 0x74, 0x61, 0x74, 0x65, 0x66, 0x75, 0x6c, 0x50, 0x61, 0x72, 0x74,
  0x69, 0x74, 0x69, 0x6f, 0x6e, 0x65, 0x64, 0x43, 0x61, 0x6c, 0x6c, 0x5f,
  0x31, 0x3a, 0x30, 0x00, 0x02, 0x00, 0x00, 0x00, 0x01, 0x00, 0x00, 0x00,
  0x07, 0x00, 0x00, 0x00, 0x92, 0xee, 0xff, 0xff, 0x00, 0x00, 0x00, 0x01,
  0x14, 0x00, 0x00, 0x00, 0x34, 0x00, 0x00, 0x00, 0x16, 0x00, 0x00, 0x00,
  0x00, 0x00, 0x00, 0x09, 0x74, 0x00, 0x00, 0x00, 0x7c, 0xee, 0xff, 0xff,
  0x08, 0x00, 0x00, 0x00, 0x14, 0x00, 0x00, 0x00, 0x01, 0x00, 0x00, 0x00,
  0x48, 0x00, 0x00, 0x00, 0x00, 0x00, 0x00, 0x00, 0x00, 0x00, 0x00, 0x00,
  0x01, 0x00, 0x00, 0x00, 0x6b, 0xf2, 0xb2, 0x3e, 0x44, 0x00, 0x00, 0x00,
  0x73, 0x65, 0x71, 0x75, 0x65, 0x6e, 0x74, 0x69, 0x61, 0x6c, 0x5f, 0x31,
  0x34, 0x5f, 0x31, 0x2f, 0x64, 0x65, 0x6e, 0x73, 0x65, 0x5f, 0x32, 0x39,
  0x5f, 0x31, 0x2f, 0x4d, 0x61, 0x74, 0x4d, 0x75, 0x6c, 0x3b, 0x73, 0x65,
  0x71, 0x75, 0x65, 0x6e, 0x74, 0x69, 0x61, 0x6c, 0x5f, 0x31, 0x34, 0x5f,
  0x31, 0x2f, 0x64, 0x65, 0x6e, 0x73, 0x65, 0x5f, 0x32, 0x39, 0x5f, 0x31,
  0x2f, 0x42, 0x69, 0x61, 0x73, 0x41, 0x64, 0x64, 0x00, 0x00, 0x00, 0x00,
  0x02, 0x00, 0x00, 0x00, 0x01, 0x00, 0x00, 0x00, 0x07, 0x00, 0x00, 0x00,
  0x2a, 0xef, 0xff, 0xff, 0x00, 0x00, 0x00, 0x01, 0x14, 0x00, 0x00, 0x00,
  0x34, 0x00, 0x00, 0x00, 0x15, 0x00, 0x00, 0x00, 0x00, 0x00, 0x00, 0x09,
  0x94, 0x00, 0x00, 0x00, 0x14, 0xef, 0xff, 0xff, 0x08, 0x00, 0x00, 0x00,
  0x14, 0x00, 0x00, 0x00, 0x01, 0x00, 0x00, 0x00, 0x80, 0xff, 0xff, 0xff,
  0xff, 0xff, 0xff, 0xff, 0x00, 0x00, 0x00, 0x00, 0x01, 0x00, 0x00, 0x00,
  0x1d, 0x53, 0x10, 0x3c, 0x64, 0x00, 0x00, 0x00, 0x73, 0x65, 0x71, 0x75,
  0x65, 0x6e, 0x74, 0x69, 0x61, 0x6c, 0x5f, 0x31, 0x34, 0x5f, 0x31, 0x2f,
  0x64, 0x65, 0x6e, 0x73, 0x65, 0x5f, 0x32, 0x38, 0x5f, 0x31, 0x2f, 0x4d,
  0x61, 0x74, 0x4d, 0x75, 0x6c, 0x3b, 0x73, 0x65, 0x71, 0x75, 0x65, 0x6e,
  0x74, 0x69, 0x61, 0x6c, 0x5f, 0x31, 0x34, 0x5f, 0x31, 0x2f, 0x64, 0x65,
  0x6e, 0x73, 0x65, 0x5f, 0x32, 0x38, 0x5f, 0x31, 0x2f, 0x52, 0x65, 0x6c,
  0x75, 0x3b, 0x73, 0x65, 0x71, 0x75, 0x65, 0x6e, 0x74, 0x69, 0x61, 0x6c,
  0x5f, 0x31, 0x34, 0x5f, 0x31, 0x2f, 0x64, 0x65, 0x6e, 0x73, 0x65, 0x5f,
  0x32, 0x38, 0x5f, 0x31, 0x2f, 0x42, 0x69, 0x61, 0x73, 0x41, 0x64, 0x64,
  0x00, 0x00, 0x00, 0x00, 0x02, 0x00, 0x00, 0x00, 0x01, 0x00, 0x00, 0x00,
  0x10, 0x00, 0x00, 0x00, 0xe2, 0xef, 0xff, 0xff, 0x00, 0x00, 0x00, 0x01,
  0x14, 0x00, 0x00, 0x00, 0x30, 0x00, 0x00, 0x00, 0x14, 0x00, 0x00, 0x00,
  0x00, 0x00, 0x00, 0x09, 0x5c, 0x00, 0x00, 0x00, 0xcc, 0xef, 0xff, 0xff,
  0x08, 0x00, 0x00, 0x00, 0x10, 0x00, 0x00, 0x00, 0x01, 0x00, 0x00, 0x00,
  0x80, 0xff, 0xff, 0xff, 0xff, 0xff, 0xff, 0xff, 0x01, 0x00, 0x00, 0x00,
  0xa0, 0x45, 0x5c, 0x3c, 0x32, 0x00, 0x00, 0x00, 0x73, 0x65, 0x71, 0x75,
  0x65, 0x6e, 0x74, 0x69, 0x61, 0x6c, 0x5f, 0x31, 0x34, 0x5f, 0x31, 0x2f,
  0x67, 0x6c, 0x6f, 0x62, 0x61, 0x6c, 0x5f, 0x61, 0x76, 0x65, 0x72, 0x61,
  0x67, 0x65, 0x5f, 0x70, 0x6f, 0x6f, 0x6c, 0x69, 0x6e, 0x67, 0x31, 0x64,
  0x5f, 0x31, 0x34, 0x5f, 0x31, 0x2f, 0x4d, 0x65, 0x61, 0x6e, 0x00, 0x00,
  0x02, 0x00, 0x00, 0x00, 0x01, 0x00, 0x00, 0x00, 0x08, 0x00, 0x00, 0x00,
  0x62, 0xf0, 0xff, 0xff, 0x00, 0x00, 0x00, 0x01, 0x14, 0x00, 0x00, 0x00,
  0x34, 0x00, 0x00, 0x00, 0x13, 0x00, 0x00, 0x00, 0x00, 0x00, 0x00, 0x09,
  0x18, 0x01, 0x00, 0x00, 0x4c, 0xf0, 0xff, 0xff, 0x08, 0x00, 0x00, 0x00,
  0x14, 0x00, 0x00, 0x00, 0x01, 0x00, 0x00, 0x00, 0x80, 0xff, 0xff, 0xff,
  0xff, 0xff, 0xff, 0xff, 0x00, 0x00, 0x00, 0x00, 0x01, 0x00, 0x00, 0x00,
  0x4e, 0xc6, 0x93, 0x3d, 0xeb, 0x00, 0x00, 0x00, 0x73, 0x65, 0x71, 0x75,
  0x65, 0x6e, 0x74, 0x69, 0x61, 0x6c, 0x5f, 0x31, 0x34, 0x5f, 0x31, 0x2f,
  0x61, 0x63, 0x74, 0x69, 0x76, 0x61, 0x74, 0x69, 0x6f, 0x6e, 0x5f, 0x34,
  0x34, 0x5f, 0x31, 0x2f, 0x52, 0x65, 0x6c, 0x75, 0x3b, 0x73, 0x65, 0x71,
  0x75, 0x65, 0x6e, 0x74, 0x69, 0x61, 0x6c, 0x5f, 0x31, 0x34, 0x5f, 0x31,
  0x2f, 0x62, 0x61, 0x74, 0x63, 0x68, 0x5f, 0x6e, 0x6f, 0x72, 0x6d, 0x61,
  0x6c, 0x69, 0x7a, 0x61, 0x74, 0x69, 0x6f, 0x6e, 0x5f, 0x34, 0x34, 0x5f,
  0x31, 0x2f, 0x62, 0x61, 0x74, 0x63, 0x68, 0x6e, 0x6f, 0x72, 0x6d, 0x2f,
  0x61, 0x64, 0x64, 0x5f, 0x31, 0x3b, 0x73, 0x65, 0x71, 0x75, 0x65, 0x6e,
  0x74, 0x69, 0x61, 0x6c, 0x5f, 0x31, 0x34, 0x5f, 0x31, 0x2f, 0x63, 0x6f,
  0x6e, 0x76, 0x31, 0x64, 0x5f, 0x34, 0x34, 0x5f, 0x31, 0x2f, 0x63, 0x6f,
  0x6e, 0x76, 0x6f, 0x6c, 0x75, 0x74, 0x69, 0x6f, 0x6e, 0x2f, 0x53, 0x71,
  0x75, 0x65, 0x65, 0x7a, 0x65, 0x3b, 0x73, 0x65, 0x71, 0x75, 0x65, 0x6e,
  0x74, 0x69, 0x61, 0x6c, 0x5f, 0x31, 0x34, 0x5f, 0x31, 0x2f, 0x62, 0x61,
  0x74, 0x63, 0x68, 0x5f, 0x6e, 0x6f, 0x72, 0x6d, 0x61, 0x6c, 0x69, 0x7a,
  0x61, 0x74, 0x69, 0x6f, 0x6e, 0x5f, 0x34, 0x34, 0x5f, 0x31, 0x2f, 0x62,
  0x61, 0x74, 0x63, 0x68, 0x6e, 0x6f, 0x72, 0x6d, 0x2f, 0x6d, 0x75, 0x6c,
  0x5f, 0x31, 0x3b, 0x73, 0x65, 0x71, 0x75, 0x65, 0x6e, 0x74, 0x69, 0x61,
  0x6c, 0x5f, 0x31, 0x34, 0x5f, 0x31, 0x2f, 0x63, 0x6f, 0x6e, 0x76, 0x31,
  0x64, 0x5f, 0x34, 0x34, 0x5f, 0x31, 0x2f, 0x42, 0x69, 0x61, 0x73, 0x41,
  0x64, 0x64, 0x3b, 0x00, 0x03, 0x00, 0x00, 0x00, 0x01, 0x00, 0x00, 0x00,
  0x7d, 0x00, 0x00, 0x00, 0x08, 0x00, 0x00, 0x00, 0xa2, 0xf1, 0xff, 0xff,
  0x00, 0x00, 0x00, 0x01, 0x14, 0x00, 0x00, 0x00, 0x30, 0x00, 0x00, 0x00,
  0x12, 0x00, 0x00, 0x00, 0x00, 0x00, 0x00, 0x09, 0x3c, 0x01, 0x00, 0x00,
  0x8c, 0xf1, 0xff, 0xff, 0x08, 0x00, 0x00, 0x00, 0x10, 0x00, 0x00, 0x00,
  0x01, 0x00, 0x00, 0x00, 0x80, 0xff, 0xff, 0xff, 0xff, 0xff, 0xff, 0xff,
  0x01, 0x00, 0x00, 0x00, 0x4e, 0xc6, 0x93, 0x3d, 0x13, 0x01, 0x00, 0x00,
  0x73, 0x65, 0x71, 0x75, 0x65, 0x6e, 0x74, 0x69, 0x61, 0x6c, 0x5f, 0x31,
  0x34, 0x5f, 0x31, 0x2f, 0x61, 0x63, 0x74, 0x69, 0x76, 0x61, 0x74, 0x69,
  0x6f, 0x6e, 0x5f, 0x34, 0x34, 0x5f, 0x31, 0x2f, 0x52, 0x65, 0x6c, 0x75,
  0x3b, 0x73, 0x65, 0x71, 0x75, 0x65, 0x6e, 0x74, 0x69, 0x61, 0x6c, 0x5f,
  0x31, 0x34, 0x5f, 0x31, 0x2f, 0x62, 0x61, 0x74, 0x63, 0x68, 0x5f, 0x6e,
  0x6f, 0x72, 0x6d, 0x61, 0x6c, 0x69, 0x7a, 0x61, 0x74, 0x69, 0x6f, 0x6e,
  0x5f, 0x34, 0x34, 0x5f, 0x31, 0x2f, 0x62, 0x61, 0x74, 0x63, 0x68, 0x6e,
  0x6f, 0x72, 0x6d, 0x2f, 0x61, 0x64, 0x64, 0x5f, 0x31, 0x3b, 0x73, 0x65,
  0x71, 0x75, 0x65, 0x6e, 0x74, 0x69, 0x61, 0x6c, 0x5f, 0x31, 0x34, 0x5f,
  0x31, 0x2f, 0x63, 0x6f, 0x6e, 0x76, 0x31, 0x64, 0x5f, 0x34, 0x34, 0x5f,
  0x31, 0x2f, 0x63, 0x6f, 0x6e, 0x76, 0x6f, 0x6c, 0x75, 0x74, 0x69, 0x6f,
  0x6e, 0x2f, 0x53, 0x71, 0x75, 0x65, 0x65, 0x7a, 0x65, 0x3b, 0x73, 0x65,
  0x71, 0x75, 0x65, 0x6e, 0x74, 0x69, 0x61, 0x6c, 0x5f, 0x31, 0x34, 0x5f,
  0x31, 0x2f, 0x62, 0x61, 0x74, 0x63, 0x68, 0x5f, 0x6e, 0x6f, 0x72, 0x6d,
  0x61, 0x6c, 0x69, 0x7a, 0x61, 0x74, 0x69, 0x6f, 0x6e, 0x5f, 0x34, 0x34,
  0x5f, 0x31, 0x2f, 0x62, 0x61, 0x74, 0x63, 0x68, 0x6e, 0x6f, 0x72, 0x6d,
  0x2f, 0x6d, 0x75, 0x6c, 0x5f, 0x31, 0x3b, 0x73, 0x65, 0x71, 0x75, 0x65,
  0x6e, 0x74, 0x69, 0x61, 0x6c, 0x5f, 0x31, 0x34, 0x5f, 0x31, 0x2f, 0x63,
  0x6f, 0x6e, 0x76, 0x31, 0x64, 0x5f, 0x34, 0x34, 0x5f, 0x31, 0x2f, 0x42,
  0x69, 0x61, 0x73, 0x41, 0x64, 0x64, 0x3b, 0x3b, 0x73, 0x65, 0x71, 0x75,
  0x65, 0x6e, 0x74, 0x69, 0x61, 0x6c, 0x5f, 0x31, 0x34, 0x5f, 0x31, 0x2f,
  0x63, 0x6f, 0x6e, 0x76, 0x31, 0x64, 0x5f, 0x34, 0x34, 0x5f, 0x31, 0x2f,
  0x63, 0x6f, 0x6e, 0x76, 0x6f, 0x6c, 0x75, 0x74, 0x69, 0x6f, 0x6e, 0x00,
  0x04, 0x00, 0x00, 0x00, 0x01, 0x00, 0x00, 0x00, 0x01, 0x00, 0x00, 0x00,
  0x7d, 0x00, 0x00, 0x00, 0x08, 0x00, 0x00, 0x00, 0x0a, 0xf3, 0xff, 0xff,
  0x00, 0x00, 0x00, 0x01, 0x14, 0x00, 0x00, 0x00, 0x30, 0x00, 0x00, 0x00,
  0x11, 0x00, 0x00, 0x00, 0x00, 0x00, 0x00, 0x09, 0x3c, 0x01, 0x00, 0x00,
  0xf4, 0xf2, 0xff, 0xff, 0x08, 0x00, 0x00, 0x00, 0x10, 0x00, 0x00, 0x00,
  0x01, 0x00, 0x00, 0x00, 0x80, 0xff, 0xff, 0xff, 0xff, 0xff, 0xff, 0xff,
  0x01, 0x00, 0x00, 0x00, 0xe7, 0x63, 0xb6, 0x3c, 0x13, 0x01, 0x00, 0x00,
  0x73, 0x65, 0x71, 0x75, 0x65, 0x6e, 0x74, 0x69, 0x61, 0x6c, 0x5f, 0x31,
  0x34, 0x5f, 0x31, 0x2f, 0x61, 0x63, 0x74, 0x69, 0x76, 0x61, 0x74, 0x69,
  0x6f, 0x6e, 0x5f, 0x34, 0x33, 0x5f, 0x31, 0x2f, 0x52, 0x65, 0x6c, 0x75,
  0x3b, 0x73, 0x65, 0x71, 0x75, 0x65, 0x6e, 0x74, 0x69, 0x61, 0x6c, 0x5f,
  0x31, 0x34, 0x5f, 0x31, 0x2f, 0x62, 0x61, 0x74, 0x63, 0x68, 0x5f, 0x6e,
  0x6f, 0x72, 0x6d, 0x61, 0x6c, 0x69, 0x7a, 0x61, 0x74, 0x69, 0x6f, 0x6e,
  0x5f, 0x34, 0x33, 0x5f, 0x31, 0x2f, 0x62, 0x61, 0x74, 0x63, 0x68, 0x6e,
  0x6f, 0x72, 0x6d, 0x2f, 0x61, 0x64, 0x64, 0x5f, 0x31, 0x3b, 0x73, 0x65,
  0x71, 0x75, 0x65, 0x6e, 0x74, 0x69, 0x61, 0x6c, 0x5f, 0x31, 0x34, 0x5f,
  0x31, 0x2f, 0x63, 0x6f, 0x6e, 0x76, 0x31, 0x64, 0x5f, 0x34, 0x33, 0x5f,
  0x31, 0x2f, 0x63, 0x6f, 0x6e, 0x76, 0x6f, 0x6c, 0x75, 0x74, 0x69, 0x6f,
  0x6e, 0x2f, 0x53, 0x71, 0x75, 0x65, 0x65, 0x7a, 0x65, 0x3b, 0x73, 0x65,
  0x71, 0x75, 0x65, 0x6e, 0x74, 0x69, 0x61, 0x6c, 0x5f, 0x31, 0x34, 0x5f,
  0x31, 0x2f, 0x62, 0x61, 0x74, 0x63, 0x68, 0x5f, 0x6e, 0x6f, 0x72, 0x6d,
  0x61, 0x6c, 0x69, 0x7a, 0x61, 0x74, 0x69, 0x6f, 0x6e, 0x5f, 0x34, 0x33,
  0x5f, 0x31, 0x2f, 0x62, 0x61, 0x74, 0x63, 0x68, 0x6e, 0x6f, 0x72, 0x6d,
  0x2f, 0x6d, 0x75, 0x6c, 0x5f, 0x31, 0x3b, 0x73, 0x65, 0x71, 0x75, 0x65,
  0x6e, 0x74, 0x69, 0x61, 0x6c, 0x5f, 0x31, 0x34, 0x5f, 0x31, 0x2f, 0x63,
  0x6f, 0x6e, 0x76, 0x31, 0x64, 0x5f, 0x34, 0x33, 0x5f, 0x31, 0x2f, 0x42,
  0x69, 0x61, 0x73, 0x41, 0x64, 0x64, 0x3b, 0x3b, 0x73, 0x65, 0x71, 0x75,
  0x65, 0x6e, 0x74, 0x69, 0x61, 0x6c, 0x5f, 0x31, 0x34, 0x5f, 0x31, 0x2f,
  0x63, 0x6f, 0x6e, 0x76, 0x31, 0x64, 0x5f, 0x34, 0x33, 0x5f, 0x31, 0x2f,
  0x63, 0x6f, 0x6e, 0x76, 0x6f, 0x6c, 0x75, 0x74, 0x69, 0x6f, 0x6e, 0x00,
  0x04, 0x00, 0x00, 0x00, 0x01, 0x00, 0x00, 0x00, 0x01, 0x00, 0x00, 0x00,
  0x7d, 0x00, 0x00, 0x00, 0x0c, 0x00, 0x00, 0x00, 0x72, 0xf4, 0xff, 0xff,
  0x00, 0x00, 0x00, 0x01, 0x14, 0x00, 0x00, 0x00, 0x30, 0x00, 0x00, 0x00,
  0x10, 0x00, 0x00, 0x00, 0x00, 0x00, 0x00, 0x09, 0x3c, 0x01, 0x00, 0x00,
  0x5c, 0xf4, 0xff, 0xff, 0x08, 0x00, 0x00, 0x00, 0x10, 0x00, 0x00, 0x00,
  0x01, 0x00, 0x00, 0x00, 0x80, 0xff, 0xff, 0xff, 0xff, 0xff, 0xff, 0xff,
  0x01, 0x00, 0x00, 0x00, 0x6e, 0x59, 0x05, 0x3d, 0x13, 0x01, 0x00, 0x00,
  0x73, 0x65, 0x71, 0x75, 0x65, 0x6e, 0x74, 0x69, 0x61, 0x6c, 0x5f, 0x31,
  0x34, 0x5f, 0x31, 0x2f, 0x61, 0x63, 0x74, 0x69, 0x76, 0x61, 0x74, 0x69,
  0x6f, 0x6e, 0x5f, 0x34, 0x32, 0x5f, 0x31, 0x2f, 0x52, 0x65, 0x6c, 0x75,
  0x3b, 0x73, 0x65, 0x71, 0x75, 0x65, 0x6e, 0x74, 0x69, 0x61, 0x6c, 0x5f,
  0x31, 0x34, 0x5f, 0x31, 0x2f, 0x62, 0x61, 0x74, 0x63, 0x68, 0x5f, 0x6e,
  0x6f, 0x72, 0x6d, 0x61, 0x6c, 0x69, 0x7a, 0x61, 0x74, 0x69, 0x6f, 0x6e,
  0x5f, 0x34, 0x32, 0x5f, 0x31, 0x2f, 0x62, 0x61, 0x74, 0x63, 0x68, 0x6e,
  0x6f, 0x72, 0x6d, 0x2f, 0x61, 0x64, 0x64, 0x5f, 0x31, 0x3b, 0x73, 0x65,
  0x71, 0x75, 0x65, 0x6e, 0x74, 0x69, 0x61, 0x6c, 0x5f, 0x31, 0x34, 0x5f,
  0x31, 0x2f, 0x63, 0x6f, 0x6e, 0x76, 0x31, 0x64, 0x5f, 0x34, 0x32, 0x5f,
  0x31, 0x2f, 0x63, 0x6f, 0x6e, 0x76, 0x6f, 0x6c, 0x75, 0x74, 0x69, 0x6f,
  0x6e, 0x2f, 0x53, 0x71, 0x75, 0x65, 0x65, 0x7a, 0x65, 0x3b, 0x73, 0x65,
  0x71, 0x75, 0x65, 0x6e, 0x74, 0x69, 0x61, 0x6c, 0x5f, 0x31, 0x34, 0x5f,
  0x31, 0x2f, 0x62, 0x61, 0x74, 0x63, 0x68, 0x5f, 0x6e, 0x6f, 0x72, 0x6d,
  0x61, 0x6c, 0x69, 0x7a, 0x61, 0x74, 0x69, 0x6f, 0x6e, 0x5f, 0x34, 0x32,
  0x5f, 0x31, 0x2f, 0x62, 0x61, 0x74, 0x63, 0x68, 0x6e, 0x6f, 0x72, 0x6d,
  0x2f, 0x6d, 0x75, 0x6c, 0x5f, 0x31, 0x3b, 0x73, 0x65, 0x71, 0x75, 0x65,
  0x6e, 0x74, 0x69, 0x61, 0x6c, 0x5f, 0x31, 0x34, 0x5f, 0x31, 0x2f, 0x63,
  0x6f, 0x6e, 0x76, 0x31, 0x64, 0x5f, 0x34, 0x32, 0x5f, 0x31, 0x2f, 0x42,
  0x69, 0x61, 0x73, 0x41, 0x64, 0x64, 0x3b, 0x3b, 0x73, 0x65, 0x71, 0x75,
  0x65, 0x6e, 0x74, 0x69, 0x61, 0x6c, 0x5f, 0x31, 0x34, 0x5f, 0x31, 0x2f,
  0x63, 0x6f, 0x6e, 0x76, 0x31, 0x64, 0x5f, 0x34, 0x32, 0x5f, 0x31, 0x2f,
  0x63, 0x6f, 0x6e, 0x76, 0x6f, 0x6c, 0x75, 0x74, 0x69, 0x6f, 0x6e, 0x00,
  0x04, 0x00, 0x00, 0x00, 0x01, 0x00, 0x00, 0x00, 0x01, 0x00, 0x00, 0x00,
  0xfa, 0x00, 0x00, 0x00, 0x10, 0x00, 0x00, 0x00, 0xda, 0xf5, 0xff, 0xff,
  0x00, 0x00, 0x00, 0x01, 0x14, 0x00, 0x00, 0x00, 0x30, 0x00, 0x00, 0x00,
  0x0f, 0x00, 0x00, 0x00, 0x00, 0x00, 0x00, 0x09, 0x5c, 0x00, 0x00, 0x00,
  0xc4, 0xf5, 0xff, 0xff, 0x08, 0x00, 0x00, 0x00, 0x10, 0x00, 0x00, 0x00,
  0x01, 0x00, 0x00, 0x00, 0xd9, 0xff, 0xff, 0xff, 0xff, 0xff, 0xff, 0xff,
  0x01, 0x00, 0x00, 0x00, 0xd9, 0x28, 0xd7, 0x3d, 0x33, 0x00, 0x00, 0x00,
  0x73, 0x65, 0x71, 0x75, 0x65, 0x6e, 0x74, 0x69, 0x61, 0x6c, 0x5f, 0x31,
  0x34, 0x5f, 0x31, 0x2f, 0x63, 0x6f, 0x6e, 0x76, 0x31, 0x64, 0x5f, 0x34,
  0x32, 0x5f, 0x31, 0x2f, 0x63, 0x6f, 0x6e, 0x76, 0x6f, 0x6c, 0x75, 0x74,
  0x69, 0x6f, 0x6e, 0x2f, 0x45, 0x78, 0x70, 0x61, 0x6e, 0x64, 0x44, 0x69,
  0x6d, 0x73, 0x31, 0x00, 0x04, 0x00, 0x00, 0x00, 0x01, 0x00, 0x00, 0x00,
  0x01, 0x00, 0x00, 0x00, 0xf4, 0x01, 0x00, 0x00, 0x06, 0x00, 0x00, 0x00,
  0x62, 0xf6, 0xff, 0xff, 0x00, 0x00, 0x00, 0x01, 0x14, 0x00, 0x00, 0x00,
  0xe8, 0x00, 0x00, 0x00, 0x0e, 0x00, 0x00, 0x00, 0x00, 0x00, 0x00, 0x09,
  0xf4, 0x00, 0x00, 0x00, 0x4c, 0xf6, 0xff, 0xff, 0x08, 0x00, 0x00, 0x00,
  0x8c, 0x00, 0x00, 0x00, 0x10, 0x00, 0x00, 0x00, 0x00, 0x00, 0x00, 0x00,
  0x00, 0x00, 0x00, 0x00, 0x00, 0x00, 0x00, 0x00, 0x00, 0x00, 0x00, 0x00,
  0x00, 0x00, 0x00, 0x00, 0x00, 0x00, 0x00, 0x00, 0x00, 0x00, 0x00, 0x00,
  0x00, 0x00, 0x00, 0x00, 0x00, 0x00, 0x00, 0x00, 0x00, 0x00, 0x00, 0x00,
  0x00, 0x00, 0x00, 0x00, 0x00, 0x00, 0x00, 0x00, 0x00, 0x00, 0x00, 0x00,
  0x00, 0x00, 0x00, 0x00, 0x00, 0x00, 0x00, 0x00, 0x00, 0x00, 0x00, 0x00,
  0x00, 0x00, 0x00, 0x00, 0x00, 0x00, 0x00, 0x00, 0x00, 0x00, 0x00, 0x00,
  0x00, 0x00, 0x00, 0x00, 0x00, 0x00, 0x00, 0x00, 0x00, 0x00, 0x00, 0x00,
  0x00, 0x00, 0x00, 0x00, 0x00, 0x00, 0x00, 0x00, 0x00, 0x00, 0x00, 0x00,
  0x00, 0x00, 0x00, 0x00, 0x00, 0x00, 0x00, 0x00, 0x00, 0x00, 0x00, 0x00,
  0x00, 0x00, 0x00, 0x00, 0x00, 0x00, 0x00, 0x00, 0x00, 0x00, 0x00, 0x00,
  0x00, 0x00, 0x00, 0x00, 0x00, 0x00, 0x00, 0x00, 0x10, 0x00, 0x00, 0x00,
  0x61, 0x47, 0x1c, 0x3b, 0xe2, 0x1e, 0xd4, 0x3a, 0xce, 0x97, 0xb8, 0x3a,
  0x38, 0x39, 0xc6, 0x3a, 0xca, 0x47, 0xc5, 0x3a, 0xed, 0x7e, 0x51, 0x3a,
  0x8d, 0x48, 0x65, 0x3b, 0x89, 0x18, 0xbf, 0x3a, 0x28, 0x51, 0xe3, 0x3a,
  0x05, 0x8d, 0x1f, 0x3b, 0x30, 0x28, 0x05, 0x3b, 0x5e, 0xff, 0x7b, 0x3a,
  0x3a, 0x9f, 0x63, 0x3b, 0x3d, 0xa3, 0x7f, 0x3a, 0x15, 0xae, 0xb5, 0x3a,
  0xbc, 0x06, 0x18, 0x3b, 0x12, 0x00, 0x00, 0x00, 0x74, 0x66, 0x6c, 0x2e,
  0x70, 0x73, 0x65, 0x75, 0x64, 0x6f, 0x5f, 0x71, 0x63, 0x6f, 0x6e, 0x73,
  0x74, 0x39, 0x00, 0x00, 0x04, 0x00, 0x00, 0x00, 0x10, 0x00, 0x00, 0x00,
  0x01, 0x00, 0x00, 0x00, 0x07, 0x00, 0x00, 0x00, 0x06, 0x00, 0x00, 0x00,
  0x82, 0xf7, 0xff, 0xff, 0x00, 0x00, 0x00, 0x01, 0x14, 0x00, 0x00, 0x00,
  0xe4, 0x00, 0x00, 0x00, 0x0d, 0x00, 0x00, 0x00, 0x00, 0x00, 0x00, 0x02,
  0xf0, 0x00, 0x00, 0x00, 0x6c, 0xf7, 0xff, 0xff, 0x08, 0x00, 0x00, 0x00,
  0x88, 0x00, 0x00, 0x00, 0x10, 0x00, 0x00, 0x00, 0x00, 0x00, 0x00, 0x00,
  0x00, 0x00, 0x00, 0x00, 0x00, 0x00, 0x00, 0x00, 0x00, 0x00, 0x00, 0x00,
  0x00, 0x00, 0x00, 0x00, 0x00, 0x00, 0x00, 0x00, 0x00, 0x00, 0x00, 0x00,
  0x00, 0x00, 0x00, 0x00, 0x00, 0x00, 0x00, 0x00, 0x00, 0x00, 0x00, 0x00,
  0x00, 0x00, 0x00, 0x00, 0x00, 0x00, 0x00, 0x00, 0x00, 0x00, 0x00, 0x00,
  0x00, 0x00, 0x00, 0x00, 0x00, 0x00, 0x00, 0x00, 0x00, 0x00, 0x00, 0x00,
  0x00, 0x00, 0x00, 0x00, 0x00, 0x00, 0x00, 0x00, 0x00, 0x00, 0x00, 0x00,
  0x00, 0x00, 0x00, 0x00, 0x00, 0x00, 0x00, 0x00, 0x00, 0x00, 0x00, 0x00,
  0x00, 0x00, 0x00, 0x00, 0x00, 0x00, 0x00, 0x00, 0x00, 0x00, 0x00, 0x00,
  0x00, 0x00, 0x00, 0x00, 0x00, 0x00, 0x00, 0x00, 0x00, 0x00, 0x00, 0x00,
  0x00, 0x00, 0x00, 0x00, 0x00, 0x00, 0x00, 0x00, 0x00, 0x00, 0x00, 0x00,
  0x00, 0x00, 0x00, 0x00, 0x10, 0x00, 0x00, 0x00, 0xe2, 0x58, 0x83, 0x39,
  0xc8, 0x47, 0x32, 0x39, 0xf2, 0x24, 0x1b, 0x39, 0xaf, 0x99, 0x26, 0x39,
  0xc5, 0xce, 0x25, 0x39, 0x06, 0x13, 0xb0, 0x38, 0x84, 0xb4, 0xc0, 0x39,
  0x19, 0x9c, 0x20, 0x39, 0x6e, 0x0d, 0x3f, 0x39, 0xe4, 0x18, 0x86, 0x39,
  0xff, 0xd3, 0x5f, 0x39, 0xad, 0xcb, 0xd3, 0x38, 0x0c, 0x4f, 0xbf, 0x39,
  0xe2, 0xda, 0xd6, 0x38, 0x31, 0xb2, 0x18, 0x39, 0xd4, 0x8b, 0x7f, 0x39,
  0x12, 0x00, 0x00, 0x00, 0x74, 0x66, 0x6c, 0x2e, 0x70, 0x73, 0x65, 0x75,
  0x64, 0x6f, 0x5f, 0x71, 0x63, 0x6f, 0x6e, 0x73, 0x74, 0x38, 0x00, 0x00,
  0x01, 0x00, 0x00, 0x00, 0x10, 0x00, 0x00, 0x00, 0x92, 0xf8, 0xff, 0xff,
  0x00, 0x00, 0x00, 0x01, 0x14, 0x00, 0x00, 0x00, 0xb8, 0x00, 0x00, 0x00,
  0x0c, 0x00, 0x00, 0x00, 0x00, 0x00, 0x00, 0x09, 0xc4, 0x00, 0x00, 0x00,
  0x7c, 0xf8, 0xff, 0xff, 0x08, 0x00, 0x00, 0x00, 0x6c, 0x00, 0x00, 0x00,
  0x0c, 0x00, 0x00, 0x00, 0x00, 0x00, 0x00, 0x00, 0x00, 0x00, 0x00, 0x00,
  0x00, 0x00, 0x00, 0x00, 0x00, 0x00, 0x00, 0x00, 0x00, 0x00, 0x00, 0x00,
  0x00, 0x00, 0x00, 0x00, 0x00, 0x00, 0x00, 0x00, 0x00, 0x00, 0x00, 0x00,
  0x00, 0x00, 0x00, 0x00, 0x00, 0x00, 0x00, 0x00, 0x00, 0x00, 0x00, 0x00,
  0x00, 0x00, 0x00, 0x00, 0x00, 0x00, 0x00, 0x00, 0x00, 0x00, 0x00, 0x00,
  0x00, 0x00, 0x00, 0x00, 0x00, 0x00, 0x00, 0x00, 0x00, 0x00, 0x00, 0x00,
  0x00, 0x00, 0x00, 0x00, 0x00, 0x00, 0x00, 0x00, 0x00, 0x00, 0x00, 0x00,
  0x00, 0x00, 0x00, 0x00, 0x00, 0x00, 0x00, 0x00, 0x00, 0x00, 0x00, 0x00,
  0x00, 0x00, 0x00, 0x00, 0x00, 0x00, 0x00, 0x00, 0x0c, 0x00, 0x00, 0x00,
  0x00, 0xbf, 0x84, 0x3b, 0x69, 0x4d, 0x49, 0x3b, 0x7d, 0x86, 0x2d, 0x3b,
  0xe4, 0xaa, 0xad, 0x3b, 0x1e, 0x0e, 0xb0, 0x3a, 0x97, 0xfe, 0x69, 0x3b,
  0x0a, 0x16, 0x38, 0x3b, 0x28, 0xed, 0x60, 0x3b, 0x46, 0x30, 0x62, 0x3b,
  0x0a, 0x67, 0x90, 0x3b, 0xf6, 0x98, 0x01, 0x3b, 0x4a, 0xb8, 0x71, 0x3b,
  0x12, 0x00, 0x00, 0x00, 0x74, 0x66, 0x6c, 0x2e, 0x70, 0x73, 0x65, 0x75,
  0x64, 0x6f, 0x5f, 0x71, 0x63, 0x6f, 0x6e, 0x73, 0x74, 0x37, 0x00, 0x00,
  0x04, 0x00, 0x00, 0x00, 0x0c, 0x00, 0x00, 0x00, 0x01, 0x00, 0x00, 0x00,
  0x05, 0x00, 0x00, 0x00, 0x10, 0x00, 0x00, 0x00, 0x82, 0xf9, 0xff, 0xff,
  0x00, 0x00, 0x00, 0x01, 0x14, 0x00, 0x00, 0x00, 0xb4, 0x00, 0x00, 0x00,
  0x0b, 0x00, 0x00, 0x00, 0x00, 0x00, 0x00, 0x02, 0xc0, 0x00, 0x00, 0x00,
  0x6c, 0xf9, 0xff, 0xff, 0x08, 0x00, 0x00, 0x00, 0x68, 0x00, 0x00, 0x00,
  0x0c, 0x00, 0x00, 0x00, 0x00, 0x00, 0x00, 0x00, 0x00, 0x00, 0x00, 0x00,
  0x00, 0x00, 0x00, 0x00, 0x00, 0x00, 0x00, 0x00, 0x00, 0x00, 0x00, 0x00,
  0x00, 0x00, 0x00, 0x00, 0x00, 0x00, 0x00, 0x00, 0x00, 0x00, 0x00, 0x00,
  0x00, 0x00, 0x00, 0x00, 0x00, 0x00, 0x00, 0x00, 0x00, 0x00, 0x00, 0x00,
  0x00, 0x00, 0x00, 0x00, 0x00, 0x00, 0x00, 0x00, 0x00, 0x00, 0x00, 0x00,
  0x00, 0x00, 0x00, 0x00, 0x00, 0x00, 0x00, 0x00, 0x00, 0x00, 0x00, 0x00,
  0x00, 0x00, 0x00, 0x00, 0x00, 0x00, 0x00, 0x00, 0x00, 0x00, 0x00, 0x00,
  0x00, 0x00, 0x00, 0x00, 0x00, 0x00, 0x00, 0x00, 0x00, 0x00, 0x00, 0x00,
  0x00, 0x00, 0x00, 0x00, 0x0c, 0x00, 0x00, 0x00, 0x35, 0x4b, 0x0a, 0x39,
  0x14, 0xb7, 0xd1, 0x38, 0xfb, 0xc6, 0xb4, 0x38, 0xe7, 0xec, 0x34, 0x39,
  0xac, 0x69, 0x37, 0x38, 0x05, 0xc6, 0xf3, 0x38, 0x84, 0xc7, 0xbf, 0x38,
  0x92, 0x53, 0xea, 0x38, 0x31, 0xa4, 0xeb, 0x38, 0xf4, 0x6f, 0x16, 0x39,
  0x7b, 0x03, 0x87, 0x38, 0x5f, 0xd2, 0xfb, 0x38, 0x12, 0x00, 0x00, 0x00,
  0x74, 0x66, 0x6c, 0x2e, 0x70, 0x73, 0x65, 0x75, 0x64, 0x6f, 0x5f, 0x71,
  0x63, 0x6f, 0x6e, 0x73, 0x74, 0x36, 0x00, 0x00, 0x01, 0x00, 0x00, 0x00,
  0x0c, 0x00, 0x00, 0x00, 0x62, 0xfa, 0xff, 0xff, 0x00, 0x00, 0x00, 0x01,
  0x14, 0x00, 0x00, 0x00, 0x88, 0x00, 0x00, 0x00, 0x0a, 0x00, 0x00, 0x00,
  0x00, 0x00, 0x00, 0x09, 0x94, 0x00, 0x00, 0x00, 0x4c, 0xfa, 0xff, 0xff,
  0x08, 0x00, 0x00, 0x00, 0x4c, 0x00, 0x00, 0x00, 0x08, 0x00, 0x00, 0x00,
  0x00, 0x00, 0x00, 0x00, 0x00, 0x00, 0x00, 0x00, 0x00, 0x00, 0x00, 0x00,
  0x00, 0x00, 0x00, 0x00, 0x00, 0x00, 0x00, 0x00, 0x00, 0x00, 0x00, 0x00,
  0x00, 0x00, 0x00, 0x00, 0x00, 0x00, 0x00, 0x00, 0x00, 0x00, 0x00, 0x00,
  0x00, 0x00, 0x00, 0x00, 0x00, 0x00, 0x00, 0x00, 0x00, 0x00, 0x00, 0x00,
  0x00, 0x00, 0x00, 0x00, 0x00, 0x00, 0x00, 0x00, 0x00, 0x00, 0x00, 0x00,
  0x00, 0x00, 0x00, 0x00, 0x00, 0x00, 0x00, 0x00, 0x08, 0x00, 0x00, 0x00,
  0x6c, 0x75, 0xf0, 0x3c, 0xef, 0x84, 0x72, 0x3c, 0xf5, 0x22, 0x7f, 0x3c,
  0xae, 0x13, 0x7f, 0x3c, 0xfc, 0x22, 0x8b, 0x3c, 0x0a, 0x14, 0xe9, 0x3b,
  0x93, 0xfd, 0x2a, 0x3c, 0x6b, 0x11, 0x6f, 0x3c, 0x12, 0x00, 0x00, 0x00,
  0x74, 0x66, 0x6c, 0x2e, 0x70, 0x73, 0x65, 0x75, 0x64, 0x6f, 0x5f, 0x71,
  0x63, 0x6f, 0x6e, 0x73, 0x74, 0x35, 0x00, 0x00, 0x04, 0x00, 0x00, 0x00,
  0x08, 0x00, 0x00, 0x00, 0x01, 0x00, 0x00, 0x00, 0x03, 0x00, 0x00, 0x00,
  0x0c, 0x00, 0x00, 0x00, 0x22, 0xfb, 0xff, 0xff, 0x00, 0x00, 0x00, 0x01,
  0x14, 0x00, 0x00, 0x00, 0x84, 0x00, 0x00, 0x00, 0x09, 0x00, 0x00, 0x00,
  0x00, 0x00, 0x00, 0x02, 0x90, 0x00, 0x00, 0x00, 0x0c, 0xfb, 0xff, 0xff,
  0x08, 0x00, 0x00, 0x00, 0x48, 0x00, 0x00, 0x00, 0x08, 0x00, 0x00, 0x00,
  0x00, 0x00, 0x00, 0x00, 0x00, 0x00, 0x00, 0x00, 0x00, 0x00, 0x00, 0x00,
  0x00, 0x00, 0x00, 0x00, 0x00, 0x00, 0x00, 0x00, 0x00, 0x00, 0x00, 0x00,
  0x00, 0x00, 0x00, 0x00, 0x00, 0x00, 0x00, 0x00, 0x00, 0x00, 0x00, 0x00,
  0x00, 0x00, 0x00, 0x00, 0x00, 0x00, 0x00, 0x00, 0x00, 0x00, 0x00, 0x00,
  0x00, 0x00, 0x00, 0x00, 0x00, 0x00, 0x00, 0x00, 0x00, 0x00, 0x00, 0x00,
  0x00, 0x00, 0x00, 0x00, 0x08, 0x00, 0x00, 0x00, 0x51, 0x51, 0x2b, 0x3a,
  0x26, 0xc9, 0xac, 0x39, 0x6b, 0xc6, 0xb5, 0x39, 0x88, 0xbb, 0xb5, 0x39,
  0x56, 0x42, 0xc6, 0x39, 0x34, 0x0f, 0x26, 0x39, 0x02, 0xa6, 0x73, 0x39,
  0xae, 0x53, 0xaa, 0x39, 0x12, 0x00, 0x00, 0x00, 0x74, 0x66, 0x6c, 0x2e,
  0x70, 0x73, 0x65, 0x75, 0x64, 0x6f, 0x5f, 0x71, 0x63, 0x6f, 0x6e, 0x73,
  0x74, 0x34, 0x00, 0x00, 0x01, 0x00, 0x00, 0x00, 0x08, 0x00, 0x00, 0x00,
  0xd2, 0xfb, 0xff, 0xff, 0x00, 0x00, 0x00, 0x01, 0x14, 0x00, 0x00, 0x00,
  0xe8, 0x00, 0x00, 0x00, 0x08, 0x00, 0x00, 0x00, 0x00, 0x00, 0x00, 0x09,
  0xf4, 0x00, 0x00, 0x00, 0xbc, 0xfb, 0xff, 0xff, 0x08, 0x00, 0x00, 0x00,
  0x8c, 0x00, 0x00, 0x00, 0x10, 0x00, 0x00, 0x00, 0x00, 0x00, 0x00, 0x00,
  0x00, 0x00, 0x00, 0x00, 0x00, 0x00, 0x00, 0x00, 0x00, 0x00, 0x00, 0x00,
  0x00, 0x00, 0x00, 0x00, 0x00, 0x00, 0x00, 0x00, 0x00, 0x00, 0x00, 0x00,
  0x00, 0x00, 0x00, 0x00, 0x00, 0x00, 0x00, 0x00, 0x00, 0x00, 0x00, 0x00,
  0x00, 0x00, 0x00, 0x00, 0x00, 0x00, 0x00, 0x00, 0x00, 0x00, 0x00, 0x00,
  0x00, 0x00, 0x00, 0x00, 0x00, 0x00, 0x00, 0x00, 0x00, 0x00, 0x00, 0x00,
  0x00, 0x00, 0x00, 0x00, 0x00, 0x00, 0x00, 0x00, 0x00, 0x00, 0x00, 0x00,
  0x00, 0x00, 0x00, 0x00, 0x00, 0x00, 0x00, 0x00, 0x00, 0x00, 0x00, 0x00,
  0x00, 0x00, 0x00, 0x00, 0x00, 0x00, 0x00, 0x00, 0x00, 0x00, 0x00, 0x00,
  0x00, 0x00, 0x00, 0x00, 0x00, 0x00, 0x00, 0x00, 0x00, 0x00, 0x00, 0x00,
  0x00, 0x00, 0x00, 0x00, 0x00, 0x00, 0x00, 0x00, 0x00, 0x00, 0x00, 0x00,
  0x00, 0x00, 0x00, 0x00, 0x00, 0x00, 0x00, 0x00, 0x10, 0x00, 0x00, 0x00,
  0xf4, 0x5d, 0xd1, 0x3b, 0xeb, 0x04, 0xe1, 0x3b, 0x31, 0xb6, 0xdf, 0x3b,
  0x59, 0xdf, 0x05, 0x3c, 0x60, 0x1c, 0xaa, 0x3b, 0xac, 0xf5, 0xa9, 0x3b,
  0xb9, 0x1e, 0xae, 0x3b, 0x54, 0x07, 0xb1, 0x3b, 0x09, 0x4f, 0xe2, 0x3b,
  0x11, 0x0d, 0xc2, 0x3b, 0x58, 0x71, 0xad, 0x3b, 0xb3, 0x0e, 0x0c, 0x3c,
  0xba, 0x5a, 0x15, 0x3c, 0xd3, 0x1c, 0x9f, 0x3b, 0x15, 0xa4, 0x09, 0x3c,
  0xe3, 0x5d, 0x94, 0x3b, 0x12, 0x00, 0x00, 0x00, 0x74, 0x66, 0x6c, 0x2e,
  0x70, 0x73, 0x65, 0x75, 0x64, 0x6f, 0x5f, 0x71, 0x63, 0x6f, 0x6e, 0x73,
  0x74, 0x33, 0x00, 0x00, 0x02, 0x00, 0x00, 0x00, 0x10, 0x00, 0x00, 0x00,
  0x08, 0x00, 0x00, 0x00, 0xea, 0xfc, 0xff, 0xff, 0x00, 0x00, 0x00, 0x01,
  0x14, 0x00, 0x00, 0x00, 0xe4, 0x00, 0x00, 0x00, 0x07, 0x00, 0x00, 0x00,
  0x00, 0x00, 0x00, 0x02, 0xf0, 0x00, 0x00, 0x00, 0xd4, 0xfc, 0xff, 0xff,
  0x08, 0x00, 0x00, 0x00, 0x88, 0x00, 0x00, 0x00, 0x10, 0x00, 0x00, 0x00,
  0x00, 0x00, 0x00, 0x00, 0x00, 0x00, 0x00, 0x00, 0x00, 0x00, 0x00, 0x00,
  0x00, 0x00, 0x00, 0x00, 0x00, 0x00, 0x00, 0x00, 0x00, 0x00, 0x00, 0x00,
  0x00, 0x00, 0x00, 0x00, 0x00, 0x00, 0x00, 0x00, 0x00, 0x00, 0x00, 0x00,
  0x00, 0x00, 0x00, 0x00, 0x00, 0x00, 0x00, 0x00, 0x00, 0x00, 0x00, 0x00,
  0x00, 0x00, 0x00, 0x00, 0x00, 0x00, 0x00, 0x00, 0x00, 0x00, 0x00, 0x00,
  0x00, 0x00, 0x00, 0x00, 0x00, 0x00, 0x00, 0x00, 0x00, 0x00, 0x00, 0x00,
  0x00, 0x00, 0x00, 0x00, 0x00, 0x00, 0x00, 0x00, 0x00, 0x00, 0x00, 0x00,
  0x00, 0x00, 0x00, 0x00, 0x00, 0x00, 0x00, 0x00, 0x00, 0x00, 0x00, 0x00,
  0x00, 0x00, 0x00, 0x00, 0x00, 0x00, 0x00, 0x00, 0x00, 0x00, 0x00, 0x00,
  0x00, 0x00, 0x00, 0x00, 0x00, 0x00, 0x00, 0x00, 0x00, 0x00, 0x00, 0x00,
  0x00, 0x00, 0x00, 0x00, 0x00, 0x00, 0x00, 0x00, 0x10, 0x00, 0x00, 0x00,
  0xaf, 0x25, 0xb4, 0x38, 0x6d, 0x9d, 0xc1, 0x38, 0x6a, 0x7d, 0xc0, 0x38,
  0xb3, 0x60, 0xe6, 0x38, 0xa6, 0x5e, 0x92, 0x38, 0x59, 0x3d, 0x92, 0x38,
  0xc2, 0xd1, 0x95, 0x38, 0x72, 0x52, 0x98, 0x38, 0x78, 0xb9, 0xc2, 0x38,
  0x01, 0xf8, 0xa6, 0x38, 0x94, 0x3c, 0x95, 0x38, 0x73, 0x05, 0xf1, 0x38,
  0x97, 0x82, 0x00, 0x39, 0x0c, 0xe8, 0x88, 0x38, 0xe3, 0xdc, 0xec, 0x38,
  0x12, 0x52, 0x7f, 0x38, 0x12, 0x00, 0x00, 0x00, 0x74, 0x66, 0x6c, 0x2e,
  0x70, 0x73, 0x65, 0x75, 0x64, 0x6f, 0x5f, 0x71, 0x63, 0x6f, 0x6e, 0x73,
  0x74, 0x32, 0x00, 0x00, 0x01, 0x00, 0x00, 0x00, 0x10, 0x00, 0x00, 0x00,
  0xfa, 0xfd, 0xff, 0xff, 0x00, 0x00, 0x00, 0x01, 0x14, 0x00, 0x00, 0x00,
  0x78, 0x00, 0x00, 0x00, 0x06, 0x00, 0x00, 0x00, 0x00, 0x00, 0x00, 0x09,
  0x84, 0x00, 0x00, 0x00, 0xe4, 0xfd, 0xff, 0xff, 0x08, 0x00, 0x00, 0x00,
  0x40, 0x00, 0x00, 0x00, 0x07, 0x00, 0x00, 0x00, 0x00, 0x00, 0x00, 0x00,
  0x00, 0x00, 0x00, 0x00, 0x00, 0x00, 0x00, 0x00, 0x00, 0x00, 0x00, 0x00,
  0x00, 0x00, 0x00, 0x00, 0x00, 0x00, 0x00, 0x00, 0x00, 0x00, 0x00, 0x00,
  0x00, 0x00, 0x00, 0x00, 0x00, 0x00, 0x00, 0x00, 0x00, 0x00, 0x00, 0x00,
  0x00, 0x00, 0x00, 0x00, 0x00, 0x00, 0x00, 0x00, 0x00, 0x00, 0x00, 0x00,
  0x00, 0x00, 0x00, 0x00, 0x07, 0x00, 0x00, 0x00, 0x50, 0x4a, 0x7b, 0x3d,
  0x26, 0x7f, 0x7f, 0x3d, 0x17, 0xe9, 0x9f, 0x3d, 0x07, 0x8b, 0x9f, 0x3d,
  0x3a, 0xa4, 0x81, 0x3d, 0x6d, 0xba, 0x87, 0x3d, 0x07, 0x90, 0x57, 0x3d,
  0x12, 0x00, 0x00, 0x00, 0x74, 0x66, 0x6c, 0x2e, 0x70, 0x73, 0x65, 0x75,
  0x64, 0x6f, 0x5f, 0x71, 0x63, 0x6f, 0x6e, 0x73, 0x74, 0x31, 0x00, 0x00,
  0x02, 0x00, 0x00, 0x00, 0x07, 0x00, 0x00, 0x00, 0x10, 0x00, 0x00, 0x00,
  0xa2, 0xfe, 0xff, 0xff, 0x00, 0x00, 0x00, 0x01, 0x14, 0x00, 0x00, 0x00,
  0x7c, 0x00, 0x00, 0x00, 0x05, 0x00, 0x00, 0x00, 0x00, 0x00, 0x00, 0x02,
  0x88, 0x00, 0x00, 0x00, 0x8c, 0xfe, 0xff, 0xff, 0x08, 0x00, 0x00, 0x00,
  0x44, 0x00, 0x00, 0x00, 0x07, 0x00, 0x00, 0x00, 0x00, 0x00, 0x00, 0x00,
  0x00, 0x00, 0x00, 0x00, 0x00, 0x00, 0x00, 0x00, 0x00, 0x00, 0x00, 0x00,
  0x00, 0x00, 0x00, 0x00, 0x00, 0x00, 0x00, 0x00, 0x00, 0x00, 0x00, 0x00,
  0x00, 0x00, 0x00, 0x00, 0x00, 0x00, 0x00, 0x00, 0x00, 0x00, 0x00, 0x00,
  0x00, 0x00, 0x00, 0x00, 0x00, 0x00, 0x00, 0x00, 0x00, 0x00, 0x00, 0x00,
  0x00, 0x00, 0x00, 0x00, 0x00, 0x00, 0x00, 0x00, 0x07, 0x00, 0x00, 0x00,
  0x63, 0xab, 0x0d, 0x3a, 0x79, 0x0a, 0x10, 0x3a, 0x0f, 0x4e, 0x34, 0x3a,
  0x00, 0xe4, 0x33, 0x3a, 0xef, 0x2c, 0x12, 0x3a, 0xdc, 0x09, 0x19, 0x3a,
  0x00, 0x0e, 0xf3, 0x39, 0x11, 0x00, 0x00, 0x00, 0x74, 0x66, 0x6c, 0x2e,
  0x70, 0x73, 0x65, 0x75, 0x64, 0x6f, 0x5f, 0x71, 0x63, 0x6f, 0x6e, 0x73,
  0x74, 0x00, 0x00, 0x00, 0x01, 0x00, 0x00, 0x00, 0x07, 0x00, 0x00, 0x00,
  0x4a, 0xff, 0xff, 0xff, 0x00, 0x00, 0x00, 0x01, 0x14, 0x00, 0x00, 0x00,
  0x14, 0x00, 0x00, 0x00, 0x04, 0x00, 0x00, 0x00, 0x00, 0x00, 0x00, 0x02,
  0x1c, 0x00, 0x00, 0x00, 0x8c, 0xff, 0xff, 0xff, 0x0f, 0x00, 0x00, 0x00,
  0x61, 0x72, 0x69, 0x74, 0x68, 0x2e, 0x63, 0x6f, 0x6e, 0x73, 0x74, 0x61,
  0x6e, 0x74, 0x32, 0x00, 0x00, 0x00, 0x00, 0x00, 0x82, 0xff, 0xff, 0xff,
  0x00, 0x00, 0x00, 0x01, 0x14, 0x00, 0x00, 0x00, 0x14, 0x00, 0x00, 0x00,
  0x03, 0x00, 0x00, 0x00, 0x00, 0x00, 0x00, 0x02, 0x1c, 0x00, 0x00, 0x00,
  0xc4, 0xff, 0xff, 0xff, 0x0f, 0x00, 0x00, 0x00, 0x61, 0x72, 0x69, 0x74,
  0x68, 0x2e, 0x63, 0x6f, 0x6e, 0x73, 0x74, 0x61, 0x6e, 0x74, 0x31, 0x00,
  0x01, 0x00, 0x00, 0x00, 0x03, 0x00, 0x00, 0x00, 0xbe, 0xff, 0xff, 0xff,
  0x00, 0x00, 0x00, 0x01, 0x18, 0x00, 0x00, 0x00, 0x18, 0x00, 0x00, 0x00,
  0x02, 0x00, 0x00, 0x00, 0x00, 0x00, 0x00, 0x02, 0x20, 0x00, 0x00, 0x00,
  0x04, 0x00, 0x04, 0x00, 0x04, 0x00, 0x00, 0x00, 0x0e, 0x00, 0x00, 0x00,
  0x61, 0x72, 0x69, 0x74, 0x68, 0x2e, 0x63, 0x6f, 0x6e, 0x73, 0x74, 0x61,
  0x6e, 0x74, 0x00, 0x00, 0x01, 0x00, 0x00, 0x00, 0x04, 0x00, 0x00, 0x00,
  0x00, 0x00, 0x16, 0x00, 0x1c, 0x00, 0x18, 0x00, 0x17, 0x00, 0x10, 0x00,
  0x0c, 0x00, 0x08, 0x00, 0x00, 0x00, 0x00, 0x00, 0x00, 0x00, 0x07, 0x00,
  0x16, 0x00, 0x00, 0x00, 0x00, 0x00, 0x00, 0x01, 0x20, 0x00, 0x00, 0x00,
  0x40, 0x00, 0x00, 0x00, 0x01, 0x00, 0x00, 0x00, 0x00, 0x00, 0x00, 0x09,
  0x5c, 0x00, 0x00, 0x00, 0x0c, 0x00, 0x0c, 0x00, 0x00, 0x00, 0x00, 0x00,
  0x08, 0x00, 0x04, 0x00, 0x0c, 0x00, 0x00, 0x00, 0x08, 0x00, 0x00, 0x00,
  0x14, 0x00, 0x00, 0x00, 0x01, 0x00, 0x00, 0x00, 0xd9, 0xff, 0xff, 0xff,
  0xff, 0xff, 0xff, 0xff, 0x00, 0x00, 0x00, 0x00, 0x01, 0x00, 0x00, 0x00,
  0xd9, 0x28, 0xd7, 0x3d, 0x22, 0x00, 0x00, 0x00, 0x73, 0x65, 0x72, 0x76,
  0x69, 0x6e, 0x67, 0x5f, 0x64, 0x65, 0x66, 0x61, 0x75, 0x6c, 0x74, 0x5f,
  0x6b, 0x65, 0x72, 0x61, 0x73, 0x5f, 0x74, 0x65, 0x6e, 0x73, 0x6f, 0x72,
  0x5f, 0x31, 0x39, 0x36, 0x3a, 0x30, 0x00, 0x00, 0x03, 0x00, 0x00, 0x00,
  0x01, 0x00, 0x00, 0x00, 0xf4, 0x01, 0x00, 0x00, 0x06, 0x00, 0x00, 0x00,
  0x05, 0x00, 0x00, 0x00, 0x6c, 0x00, 0x00, 0x00, 0x4c, 0x00, 0x00, 0x00,
  0x2c, 0x00, 0x00, 0x00, 0x18, 0x00, 0x00, 0x00, 0x04, 0x00, 0x00, 0x00,
  0xd0, 0xff, 0xff, 0xff, 0x19, 0x00, 0x00, 0x00, 0x02, 0x00, 0x00, 0x00,
  0x00, 0x00, 0x00, 0x19, 0xe0, 0xff, 0xff, 0xff, 0x09, 0x00, 0x00, 0x00,
  0x04, 0x00, 0x00, 0x00, 0x00, 0x00, 0x00, 0x09, 0xf0, 0xff, 0xff, 0xff,
  0x28, 0x00, 0x00, 0x00, 0x02, 0x00, 0x00, 0x00, 0x00, 0x00, 0x00, 0x28,
  0x0c, 0x00, 0x10, 0x00, 0x0f, 0x00, 0x00, 0x00, 0x08, 0x00, 0x04, 0x00,
  0x0c, 0x00, 0x00, 0x00, 0x03, 0x00, 0x00, 0x00, 0x03, 0x00, 0x00, 0x00,
  0x00, 0x00, 0x00, 0x03, 0x0c, 0x00, 0x0c, 0x00, 0x0b, 0x00, 0x00, 0x00,
  0x00, 0x00, 0x04, 0x00, 0x0c, 0x00, 0x00, 0x00, 0x16, 0x00, 0x00, 0x00,
  0x00, 0x00, 0x00, 0x16
};
inline const unsigned int gesture_model_4_tflite_len = 8824;
