
inline const unsigned char gesture_model_3_tflite[] = {
  0x20, 0x00, 0x00, 0x00, 0x54, 0x46, 0x4c, 0x33, 0x00, 0x00, 0x00, 0x00,
  0x14, 0x00, 0x20, 0x00, 0x1c, 0x00, 0x18, 0x00, 0x14, 0x00, 0x10, 0x00,
  0x0c, 0x00, 0x00, 0x00, 0x08, 0x00, 0x04, 0x00, 0x14, 0x00, 0x00, 0x00,
  0x1c, 0x00, 0x00, 0x00, 0x9c, 0x00, 0x00, 0x00, 0x1c, 0x01, 0x00, 0x00,
  0x70, 0x0c, 0x00, 0x00, 0x80, 0x0c, 0x00, 0x00, 0xc4, 0x21, 0x00, 0x00,
  0x03, 0x00, 0x00, 0x00, 0x01, 0x00, 0x00, 0x00, 0x10, 0x00, 0x00, 0x00,
  0x00, 0x00, 0x0a, 0x00, 0x10, 0x00, 0x0c, 0x00, 0x08, 0x00, 0x04, 0x00,
  0x0a, 0x00, 0x00, 0x00, 0x0c, 0x00, 0x00, 0x00, 0x1c, 0x00, 0x00, 0x00,
  0x3c, 0x00, 0x00, 0x00, 0x0f, 0x00, 0x00, 0x00, 0x73, 0x65, 0x72, 0x76,
  0x69, 0x6e, 0x67, 0x5f, 0x64, 0x65, 0x66, 0x61, 0x75, 0x6c, 0x74, 0x00,
  0x01, 0x00, 0x00, 0x00, 0x04, 0x00, 0x00, 0x00, 0x64, 0xff, 0xff, 0xff,
  0x16, 0x00, 0x00, 0x00, 0x04, 0x00, 0x00, 0x00, 0x08, 0x00, 0x00, 0x00,
  0x6f, 0x75, 0x74, 0x70, 0x75, 0x74, 0x5f, 0x30, 0x00, 0x00, 0x00, 0x00,
  0x01, 0x00, 0x00, 0x00, 0x04, 0x00, 0x00, 0x00, 0x72, 0xf3, 0xff, 0xff,
  0x04, 0x00, 0x00, 0x00, 0x10, 0x00, 0x00, 0x00, 0x6b, 0x65, 0x72, 0x61,
  0x73, 0x5f, 0x74, 0x65, 0x6e, 0x73, 0x6f, 0x72, 0x5f, 0x31, 0x38, 0x32,
  0x00, 0x00, 0x00, 0x00, 0x03, 0x00, 0x00, 0x00, 0x5c, 0x00, 0x00, 0x00,
  0x2c, 0x00, 0x00, 0x00, 0x04, 0x00, 0x00, 0x00, 0xb8, 0xff, 0xff, 0xff,
  0x1a, 0x00, 0x00, 0x00, 0x04, 0x00, 0x00, 0x00, 0x13, 0x00, 0x00, 0x00,
  0x43, 0x4f, 0x4e, 0x56, 0x45, 0x52, 0x53, 0x49, 0x4f, 0x4e, 0x5f, 0x4d,
  0x45, 0x54, 0x41, 0x44, 0x41, 0x54, 0x41, 0x00, 0xdc, 0xff, 0xff, 0xff,
  0x19, 0x00, 0x00, 0x00, 0x04, 0x00, 0x00, 0x00, 0x13, 0x00, 0x00, 0x00,
  0x6d, 0x69, 0x6e, 0x5f, 0x72, 0x75, 0x6e, 0x74, 0x69, 0x6d, 0x65, 0x5f,
  0x76, 0x65, 0x72, 0x73, 0x69, 0x6f, 0x6e, 0x00, 0x08, 0x00, 0x0c, 0x00,
  0x08, 0x00, 0x04, 0x00, 0x08, 0x00, 0x00, 0x00, 0x18, 0x00, 0x00, 0x00,
  0x04, 0x00, 0x00, 0x00, 0x13, 0x00, 0x00, 0x00, 0x6d, 0x69, 0x6e, 0x5f,
  0x72, 0x75, 0x6e, 0x74, 0x69, 0x6d, 0x65, 0x5f, 0x76, 0x65, 0x72, 0x73,
  0x69, 0x6f, 0x6e, 0x00, 0x1b, 0x00, 0x00, 0x00, 0x50, 0x0b, 0x00, 0x00,
  0x48, 0x0b, 0x00, 0x00, 0x28, 0x0b, 0x00, 0x00, 0x0c, 0x0b, 0x00, 0x00,
  0xf8, 0x0a, 0x00, 0x00, 0xcc, 0x0a, 0x00, 0x00, 0x4c, 0x0a, 0x00, 0x00,
  0xfc, 0x09, 0x00, 0x00, 0x6c, 0x09, 0x00, 0x00, 0x3c, 0x09, 0x00, 0x00,
  0x0c, 0x08, 0x00, 0x00, 0xcc, 0x07, 0x00, 0x00, 0xfc, 0x03, 0x00, 0x00,
  0xac, 0x03, 0x00, 0x00, 0xfc, 0x00, 0x00, 0x00, 0xf4, 0x00, 0x00, 0x00,
  0xec, 0x00, 0x00, 0x00, 0xe4, 0x00, 0x00, 0x00, 0xdc, 0x00, 0x00, 0x00,
  0xd4, 0x00, 0x00, 0x00, 0xcc, 0x00, 0x00, 0x00, 0xc4, 0x00, 0x00, 0x00,
  0xbc, 0x00, 0x00, 0x00, 0xb4, 0x00, 0x00, 0x00, 0x94, 0x00, 0x00, 0x00,
  0x74, 0x00, 0x00, 0x00, 0x04, 0x00, 0x00, 0x00, 0x86, 0xf4, 0xff, 0xff,
  0x04, 0x00, 0x00, 0x00, 0x60, 0x00, 0x00, 0x00, 0x0c, 0x00, 0x00, 0x00,
  0x08, 0x00, 0x0e, 0x00, 0x08, 0x00, 0x04, 0x00, 0x08, 0x00, 0x00, 0x00,
  0x10, 0x00, 0x00, 0x00, 0x28, 0x00, 0x00, 0x00, 0x00, 0x00, 0x06, 0x00,
  0x08, 0x00, 0x04, 0x00, 0x06, 0x00, 0x00, 0x00, 0x04, 0x00, 0x00, 0x00,
  0x01, 0x00, 0x00, 0x00, 0xeb, 0x03, 0x00, 0x00, 0x0c, 0x00, 0x18, 0x00,
  0x14, 0x00, 0x10, 0x00, 0x0c, 0x00, 0x04, 0x00, 0x0c, 0x00, 0x00, 0x00,
  0x90, 0x23, 0x1c, 0x91, 0xe1, 0x42, 0xe3, 0x7e, 0x02, 0x00, 0x00, 0x00,
  0x02, 0x00, 0x00, 0x00, 0x04, 0x00, 0x00, 0x00, 0x06, 0x00, 0x00, 0x00,
  0x32, 0x2e, 0x31, 0x39, 0x2e, 0x30, 0x00, 0x00, 0xf2, 0xf4, 0xff, 0xff,
  0x04, 0x00, 0x00, 0x00, 0x10, 0x00, 0x00, 0x00, 0x00, 0x00, 0x00, 0x00,
  0x00, 0x00, 0x00, 0x00, 0x00, 0x00, 0x00, 0x00, 0x00, 0x00, 0x00, 0x00,
  0x0e, 0xf5, 0xff, 0xff, 0x04, 0x00, 0x00, 0x00, 0x10, 0x00, 0x00, 0x00,
  0x31, 0x2e, 0x31, 0x34, 0x2e, 0x30, 0x00, 0x00, 0x00, 0x00, 0x00, 0x00,
  0x00, 0x00, 0x00, 0x00, 0x20, 0xe1, 0xff, 0xff, 0x24, 0xe1, 0xff, 0xff,
  0x28, 0xe1, 0xff, 0xff, 0x2c, 0xe1, 0xff, 0xff, 0x30, 0xe1, 0xff, 0xff,
  0x34, 0xe1, 0xff, 0xff, 0x38, 0xe1, 0xff, 0xff, 0x3c, 0xe1, 0xff, 0xff,
  0x40, 0xe1, 0xff, 0xff, 0x4e, 0xf5, 0xff, 0xff, 0x04, 0x00, 0x00, 0x00,
  0xa0, 0x02, 0x00, 0x00, 0x1d, 0x0d, 0x30, 0x07, 0xfa, 0x07, 0x36, 0x0c,
  0x30, 0xef, 0x0d, 0x0f, 0x29, 0x22, 0x25, 0xde, 0x0e, 0x1a, 0x13, 0x3c,
  0x19, 0xe0, 0x04, 0x2d, 0x01, 0x57, 0x01, 0x04, 0x17, 0x1f, 0xef, 0x6b,
  0xfe, 0x20, 0x05, 0x21, 0xed, 0x7f, 0x00, 0x28, 0xfd, 0x4d, 0x81, 0xdd,
  0x16, 0xf6, 0x24, 0x75, 0xd0, 0xf5, 0x04, 0x0c, 0x13, 0x74, 0xcb, 0xce,
  0xfb, 0xf9, 0xfa, 0x63, 0xc4, 0xe4, 0xf6, 0xec, 0xec, 0x60, 0xec, 0xec,
  0xe3, 0xf9, 0xea, 0x32, 0x00, 0xef, 0xb9, 0x18, 0xd3, 0x2c, 0xff, 0x03,
  0xbc, 0x30, 0xe4, 0x2a, 0x41, 0xa9, 0xda, 0x47, 0x81, 0x09, 0x3b, 0xbf,
  0x07, 0x41, 0xad, 0xfe, 0x23, 0xc7, 0x08, 0x17, 0x9f, 0x01, 0x1d, 0xe6,
  0x28, 0x1d, 0xcf, 0xef, 0x18, 0x05, 0x37, 0x26, 0xdd, 0xea, 0xf8, 0xf3,
  0x47, 0xf3, 0xfd, 0xcb, 0xc5, 0xfc, 0x49, 0xd5, 0x23, 0xc3, 0xac, 0xc2,
  0xe5, 0x39, 0x3b, 0x7f, 0xdc, 0xd2, 0xfd, 0x1f, 0x30, 0x79, 0xf9, 0xe9,
  0x10, 0x1d, 0x2c, 0x5a, 0xfb, 0xc4, 0xf6, 0x02, 0x22, 0x4c, 0x2c, 0xd7,
  0x05, 0x07, 0x20, 0x37, 0x3e, 0xf7, 0x15, 0xf4, 0x07, 0x2e, 0x4e, 0xfe,
  0x14, 0xeb, 0x08, 0x19, 0x12, 0xed, 0xe9, 0xf7, 0x1e, 0xdd, 0x03, 0xf0,
  0xfa, 0xf4, 0x0b, 0xcd, 0xf0, 0xf3, 0x0f, 0xf7, 0xfc, 0xc3, 0x02, 0xf2,
  0x17, 0x0e, 0xed, 0xae, 0x10, 0xfb, 0x03, 0xfb, 0xd6, 0xa6, 0x08, 0x01,
  0x01, 0xfb, 0xd4, 0x8a, 0xfd, 0x00, 0xf5, 0xde, 0xda, 0x81, 0xdd, 0xa2,
  0xe4, 0xa7, 0x0d, 0x7f, 0xf9, 0xb6, 0xd1, 0xcc, 0x00, 0x7b, 0xfd, 0xd3,
  0xe4, 0xca, 0xfe, 0x6f, 0x05, 0xef, 0xe8, 0xf3, 0xf7, 0x51, 0x06, 0xe8,
  0x04, 0xe7, 0xe8, 0x65, 0x3f, 0x0a, 0x06, 0xde, 0xdd, 0x4c, 0x1a, 0x03,
  0x2e, 0xdd, 0xd4, 0x66, 0x1a, 0xc1, 0xec, 0xd6, 0xb0, 0xdd, 0xfe, 0xc9,
  0xf5, 0xf3, 0xd1, 0xe9, 0xfa, 0xe0, 0x15, 0xf7, 0xf1, 0xd9, 0xda, 0xc5,
  0x1b, 0x03, 0xeb, 0xf3, 0xeb, 0xcc, 0x24, 0x01, 0xf9, 0xe3, 0xd1, 0xd8,
  0x38, 0xec, 0x07, 0xdd, 0xc0, 0xd4, 0x7f, 0xcf, 0x18, 0xa9, 0x01, 0xbe,
  0x30, 0xe2, 0x00, 0x2c, 0x20, 0xbb, 0x22, 0xf2, 0x01, 0x04, 0x1c, 0xcb,
  0x39, 0xf8, 0x07, 0x0f, 0x34, 0xde, 0x23, 0xf9, 0xf0, 0x11, 0x49, 0xea,
  0x34, 0xee, 0xe0, 0x02, 0x57, 0xf6, 0x39, 0x03, 0xf1, 0xeb, 0x7f, 0xfc,
  0x52, 0x0a, 0xe4, 0xeb, 0x56, 0x7f, 0x3a, 0xd9, 0xd4, 0xe3, 0x47, 0x58,
  0x35, 0xc6, 0xec, 0x11, 0x2d, 0x20, 0x22, 0xf2, 0xe7, 0x06, 0x0a, 0x2d,
  0x40, 0xfa, 0xeb, 0x1c, 0xf2, 0x1e, 0x2a, 0x0c, 0xef, 0x2b, 0xf1, 0xfd,
  0xfb, 0x0b, 0xcc, 0x37, 0xc0, 0xf3, 0xfa, 0x2e, 0xba, 0x14, 0xb1, 0xdd,
  0x59, 0xf1, 0x5f, 0x2c, 0xaa, 0xef, 0x3a, 0x01, 0x2d, 0x2d, 0x9c, 0xfa,
  0x53, 0xd0, 0x1e, 0x2f, 0x98, 0x05, 0x47, 0x00, 0x05, 0x31, 0x9c, 0x1a,
  0x37, 0x0f, 0xc4, 0x25, 0xb4, 0x28, 0x45, 0x01, 0xc3, 0x2e, 0xb0, 0x37,
  0x4a, 0xee, 0x81, 0x2b, 0xce, 0x31, 0x8b, 0xd1, 0xdc, 0x92, 0x94, 0x4b,
  0x9c, 0xc8, 0xbd, 0xbe, 0xb6, 0x14, 0xab, 0xc5, 0xb7, 0xbb, 0xcd, 0x19,
  0xe5, 0xa6, 0x9c, 0xca, 0xe1, 0x02, 0xf8, 0xc9, 0x83, 0xf7, 0x32, 0x0d,
  0x2c, 0xb3, 0x81, 0x00, 0x26, 0xf7, 0x44, 0xa6, 0x82, 0xf3, 0x0f, 0xe8,
  0x24, 0xe9, 0xf1, 0x7f, 0x0f, 0xfe, 0x2a, 0xf4, 0x0d, 0x7b, 0x1b, 0xee,
  0x1d, 0x02, 0x04, 0x70, 0xff, 0x0a, 0xf8, 0xfb, 0x02, 0x6a, 0x06, 0xfd,
  0xe2, 0x02, 0x05, 0x61, 0xfa, 0x18, 0xd1, 0x16, 0xf6, 0x6a, 0xe7, 0xff,
  0xc1, 0x2f, 0xf8, 0x66, 0x10, 0xee, 0x21, 0x04, 0xbe, 0x2e, 0x44, 0xfb,
  0x15, 0xe5, 0xc3, 0x10, 0x23, 0x00, 0x20, 0xfe, 0xde, 0xfa, 0x43, 0x09,
  0x33, 0xf9, 0xfa, 0xf2, 0x1d, 0x10, 0x52, 0xfb, 0x0a, 0xea, 0x1e, 0x1d,
  0x6f, 0xf4, 0x23, 0xf9, 0xf2, 0x1f, 0x7f, 0xfb, 0x0b, 0xe6, 0xfa, 0x47,
  0x27, 0xe1, 0xf4, 0x9c, 0x19, 0x33, 0x20, 0xf3, 0xe2, 0x81, 0x04, 0x30,
  0x29, 0xf8, 0xee, 0xb0, 0x21, 0x17, 0xf5, 0xfc, 0xfd, 0xae, 0x2e, 0x0d,
  0x14, 0xfc, 0x10, 0xe5, 0x3a, 0x30, 0x1b, 0x1d, 0x31, 0xda, 0x5d, 0x27,
  0x45, 0x19, 0x32, 0xe5, 0x62, 0x02, 0x27, 0x1a, 0x94, 0x07, 0x2c, 0xfc,
  0x3d, 0x10, 0xc7, 0x18, 0x24, 0x10, 0x26, 0xfd, 0xba, 0x27, 0x24, 0x0a,
  0x16, 0x0a, 0xfd, 0x3b, 0xfd, 0x34, 0x36, 0xfe, 0xed, 0x5f, 0xc6, 0x1d,
  0x33, 0x1d, 0x0c, 0x7b, 0xe5, 0x3b, 0x20, 0x1b, 0x1d, 0x7f, 0x02, 0xed,
  0x26, 0x0a, 0xd0, 0xf8, 0xf9, 0xe5, 0x32, 0x00, 0xf5, 0xf7, 0x01, 0xeb,
  0x33, 0xff, 0x04, 0xde, 0x1d, 0xc3, 0x31, 0xfa, 0xf4, 0xe7, 0x4b, 0xb8,
  0x2a, 0xed, 0xed, 0xab, 0x63, 0xd5, 0x31, 0xef, 0xe0, 0x9d, 0x7b, 0xd6,
  0x47, 0xc5, 0xc9, 0x81, 0xfa, 0xf7, 0xff, 0xff, 0x04, 0x00, 0x00, 0x00,
  0x40, 0x00, 0x00, 0x00, 0x70, 0xf4, 0xff, 0xff, 0x27, 0xf6, 0xff, 0xff,
  0xb6, 0xf5, 0xff, 0xff, 0x5f, 0xf9, 0xff, 0xff, 0x2c, 0xfa, 0xff, 0xff,
  0x3c, 0xf5, 0xff, 0xff, 0x5e, 0xff, 0xff, 0xff, 0x0e, 0xf3, 0xff, 0xff,
  0x88, 0xff, 0xff, 0xff, 0xfd, 0xe7, 0xff, 0xff, 0x26, 0xfd, 0xff, 0xff,
  0xaf, 0xf2, 0xff, 0xff, 0x72, 0xf3, 0xff, 0xff, 0x8a, 0xf8, 0xff, 0xff,
  0xa8, 0xf8, 0xff, 0xff, 0xc3, 0xf9, 0xff, 0xff, 0x46, 0xf8, 0xff, 0xff,
  0x04, 0x00, 0x00, 0x00, 0xc0, 0x03, 0x00, 0x00, 0x0d, 0x68, 0x06, 0x08,
  0x08, 0x33, 0xbf, 0xfa, 0x4e, 0x07, 0xe8, 0x3b, 0x58, 0x39, 0xd0, 0x4a,
  0xfe, 0x37, 0xf3, 0x17, 0xfd, 0x07, 0xcc, 0xec, 0x34, 0x12, 0xf2, 0x0c,
  0x14, 0x08, 0xe5, 0x26, 0x09, 0x0f, 0xd6, 0x0c, 0x17, 0xe1, 0xc9, 0xd8,
  0x1d, 0x14, 0xef, 0xfd, 0xf5, 0xff, 0xec, 0xf6, 0x0c, 0xff, 0xeb, 0x0c,
  0x01, 0xb2, 0xbf, 0xb7, 0x3a, 0x1a, 0xed, 0xee, 0xea, 0xe4, 0x06, 0xdd,
  0x11, 0xd6, 0xd9, 0x0e, 0x02, 0x81, 0xd1, 0xa5, 0x54, 0x18, 0xdd, 0xb5,
  0xe2, 0xc8, 0x03, 0xbc, 0x19, 0xd7, 0xb8, 0xa0, 0x16, 0x8a, 0xf1, 0xd4,
  0x18, 0xf3, 0x08, 0x81, 0xcb, 0x07, 0x22, 0xca, 0x0a, 0xda, 0xbf, 0xd1,
  0x17, 0xb6, 0xfe, 0x0f, 0x0b, 0xfc, 0x1b, 0xb3, 0xbe, 0xe0, 0x10, 0xf3,
  0xe2, 0xfe, 0xd2, 0x04, 0xf4, 0xe7, 0xe8, 0x05, 0x02, 0xf8, 0x1b, 0xcd,
  0xf9, 0xf8, 0x0c, 0xfc, 0xc5, 0x02, 0xe3, 0x1b, 0xe0, 0x08, 0xef, 0x2f,
  0xc7, 0xf7, 0x06, 0xd0, 0x35, 0xfe, 0xf3, 0x01, 0xc4, 0x18, 0x08, 0x07,
  0xd1, 0x11, 0xe2, 0x41, 0xbe, 0xe7, 0xfb, 0xd2, 0x5f, 0x13, 0xe2, 0x1d,
  0xf6, 0x21, 0x3b, 0xac, 0x04, 0x9f, 0xd8, 0xf5, 0x81, 0xf5, 0xe9, 0xae,
  0x2f, 0x59, 0xa8, 0xfc, 0x17, 0x09, 0x1b, 0xd8, 0x21, 0xab, 0xd7, 0xf1,
  0xc3, 0xfe, 0xf6, 0xd5, 0x16, 0x13, 0xb5, 0x00, 0x27, 0x16, 0x1d, 0x0b,
  0x06, 0xd9, 0xfb, 0x17, 0x0b, 0xff, 0xf7, 0x0a, 0x3b, 0x21, 0x02, 0xdd,
  0x11, 0x07, 0xef, 0x27, 0xf1, 0x06, 0xfa, 0x26, 0x3d, 0xf6, 0xf7, 0x1e,
  0x0d, 0xde, 0x02, 0xe4, 0xe1, 0xf9, 0xcb, 0x5c, 0xf9, 0x2d, 0xe7, 0x20,
  0x1f, 0xf5, 0x02, 0x44, 0xe5, 0x94, 0x3c, 0x95, 0xf2, 0xdf, 0xdb, 0xc9,
  0xf0, 0xf4, 0x1c, 0xef, 0xdd, 0xc0, 0xf4, 0xac, 0xb2, 0x99, 0x09, 0x02,
  0xf4, 0xda, 0xc6, 0xf5, 0x05, 0x0b, 0x08, 0xf4, 0xd5, 0xe2, 0x08, 0xc4,
  0xe3, 0xb5, 0xf6, 0xfa, 0xff, 0xe3, 0xf2, 0x02, 0x09, 0x14, 0x19, 0x09,
  0xec, 0x09, 0xf9, 0xd4, 0x18, 0xd9, 0x00, 0x0b, 0xf0, 0xe9, 0xfd, 0x1c,
  0x27, 0x3a, 0xff, 0x31, 0x1e, 0x45, 0x02, 0xe8, 0x55, 0x14, 0x09, 0x20,
  0x02, 0xfe, 0x15, 0x26, 0x23, 0x36, 0x11, 0x48, 0x3b, 0x75, 0x00, 0xef,
  0x7f, 0x39, 0x0d, 0x35, 0xdb, 0x3e, 0xf9, 0x30, 0x06, 0x2a, 0xd9, 0xfb,
  0xec, 0x26, 0x24, 0xf9, 0x19, 0xf2, 0x81, 0xec, 0xef, 0x1b, 0xed, 0xf8,
  0x00, 0x2e, 0xe9, 0x08, 0xfa, 0x05, 0x22, 0x07, 0x2c, 0x01, 0xa1, 0xe1,
  0xf4, 0x07, 0xe6, 0x07, 0xf4, 0x2a, 0xf0, 0x0d, 0xed, 0xe3, 0x14, 0x09,
  0x30, 0x07, 0xb8, 0xf5, 0x06, 0xe7, 0xd9, 0xe3, 0xd8, 0x03, 0xed, 0x18,
  0xc5, 0xdf, 0xfb, 0x16, 0x22, 0x07, 0xd5, 0x05, 0x1d, 0xd9, 0xc9, 0xee,
  0xba, 0xe6, 0xeb, 0x34, 0xcf, 0xc2, 0xe5, 0x18, 0x26, 0x02, 0xed, 0x07,
  0x02, 0xee, 0x20, 0xce, 0xf6, 0xa0, 0x1e, 0x2d, 0x4c, 0x16, 0xd7, 0xb9,
  0x22, 0xfc, 0x32, 0xfc, 0xf1, 0xfb, 0xf5, 0xea, 0xe8, 0xcb, 0x14, 0x06,
  0x3d, 0xff, 0xf7, 0xd9, 0xff, 0xfa, 0x07, 0x19, 0xb9, 0xff, 0xfe, 0xf9,
  0xee, 0xdd, 0x0d, 0x17, 0x0f, 0xe7, 0x00, 0xec, 0xfb, 0x0b, 0xd5, 0xf1,
  0x9b, 0x03, 0x00, 0x0f, 0xfb, 0x01, 0xd2, 0x06, 0xf7, 0xc6, 0xe9, 0xf1,
  0xf9, 0xf0, 0xbd, 0xef, 0x8a, 0x00, 0x02, 0x21, 0xf2, 0x11, 0xab, 0xff,
  0xe7, 0xb4, 0xf0, 0xeb, 0xfe, 0x18, 0x81, 0x02, 0xbb, 0x08, 0x2a, 0x64,
  0x0c, 0xea, 0xde, 0x19, 0xe2, 0x43, 0x81, 0xc4, 0x2c, 0x4d, 0xda, 0x2a,
  0xc1, 0x00, 0x1f, 0x20, 0xf4, 0xd1, 0x08, 0x1a, 0xec, 0x0d, 0x9b, 0xb9,
  0x37, 0x28, 0xdf, 0x2c, 0xd5, 0x14, 0x07, 0xf6, 0xc0, 0xd9, 0xf4, 0x26,
  0xf0, 0x0b, 0xa6, 0xb2, 0x16, 0xfd, 0xee, 0xf2, 0xfc, 0x16, 0x0a, 0xe4,
  0xb3, 0xfc, 0x12, 0x28, 0x24, 0xf6, 0xca, 0xb2, 0x04, 0xdf, 0xf0, 0xd8,
  0x13, 0x35, 0x08, 0xb6, 0x87, 0x0f, 0x3f, 0xf7, 0xf8, 0xd7, 0xe4, 0xad,
  0xe0, 0xe4, 0xfe, 0xab, 0xf8, 0x01, 0xa9, 0x35, 0xa6, 0x2c, 0xc3, 0x3a,
  0x2a, 0x1e, 0x35, 0xf1, 0x15, 0xf5, 0xfc, 0xfe, 0x08, 0x05, 0xc2, 0x05,
  0xaf, 0x01, 0xd1, 0x33, 0xfb, 0xfe, 0x14, 0xda, 0x1b, 0x0f, 0xf2, 0xf5,
  0x08, 0x07, 0xd1, 0xd5, 0x90, 0x06, 0xfd, 0x1c, 0x08, 0xe8, 0x24, 0xe0,
  0x24, 0xfb, 0xf2, 0xf0, 0x1a, 0x1a, 0xee, 0x9f, 0x97, 0xe5, 0x29, 0x13,
  0xfa, 0xf1, 0xff, 0xe4, 0x0b, 0x33, 0xe1, 0xc9, 0x32, 0x15, 0xe3, 0xb0,
  0x81, 0xf2, 0x25, 0x01, 0xe0, 0xe0, 0x0c, 0xf7, 0x02, 0x19, 0xfa, 0xbd,
  0x02, 0xe3, 0xc4, 0x81, 0x0d, 0xfb, 0x31, 0xcd, 0x3f, 0x57, 0xf4, 0x0f,
  0xaa, 0xe5, 0x25, 0xd6, 0xfd, 0xfd, 0xe4, 0x9f, 0x1c, 0x15, 0x0e, 0xd1,
  0x19, 0x27, 0xe6, 0x1f, 0xc1, 0xe2, 0x1a, 0xe7, 0xf4, 0xec, 0x0e, 0xc1,
  0x19, 0x05, 0xe0, 0xd2, 0x07, 0x0b, 0xf3, 0x2b, 0xd8, 0xfd, 0x1d, 0xf0,
  0xf3, 0x07, 0x34, 0xeb, 0x2c, 0xee, 0xd0, 0xd6, 0xd7, 0x0c, 0x13, 0x2a,
  0xf5, 0x2c, 0x13, 0x17, 0x02, 0xf5, 0x36, 0xfc, 0x23, 0xf0, 0xaf, 0xdc,
  0xe5, 0x02, 0x0b, 0x24, 0xff, 0x3d, 0x19, 0x32, 0x3c, 0xb2, 0xcf, 0x17,
  0xb8, 0xe6, 0xbb, 0x5a, 0x5f, 0x13, 0x92, 0x07, 0xef, 0xf4, 0x63, 0x10,
  0x14, 0xde, 0x07, 0xf9, 0xde, 0xcc, 0xf0, 0x24, 0x1a, 0x07, 0xab, 0x16,
  0xfd, 0xea, 0x37, 0x27, 0xea, 0x0f, 0x19, 0xf7, 0xde, 0xf2, 0xd8, 0xf0,
  0x02, 0xec, 0xc8, 0x07, 0xf2, 0xf9, 0x07, 0xfd, 0xd2, 0x38, 0x20, 0xf3,
  0xe9, 0x02, 0x08, 0xc0, 0xfc, 0x20, 0xc1, 0x33, 0xfa, 0xee, 0xc3, 0x0d,
  0x81, 0x5a, 0x3b, 0xb5, 0xec, 0xee, 0x23, 0xb6, 0x90, 0x07, 0xbe, 0x39,
  0xcf, 0xc2, 0x86, 0xe8, 0xf4, 0xb8, 0xf0, 0x1d, 0x11, 0xf6, 0xe8, 0x29,
  0xe0, 0xf8, 0x22, 0x00, 0xe6, 0x81, 0x03, 0xf1, 0xfa, 0xbd, 0x03, 0x0a,
  0x11, 0x01, 0x06, 0x0c, 0xdc, 0xf4, 0x00, 0x01, 0x0f, 0x9a, 0xf9, 0xdc,
  0x16, 0xc1, 0x06, 0xfd, 0x22, 0xf3, 0x1a, 0x2b, 0xfb, 0xdf, 0xf8, 0x13,
  0x04, 0xca, 0xf0, 0xe9, 0x2d, 0xbf, 0x10, 0x14, 0x28, 0xfb, 0x15, 0x12,
  0xfa, 0xd0, 0xfc, 0x05, 0x23, 0x0f, 0xf5, 0xd0, 0x64, 0xab, 0x12, 0x13,
  0x1e, 0xd5, 0x43, 0x05, 0x2e, 0xc6, 0xcc, 0x03, 0x24, 0x02, 0x16, 0xa6,
  0xc5, 0x22, 0xe6, 0x28, 0x42, 0xfd, 0xea, 0xf0, 0x81, 0x21, 0x04, 0x19,
  0xe3, 0x38, 0xf3, 0xf9, 0xfd, 0x16, 0xe9, 0x0b, 0x26, 0x09, 0xf0, 0xf8,
  0xaa, 0x03, 0x06, 0xf8, 0xfc, 0x34, 0xf1, 0x07, 0x09, 0x13, 0x19, 0xf9,
  0xff, 0x14, 0xdf, 0x02, 0x09, 0xfc, 0xfd, 0x06, 0x20, 0x14, 0xff, 0xfd,
  0xf2, 0x0e, 0x11, 0xe3, 0xdc, 0xf5, 0xea, 0xce, 0x1d, 0xe1, 0xef, 0x1f,
  0x15, 0xe2, 0x31, 0xd5, 0xf5, 0xef, 0x1e, 0xd7, 0xd0, 0x03, 0xbf, 0x8e,
  0x32, 0xe8, 0xdb, 0x38, 0x02, 0xd6, 0x31, 0xb6, 0x12, 0xfc, 0xff, 0xff,
  0x04, 0x00, 0x00, 0x00, 0x30, 0x00, 0x00, 0x00, 0x75, 0xf8, 0xff, 0xff,
  0xa4, 0x1b, 0x00, 0x00, 0x2d, 0x06, 0x00, 0x00, 0x0b, 0xf2, 0xff, 0xff,
  0xc6, 0x11, 0x00, 0x00, 0xb7, 0x1b, 0x00, 0x00, 0x49, 0x12, 0x00, 0x00,
  0xa2, 0x19, 0x00, 0x00, 0x2e, 0xff, 0xff, 0xff, 0x17, 0x14, 0x00, 0x00,
  0xd0, 0x03, 0x00, 0x00, 0x14, 0x07, 0x00, 0x00, 0x4e, 0xfc, 0xff, 0xff,
  0x04, 0x00, 0x00, 0x00, 0x20, 0x01, 0x00, 0x00, 0xe2, 0x59, 0x61, 0xd7,
  0xd6, 0x1f, 0xff, 0xed, 0x41, 0x51, 0x2b, 0xf7, 0xd6, 0x21, 0x1b, 0x14,
  0xc1, 0xe9, 0x16, 0xf5, 0x29, 0x5e, 0x03, 0x43, 0xd8, 0x01, 0x29, 0x2e,
  0xac, 0x54, 0x3e, 0x3a, 0xf7, 0x5f, 0x81, 0x3b, 0x1b, 0xf1, 0x16, 0x05,
  0x49, 0x19, 0x02, 0xf2, 0xd9, 0xec, 0x00, 0x28, 0x33, 0x01, 0x51, 0x3d,
  0x2c, 0x11, 0x02, 0x86, 0xd1, 0xf5, 0x01, 0xf5, 0x2c, 0xf4, 0xf6, 0x4d,
  0xf6, 0x2a, 0xfb, 0x81, 0xce, 0xf3, 0xf1, 0x32, 0x92, 0xe1, 0x19, 0x6c,
  0x10, 0x1b, 0x49, 0x0f, 0x7f, 0x8a, 0x65, 0x13, 0x87, 0xd6, 0xe5, 0x14,
  0xeb, 0x4c, 0xf8, 0xdd, 0x32, 0xe7, 0xd7, 0xef, 0x2d, 0x4f, 0x1e, 0xcd,
  0x51, 0x76, 0xac, 0xc1, 0x02, 0xcd, 0xdb, 0x31, 0x24, 0x53, 0xe7, 0x4e,
  0xd8, 0x26, 0xab, 0xff, 0x0d, 0xdf, 0x13, 0xe1, 0xea, 0x1a, 0xb9, 0x17,
  0xf5, 0xd3, 0xbc, 0xe2, 0xf9, 0xbb, 0x3a, 0xca, 0xfe, 0xec, 0x7f, 0x08,
  0xdc, 0xdb, 0xef, 0xfb, 0xfc, 0xfe, 0x13, 0x04, 0x34, 0x8b, 0x81, 0x07,
  0x6b, 0xfc, 0x52, 0x1e, 0x46, 0xbd, 0xdc, 0xf6, 0xe4, 0xa3, 0x08, 0xf2,
  0x40, 0xc4, 0xea, 0x19, 0x24, 0x01, 0xe8, 0x91, 0xe5, 0xa5, 0x39, 0x5b,
  0xec, 0x92, 0x20, 0x4c, 0x19, 0x69, 0x30, 0xb1, 0xfc, 0xfd, 0x3d, 0x16,
  0xb5, 0x0a, 0x0e, 0x18, 0x07, 0x27, 0xfd, 0x81, 0xf6, 0xc5, 0x54, 0xef,
  0xda, 0xff, 0xf4, 0xfd, 0x02, 0x2c, 0x06, 0xd8, 0x03, 0x97, 0x56, 0xf6,
  0xde, 0xff, 0x17, 0xad, 0xdb, 0x46, 0xee, 0xf8, 0x52, 0xd0, 0xeb, 0x02,
  0xd7, 0x1e, 0xed, 0x26, 0xc9, 0x79, 0xcf, 0x9b, 0xe7, 0xf1, 0x00, 0xe5,
  0x25, 0x17, 0xd7, 0x24, 0xe3, 0x0a, 0x0a, 0x00, 0x09, 0x12, 0x08, 0x81,
  0x5b, 0xfc, 0x04, 0xfe, 0xf0, 0xc6, 0x4a, 0x40, 0x03, 0x81, 0xa6, 0xbb,
  0xd0, 0xa2, 0xc8, 0x1f, 0xa8, 0x2d, 0x5b, 0x19, 0xf3, 0xa7, 0x0a, 0xe8,
  0x00, 0x12, 0x20, 0x05, 0xcd, 0x16, 0x1d, 0x1c, 0xa2, 0x0a, 0x47, 0x43,
  0x16, 0x3b, 0x1f, 0x0a, 0xaf, 0x59, 0xb1, 0x60, 0x7a, 0xfd, 0xff, 0xff,
  0x04, 0x00, 0x00, 0x00, 0x20, 0x00, 0x00, 0x00, 0xeb, 0xf4, 0xff, 0xff,
  0xce, 0x03, 0x00, 0x00, 0xf1, 0xf8, 0xff, 0xff, 0x69, 0x0a, 0x00, 0x00,
  0x84, 0x0a, 0x00, 0x00, 0x27, 0x00, 0x00, 0x00, 0x9b, 0x00, 0x00, 0x00,
  0x8a, 0xfd, 0xff, 0xff, 0xa6, 0xfd, 0xff, 0xff, 0x04, 0x00, 0x00, 0x00,
  0x80, 0x00, 0x00, 0x00, 0x12, 0x7f, 0xa3, 0xad, 0xad, 0xfa, 0x65, 0xe7,
  0xde, 0x23, 0x38, 0x50, 0xb7, 0x81, 0xc6, 0x58, 0x0b, 0x8d, 0x81, 0x54,
  0x4a, 0x9d, 0x58, 0xd2, 0x48, 0xc1, 0x1e, 0x43, 0x2b, 0x81, 0xd7, 0x8b,
  0xc5, 0x12, 0xe1, 0xf4, 0xf2, 0x7f, 0xf8, 0xdf, 0xb7, 0xf3, 0xb7, 0x71,
  0x99, 0x0b, 0x20, 0x7f, 0x34, 0xaa, 0xae, 0x7f, 0xc4, 0x25, 0x0b, 0xc1,
  0xce, 0x36, 0x51, 0x81, 0x53, 0xef, 0xe7, 0x34, 0xc9, 0xd5, 0xc5, 0x19,
  0x1c, 0x07, 0x30, 0x7f, 0xbc, 0xc5, 0xf9, 0xac, 0x7a, 0x7f, 0x25, 0x27,
  0x59, 0xd3, 0x6f, 0x81, 0x74, 0xae, 0xdd, 0xad, 0x31, 0x27, 0x07, 0x55,
  0xa5, 0x81, 0xed, 0xf0, 0xea, 0x48, 0xa7, 0x86, 0x2e, 0xf3, 0x7f, 0x0e,
  0xda, 0x21, 0x2f, 0x49, 0xbf, 0x81, 0xd9, 0x53, 0xef, 0x81, 0x56, 0x39,
  0x44, 0x21, 0xad, 0x31, 0xdc, 0x81, 0xd6, 0x53, 0x42, 0x2e, 0xfc, 0x3c,
  0x32, 0xfe, 0xff, 0xff, 0x04, 0x00, 0x00, 0x00, 0x40, 0x00, 0x00, 0x00,
  0xa4, 0x04, 0x00, 0x00, 0xc6, 0x00, 0x00, 0x00, 0xd5, 0x02, 0x00, 0x00,
  0x81, 0x07, 0x00, 0x00, 0x8d, 0x08, 0x00, 0x00, 0x31, 0xfe, 0xff, 0xff,
  0x54, 0x04, 0x00, 0x00, 0xfa, 0x00, 0x00, 0x00, 0xbd, 0xfc, 0xff, 0xff,
  0x03, 0xfd, 0xff, 0xff, 0xa3, 0x06, 0x00, 0x00, 0x28, 0x04, 0x00, 0x00,
  0xa9, 0x00, 0x00, 0x00, 0x89, 0xfe, 0xff, 0xff, 0xe2, 0xff, 0xff, 0xff,
  0x47, 0xfd, 0xff, 0xff, 0x7e, 0xfe, 0xff, 0xff, 0x04, 0x00, 0x00, 0x00,
  0x70, 0x00, 0x00, 0x00, 0x8b, 0x16, 0x19, 0x11, 0x8c, 0x1f, 0x1d, 0x81,
  0x1a, 0xb7, 0xbc, 0x14, 0x8a, 0x11, 0x0c, 0x1b, 0x19, 0x1b, 0xb8, 0x9e,
  0xb2, 0x1c, 0x96, 0x04, 0x1b, 0xb7, 0xb1, 0x11, 0x16, 0x19, 0x81, 0x8c,
  0xda, 0xa7, 0xb9, 0x85, 0x1c, 0x21, 0x21, 0x9d, 0x1e, 0x1d, 0x86, 0x81,
  0xb1, 0x9b, 0x19, 0x22, 0x15, 0xa9, 0x90, 0x81, 0x1e, 0xa0, 0xb1, 0x10,
  0xaf, 0x12, 0xaf, 0x90, 0x17, 0xa4, 0xa3, 0xa5, 0x81, 0xa8, 0x19, 0x09,
  0x9b, 0x9a, 0xcc, 0x0a, 0x21, 0x1c, 0x1c, 0x88, 0x12, 0xae, 0x10, 0x1b,
  0x9d, 0x15, 0xa4, 0x10, 0xb6, 0xa1, 0x81, 0x0b, 0xb2, 0xc0, 0x16, 0x0f,
  0x97, 0x11, 0x0e, 0x99, 0x13, 0xb2, 0x18, 0x14, 0xa7, 0xc4, 0x19, 0x81,
  0xd9, 0x97, 0x14, 0x11, 0x14, 0xa8, 0x91, 0xa6, 0xfa, 0xfe, 0xff, 0xff,
  0x04, 0x00, 0x00, 0x00, 0x1c, 0x00, 0x00, 0x00, 0x28, 0xef, 0xff, 0xff,
  0x99, 0xfc, 0xff, 0xff, 0xdf, 0xfa, 0xff, 0xff, 0x93, 0x0d, 0x00, 0x00,
  0xb9, 0xfb, 0xff, 0xff, 0xb5, 0x05, 0x00, 0x00, 0x06, 0x07, 0x00, 0x00,
  0x22, 0xff, 0xff, 0xff, 0x04, 0x00, 0x00, 0x00, 0x04, 0x00, 0x00, 0x00,
  0x01, 0x00, 0x00, 0x00, 0x32, 0xff, 0xff, 0xff, 0x04, 0x00, 0x00, 0x00,
  0x0c, 0x00, 0x00, 0x00, 0x01, 0x00, 0x00, 0x00, 0x7d, 0x00, 0x00, 0x00,
  0x08, 0x00, 0x00, 0x00, 0x4a, 0xff, 0xff, 0xff, 0x04, 0x00, 0x00, 0x00,
  0x10, 0x00, 0x00, 0x00, 0x01, 0x00, 0x00, 0x00, 0x01, 0x00, 0x00, 0x00,
  0xf4, 0x01, 0x00, 0x00, 0x06, 0x00, 0x00, 0x00, 0x5c, 0xeb, 0xff, 0xff,
  0x60, 0xeb, 0xff, 0xff, 0x0f, 0x00, 0x00, 0x00, 0x4d, 0x4c, 0x49, 0x52,
  0x20, 0x43, 0x6f, 0x6e, 0x76, 0x65, 0x72, 0x74, 0x65, 0x64, 0x2e, 0x00,
  0x01, 0x00, 0x00, 0x00, 0x14, 0x00, 0x00, 0x00, 0x00, 0x00, 0x0e, 0x00,
  0x18, 0x00, 0x14, 0x00, 0x10, 0x00, 0x0c, 0x00, 0x08, 0x00, 0x04, 0x00,
  0x0e, 0x00, 0x00, 0x00, 0x14, 0x00, 0x00, 0x00, 0x1c, 0x00, 0x00, 0x00,
  0x44, 0x02, 0x00, 0x00, 0x48, 0x02, 0x00, 0x00, 0x4c, 0x02, 0x00, 0x00,
  0x04, 0x00, 0x00, 0x00, 0x6d, 0x61, 0x69, 0x6e, 0x00, 0x00, 0x00, 0x00,
  0x09, 0x00, 0x00, 0x00, 0x08, 0x02, 0x00, 0x00, 0xac, 0x01, 0x00, 0x00,
  0x58, 0x01, 0x00, 0x00, 0x14, 0x01, 0x00, 0x00, 0xf0, 0x00, 0x00, 0x00,
  0xbc, 0x00, 0x00, 0x00, 0x78, 0x00, 0x00, 0x00, 0x40, 0x00, 0x00, 0x00,
  0x04, 0x00, 0x00, 0x00, 0x82, 0xfe, 0xff, 0xff, 0x1c, 0x00, 0x00, 0x00,
  0x00, 0x00, 0x00, 0x09, 0x1c, 0x00, 0x00, 0x00, 0x20, 0x00, 0x00, 0x00,
  0x04, 0x00, 0x00, 0x00, 0x00, 0x00, 0x06, 0x00, 0x08, 0x00, 0x04, 0x00,
  0x06, 0x00, 0x00, 0x00, 0x00, 0x00, 0x80, 0x3f, 0x01, 0x00, 0x00, 0x00,
  0x16, 0x00, 0x00, 0x00, 0x01, 0x00, 0x00, 0x00, 0x15, 0x00, 0x00, 0x00,
  0xba, 0xfe, 0xff, 0xff, 0x14, 0x00, 0x00, 0x00, 0x00, 0x00, 0x00, 0x08,
  0x10, 0x00, 0x00, 0x00, 0x14, 0x00, 0x00, 0x00, 0x03, 0x00, 0x00, 0x00,
  0x2c, 0xec, 0xff, 0xff, 0x01, 0x00, 0x00, 0x00, 0x15, 0x00, 0x00, 0x00,
  0x03, 0x00, 0x00, 0x00, 0x14, 0x00, 0x00, 0x00, 0x05, 0x00, 0x00, 0x00,
  0x04, 0x00, 0x00, 0x00, 0xee, 0xfe, 0xff, 0xff, 0x1c, 0x00, 0x00, 0x00,
  0x00, 0x00, 0x00, 0x08, 0x1c, 0x00, 0x00, 0x00, 0x20, 0x00, 0x00, 0x00,
  0x03, 0x00, 0x00, 0x00, 0x00, 0x00, 0x06, 0x00, 0x08, 0x00, 0x07, 0x00,
  0x06, 0x00, 0x00, 0x00, 0x00, 0x00, 0x00, 0x01, 0x01, 0x00, 0x00, 0x00,
  0x14, 0x00, 0x00, 0x00, 0x03, 0x00, 0x00, 0x00, 0x13, 0x00, 0x00, 0x00,
  0x07, 0x00, 0x00, 0x00, 0x06, 0x00, 0x00, 0x00, 0x2e, 0xff, 0xff, 0xff,
  0x14, 0x00, 0x00, 0x00, 0x00, 0x00, 0x00, 0x1b, 0x10, 0x00, 0x00, 0x00,
  0x14, 0x00, 0x00, 0x00, 0x02, 0x00, 0x00, 0x00, 0xa0, 0xec, 0xff, 0xff,
  0x01, 0x00, 0x00, 0x00, 0x13, 0x00, 0x00, 0x00, 0x02, 0x00, 0x00, 0x00,
  0x12, 0x00, 0x00, 0x00, 0x03, 0x00, 0x00, 0x00, 0x02, 0xff, 0xff, 0xff,
  0x08, 0x00, 0x00, 0x00, 0x0c, 0x00, 0x00, 0x00, 0x01, 0x00, 0x00, 0x00,
  0x12, 0x00, 0x00, 0x00, 0x02, 0x00, 0x00, 0x00, 0x11, 0x00, 0x00, 0x00,
  0x02, 0x00, 0x00, 0x00, 0x7e, 0xff, 0xff, 0xff, 0x14, 0x00, 0x00, 0x00,
  0x00, 0x00, 0x00, 0x01, 0x1c, 0x00, 0x00, 0x00, 0x20, 0x00, 0x00, 0x00,
  0x01, 0x00, 0x00, 0x00, 0x70, 0xff, 0xff, 0xff, 0x00, 0x00, 0x00, 0x01,
  0x01, 0x00, 0x00, 0x00, 0x01, 0x00, 0x00, 0x00, 0x01, 0x00, 0x00, 0x00,
  0x11, 0x00, 0x00, 0x00, 0x03, 0x00, 0x00, 0x00, 0x10, 0x00, 0x00, 0x00,
  0x09, 0x00, 0x00, 0x00, 0x08, 0x00, 0x00, 0x00, 0xbe, 0xff, 0xff, 0xff,
  0x14, 0x00, 0x00, 0x00, 0x00, 0x00, 0x00, 0x01, 0x1c, 0x00, 0x00, 0x00,
  0x20, 0x00, 0x00, 0x00, 0x01, 0x00, 0x00, 0x00, 0xb0, 0xff, 0xff, 0xff,
  0x00, 0x00, 0x00, 0x01, 0x01, 0x00, 0x00, 0x00, 0x02, 0x00, 0x00, 0x00,
  0x01, 0x00, 0x00, 0x00, 0x10, 0x00, 0x00, 0x00, 0x03, 0x00, 0x00, 0x00,
  0x0f, 0x00, 0x00, 0x00, 0x0b, 0x00, 0x00, 0x00, 0x0a, 0x00, 0x00, 0x00,
  0x00, 0x00, 0x0e, 0x00, 0x18, 0x00, 0x14, 0x00, 0x10, 0x00, 0x0c, 0x00,
  0x0b, 0x00, 0x04, 0x00, 0x0e, 0x00, 0x00, 0x00, 0x20, 0x00, 0x00, 0x00,
  0x00, 0x00, 0x00, 0x01, 0x28, 0x00, 0x00, 0x00, 0x2c, 0x00, 0x00, 0x00,
  0x01, 0x00, 0x00, 0x00, 0x0c, 0x00, 0x10, 0x00, 0x00, 0x00, 0x0c, 0x00,
  0x08, 0x00, 0x07, 0x00, 0x0c, 0x00, 0x00, 0x00, 0x00, 0x00, 0x00, 0x01,
  0x01, 0x00, 0x00, 0x00, 0x02, 0x00, 0x00, 0x00, 0x01, 0x00, 0x00, 0x00,
  0x0f, 0x00, 0x00, 0x00, 0x03, 0x00, 0x00, 0x00, 0x0e, 0x00, 0x00, 0x00,
  0x0d, 0x00, 0x00, 0x00, 0x0c, 0x00, 0x00, 0x00, 0x00, 0x00, 0x0a, 0x00,
  0x0c, 0x00, 0x00, 0x00, 0x08, 0x00, 0x04, 0x00, 0x0a, 0x00, 0x00, 0x00,
  0x08, 0x00, 0x00, 0x00, 0x0c, 0x00, 0x00, 0x00, 0x01, 0x00, 0x00, 0x00,
  0x0e, 0x00, 0x00, 0x00, 0x02, 0x00, 0x00, 0x00, 0x00, 0x00, 0x00, 0x00,
  0x01, 0x00, 0x00, 0x00, 0x01, 0x00, 0x00, 0x00, 0x16, 0x00, 0x00, 0x00,
  0x01, 0x00, 0x00, 0x00, 0x00, 0x00, 0x00, 0x00, 0x17, 0x00, 0x00, 0x00,
  0x48, 0x12, 0x00, 0x00, 0xec, 0x11, 0x00, 0x00, 0xac, 0x11, 0x00, 0x00,
  0x70, 0x11, 0x00, 0x00, 0xc4, 0x10, 0x00, 0x00, 0x18, 0x10, 0x00, 0x00,
  0x04, 0x0f, 0x00, 0x00, 0xe8, 0x0d, 0x00, 0x00, 0x34, 0x0d, 0x00, 0x00,
  0x70, 0x0c, 0x00, 0x00, 0x8c, 0x0b, 0x00, 0x00, 0x98, 0x0a, 0x00, 0x00,
  0x84, 0x09, 0x00, 0x00, 0x60, 0x08, 0x00, 0x00, 0xd4, 0x07, 0x00, 0x00,
  0x68, 0x06, 0x00, 0x00, 0xfc, 0x04, 0x00, 0x00, 0x90, 0x03, 0x00, 0x00,
  0x4c, 0x02, 0x00, 0x00, 0xc8, 0x01, 0x00, 0x00, 0x0c, 0x01, 0x00, 0x00,
  0x70, 0x00, 0x00, 0x00, 0x04, 0x00, 0x00, 0x00, 0x2a, 0xee, 0xff, 0xff,
  0x00, 0x00, 0x00, 0x01, 0x14, 0x00, 0x00, 0x00, 0x30, 0x00, 0x00, 0x00,
  0x17, 0x00, 0x00, 0x00, 0x00, 0x00, 0x00, 0x09, 0x44, 0x00, 0x00, 0x00,
  0x14, 0xee, 0xff, 0xff, 0x08, 0x00, 0x00, 0x00, 0x10, 0x00, 0x00, 0x00,
  0x01, 0x00, 0x00, 0x00, 0x80, 0xff, 0xff, 0xff, 0xff, 0xff, 0xff, 0xff,
  0x01, 0x00, 0x00, 0x00, 0x00, 0x00, 0x80, 0x3b, 0x1b, 0x00, 0x00, 0x00,
  0x53, 0x74, 0x61, 0x74, 0x65, 0x66, 0x75, 0x6c, 0x50, 0x61, 0x72, 0x74,
  0x69, 0x74, 0x69, 0x6f, 0x6e, 0x65, 0x64, 0x43, 0x61, 0x6c, 0x6c, 0x5f,
  0x31, 0x3a, 0x30, 0x00, 0x02, 0x00, 0x00, 0x00, 0x01, 0x00, 0x00, 0x00,
  0x07, 0x00, 0x00, 0x00, 0x92, 0xee, 0xff, 0xff, 0x00, 0x00, 0x00, 0x01,
  0x14, 0x00, 0x00, 0x00, 0x34, 0x00, 0x00, 0x00, 0x16, 0x00, 0x00, 0x00,
  0x00, 0x00, 0x00, 0x09, 0x74, 0x00, 0x00, 0x00, 0x7c, 0xee, 0xff, 0xff,
  0x08, 0x00, 0x00, 0x00, 0x14, 0x00, 0x00, 0x00, 0x01, 0x00, 0x00, 0x00,
  0x43, 0x00, 0x00, 0x00, 0x00, 0x00, 0x00, 0x00, 0x00, 0x00, 0x00, 0x00,
  0x01, 0x00, 0x00, 0x00, 0x6f, 0x17, 0x99, 0x3e, 0x44, 0x00, 0x00, 0x00,
  0x73, 0x65, 0x71, 0x75, 0x65, 0x6e, 0x74, 0x69, 0x61, 0x6c, 0x5f, 0x31,
  0x33, 0x5f, 0x31, 0x2f, 0x64, 0x65, 0x6e, 0x73, 0x65, 0x5f, 0x32, 0x37,
  0x5f, 0x31, 0x2f, 0x4d, 0x61, 0x74, 0x4d, 0x75, 0x6c, 0x3b, 0x73, 0x65,
  0x71, 0x75, 0x65, 0x6e, 0x74, 0x69, 0x61, 0x6c, 0x5f, 0x31, 0x33, 0x5f,
  0x31, 0x2f, 0x64, 0x65, 0x6e, 0x73, 0x65, 0x5f, 0x32, 0x37, 0x5f, 0x31,
  0x2f, 0x42, 0x69, 0x61, 0x73, 0x41, 0x64, 0x64, 0x00, 0x00, 0x00, 0x00,
  0x02, 0x00, 0x00, 0x00, 0x01, 0x00, 0x00, 0x00, 0x07, 0x00, 0x00, 0x00,
  0x2a, 0xef, 0xff, 0xff, 0x00, 0x00, 0x00, 0x01, 0x14, 0x00, 0x00, 0x00,
  0x34, 0x00, 0x00, 0x00, 0x15, 0x00, 0x00, 0x00, 0x00, 0x00, 0x00, 0x09,
  0x94, 0x00, 0x00, 0x00, 0x14, 0xef, 0xff, 0xff, 0x08, 0x00, 0x00, 0x00,
  0x14, 0x00, 0x00, 0x00, 0x01, 0x00, 0x00, 0x00, 0x80, 0xff, 0xff, 0xff,
  0xff, 0xff, 0xff, 0xff, 0x00, 0x00, 0x00, 0x00, 0x01, 0x00, 0x00, 0x00,
  0x85, 0xfd, 0xf3, 0x3b, 0x64, 0x00, 0x00, 0x00, 0x73, 0x65, 0x71, 0x75,
  0x65, 0x6e, 0x74, 0x69, 0x61, 0x6c, 0x5f, 0x31, 0x33, 0x5f, 0x31, 0x2f,
  0x64, 0x65, 0x6e, 0x73, 0x65, 0x5f, 0x32, 0x36, 0x5f, 0x31, 0x2f, 0x4d,
  0x61, 0x74, 0x4d, 0x75, 0x6c, 0x3b, 0x73, 0x65, 0x71, 0x75, 0x65, 0x6e,
  0x74, 0x69, 0x61, 0x6c, 0x5f, 0x31, 0x33, 0x5f, 0x31, 0x2f, 0x64, 0x65,
  0x6e, 0x73, 0x65, 0x5f, 0x32, 0x36, 0x5f, 0x31, 0x2f, 0x52, 0x65, 0x6c,
  0x75, 0x3b, 0x73, 0x65, 0x71, 0x75, 0x65, 0x6e, 0x74, 0x69, 0x61, 0x6c,
  0x5f, 0x31, 0x33, 0x5f, 0x31, 0x2f, 0x64, 0x65, 0x6e, 0x73, 0x65, 0x5f,
  0x32, 0x36, 0x5f, 0x31, 0x2f, 0x42, 0x69, 0x61, 0x73, 0x41, 0x64, 0x64,
  0x00, 0x00, 0x00, 0x00, 0x02, 0x00, 0x00, 0x00, 0x01, 0x00, 0x00, 0x00,
  0x10, 0x00, 0x00, 0x00, 0xe2, 0xef, 0xff, 0xff, 0x00, 0x00, 0x00, 0x01,
  0x14, 0x00, 0x00, 0x00, 0x30, 0x00, 0x00, 0x00, 0x14, 0x00, 0x00, 0x00,
  0x00, 0x00, 0x00, 0x09, 0x5c, 0x00, 0x00, 0x00, 0xcc, 0xef, 0xff, 0xff,
  0x08, 0x00, 0x00, 0x00, 0x10, 0x00, 0x00, 0x00, 0x01, 0x00, 0x00, 0x00,
  0x80, 0xff, 0xff, 0xff, 0xff, 0xff, 0xff, 0xff, 0x01, 0x00, 0x00, 0x00,
  0x19, 0xce, 0xc9, 0x3c, 0x32, 0x00, 0x00, 0x00, 0x73, 0x65, 0x71, 0x75,
  0x65, 0x6e, 0x74, 0x69, 0x61, 0x6c, 0x5f, 0x31, 0x33, 0x5f, 0x31, 0x2f,
  0x67, 0x6c, 0x6f, 0x62, 0x61, 0x6c, 0x5f, 0x61, 0x76, 0x65, 0x72, 0x61,
  0x67, 0x65, 0x5f, 0x70, 0x6f, 0x6f, 0x6c, 0x69, 0x6e, 0x67, 0x31, 0x64,
  0x5f, 0x31, 0x33, 0x5f, 0x31, 0x2f, 0x4d, 0x65, 0x61, 0x6e, 0x00, 0x00,
  0x02, 0x00, 0x00, 0x00, 0x01, 0x00, 0x00, 0x00, 0x08, 0x00, 0x00, 0x00,
  0x62, 0xf0, 0xff, 0xff, 0x00, 0x00, 0x00, 0x01, 0x14, 0x00, 0x00, 0x00,
  0x34, 0x00, 0x00, 0x00, 0x13, 0x00, 0x00, 0x00, 0x00, 0x00, 0x00, 0x09,
  0x18, 0x01, 0x00, 0x00, 0x4c, 0xf0, 0xff, 0xff, 0x08, 0x00, 0x00, 0x00,
  0x14, 0x00, 0x00, 0x00, 0x01, 0x00, 0x00, 0x00, 0x80, 0xff, 0xff, 0xff,
  0xff, 0xff, 0xff, 0xff, 0x00, 0x00, 0x00, 0x00, 0x01, 0x00, 0x00, 0x00,
  0xb8, 0x23, 0x0c, 0x3e, 0xeb, 0x00, 0x00, 0x00, 0x73, 0x65, 0x71, 0x75,
  0x65, 0x6e, 0x74, 0x69, 0x61, 0x6c, 0x5f, 0x31, 0x33, 0x5f, 0x31, 0x2f,
  0x61, 0x63, 0x74, 0x69, 0x76, 0x61, 0x74, 0x69, 0x6f, 0x6e, 0x5f, 0x34,
  0x31, 0x5f, 0x31, 0x2f, 0x52, 0x65, 0x6c, 0x75, 0x3b, 0x73, 0x65, 0x71,
  0x75, 0x65, 0x6e, 0x74, 0x69, 0x61, 0x6c, 0x5f, 0x31, 0x33, 0x5f, 0x31,
  0x2f, 0x62, 0x61, 0x74, 0x63, 0x68, 0x5f, 0x6e, 0x6f, 0x72, 0x6d, 0x61,
  0x6c, 0x69, 0x7a, 0x61, 0x74, 0x69, 0x6f, 0x6e, 0x5f, 0x34, 0x31, 0x5f,
  0x31, 0x2f, 0x62, 0x61, 0x74, 0x63, 0x68, 0x6e, 0x6f, 0x72, 0x6d, 0x2f,
  0x61, 0x64, 0x64, 0x5f, 0x31, 0x3b, 0x73, 0x65, 0x71, 0x75, 0x65, 0x6e,
  0x74, 0x69, 0x61, 0x6c, 0x5f, 0x31, 0x33, 0x5f, 0x31, 0x2f, 0x63, 0x6f,
  0x6e, 0x76, 0x31, 0x64, 0x5f, 0x34, 0x31, 0x5f, 0x31, 0x2f, 0x63, 0x6f,
  0x6e, 0x76, 0x6f, 0x6c, 0x75, 0x74, 0x69, 0x6f, 0x6e, 0x2f, 0x53, 0x71,
  0x75, 0x65, 0x65, 0x7a, 0x65, 0x3b, 0x73, 0x65, 0x71, 0x75, 0x65, 0x6e,
  0x74, 0x69, 0x61, 0x6c, 0x5f, 0x31, 0x33, 0x5f, 0x31, 0x2f, 0x62, 0x61,
  0x74, 0x63, 0x68, 0x5f, 0x6e, 0x6f, 0x72, 0x6d, 0x61, 0x6c, 0x69, 0x7a,
  0x61, 0x74, 0x69, 0x6f, 0x6e, 0x5f, 0x34, 0x31, 0x5f, 0x31, 0x2f, 0x62,
  0x61, 0x74, 0x63, 0x68, 0x6e, 0x6f, 0x72, 0x6d, 0x2f, 0x6d, 0x75, 0x6c,
  0x5f, 0x31, 0x3b, 0x73, 0x65, 0x71, 0x75, 0x65, 0x6e, 0x74, 0x69, 0x61,
  0x6c, 0x5f, 0x31, 0x33, 0x5f, 0x31, 0x2f, 0x63, 0x6f, 0x6e, 0x76, 0x31,
  0x64, 0x5f, 0x34, 0x31, 0x5f, 0x31, 0x2f, 0x42, 0x69, 0x61, 0x73, 0x41,
  0x64, 0x64, 0x3b, 0x00, 0x03, 0x00, 0x00, 0x00, 0x01, 0x00, 0x00, 0x00,
  0x7d, 0x00, 0x00, 0x00, 0x08, 0x00, 0x00, 0x00, 0xa2, 0xf1, 0xff, 0xff,
  0x00, 0x00, 0x00, 0x01, 0x14, 0x00, 0x00, 0x00, 0x30, 0x00, 0x00, 0x00,
  0x12, 0x00, 0x00, 0x00, 0x00, 0x00, 0x00, 0x09, 0x3c, 0x01, 0x00, 0x00,
  0x8c, 0xf1, 0xff, 0xff, 0x08, 0x00, 0x00, 0x00, 0x10, 0x00, 0x00, 0x00,
  0x01, 0x00, 0x00, 0x00, 0x80, 0xff, 0xff, 0xff, 0xff, 0xff, 0xff, 0xff,
  0x01, 0x00, 0x00, 0x00, 0xb8, 0x23, 0x0c, 0x3e, 0x13, 0x01, 0x00, 0x00,
  0x73, 0x65, 0x71, 0x75, 0x65, 0x6e, 0x74, 0x69, 0x61, 0x6c, 0x5f, 0x31,
  0x33, 0x5f, 0x31, 0x2f, 0x61, 0x63, 0x74, 0x69, 0x76, 0x61, 0x74, 0x69,
  0x6f, 0x6e, 0x5f, 0x34, 0x31, 0x5f, 0x31, 0x2f, 0x52, 0x65, 0x6c, 0x75,
  0x3b, 0x73, 0x65, 0x71, 0x75, 0x65, 0x6e, 0x74, 0x69, 0x61, 0x6c, 0x5f,
  0x31, 0x33, 0x5f, 0x31, 0x2f, 0x62, 0x61, 0x74, 0x63, 0x68, 0x5f, 0x6e,
  0x6f, 0x72, 0x6d, 0x61, 0x6c, 0x69, 0x7a, 0x61, 0x74, 0x69, 0x6f, 0x6e,
  0x5f, 0x34, 0x31, 0x5f, 0x31, 0x2f, 0x62, 0x61, 0x74, 0x63, 0x68, 0x6e,
  0x6f, 0x72, 0x6d, 0x2f, 0x61, 0x64, 0x64, 0x5f, 0x31, 0x3b, 0x73, 0x65,
  0x71, 0x75, 0x65, 0x6e, 0x74, 0x69, 0x61, 0x6c, 0x5f, 0x31, 0x33, 0x5f,
  0x31, 0x2f, 0x63, 0x6f, 0x6e, 0x76, 0x31, 0x64, 0x5f, 0x34, 0x31, 0x5f,
  0x31, 0x2f, 0x63, 0x6f, 0x6e, 0x76, 0x6f, 0x6c, 0x75, 0x74, 0x69, 0x6f,
  0x6e, 0x2f, 0x53, 0x71, 0x75, 0x65, 0x65, 0x7a, 0x65, 0x3b, 0x73, 0x65,
  0x71, 0x75, 0x65, 0x6e, 0x74, 0x69, 0x61, 0x6c, 0x5f, 0x31, 0x33, 0x5f,
  0x31, 0x2f, 0x62, 0x61, 0x74, 0x63, 0x68, 0x5f, 0x6e, 0x6f, 0x72, 0x6d,
  0x61, 0x6c, 0x69, 0x7a, 0x61, 0x74, 0x69, 0x6f, 0x6e, 0x5f, 0x34, 0x31,
  0x5f, 0x31, 0x2f, 0x62, 0x61, 0x74, 0x63, 0x68, 0x6e, 0x6f, 0x72, 0x6d,
  0x2f, 0x6d, 0x75, 0x6c, 0x5f, 0x31, 0x3b, 0x73, 0x65, 0x71, 0x75, 0x65,
  0x6e, 0x74, 0x69, 0x61, 0x6c, 0x5f, 0x31, 0x33, 0x5f, 0x31, 0x2f, 0x63,
  0x6f, 0x6e, 0x76, 0x31, 0x64, 0x5f, 0x34, 0x31, 0x5f, 0x31, 0x2f, 0x42,
  0x69, 0x61, 0x73, 0x41, 0x64, 0x64, 0x3b, 0x3b, 0x73, 0x65, 0x71, 0x75,
  0x65, 0x6e, 0x74, 0x69, 0x61, 0x6c, 0x5f, 0x31, 0x33, 0x5f, 0x31, 0x2f,
  0x63, 0x6f, 0x6e, 0x76, 0x31, 0x64, 0x5f, 0x34, 0x31, 0x5f, 0x31, 0x2f,
  0x63, 0x6f, 0x6e, 0x76, 0x6f, 0x6c, 0x75, 0x74, 0x69, 0x6f, 0x6e, 0x00,
  0x04, 0x00, 0x00, 0x00, 0x01, 0x00, 0x00, 0x00, 0x01, 0x00, 0x00, 0x00,
  0x7d, 0x00, 0x00, 0x00, 0x08, 0x00, 0x00, 0x00, 0x0a, 0xf3, 0xff, 0xff,
  0x00, 0x00, 0x00, 0x01, 0x14, 0x00, 0x00, 0x00, 0x30, 0x00, 0x00, 0x00,
  0x11, 0x00, 0x00, 0x00, 0x00, 0x00, 0x00, 0x09, 0x3c, 0x01, 0x00, 0x00,
  0xf4, 0xf2, 0xff, 0xff, 0x08, 0x00, 0x00, 0x00, 0x10, 0x00, 0x00, 0x00,
  0x01, 0x00, 0x00, 0x00, 0x80, 0xff, 0xff, 0xff, 0xff, 0xff, 0xff, 0xff,
  0x01, 0x00, 0x00, 0x00, 0x23, 0xc7, 0x06, 0x3d, 0x13, 0x01, 0x00, 0x00,
  0x73, 0x65, 0x71, 0x75, 0x65, 0x6e, 0x74, 0x69, 0x61, 0x6c, 0x5f, 0x31,
  0x33, 0x5f, 0x31, 0x2f, 0x61, 0x63, 0x74, 0x69, 0x76, 0x61, 0x74, 0x69,
  0x6f, 0x6e, 0x5f, 0x34, 0x30, 0x5f, 0x31, 0x2f, 0x52, 0x65, 0x6c, 0x75,
  0x3b, 0x73, 0x65, 0x71, 0x75, 0x65, 0x6e, 0x74, 0x69, 0x61, 0x6c, 0x5f,
  0x31, 0x33, 0x5f, 0x31, 0x2f, 0x62, 0x61, 0x74, 0x63, 0x68, 0x5f, 0x6e,
  0x6f, 0x72, 0x6d, 0x61, 0x6c, 0x69, 0x7a, 0x61, 0x74, 0x69, 0x6f, 0x6e,
  0x5f, 0x34, 0x30, 0x5f, 0x31, 0x2f, 0x62, 0x61, 0x74, 0x63, 0x68, 0x6e,
  0x6f, 0x72, 0x6d, 0x2f, 0x61, 0x64, 0x64, 0x5f, 0x31, 0x3b, 0x73, 0x65,
  0x71, 0x75, 0x65, 0x6e, 0x74, 0x69, 0x61, 0x6c, 0x5f, 0x31, 0x33, 0x5f,
  0x31, 0x2f, 0x63, 0x6f, 0x6e, 0x76, 0x31, 0x64, 0x5f, 0x34, 0x30, 0x5f,
  0x31, 0x2f, 0x63, 0x6f, 0x6e, 0x76, 0x6f, 0x6c, 0x75, 0x74, 0x69, 0x6f,
  0x6e, 0x2f, 0x53, 0x71, 0x75, 0x65, 0x65, 0x7a, 0x65, 0x3b, 0x73, 0x65,
  0x71, 0x75, 0x65, 0x6e, 0x74, 0x69, 0x61, 0x6c, 0x5f, 0x31, 0x33, 0x5f,
  0x31, 0x2f, 0x62, 0x61, 0x74, 0x63, 0x68, 0x5f, 0x6e, 0x6f, 0x72, 0x6d,
  0x61, 0x6c, 0x69, 0x7a, 0x61, 0x74, 0x69, 0x6f, 0x6e, 0x5f, 0x34, 0x30,
  0x5f, 0x31, 0x2f, 0x62, 0x61, 0x74, 0x63, 0x68, 0x6e, 0x6f, 0x72, 0x6d,
  0x2f, 0x6d, 0x75, 0x6c, 0x5f, 0x31, 0x3b, 0x73, 0x65, 0x71, 0x75, 0x65,
  0x6e, 0x74, 0x69, 0x61, 0x6c, 0x5f, 0x31, 0x33, 0x5f, 0x31, 0x2f, 0x63,
  0x6f, 0x6e, 0x76, 0x31, 0x64, 0x5f, 0x34, 0x30, 0x5f, 0x31, 0x2f, 0x42,
  0x69, 0x61, 0x73, 0x41, 0x64, 0x64, 0x3b, 0x3b, 0x73, 0x65, 0x71, 0x75,
  0x65, 0x6e, 0x74, 0x69, 0x61, 0x6c, 0x5f, 0x31, 0x33, 0x5f, 0x31, 0x2f,
  0x63, 0x6f, 0x6e, 0x76, 0x31, 0x64, 0x5f, 0x34, 0x30, 0x5f, 0x31, 0x2f,
  0x63, 0x6f, 0x6e, 0x76, 0x6f, 0x6c, 0x75, 0x74, 0x69, 0x6f, 0x6e, 0x00,
  0x04, 0x00, 0x00, 0x00, 0x01, 0x00, 0x00, 0x00, 0x01, 0x00, 0x00, 0x00,
  0x7d, 0x00, 0x00, 0x00, 0x0c, 0x00, 0x00, 0x00, 0x72, 0xf4, 0xff, 0xff,
  0x00, 0x00, 0x00, 0x01, 0x14, 0x00, 0x00, 0x00, 0x30, 0x00, 0x00, 0x00,
  0x10, 0x00, 0x00, 0x00, 0x00, 0x00, 0x00, 0x09, 0x3c, 0x01, 0x00, 0x00,
  0x5c, 0xf4, 0xff, 0xff, 0x08, 0x00, 0x00, 0x00, 0x10, 0x00, 0x00, 0x00,
  0x01, 0x00, 0x00, 0x00, 0x80, 0xff, 0xff, 0xff, 0xff, 0xff, 0xff, 0xff,
  0x01, 0x00, 0x00, 0x00, 0xaa, 0xbc, 0xf9, 0x3c, 0x13, 0x01, 0x00, 0x00,
  0x73, 0x65, 0x71, 0x75, 0x65, 0x6e, 0x74, 0x69, 0x61, 0x6c, 0x5f, 0x31,
  0x33, 0x5f, 0x31, 0x2f, 0x61, 0x63, 0x74, 0x69, 0x76, 0x61, 0x74, 0x69,
  0x6f, 0x6e, 0x5f, 0x33, 0x39, 0x5f, 0x31, 0x2f, 0x52, 0x65, 0x6c, 0x75,
  0x3b, 0x73, 0x65, 0x71, 0x75, 0x65, 0x6e, 0x74, 0x69, 0x61, 0x6c, 0x5f,
  0x31, 0x33, 0x5f, 0x31, 0x2f, 0x62, 0x61, 0x74, 0x63, 0x68, 0x5f, 0x6e,
  0x6f, 0x72, 0x6d, 0x61, 0x6c, 0x69, 0x7a, 0x61, 0x74, 0x69, 0x6f, 0x6e,
  0x5f, 0x33, 0x39, 0x5f, 0x31, 0x2f, 0x62, 0x61, 0x74, 0x63, 0x68, 0x6e,
  0x6f, 0x72, 0x6d, 0x2f, 0x61, 0x64, 0x64, 0x5f, 0x31, 0x3b, 0x73, 0x65,
  0x71, 0x75, 0x65, 0x6e, 0x74, 0x69, 0x61, 0x6c, 0x5f, 0x31, 0x33, 0x5f,
  0x31, 0x2f, 0x63, 0x6f, 0x6e, 0x76, 0x31, 0x64, 0x5f, 0x33, 0x39, 0x5f,
  0x31, 0x2f, 0x63, 0x6f, 0x6e, 0x76, 0x6f, 0x6c, 0x75, 0x74, 0x69, 0x6f,
  0x6e, 0x2f, 0x53, 0x71, 0x75, 0x65, 0x65, 0x7a, 0x65, 0x3b, 0x73, 0x65,
  0x71, 0x75, 0x65, 0x6e, 0x74, 0x69, 0x61, 0x6c, 0x5f, 0x31, 0x33, 0x5f,
  0x31, 0x2f, 0x62, 0x61, 0x74, 0x63, 0x68, 0x5f, 0x6e, 0x6f, 0x72, 0x6d,
  0x61, 0x6c, 0x69, 0x7a, 0x61, 0x74, 0x69, 0x6f, 0x6e, 0x5f, 0x33, 0x39,
  0x5f, 0x31, 0x2f, 0x62, 0x61, 0x74, 0x63, 0x68, 0x6e, 0x6f, 0x72, 0x6d,
  0x2f, 0x6d, 0x75, 0x6c, 0x5f, 0x31, 0x3b, 0x73, 0x65, 0x71, 0x75, 0x65,
  0x6e, 0x74, 0x69, 0x61, 0x6c, 0x5f, 0x31, 0x33, 0x5f, 0x31, 0x2f, 0x63,
  0x6f, 0x6e, 0x76, 0x31, 0x64, 0x5f, 0x33, 0x39, 0x5f, 0x31, 0x2f, 0x42,
  0x69, 0x61, 0x73, 0x41, 0x64, 0x64, 0x3b, 0x3b, 0x73, 0x65, 0x71, 0x75,
  0x65, 0x6e, 0x74, 0x69, 0x61, 0x6c, 0x5f, 0x31, 0x33, 0x5f, 0x31, 0x2f,
  0x63, 0x6f, 0x6e, 0x76, 0x31, 0x64, 0x5f, 0x33, 0x39, 0x5f, 0x31, 0x2f,
  0x63, 0x6f, 0x6e, 0x76, 0x6f, 0x6c, 0x75, 0x74, 0x69, 0x6f, 0x6e, 0x00,
  0x04, 0x00, 0x00, 0x00, 0x01, 0x00, 0x00, 0x00, 0x01, 0x00, 0x00, 0x00,
  0xfa, 0x00, 0x00, 0x00, 0x10, 0x00, 0x00, 0x00, 0xda, 0xf5, 0xff, 0xff,
  0x00, 0x00, 0x00, 0x01, 0x14, 0x00, 0x00, 0x00, 0x30, 0x00, 0x00, 0x00,
  0x0f, 0x00, 0x00, 0x00, 0x00, 0x00, 0x00, 0x09, 0x5c, 0x00, 0x00, 0x00,
  0xc4, 0xf5, 0xff, 0xff, 0x08, 0x00, 0x00, 0x00, 0x10, 0x00, 0x00, 0x00,
  0x01, 0x00, 0x00, 0x00, 0x00, 0x00, 0x00, 0x00, 0x00, 0x00, 0x00, 0x00,
  0x01, 0x00, 0x00, 0x00, 0x71, 0x0d, 0x8b, 0x3d, 0x33, 0x00, 0x00, 0x00,
  0x73, 0x65, 0x71, 0x75, 0x65, 0x6e, 0x74, 0x69, 0x61, 0x6c, 0x5f, 0x31,
  0x33, 0x5f, 0x31, 0x2f, 0x63, 0x6f, 0x6e, 0x76, 0x31, 0x64, 0x5f, 0x33,
  0x39, 0x5f, 0x31, 0x2f, 0x63, 0x6f, 0x6e, 0x76, 0x6f, 0x6c, 0x75, 0x74,
  0x69, 0x6f, 0x6e, 0x2f, 0x45, 0x78, 0x70, 0x61, 0x6e, 0x64, 0x44, 0x69,
  0x6d, 0x73, 0x31, 0x00, 0x04, 0x00, 0x00, 0x00, 0x01, 0x00, 0x00, 0x00,
  0x01, 0x00, 0x00, 0x00, 0xf4, 0x01, 0x00, 0x00, 0x06, 0x00, 0x00, 0x00,
  0x62, 0xf6, 0xff, 0xff, 0x00, 0x00, 0x00, 0x01, 0x14, 0x00, 0x00, 0x00,
  0xe8, 0x00, 0x00, 0x00, 0x0e, 0x00, 0x00, 0x00, 0x00, 0x00, 0x00, 0x09,
  0xf4, 0x00, 0x00, 0x00, 0x4c, 0xf6, 0xff, 0xff, 0x08, 0x00, 0x00, 0x00,
  0x8c, 0x00, 0x00, 0x00, 0x10, 0x00, 0x00, 0x00, 0x00, 0x00, 0x00, 0x00,
  0x00, 0x00, 0x00, 0x00, 0x00, 0x00, 0x00, 0x00, 0x00, 0x00, 0x00, 0x00,
  0x00, 0x00, 0x00, 0x00, 0x00, 0x00, 0x00, 0x00, 0x00, 0x00, 0x00, 0x00,
  0x00, 0x00, 0x00, 0x00, 0x00, 0x00, 0x00, 0x00, 0x00, 0x00, 0x00, 0x00,
  0x00, 0x00, 0x00, 0x00, 0x00, 0x00, 0x00, 0x00, 0x00, 0x00, 0x00, 0x00,
  0x00, 0x00, 0x00, 0x00, 0x00, 0x00, 0x00, 0x00, 0x00, 0x00, 0x00, 0x00,
  0x00, 0x00, 0x00, 0x00, 0x00, 0x00, 0x00, 0x00, 0x00, 0x00, 0x00, 0x00,
  0x00, 0x00, 0x00, 0x00, 0x00, 0x00, 0x00, 0x00, 0x00, 0x00, 0x00, 0x00,
  0x00, 0x00, 0x00, 0x00, 0x00, 0x00, 0x00, 0x00, 0x00, 0x00, 0x00, 0x00,
  0x00, 0x00, 0x00, 0x00, 0x00, 0x00, 0x00, 0x00, 0x00, 0x00, 0x00, 0x00,
  0x00, 0x00, 0x00, 0x00, 0x00, 0x00, 0x00, 0x00, 0x00, 0x00, 0x00, 0x00,
  0x00, 0x00, 0x00, 0x00, 0x00, 0x00, 0x00, 0x00, 0x10, 0x00, 0x00, 0x00,
  0x44, 0xb9, 0xfb, 0x3a, 0xb9, 0x16, 0x81, 0x3a, 0xb1, 0x9f, 0xee, 0x3a,
  0x74, 0x21, 0xf8, 0x3a, 0x62, 0x93, 0xfa, 0x3a, 0x7c, 0xe5, 0x93, 0x3a,
  0xde, 0x1c, 0x03, 0x3b, 0x16, 0xe7, 0xbe, 0x3a, 0x83, 0xa5, 0x55, 0x3b,
  0xb6, 0x16, 0x85, 0x3a, 0x78, 0xcd, 0x28, 0x3a, 0xf3, 0xab, 0xc9, 0x3a,
  0xa8, 0xb3, 0x0e, 0x3b, 0x3b, 0x49, 0xcd, 0x3a, 0x8a, 0xb9, 0x0f, 0x3b,
  0x0e, 0xbb, 0x9e, 0x3a, 0x12, 0x00, 0x00, 0x00, 0x74, 0x66, 0x6c, 0x2e,
  0x70, 0x73, 0x65, 0x75, 0x64, 0x6f, 0x5f, 0x71, 0x63, 0x6f, 0x6e, 0x73,
  0x74, 0x39, 0x00, 0x00, 0x04, 0x00, 0x00, 0x00, 0x10, 0x00, 0x00, 0x00,
  0x01, 0x00, 0x00, 0x00, 0x07, 0x00, 0x00, 0x00, 0x06, 0x00, 0x00, 0x00,
  0x82, 0xf7, 0xff, 0xff, 0x00, 0x00, 0x00, 0x01, 0x14, 0x00, 0x00, 0x00,
  0xe4, 0x00, 0x00, 0x00, 0x0d, 0x00, 0x00, 0x00, 0x00, 0x00, 0x00, 0x02,
  0xf0, 0x00, 0x00, 0x00, 0x6c, 0xf7, 0xff, 0xff, 0x08, 0x00, 0x00, 0x00,
  0x88, 0x00, 0x00, 0x00, 0x10, 0x00, 0x00, 0x00, 0x00, 0x00, 0x00, 0x00,
  0x00, 0x00, 0x00, 0x00, 0x00, 0x00, 0x00, 0x00, 0x00, 0x00, 0x00, 0x00,
  0x00, 0x00, 0x00, 0x00, 0x00, 0x00, 0x00, 0x00, 0x00, 0x00, 0x00, 0x00,
  0x00, 0x00, 0x00, 0x00, 0x00, 0x00, 0x00, 0x00, 0x00, 0x00, 0x00, 0x00,
  0x00, 0x00, 0x00, 0x00, 0x00, 0x00, 0x00, 0x00, 0x00, 0x00, 0x00, 0x00,
  0x00, 0x00, 0x00, 0x00, 0x00, 0x00, 0x00, 0x00, 0x00, 0x00, 0x00, 0x00,
  0x00, 0x00, 0x00, 0x00, 0x00, 0x00, 0x00, 0x00, 0x00, 0x00, 0x00, 0x00,
  0x00, 0x00, 0x00, 0x00, 0x00, 0x00, 0x00, 0x00, 0x00, 0x00, 0x00, 0x00,
  0x00, 0x00, 0x00, 0x00, 0x00, 0x00, 0x00, 0x00, 0x00, 0x00, 0x00, 0x00,
  0x00, 0x00, 0x00, 0x00, 0x00, 0x00, 0x00, 0x00, 0x00, 0x00, 0x00, 0x00,
  0x00, 0x00, 0x00, 0x00, 0x00, 0x00, 0x00, 0x00, 0x00, 0x00, 0x00, 0x00,
  0x00, 0x00, 0x00, 0x00, 0x10, 0x00, 0x00, 0x00, 0xcf, 0xba, 0x08, 0x39,
  0x3b, 0x3c, 0x8c, 0x38, 0x3d, 0x9d, 0x01, 0x39, 0x31, 0xc7, 0x06, 0x39,
  0x2e, 0x1b, 0x08, 0x39, 0xbd, 0xaa, 0xa0, 0x38, 0x1e, 0x6f, 0x0e, 0x39,
  0xfe, 0x62, 0xcf, 0x38, 0x2c, 0x18, 0x68, 0x39, 0xa3, 0x94, 0x90, 0x38,
  0xda, 0x60, 0x37, 0x38, 0xe7, 0x15, 0xdb, 0x38, 0x15, 0x06, 0x1b, 0x39,
  0x15, 0x03, 0xdf, 0x38, 0x94, 0x22, 0x1c, 0x39, 0xcc, 0x6f, 0xac, 0x38,
  0x12, 0x00, 0x00, 0x00, 0x74, 0x66, 0x6c, 0x2e, 0x70, 0x73, 0x65, 0x75,
  0x64, 0x6f, 0x5f, 0x71, 0x63, 0x6f, 0x6e, 0x73, 0x74, 0x38, 0x00, 0x00,
  0x01, 0x00, 0x00, 0x00, 0x10, 0x00, 0x00, 0x00, 0x92, 0xf8, 0xff, 0xff,
  0x00, 0x00, 0x00, 0x01, 0x14, 0x00, 0x00, 0x00, 0xb8, 0x00, 0x00, 0x00,
  0x0c, 0x00, 0x00, 0x00, 0x00, 0x00, 0x00, 0x09, 0xc4, 0x00, 0x00, 0x00,
  0x7c, 0xf8, 0xff, 0xff, 0x08, 0x00, 0x00, 0x00, 0x6c, 0x00, 0x00, 0x00,
  0x0c, 0x00, 0x00, 0x00, 0x00, 0x00, 0x00, 0x00, 0x00, 0x00, 0x00, 0x00,
  0x00, 0x00, 0x00, 0x00, 0x00, 0x00, 0x00, 0x00, 0x00, 0x00, 0x00, 0x00,
  0x00, 0x00, 0x00, 0x00, 0x00, 0x00, 0x00, 0x00, 0x00, 0x00, 0x00, 0x00,
  0x00, 0x00, 0x00, 0x00, 0x00, 0x00, 0x00, 0x00, 0x00, 0x00, 0x00, 0x00,
  0x00, 0x00, 0x00, 0x00, 0x00, 0x00, 0x00, 0x00, 0x00, 0x00, 0x00, 0x00,
  0x00, 0x00, 0x00, 0x00, 0x00, 0x00, 0x00, 0x00, 0x00, 0x00, 0x00, 0x00,
  0x00, 0x00, 0x00, 0x00, 0x00, 0x00, 0x00, 0x00, 0x00, 0x00, 0x00, 0x00,
  0x00, 0x00, 0x00, 0x00, 0x00, 0x00, 0x00, 0x00, 0x00, 0x00, 0x00, 0x00,
  0x00, 0x00, 0x00, 0x00, 0x00, 0x00, 0x00, 0x00, 0x0c, 0x00, 0x00, 0x00,
  0xa8, 0xfa, 0x14, 0x3b, 0x1d, 0xad, 0x50, 0x3b, 0xec, 0x01, 0xb8, 0x3b,
  0x4b, 0x0f, 0x6a, 0x3b, 0x72, 0xf5, 0x49, 0x3b, 0x1f, 0x87, 0x57, 0x3b,
  0xa0, 0xcb, 0x37, 0x3b, 0x6a, 0x70, 0x56, 0x3b, 0x3a, 0x25, 0x84, 0x3b,
  0x66, 0x8d, 0x5f, 0x3b, 0x1c, 0x8e, 0x8b, 0x3b, 0xc4, 0x96, 0xb9, 0x3b,
  0x12, 0x00, 0x00, 0x00, 0x74, 0x66, 0x6c, 0x2e, 0x70, 0x73, 0x65, 0x75,
  0x64, 0x6f, 0x5f, 0x71, 0x63, 0x6f, 0x6e, 0x73, 0x74, 0x37, 0x00, 0x00,
  0x04, 0x00, 0x00, 0x00, 0x0c, 0x00, 0x00, 0x00, 0x01, 0x00, 0x00, 0x00,
  0x05, 0x00, 0x00, 0x00, 0x10, 0x00, 0x00, 0x00, 0x82, 0xf9, 0xff, 0xff,
  0x00, 0x00, 0x00, 0x01, 0x14, 0x00, 0x00, 0x00, 0xb4, 0x00, 0x00, 0x00,
  0x0b, 0x00, 0x00, 0x00, 0x00, 0x00, 0x00, 0x02, 0xc0, 0x00, 0x00, 0x00,
  0x6c, 0xf9, 0xff, 0xff, 0x08, 0x00, 0x00, 0x00, 0x68, 0x00, 0x00, 0x00,
  0x0c, 0x00, 0x00, 0x00, 0x00, 0x00, 0x00, 0x00, 0x00, 0x00, 0x00, 0x00,
  0x00, 0x00, 0x00, 0x00, 0x00, 0x00, 0x00, 0x00, 0x00, 0x00, 0x00, 0x00,
  0x00, 0x00, 0x00, 0x00, 0x00, 0x00, 0x00, 0x00, 0x00, 0x00, 0x00, 0x00,
  0x00, 0x00, 0x00, 0x00, 0x00, 0x00, 0x00, 0x00, 0x00, 0x00, 0x00, 0x00,
  0x00, 0x00, 0x00, 0x00, 0x00, 0x00, 0x00, 0x00, 0x00, 0x00, 0x00, 0x00,
  0x00, 0x00, 0x00, 0x00, 0x00, 0x00, 0x00, 0x00, 0x00, 0x00, 0x00, 0x00,
  0x00, 0x00, 0x00, 0x00, 0x00, 0x00, 0x00, 0x00, 0x00, 0x00, 0x00, 0x00,
  0x00, 0x00, 0x00, 0x00, 0x00, 0x00, 0x00, 0x00, 0x00, 0x00, 0x00, 0x00,
  0x00, 0x00, 0x00, 0x00, 0x0c, 0x00, 0x00, 0x00, 0x98, 0x55, 0x91, 0x38,
  0x2b, 0x92, 0xcb, 0x38, 0x7a, 0x81, 0x33, 0x39, 0x5f, 0x55, 0xe4, 0x38,
  0x92, 0x04, 0xc5, 0x38, 0x44, 0x41, 0xd2, 0x38, 0x82, 0x4c, 0xb3, 0x38,
  0x60, 0x31, 0xd1, 0x38, 0x99, 0xe9, 0x00, 0x39, 0x49, 0x15, 0xda, 0x38,
  0x12, 0x24, 0x08, 0x39, 0x6b, 0x0c, 0x35, 0x39, 0x12, 0x00, 0x00, 0x00,
  0x74, 0x66, 0x6c, 0x2e, 0x70, 0x73, 0x65, 0x75, 0x64, 0x6f, 0x5f, 0x71,
  0x63, 0x6f, 0x6e, 0x73, 0x74, 0x36, 0x00, 0x00, 0x01, 0x00, 0x00, 0x00,
  0x0c, 0x00, 0x00, 0x00, 0x62, 0xfa, 0xff, 0xff, 0x00, 0x00, 0x00, 0x01,
  0x14, 0x00, 0x00, 0x00, 0x88, 0x00, 0x00, 0x00, 0x0a, 0x00, 0x00, 0x00,
  0x00, 0x00, 0x00, 0x09, 0x94, 0x00, 0x00, 0x00, 0x4c, 0xfa, 0xff, 0xff,
  0x08, 0x00, 0x00, 0x00, 0x4c, 0x00, 0x00, 0x00, 0x08, 0x00, 0x00, 0x00,
  0x00, 0x00, 0x00, 0x00, 0x00, 0x00, 0x00, 0x00, 0x00, 0x00, 0x00, 0x00,
  0x00, 0x00, 0x00, 0x00, 0x00, 0x00, 0x00, 0x00, 0x00, 0x00, 0x00, 0x00,
  0x00, 0x00, 0x00, 0x00, 0x00, 0x00, 0x00, 0x00, 0x00, 0x00, 0x00, 0x00,
  0x00, 0x00, 0x00, 0x00, 0x00, 0x00, 0x00, 0x00, 0x00, 0x00, 0x00, 0x00,
  0x00, 0x00, 0x00, 0x00, 0x00, 0x00, 0x00, 0x00, 0x00, 0x00, 0x00, 0x00,
  0x00, 0x00, 0x00, 0x00, 0x00, 0x00, 0x00, 0x00, 0x08, 0x00, 0x00, 0x00,
  0x17, 0xb6, 0x06, 0x3c, 0x74, 0x4a, 0x7b, 0x3c, 0x03, 0x82, 0x7f, 0x3c,
  0xec, 0x5c, 0x97, 0x3c, 0x1d, 0xe4, 0x6f, 0x3c, 0x72, 0xee, 0x90, 0x3c,
  0x45, 0x1d, 0x57, 0x3c, 0xc4, 0x71, 0x91, 0x3c, 0x12, 0x00, 0x00, 0x00,
  0x74, 0x66, 0x6c, 0x2e, 0x70, 0x73, 0x65, 0x75, 0x64, 0x6f, 0x5f, 0x71,
  0x63, 0x6f, 0x6e, 0x73, 0x74, 0x35, 0x00, 0x00, 0x04, 0x00, 0x00, 0x00,
  0x08, 0x00, 0x00, 0x00, 0x01, 0x00, 0x00, 0x00, 0x03, 0x00, 0x00, 0x00,
  0x0c, 0x00, 0x00, 0x00, 0x22, 0xfb, 0xff, 0xff, 0x00, 0x00, 0x00, 0x01,
  0x14, 0x00, 0x00, 0x00, 0x84, 0x00, 0x00, 0x00, 0x09, 0x00, 0x00, 0x00,
  0x00, 0x00, 0x00, 0x02, 0x90, 0x00, 0x00, 0x00, 0x0c, 0xfb, 0xff, 0xff,
  0x08, 0x00, 0x00, 0x00, 0x48, 0x00, 0x00, 0x00, 0x08, 0x00, 0x00, 0x00,
  0x00, 0x00, 0x00, 0x00, 0x00, 0x00, 0x00, 0x00, 0x00, 0x00, 0x00, 0x00,
  0x00, 0x00, 0x00, 0x00, 0x00, 0x00, 0x00, 0x00, 0x00, 0x00, 0x00, 0x00,
  0x00, 0x00, 0x00, 0x00, 0x00, 0x00, 0x00, 0x00, 0x00, 0x00, 0x00, 0x00,
  0x00, 0x00, 0x00, 0x00, 0x00, 0x00, 0x00, 0x00, 0x00, 0x00, 0x00, 0x00,
  0x00, 0x00, 0x00, 0x00, 0x00, 0x00, 0x00, 0x00, 0x00, 0x00, 0x00, 0x00,
  0x00, 0x00, 0x00, 0x00, 0x08, 0x00, 0x00, 0x00, 0x34, 0xd8, 0x8d, 0x39,
  0x72, 0x4c, 0x04, 0x3a, 0xcf, 0x84, 0x06, 0x3a, 0xc3, 0x60, 0x1f, 0x3a,
  0x05, 0x98, 0xfc, 0x39, 0x1a, 0x9b, 0x18, 0x3a, 0x4f, 0x81, 0xe2, 0x39,
  0x60, 0x25, 0x19, 0x3a, 0x12, 0x00, 0x00, 0x00, 0x74, 0x66, 0x6c, 0x2e,
  0x70, 0x73, 0x65, 0x75, 0x64, 0x6f, 0x5f, 0x71, 0x63, 0x6f, 0x6e, 0x73,
  0x74, 0x34, 0x00, 0x00, 0x01, 0x00, 0x00, 0x00, 0x08, 0x00, 0x00, 0x00,
  0xd2, 0xfb, 0xff, 0xff, 0x00, 0x00, 0x00, 0x01, 0x14, 0x00, 0x00, 0x00,
  0xe8, 0x00, 0x00, 0x00, 0x08, 0x00, 0x00, 0x00, 0x00, 0x00, 0x00, 0x09,
  0xf4, 0x00, 0x00, 0x00, 0xbc, 0xfb, 0xff, 0xff, 0x08, 0x00, 0x00, 0x00,
  0x8c, 0x00, 0x00, 0x00, 0x10, 0x00, 0x00, 0x00, 0x00, 0x00, 0x00, 0x00,
  0x00, 0x00, 0x00, 0x00, 0x00, 0x00, 0x00, 0x00, 0x00, 0x00, 0x00, 0x00,
  0x00, 0x00, 0x00, 0x00, 0x00, 0x00, 0x00, 0x00, 0x00, 0x00, 0x00, 0x00,
  0x00, 0x00, 0x00, 0x00, 0x00, 0x00, 0x00, 0x00, 0x00, 0x00, 0x00, 0x00,
  0x00, 0x00, 0x00, 0x00, 0x00, 0x00, 0x00, 0x00, 0x00, 0x00, 0x00, 0x00,
  0x00, 0x00, 0x00, 0x00, 0x00, 0x00, 0x00, 0x00, 0x00, 0x00, 0x00, 0x00,
  0x00, 0x00, 0x00, 0x00, 0x00, 0x00, 0x00, 0x00, 0x00, 0x00, 0x00, 0x00,
  0x00, 0x00, 0x00, 0x00, 0x00, 0x00, 0x00, 0x00, 0x00, 0x00, 0x00, 0x00,
  0x00, 0x00, 0x00, 0x00, 0x00, 0x00, 0x00, 0x00, 0x00, 0x00, 0x00, 0x00,
  0x00, 0x00, 0x00, 0x00, 0x00, 0x00, 0x00, 0x00, 0x00, 0x00, 0x00, 0x00,
  0x00, 0x00, 0x00, 0x00, 0x00, 0x00, 0x00, 0x00, 0x00, 0x00, 0x00, 0x00,
  0x00, 0x00, 0x00, 0x00, 0x00, 0x00, 0x00, 0x00, 0x10, 0x00, 0x00, 0x00,
  0x3e, 0x2a, 0xcd, 0x3b, 0x21, 0x7c, 0x06, 0x3c, 0x7b, 0x4c, 0xe8, 0x3b,
  0xf2, 0x4c, 0xda, 0x3b, 0x76, 0xcb, 0x92, 0x3b, 0x5c, 0x7b, 0xee, 0x3b,
  0xc8, 0x9f, 0xfc, 0x3b, 0x64, 0x8d, 0xe7, 0x3b, 0x87, 0x4a, 0x21, 0x3c,
  0x49, 0xe0, 0xce, 0x3b, 0xbb, 0x29, 0xc3, 0x3b, 0x59, 0x10, 0x08, 0x3c,
  0x52, 0xd6, 0xe5, 0x3b, 0xa6, 0xb7, 0x08, 0x3c, 0x72, 0xbf, 0xfb, 0x3b,
  0x73, 0xa6, 0x0a, 0x3c, 0x12, 0x00, 0x00, 0x00, 0x74, 0x66, 0x6c, 0x2e,
  0x70, 0x73, 0x65, 0x75, 0x64, 0x6f, 0x5f, 0x71, 0x63, 0x6f, 0x6e, 0x73,
  0x74, 0x33, 0x00, 0x00, 0x02, 0x00, 0x00, 0x00, 0x10, 0x00, 0x00, 0x00,
  0x08, 0x00, 0x00, 0x00, 0xea, 0xfc, 0xff, 0xff, 0x00, 0x00, 0x00, 0x01,
  0x14, 0x00, 0x00, 0x00, 0xe4, 0x00, 0x00, 0x00, 0x07, 0x00, 0x00, 0x00,
  0x00, 0x00, 0x00, 0x02, 0xf0, 0x00, 0x00, 0x00, 0xd4, 0xfc, 0xff, 0xff,
  0x08, 0x00, 0x00, 0x00, 0x88, 0x00, 0x00, 0x00, 0x10, 0x00, 0x00, 0x00,
  0x00, 0x00, 0x00, 0x00, 0x00, 0x00, 0x00, 0x00, 0x00, 0x00, 0x00, 0x00,
  0x00, 0x00, 0x00, 0x00, 0x00, 0x00, 0x00, 0x00, 0x00, 0x00, 0x00, 0x00,
  0x00, 0x00, 0x00, 0x00, 0x00, 0x00, 0x00, 0x00, 0x00, 0x00, 0x00, 0x00,
  0x00, 0x00, 0x00, 0x00, 0x00, 0x00, 0x00, 0x00, 0x00, 0x00, 0x00, 0x00,
  0x00, 0x00, 0x00, 0x00, 0x00, 0x00, 0x00, 0x00, 0x00, 0x00, 0x00, 0x00,
  0x00, 0x00, 0x00, 0x00, 0x00, 0x00, 0x00, 0x00, 0x00, 0x00, 0x00, 0x00,
  0x00, 0x00, 0x00, 0x00, 0x00, 0x00, 0x00, 0x00, 0x00, 0x00, 0x00, 0x00,
  0x00, 0x00, 0x00, 0x00, 0x00, 0x00, 0x00, 0x00, 0x00, 0x00, 0x00, 0x00,
  0x00, 0x00, 0x00, 0x00, 0x00, 0x00, 0x00, 0x00, 0x00, 0x00, 0x00, 0x00,
  0x00, 0x00, 0x00, 0x00, 0x00, 0x00, 0x00, 0x00, 0x00, 0x00, 0x00, 0x00,
  0x00, 0x00, 0x00, 0x00, 0x00, 0x00, 0x00, 0x00, 0x10, 0x00, 0x00, 0x00,
  0x57, 0xbb, 0x21, 0x39, 0x76, 0x07, 0x54, 0x39, 0x11, 0x1f, 0x37, 0x39,
  0x29, 0x16, 0x2c, 0x39, 0xdb, 0x6f, 0xe7, 0x38, 0xda, 0xfe, 0x3b, 0x39,
  0xd5, 0x24, 0x47, 0x39, 0x6e, 0x88, 0x36, 0x39, 0xbb, 0x4a, 0x7e, 0x39,
  0xa6, 0x14, 0x23, 0x39, 0xe2, 0xd8, 0x19, 0x39, 0xc1, 0x84, 0x56, 0x39,
  0x4f, 0x2e, 0x35, 0x39, 0x85, 0x8c, 0x57, 0x39, 0xfd, 0x73, 0x46, 0x39,
  0xa0, 0x98, 0x5a, 0x39, 0x12, 0x00, 0x00, 0x00, 0x74, 0x66, 0x6c, 0x2e,
  0x70, 0x73, 0x65, 0x75, 0x64, 0x6f, 0x5f, 0x71, 0x63, 0x6f, 0x6e, 0x73,
  0x74, 0x32, 0x00, 0x00, 0x01, 0x00, 0x00, 0x00, 0x10, 0x00, 0x00, 0x00,
  0xfa, 0xfd, 0xff, 0xff, 0x00, 0x00, 0x00, 0x01, 0x14, 0x00, 0x00, 0x00,
  0x78, 0x00, 0x00, 0x00, 0x06, 0x00, 0x00, 0x00, 0x00, 0x00, 0x00, 0x09,
  0x84, 0x00, 0x00, 0x00, 0xe4, 0xfd, 0xff, 0xff, 0x08, 0x00, 0x00, 0x00,
  0x40, 0x00, 0x00, 0x00, 0x07, 0x00, 0x00, 0x00, 0x00, 0x00, 0x00, 0x00,
  0x00, 0x00, 0x00, 0x00, 0x00, 0x00, 0x00, 0x00, 0x00, 0x00, 0x00, 0x00,
  0x00, 0x00, 0x00, 0x00, 0x00, 0x00, 0x00, 0x00, 0x00, 0x00, 0x00, 0x00,
  0x00, 0x00, 0x00, 0x00, 0x00, 0x00, 0x00, 0x00, 0x00, 0x00, 0x00, 0x00,
  0x00, 0x00, 0x00, 0x00, 0x00, 0x00, 0x00, 0x00, 0x00, 0x00, 0x00, 0x00,
  0x00, 0x00, 0x00, 0x00, 0x07, 0x00, 0x00, 0x00, 0x77, 0x06, 0x74, 0x3d,
  0x81, 0xb0, 0x72, 0x3d, 0x4e, 0x61, 0x85, 0x3d, 0x59, 0x5a, 0x9a, 0x3d,
  0x17, 0xd1, 0x49, 0x3d, 0x01, 0x33, 0x8a, 0x3d, 0x31, 0xef, 0x6f, 0x3d,
  0x12, 0x00, 0x00, 0x00, 0x74, 0x66, 0x6c, 0x2e, 0x70, 0x73, 0x65, 0x75,
  0x64, 0x6f, 0x5f, 0x71, 0x63, 0x6f, 0x6e, 0x73, 0x74, 0x31, 0x00, 0x00,
  0x02, 0x00, 0x00, 0x00, 0x07, 0x00, 0x00, 0x00, 0x10, 0x00, 0x00, 0x00,
  0xa2, 0xfe, 0xff, 0xff, 0x00, 0x00, 0x00, 0x01, 0x14, 0x00, 0x00, 0x00,
  0x7c, 0x00, 0x00, 0x00, 0x05, 0x00, 0x00, 0x00, 0x00, 0x00, 0x00, 0x02,
  0x88, 0x00, 0x00, 0x00, 0x8c, 0xfe, 0xff, 0xff, 0x08, 0x00, 0x00, 0x00,
  0x44, 0x00, 0x00, 0x00, 0x07, 0x00, 0x00, 0x00, 0x00, 0x00, 0x00, 0x00,
  0x00, 0x00, 0x00, 0x00, 0x00, 0x00, 0x00, 0x00, 0x00, 0x00, 0x00, 0x00,
  0x00, 0x00, 0x00, 0x00, 0x00, 0x00, 0x00, 0x00, 0x00, 0x00, 0x00, 0x00,
  0x00, 0x00, 0x00, 0x00, 0x00, 0x00, 0x00, 0x00, 0x00, 0x00, 0x00, 0x00,
  0x00, 0x00, 0x00, 0x00, 0x00, 0x00, 0x00, 0x00, 0x00, 0x00, 0x00, 0x00,
  0x00, 0x00, 0x00, 0x00, 0x00, 0x00, 0x00, 0x00, 0x07, 0x00, 0x00, 0x00,
  0xcc, 0x93, 0xe8, 0x39, 0xe1, 0x4d, 0xe7, 0x39, 0xe7, 0x3e, 0xfe, 0x39,
  0x9e, 0x1c, 0x13, 0x3a, 0x55, 0x59, 0xc0, 0x39, 0x46, 0xb7, 0x03, 0x3a,
  0xa8, 0xad, 0xe4, 0x39, 0x11, 0x00, 0x00, 0x00, 0x74, 0x66, 0x6c, 0x2e,
  0x70, 0x73, 0x65, 0x75, 0x64, 0x6f, 0x5f, 0x71, 0x63, 0x6f, 0x6e, 0x73,
  0x74, 0x00, 0x00, 0x00, 0x01, 0x00, 0x00, 0x00, 0x07, 0x00, 0x00, 0x00,
  0x4a, 0xff, 0xff, 0xff, 0x00, 0x00, 0x00, 0x01, 0x14, 0x00, 0x00, 0x00,
  0x14, 0x00, 0x00, 0x00, 0x04, 0x00, 0x00, 0x00, 0x00, 0x00, 0x00, 0x02,
  0x1c, 0x00, 0x00, 0x00, 0x8c, 0xff, 0xff, 0xff, 0x0f, 0x00, 0x00, 0x00,
  0x61, 0x72, 0x69, 0x74, 0x68, 0x2e, 0x63, 0x6f, 0x6e, 0x73, 0x74, 0x61,
  0x6e, 0x74, 0x32, 0x00, 0x00, 0x00, 0x00, 0x00, 0x82, 0xff, 0xff, 0xff,
  0x00, 0x00, 0x00, 0x01, 0x14, 0x00, 0x00, 0x00, 0x14, 0x00, 0x00, 0x00,
  0x03, 0x00, 0x00, 0x00, 0x00, 0x00, 0x00, 0x02, 0x1c, 0x00, 0x00, 0x00,
  0xc4, 0xff, 0xff, 0xff, 0x0f, 0x00, 0x00, 0x00, 0x61, 0x72, 0x69, 0x74,
  0x68, 0x2e, 0x63, 0x6f, 0x6e, 0x73, 0x74, 0x61, 0x6e, 0x74, 0x31, 0x00,
  0x01, 0x00, 0x00, 0x00, 0x03, 0x00, 0x00, 0x00, 0xbe, 0xff, 0xff, 0xff,
  0x00, 0x00, 0x00, 0x01, 0x18, 0x00, 0x00, 0x00, 0x18, 0x00, 0x00, 0x00,
  0x02, 0x00, 0x00, 0x00, 0x00, 0x00, 0x00, 0x02, 0x20, 0x00, 0x00, 0x00,
  0x04, 0x00, 0x04, 0x00, 0x04, 0x00, 0x00, 0x00, 0x0e, 0x00, 0x00, 0x00,
  0x61, 0x72, 0x69, 0x74, 0x68, 0x2e, 0x63, 0x6f, 0x6e, 0x73, 0x74, 0x61,
  0x6e, 0x74, 0x00, 0x00, 0x01, 0x00, 0x00, 0x00, 0x04, 0x00, 0x00, 0x00,
  0x00, 0x00, 0x16, 0x00, 0x1c, 0x00, 0x18, 0x00, 0x17, 0x00, 0x10, 0x00,
  0x0c, 0x00, 0x08, 0x00, 0x00, 0x00, 0x00, 0x00, 0x00, 0x00, 0x07, 0x00,
  0x16, 0x00, 0x00, 0x00, 0x00, 0x00, 0x00, 0x01, 0x20, 0x00, 0x00, 0x00,
  0x40, 0x00, 0x00, 0x00, 0x01, 0x00, 0x00, 0x00, 0x00, 0x00, 0x00, 0x09,
  0x5c, 0x00, 0x00, 0x00, 0x0c, 0x00, 0x0c, 0x00, 0x00, 0x00, 0x00, 0x00,
  0x08, 0x00, 0x04, 0x00, 0x0c, 0x00, 0x00, 0x00, 0x08, 0x00, 0x00, 0x00,
  0x14, 0x00, 0x00, 0x00, 0x01, 0x00, 0x00, 0x00, 0x00, 0x00, 0x00, 0x00,
  0x00, 0x00, 0x00, 0x00, 0x00, 0x00, 0x00, 0x00, 0x01, 0x00, 0x00, 0x00,
  0x71, 0x0d, 0x8b, 0x3d, 0x22, 0x00, 0x00, 0x00, 0x73, 0x65, 0x72, 0x76,
  0x69, 0x6e, 0x67, 0x5f, 0x64, 0x65, 0x66, 0x61, 0x75, 0x6c, 0x74, 0x5f,
  0x6b, 0x65, 0x72, 0x61, 0x73, 0x5f, 0x74, 0x65, 0x6e, 0x73, 0x6f, 0x72,
  0x5f, 0x31, 0x38, 0x32, 0x3a, 0x30, 0x00, 0x00, 0x03, 0x00, 0x00, 0x00,
  0x01, 0x00, 0x00, 0x00, 0xf4, 0x01, 0x00, 0x00, 0x06, 0x00, 0x00, 0x00,
  0x05, 0x00, 0x00, 0x00, 0x6c, 0x00, 0x00, 0x00, 0x4c, 0x00, 0x00, 0x00,
  0x2c, 0x00, 0x00, 0x00, 0x18, 0x00, 0x00, 0x00, 0x04, 0x00, 0x00, 0x00,
  0xd0, 0xff, 0xff, 0xff, 0x19, 0x00, 0x00, 0x00, 0x02, 0x00, 0x00, 0x00,
  0x00, 0x00, 0x00, 0x19, 0xe0, 0xff, 0xff, 0xff, 0x09, 0x00, 0x00, 0x00,
  0x04, 0x00, 0x00, 0x00, 0x00, 0x00, 0x00, 0x09, 0xf0, 0xff, 0xff, 0xff,
  0x28, 0x00, 0x00, 0x00, 0x02, 0x00, 0x00, 0x00, 0x00, 0x00, 0x00, 0x28,
  0x0c, 0x00, 0x10, 0x00, 0x0f, 0x00, 0x00, 0x00, 0x08, 0x00, 0x04, 0x00,
  0x0c, 0x00, 0x00, 0x00, 0x03, 0x00, 0x00, 0x00, 0x03, 0x00, 0x00, 0x00,
  0x00, 0x00, 0x00, 0x03, 0x0c, 0x00, 0x0c, 0x00, 0x0b, 0x00, 0x00, 0x00,
  0x00, 0x00, 0x04, 0x00, 0x0c, 0x00, 0x00, 0x00, 0x16, 0x00, 0x00, 0x00,
  0x00, 0x00, 0x00, 0x16
};
inline const unsigned int gesture_model_3_tflite_len = 8824;
